{
  "version": "1.0",
  "truncation": null,
  "padding": null,
  "added_tokens": [
    {
      "id": 0,
      "content": "<unk>",
      "single_word": false,
      "lstrip": false,
      "rstrip": false,
      "normalized": false,
      "special": true
    }
  ],
  "normalizer": {
    "type": "NFKC"
  },
  "pre_tokenizer": {
    "type": "Metaspace",
    "replacement": "▁",
    "add_prefix_space": true
  },
  "post_processor": null,
  "decoder": {
    "type": "Metaspace",
    "replacement": "▁",
    "add_prefix_space": true
  },
  "model": {
    "type": "BPE",
    "dropout": null,
    "unk_token": "<unk>",
    "continuing_subword_prefix": null,
    "end_of_word_suffix": null,
    "fuse_unk": false,
    "byte_fallback": false,
    "vocab": {
      "<unk>": 0,
      "\u0005": 1,
      "\u0006": 2,
      "\u0007": 3,
      "\b": 4,
      "\t": 5,
      "\n": 6,
      "!": 7,
      "\"": 8,
      "#": 9,
      "$": 10,
      "%": 11,
      "&": 12,
      "'": 13,
      "(": 14,
      ")": 15,
      "*": 16,
      "+": 17,
      ",": 18,
      "-": 19,
      ".": 20,
      "/": 21,
      "0": 22,
      "1": 23,
      "2": 24,
      "3": 25,
      "4": 26,
      "5": 27,
      "6": 28,
      "7": 29,
      "8": 30,
      "9": 31,
      ":": 32,
      ";": 33,
      "<": 34,
      "=": 35,
      ">": 36,
      "?": 37,
      "@": 38,
      "A": 39,
      "B": 40,
      "C": 41,
      "D": 42,
      "E": 43,
      "F": 44,
      "G": 45,
      "H": 46,
      "I": 47,
      "J": 48,
      "K": 49,
      "L": 50,
      "M": 51,
      "N": 52,
      "O": 53,
      "P": 54,
      "Q": 55,
      "R": 56,
      "S": 57,
      "T": 58,
      "U": 59,
      "V": 60,
      "W": 61,
      "X": 62,
      "Y": 63,
      "Z": 64,
      "[": 65,
      "\\": 66,
      "]": 67,
      "^": 68,
      "_": 69,
      "`": 70,
      "a": 71,
      "b": 72,
      "c": 73,
      "d": 74,
      "e": 75,
      "f": 76,
      "g": 77,
      "h": 78,
      "i": 79,
      "j": 80,
      "k": 81,
      "l": 82,
      "m": 83,
      "n": 84,
      "o": 85,
      "p": 86,
      "q": 87,
      "r": 88,
      "s": 89,
      "t": 90,
      "u": 91,
      "v": 92,
      "w": 93,
      "x": 94,
      "y": 95,
      "z": 96,
      "{": 97,
      "|": 98,
      "}": 99,
      "~": 100,
      "": 101,
      "": 102,
      "": 103,
      "£": 104,
      "¤": 105,
      "¥": 106,
      "§": 107,
      "©": 108,
      "«": 109,
      "¬": 110,
      "­": 111,
      "®": 112,
      "°": 113,
      "±": 114,
      "·": 115,
      "»": 116,
      "Ã": 117,
      "Ç": 118,
      "È": 119,
      "É": 120,
      "Ï": 121,
      "Ô": 122,
      "Ö": 123,
      "×": 124,
      "Ø": 125,
      "Û": 126,
      "Ü": 127,
      "Þ": 128,
      "ß": 129,
      "à": 130,
      "á": 131,
      "â": 132,
      "ã": 133,
      "ä": 134,
      "å": 135,
      "æ": 136,
      "ç": 137,
      "è": 138,
      "é": 139,
      "ê": 140,
      "ë": 141,
      "ì": 142,
      "í": 143,
      "î": 144,
      "ð": 145,
      "ñ": 146,
      "ò": 147,
      "ó": 148,
      "ô": 149,
      "õ": 150,
      "ö": 151,
      "÷": 152,
      "ø": 153,
      "ú": 154,
      "ü": 155,
      "ý": 156,
      "ā": 157,
      "ă": 158,
      "ą": 159,
      "ć": 160,
      "Č": 161,
      "č": 162,
      "đ": 163,
      "ę": 164,
      "ě": 165,
      "ğ": 166,
      "İ": 167,
      "ı": 168,
      "ł": 169,
      "ń": 170,
      "ő": 171,
      "Œ": 172,
      "œ": 173,
      "ř": 174,
      "ś": 175,
      "ş": 176,
      "Š": 177,
      "š": 178,
      "ů": 179,
      "ų": 180,
      "ż": 181,
      "ž": 182,
      "ơ": 183,
      "ư": 184,
      "ɑ": 185,
      "ɔ": 186,
      "ə": 187,
      "ɛ": 188,
      "ɪ": 189,
      "ʃ": 190,
      "ʊ": 191,
      "ʻ": 192,
      "ʼ": 193,
      "ˆ": 194,
      "ˈ": 195,
      "ː": 196,
      "́": 197,
      "̃": 198,
      "̈": 199,
      "̊": 200,
      "̧": 201,
      "̭": 202,
      "Α": 203,
      "Ε": 204,
      "Η": 205,
      "Ι": 206,
      "Ν": 207,
      "Ο": 208,
      "Σ": 209,
      "Τ": 210,
      "ά": 211,
      "έ": 212,
      "ί": 213,
      "α": 214,
      "β": 215,
      "γ": 216,
      "δ": 217,
      "ε": 218,
      "η": 219,
      "ι": 220,
      "κ": 221,
      "λ": 222,
      "μ": 223,
      "ν": 224,
      "ο": 225,
      "π": 226,
      "ρ": 227,
      "ς": 228,
      "σ": 229,
      "τ": 230,
      "υ": 231,
      "ό": 232,
      "ύ": 233,
      "А": 234,
      "Б": 235,
      "В": 236,
      "Г": 237,
      "Д": 238,
      "Е": 239,
      "Ж": 240,
      "З": 241,
      "И": 242,
      "К": 243,
      "Л": 244,
      "М": 245,
      "Н": 246,
      "О": 247,
      "П": 248,
      "Р": 249,
      "С": 250,
      "Т": 251,
      "У": 252,
      "Ф": 253,
      "Х": 254,
      "Ц": 255,
      "Ч": 256,
      "Ш": 257,
      "Э": 258,
      "Я": 259,
      "а": 260,
      "б": 261,
      "в": 262,
      "г": 263,
      "д": 264,
      "е": 265,
      "ж": 266,
      "з": 267,
      "и": 268,
      "й": 269,
      "к": 270,
      "л": 271,
      "м": 272,
      "н": 273,
      "о": 274,
      "п": 275,
      "р": 276,
      "с": 277,
      "т": 278,
      "у": 279,
      "ф": 280,
      "х": 281,
      "ц": 282,
      "ч": 283,
      "ш": 284,
      "щ": 285,
      "ъ": 286,
      "ы": 287,
      "ь": 288,
      "э": 289,
      "ю": 290,
      "я": 291,
      "ё": 292,
      "і": 293,
      "ї": 294,
      "ү": 295,
      "ө": 296,
      "ա": 297,
      "ն": 298,
      "א": 299,
      "ב": 300,
      "ו": 301,
      "י": 302,
      "ל": 303,
      "מ": 304,
      "ר": 305,
      "ש": 306,
      "ת": 307,
      "،": 308,
      "آ": 309,
      "أ": 310,
      "إ": 311,
      "ئ": 312,
      "ا": 313,
      "ب": 314,
      "ة": 315,
      "ت": 316,
      "ج": 317,
      "ح": 318,
      "خ": 319,
      "د": 320,
      "ذ": 321,
      "ر": 322,
      "ز": 323,
      "س": 324,
      "ش": 325,
      "ص": 326,
      "ض": 327,
      "ط": 328,
      "ظ": 329,
      "ع": 330,
      "غ": 331,
      "ـ": 332,
      "ف": 333,
      "ق": 334,
      "ك": 335,
      "ل": 336,
      "م": 337,
      "ن": 338,
      "ه": 339,
      "و": 340,
      "ى": 341,
      "ي": 342,
      "ٹ": 343,
      "پ": 344,
      "ک": 345,
      "گ": 346,
      "ں": 347,
      "ھ": 348,
      "ہ": 349,
      "ی": 350,
      "ے": 351,
      "ँ": 352,
      "ं": 353,
      "ः": 354,
      "अ": 355,
      "आ": 356,
      "इ": 357,
      "ई": 358,
      "उ": 359,
      "ऊ": 360,
      "ऋ": 361,
      "ऎ": 362,
      "ए": 363,
      "ऐ": 364,
      "ऑ": 365,
      "ओ": 366,
      "औ": 367,
      "क": 368,
      "ख": 369,
      "ग": 370,
      "घ": 371,
      "ङ": 372,
      "च": 373,
      "छ": 374,
      "ज": 375,
      "झ": 376,
      "ञ": 377,
      "ट": 378,
      "ठ": 379,
      "ड": 380,
      "ढ": 381,
      "ण": 382,
      "त": 383,
      "थ": 384,
      "द": 385,
      "ध": 386,
      "न": 387,
      "ऩ": 388,
      "प": 389,
      "फ": 390,
      "ब": 391,
      "भ": 392,
      "म": 393,
      "य": 394,
      "र": 395,
      "ऱ": 396,
      "ल": 397,
      "ळ": 398,
      "व": 399,
      "श": 400,
      "ष": 401,
      "स": 402,
      "ह": 403,
      "़": 404,
      "ऽ": 405,
      "ा": 406,
      "ि": 407,
      "ी": 408,
      "ु": 409,
      "ू": 410,
      "ृ": 411,
      "ॅ": 412,
      "ॆ": 413,
      "े": 414,
      "ै": 415,
      "ॉ": 416,
      "ॊ": 417,
      "ो": 418,
      "ौ": 419,
      "्": 420,
      "ॐ": 421,
      "ॠ": 422,
      "।": 423,
      "॥": 424,
      "०": 425,
      "१": 426,
      "२": 427,
      "३": 428,
      "४": 429,
      "५": 430,
      "६": 431,
      "७": 432,
      "८": 433,
      "९": 434,
      "॰": 435,
      "ক": 436,
      "গ": 437,
      "ছ": 438,
      "জ": 439,
      "ত": 440,
      "দ": 441,
      "ধ": 442,
      "ন": 443,
      "প": 444,
      "ব": 445,
      "ম": 446,
      "য": 447,
      "র": 448,
      "ল": 449,
      "স": 450,
      "হ": 451,
      "়": 452,
      "া": 453,
      "ি": 454,
      "ু": 455,
      "ে": 456,
      "ো": 457,
      "্": 458,
      "ਂ": 459,
      "ਕ": 460,
      "ਖ": 461,
      "ਗ": 462,
      "ਜ": 463,
      "ਤ": 464,
      "ਦ": 465,
      "ਨ": 466,
      "ਪ": 467,
      "ਬ": 468,
      "ਮ": 469,
      "ਰ": 470,
      "ਲ": 471,
      "ਵ": 472,
      "ਸ": 473,
      "ਹ": 474,
      "ਾ": 475,
      "ਿ": 476,
      "ੀ": 477,
      "ੁ": 478,
      "ੂ": 479,
      "ੇ": 480,
      "ੈ": 481,
      "ੋ": 482,
      "ੰ": 483,
      "்": 484,
      "ക": 485,
      "ട": 486,
      "ത": 487,
      "ന": 488,
      "പ": 489,
      "മ": 490,
      "യ": 491,
      "ര": 492,
      "റ": 493,
      "വ": 494,
      "സ": 495,
      "ാ": 496,
      "ി": 497,
      "ു": 498,
      "ോ": 499,
      "്": 500,
      "ก": 501,
      "ข": 502,
      "ค": 503,
      "ง": 504,
      "จ": 505,
      "ช": 506,
      "ณ": 507,
      "ด": 508,
      "ต": 509,
      "ท": 510,
      "น": 511,
      "บ": 512,
      "ป": 513,
      "พ": 514,
      "ม": 515,
      "ย": 516,
      "ร": 517,
      "ล": 518,
      "ว": 519,
      "ส": 520,
      "ห": 521,
      "อ": 522,
      "ะ": 523,
      "ั": 524,
      "า": 525,
      "ิ": 526,
      "ี": 527,
      "ื": 528,
      "ุ": 529,
      "ู": 530,
      "เ": 531,
      "แ": 532,
      "โ": 533,
      "ใ": 534,
      "ไ": 535,
      "็": 536,
      "่": 537,
      "้": 538,
      "์": 539,
      "ํ": 540,
      "ა": 541,
      "ბ": 542,
      "გ": 543,
      "დ": 544,
      "ე": 545,
      "ვ": 546,
      "ზ": 547,
      "თ": 548,
      "ი": 549,
      "კ": 550,
      "ლ": 551,
      "მ": 552,
      "ნ": 553,
      "ო": 554,
      "რ": 555,
      "ს": 556,
      "ტ": 557,
      "უ": 558,
      "ქ": 559,
      "ღ": 560,
      "შ": 561,
      "ც": 562,
      "ხ": 563,
      "ក": 564,
      "ង": 565,
      "ច": 566,
      "ត": 567,
      "ន": 568,
      "ប": 569,
      "ម": 570,
      "យ": 571,
      "រ": 572,
      "ល": 573,
      "ស": 574,
      "ា": 575,
      "ែ": 576,
      "្": 577,
      "ạ": 578,
      "ả": 579,
      "ấ": 580,
      "ắ": 581,
      "ế": 582,
      "ệ": 583,
      "ố": 584,
      "ộ": 585,
      "ữ": 586,
      "ự": 587,
      "​": 588,
      "‌": 589,
      "‍": 590,
      "‎": 591,
      "‐": 592,
      "–": 593,
      "—": 594,
      "―": 595,
      "‘": 596,
      "’": 597,
      "‚": 598,
      "‛": 599,
      "“": 600,
      "”": 601,
      "„": 602,
      "†": 603,
      "•": 604,
      " ": 605,
      "‪": 606,
      "‬": 607,
      "‰": 608,
      "′": 609,
      "‹": 610,
      "›": 611,
      "⁄": 612,
      "€": 613,
      "←": 614,
      "↑": 615,
      "→": 616,
      "⇒": 617,
      "−": 618,
      "∕": 619,
      "∙": 620,
      "√": 621,
      "≈": 622,
      "│": 623,
      "▁": 624,
      "■": 625,
      "▪": 626,
      "►": 627,
      "●": 628,
      "♦": 629,
      "✉": 630,
      "✓": 631,
      "、": 632,
      "。": 633,
      "《": 634,
      "》": 635,
      "「": 636,
      "」": 637,
      "【": 638,
      "】": 639,
      "あ": 640,
      "い": 641,
      "う": 642,
      "え": 643,
      "お": 644,
      "か": 645,
      "が": 646,
      "き": 647,
      "く": 648,
      "け": 649,
      "こ": 650,
      "ご": 651,
      "さ": 652,
      "し": 653,
      "す": 654,
      "せ": 655,
      "そ": 656,
      "た": 657,
      "だ": 658,
      "ち": 659,
      "っ": 660,
      "つ": 661,
      "て": 662,
      "で": 663,
      "と": 664,
      "ど": 665,
      "な": 666,
      "に": 667,
      "の": 668,
      "は": 669,
      "ま": 670,
      "み": 671,
      "め": 672,
      "も": 673,
      "や": 674,
      "よ": 675,
      "ら": 676,
      "り": 677,
      "る": 678,
      "れ": 679,
      "ろ": 680,
      "わ": 681,
      "を": 682,
      "ん": 683,
      "ア": 684,
      "ィ": 685,
      "イ": 686,
      "ウ": 687,
      "ェ": 688,
      "エ": 689,
      "オ": 690,
      "カ": 691,
      "キ": 692,
      "ク": 693,
      "グ": 694,
      "コ": 695,
      "サ": 696,
      "シ": 697,
      "ジ": 698,
      "ス": 699,
      "タ": 700,
      "ダ": 701,
      "チ": 702,
      "ッ": 703,
      "テ": 704,
      "デ": 705,
      "ト": 706,
      "ド": 707,
      "ニ": 708,
      "ネ": 709,
      "バ": 710,
      "ビ": 711,
      "フ": 712,
      "ブ": 713,
      "プ": 714,
      "マ": 715,
      "ミ": 716,
      "ム": 717,
      "ャ": 718,
      "ュ": 719,
      "ラ": 720,
      "リ": 721,
      "ル": 722,
      "レ": 723,
      "ロ": 724,
      "ン": 725,
      "・": 726,
      "ー": 727,
      "一": 728,
      "万": 729,
      "三": 730,
      "上": 731,
      "下": 732,
      "不": 733,
      "与": 734,
      "世": 735,
      "业": 736,
      "两": 737,
      "个": 738,
      "中": 739,
      "为": 740,
      "主": 741,
      "之": 742,
      "也": 743,
      "了": 744,
      "事": 745,
      "于": 746,
      "交": 747,
      "产": 748,
      "京": 749,
      "人": 750,
      "今": 751,
      "他": 752,
      "以": 753,
      "们": 754,
      "件": 755,
      "会": 756,
      "体": 757,
      "何": 758,
      "作": 759,
      "你": 760,
      "使": 761,
      "信": 762,
      "做": 763,
      "先": 764,
      "光": 765,
      "入": 766,
      "全": 767,
      "公": 768,
      "关": 769,
      "其": 770,
      "内": 771,
      "円": 772,
      "出": 773,
      "分": 774,
      "利": 775,
      "到": 776,
      "制": 777,
      "前": 778,
      "力": 779,
      "加": 780,
      "动": 781,
      "動": 782,
      "化": 783,
      "北": 784,
      "区": 785,
      "去": 786,
      "及": 787,
      "发": 788,
      "取": 789,
      "口": 790,
      "只": 791,
      "可": 792,
      "合": 793,
      "同": 794,
      "名": 795,
      "告": 796,
      "和": 797,
      "品": 798,
      "員": 799,
      "商": 800,
      "器": 801,
      "回": 802,
      "因": 803,
      "国": 804,
      "在": 805,
      "地": 806,
      "坪": 807,
      "報": 808,
      "場": 809,
      "外": 810,
      "多": 811,
      "大": 812,
      "天": 813,
      "头": 814,
      "她": 815,
      "好": 816,
      "如": 817,
      "子": 818,
      "学": 819,
      "安": 820,
      "定": 821,
      "实": 822,
      "実": 823,
      "家": 824,
      "对": 825,
      "将": 826,
      "小": 827,
      "少": 828,
      "就": 829,
      "展": 830,
      "山": 831,
      "工": 832,
      "已": 833,
      "市": 834,
      "师": 835,
      "常": 836,
      "平": 837,
      "年": 838,
      "广": 839,
      "店": 840,
      "度": 841,
      "开": 842,
      "式": 843,
      "当": 844,
      "形": 845,
      "影": 846,
      "得": 847,
      "心": 848,
      "思": 849,
      "性": 850,
      "情": 851,
      "想": 852,
      "意": 853,
      "感": 854,
      "成": 855,
      "我": 856,
      "所": 857,
      "手": 858,
      "持": 859,
      "摄": 860,
      "放": 861,
      "教": 862,
      "文": 863,
      "料": 864,
      "新": 865,
      "方": 866,
      "族": 867,
      "日": 868,
      "时": 869,
      "明": 870,
      "是": 871,
      "時": 872,
      "更": 873,
      "最": 874,
      "月": 875,
      "有": 876,
      "望": 877,
      "期": 878,
      "本": 879,
      "术": 880,
      "机": 881,
      "材": 882,
      "来": 883,
      "果": 884,
      "样": 885,
      "業": 886,
      "様": 887,
      "次": 888,
      "正": 889,
      "气": 890,
      "水": 891,
      "求": 892,
      "没": 893,
      "法": 894,
      "注": 895,
      "活": 896,
      "海": 897,
      "点": 898,
      "無": 899,
      "物": 900,
      "特": 901,
      "现": 902,
      "理": 903,
      "生": 904,
      "用": 905,
      "由": 906,
      "画": 907,
      "界": 908,
      "発": 909,
      "的": 910,
      "目": 911,
      "相": 912,
      "看": 913,
      "県": 914,
      "着": 915,
      "知": 916,
      "示": 917,
      "社": 918,
      "种": 919,
      "第": 920,
      "等": 921,
      "管": 922,
      "系": 923,
      "素": 924,
      "经": 925,
      "者": 926,
      "而": 927,
      "育": 928,
      "能": 929,
      "自": 930,
      "艺": 931,
      "行": 932,
      "表": 933,
      "西": 934,
      "要": 935,
      "見": 936,
      "解": 937,
      "言": 938,
      "記": 939,
      "认": 940,
      "说": 941,
      "起": 942,
      "过": 943,
      "还": 944,
      "这": 945,
      "送": 946,
      "通": 947,
      "道": 948,
      "部": 949,
      "都": 950,
      "酒": 951,
      "里": 952,
      "重": 953,
      "量": 954,
      "金": 955,
      "長": 956,
      "长": 957,
      "開": 958,
      "間": 959,
      "间": 960,
      "限": 961,
      "面": 962,
      "香": 963,
      "駅": 964,
      "高": 965,
      "기": 966,
      "는": 967,
      "니": 968,
      "다": 969,
      "서": 970,
      "시": 971,
      "에": 972,
      "을": 973,
      "의": 974,
      "이": 975,
      "인": 976,
      "지": 977,
      "하": 978,
      "한": 979,
      "": 980,
      "": 981,
      "": 982,
      "": 983,
      "": 984,
      "": 985,
      "": 986,
      "": 987,
      "": 988,
      "": 989,
      "": 990,
      "": 991,
      "": 992,
      "": 993,
      "﻿": 994,
      "�": 995,
      "🌹": 996,
      "👉": 997,
      "👱": 998,
      "💿": 999,
      "🙂": 1000,
      "▁स": 1001,
      "को": 1002,
      "मा": 1003,
      "का": 1004,
      "र्": 1005,
      "▁प": 1006,
      "्र": 1007,
      "न्": 1008,
      "▁ग": 1009,
      "ने": 1010,
      "▁र": 1011,
      "▁।": 1012,
      "ले": 1013,
      "्य": 1014,
      "ला": 1015,
      "▁ब": 1016,
      "▁भ": 1017,
      "▁अ": 1018,
      "▁क": 1019,
      "▁ह": 1020,
      "▁व": 1021,
      "▁न": 1022,
      "ार": 1023,
      "▁छ": 1024,
      "▁म": 1025,
      "▁त": 1026,
      "▁द": 1027,
      "▁आ": 1028,
      "▁ज": 1029,
      "▁प्र": 1030,
      "ाल": 1031,
      "स्": 1032,
      "ति": 1033,
      "ता": 1034,
      "क्": 1035,
      "ान": 1036,
      "▁उ": 1037,
      "यो": 1038,
      "एको": 1039,
      "ना": 1040,
      "▁गर": 1041,
      "▁का": 1042,
      "नि": 1043,
      "▁वि": 1044,
      "हर": 1045,
      "▁गर्": 1046,
      "त्र": 1047,
      "म्": 1048,
      "लाई": 1049,
      "नु": 1050,
      "ेको": 1051,
      "वा": 1052,
      "▁य": 1053,
      "िक": 1054,
      "▁हु": 1055,
      "▁च": 1056,
      "ित": 1057,
      "▁।\n": 1058,
      "था": 1059,
      "रा": 1060,
      "▁मा": 1061,
      "▁नि": 1062,
      "▁रा": 1063,
      "▁श": 1064,
      "▁ला": 1065,
      "▁ल": 1066,
      "▁ख": 1067,
      "्या": 1068,
      "या": 1069,
      "री": 1070,
      "▁ने": 1071,
      "न्द": 1072,
      "▁ए": 1073,
      "पाल": 1074,
      "त्": 1075,
      "क्ष": 1076,
      "ल्": 1077,
      "▁पनि": 1078,
      "▁सा": 1079,
      "▁सं": 1080,
      "▁थ": 1081,
      "▁स्": 1082,
      "ेर": 1083,
      "हि": 1084,
      "बा": 1085,
      "▁दि": 1086,
      "ेश": 1087,
      "हरु": 1088,
      "▁सम": 1089,
      "ाउ": 1090,
      "ष्": 1091,
      "ुर": 1092,
      "▁लाग": 1093,
      "▁नेपाल": 1094,
      "दै": 1095,
      "नी": 1096,
      "हा": 1097,
      "र्य": 1098,
      "दा": 1099,
      "▁हो": 1100,
      "िका": 1101,
      "ेका": 1102,
      "▁थि": 1103,
      "न्छ": 1104,
      "▁फ": 1105,
      "रि": 1106,
      "एका": 1107,
      "स्त": 1108,
      "▁त्य": 1109,
      "▁भएको": 1110,
      "बाट": 1111,
      "पा": 1112,
      "द्": 1113,
      "▁१": 1114,
      "▁२": 1115,
      "▁भने": 1116,
      "ाम": 1117,
      "▁पा": 1118,
      "कार": 1119,
      "▁सम्": 1120,
      "▁छन्": 1121,
      "वि": 1122,
      "▁रह": 1123,
      "▁के": 1124,
      "ष्ट": 1125,
      "हरू": 1126,
      "ेख": 1127,
      "▁कार्य": 1128,
      "▁निर्": 1129,
      "भा": 1130,
      "▁गरि": 1131,
      "▁घ": 1132,
      "▁कु": 1133,
      "▁लागि": 1134,
      "न्त्र": 1135,
      "▁पु": 1136,
      "लो": 1137,
      "सा": 1138,
      "▁ध": 1139,
      "क्र": 1140,
      "रण": 1141,
      "्न": 1142,
      "ेल": 1143,
      "ही": 1144,
      "छि": 1145,
      "ीय": 1146,
      "▁गरेको": 1147,
      "▁यस": 1148,
      "▁गर्ने": 1149,
      "न्त": 1150,
      "▁ट": 1151,
      "▁गर्न": 1152,
      "र्ष": 1153,
      "▁यो": 1154,
      "▁एक": 1155,
      "▁सु": 1156,
      "▁बा": 1157,
      "गा": 1158,
      "▁आफ": 1159,
      "ारी": 1160,
      "स्था": 1161,
      "्च": 1162,
      "..": 1163,
      "िय": 1164,
      "▁अध": 1165,
      "देश": 1166,
      "▁प्रति": 1167,
      "▁तथा": 1168,
      "टा": 1169,
      "ली": 1170,
      "धान": 1171,
      "▁व्य": 1172,
      "डा": 1173,
      "▁सर": 1174,
      "िन": 1175,
      "▁राज": 1176,
      "▁क्": 1177,
      "ेखि": 1178,
      "ुप": 1179,
      "▁बि": 1180,
      "▁‘": 1181,
      "▁थियो": 1182,
      "ँग": 1183,
      "▁को": 1184,
      "▁सह": 1185,
      "योग": 1186,
      "्रो": 1187,
      "▁उन": 1188,
      "ण्": 1189,
      "द्ध": 1190,
      "पर्": 1191,
      "▁दु": 1192,
      "▁हुने": 1193,
      "न्न": 1194,
      "पछि": 1195,
      "की": 1196,
      "गर": 1197,
      "रह": 1198,
      "▁अनु": 1199,
      "कि": 1200,
      "▁मु": 1201,
      "रो": 1202,
      "ौं": 1203,
      "▁बता": 1204,
      "म्म": 1205,
      "भि": 1206,
      "एर": 1207,
      "▁बढ": 1208,
      "▁नै": 1209,
      "डि": 1210,
      "र्थ": 1211,
      "▁उप": 1212,
      "ीले": 1213,
      "ङ्": 1214,
      "िल्": 1215,
      "▁क्ष": 1216,
      "▁तर": 1217,
      "▁सि": 1218,
      "ालय": 1219,
      "ीको": 1220,
      "▁त्यस": 1221,
      "ंग": 1222,
      "▁वा": 1223,
      "।\n": 1224,
      "र्व": 1225,
      "्व": 1226,
      "▁वर्ष": 1227,
      "ेत": 1228,
      "क्त": 1229,
      "ष्ट्र": 1230,
      "ेस": 1231,
      "ेट": 1232,
      "स्थ": 1233,
      "▁अव": 1234,
      "ण्ड": 1235,
      "▁भन्": 1236,
      "▁ठ": 1237,
      "बार": 1238,
      "ाउँ": 1239,
      "सँग": 1240,
      "▁काम": 1241,
      "सि": 1242,
      "न्द्र": 1243,
      "▁सरकार": 1244,
      "प्": 1245,
      "नमा": 1246,
      "कारी": 1247,
      "▁परि": 1248,
      "▁थिए": 1249,
      "▁स्थ": 1250,
      "जा": 1251,
      "प्र": 1252,
      "▁हाम": 1253,
      "▁रहेको": 1254,
      "▁बना": 1255,
      "▁इ": 1256,
      "सार": 1257,
      "▁लि": 1258,
      "न्य": 1259,
      "न्ध": 1260,
      "क्रम": 1261,
      "जार": 1262,
      "ठमा": 1263,
      "बै": 1264,
      "नुपर्": 1265,
      "हाँ": 1266,
      "न्दा": 1267,
      "लि": 1268,
      "ेत्र": 1269,
      "जना": 1270,
      "▁विश": 1271,
      "▁२०": 1272,
      "याँ": 1273,
      "▁समा": 1274,
      "टी": 1275,
      "ाइ": 1276,
      "▁काठमा": 1277,
      "तिक": 1278,
      "नको": 1279,
      "मु": 1280,
      "▁से": 1281,
      "▁रुप": 1282,
      "नुभ": 1283,
      "▁जन": 1284,
      "ँदै": 1285,
      "▁क्षेत्र": 1286,
      "▁भए": 1287,
      "▁नेपाली": 1288,
      "द्य": 1289,
      "सी": 1290,
      "उने": 1291,
      "▁व्यव": 1292,
      "▁सबै": 1293,
      "ती": 1294,
      "हिले": 1295,
      "▁कि": 1296,
      "▁जा": 1297,
      "▁प्रा": 1298,
      "▁जना": 1299,
      "्ने": 1300,
      "ुरु": 1301,
      "▁गरेका": 1302,
      "▁सो": 1303,
      "स्ता": 1304,
      "ैन": 1305,
      "▁काठमाड": 1306,
      "हु": 1307,
      "क्षा": 1308,
      "म्प": 1309,
      "िम": 1310,
      "दी": 1311,
      "ानी": 1312,
      "धार": 1313,
      "▁पू": 1314,
      "▁हुन्छ": 1315,
      "▁मि": 1316,
      "▁मात्र": 1317,
      "उन": 1318,
      "धि": 1319,
      "ेला": 1320,
      "माण": 1321,
      "सम्म": 1322,
      "▁पर्": 1323,
      "▁३": 1324,
      "ोज": 1325,
      "र्म": 1326,
      "▁भएका": 1327,
      "▁ना": 1328,
      "क्ति": 1329,
      "न्त्री": 1330,
      "▁भन्ने": 1331,
      "▁(": 1332,
      "ञ्च": 1333,
      "▁आफ्न": 1334,
      "चार": 1335,
      "▁देखि": 1336,
      "▁राष्ट्र": 1337,
      "▁उनी": 1338,
      "▁बु": 1339,
      "▁स्थान": 1340,
      "▁मह": 1341,
      "▁बै": 1342,
      "ध्य": 1343,
      "▁कुरा": 1344,
      "▁पार्": 1345,
      "सक": 1346,
      "दि": 1347,
      "▁गरिएको": 1348,
      "▁कार्यक्रम": 1349,
      "▁दिन": 1350,
      "▁उत्": 1351,
      "वार": 1352,
      "▁अध्य": 1353,
      "▁ड": 1354,
      "र्ण": 1355,
      "नै": 1356,
      "▁गरी": 1357,
      "त्य": 1358,
      "िल्ला": 1359,
      "▁छैन": 1360,
      "्रा": 1361,
      "पालिका": 1362,
      "रमा": 1363,
      "मि": 1364,
      "▁महि": 1365,
      "▁अर्": 1366,
      "▁उनले": 1367,
      "बन्ध": 1368,
      "छन्": 1369,
      "▁हुन": 1370,
      "▁राख": 1371,
      "▁गर्दै": 1372,
      "स्तो": 1373,
      "गत": 1374,
      "...": 1375,
      "▁जिल्ला": 1376,
      "▁था": 1377,
      "▁पर": 1378,
      "▁समय": 1379,
      "मान": 1380,
      "ेक": 1381,
      "▁५": 1382,
      "▁जान": 1383,
      "कृ": 1384,
      "▁सक्": 1385,
      "▁भा": 1386,
      "▁झ": 1387,
      "शा": 1388,
      "भाव": 1389,
      "्रम": 1390,
      "लेख": 1391,
      "▁ती": 1392,
      "ारत": 1393,
      "ुट": 1394,
      "▁स्व": 1395,
      "ेद": 1396,
      "▁प्रहर": 1397,
      "▁आफ्नो": 1398,
      "कास": 1399,
      "रहेको": 1400,
      "ोक": 1401,
      "▁गरे": 1402,
      "▁पुग": 1403,
      "▁चा": 1404,
      "रु": 1405,
      "िति": 1406,
      "टक": 1407,
      "त्व": 1408,
      "ाउने": 1409,
      "▁हि": 1410,
      "्यो": 1411,
      "▁शि": 1412,
      "▁जो": 1413,
      "▁हजार": 1414,
      "▁पहि": 1415,
      "▁भारत": 1416,
      "ुक": 1417,
      "ंक": 1418,
      "ैले": 1419,
      "ग्र": 1420,
      "ोल": 1421,
      "चि": 1422,
      "टर": 1423,
      "▁अहिले": 1424,
      "▁देश": 1425,
      "▁केही": 1426,
      "▁निर्माण": 1427,
      "▁गत": 1428,
      "निक": 1429,
      "▁विकास": 1430,
      "▁छ।": 1431,
      "िया": 1432,
      "▁कम": 1433,
      "▁काठमाडौं": 1434,
      "▁कारण": 1435,
      "▁लग": 1436,
      "▁अन्त": 1437,
      "▁साथ": 1438,
      "मन्त्री": 1439,
      "▁आयो": 1440,
      "▁दुई": 1441,
      "देखि": 1442,
      "▁हा": 1443,
      "▁४": 1444,
      "पू": 1445,
      "जी": 1446,
      "डी": 1447,
      "्ञ": 1448,
      "ेरै": 1449,
      "ताको": 1450,
      "कै": 1451,
      "हरुको": 1452,
      "मुख": 1453,
      "▁गा": 1454,
      "▁दा": 1455,
      "▁शा": 1456,
      "▁रो": 1457,
      "ँदा": 1458,
      "ौँ": 1459,
      "▁यु": 1460,
      "र्फ": 1461,
      "▁कुनै": 1462,
      "▁हुन्": 1463,
      "▁ओ": 1464,
      "नुभयो": 1465,
      "▁अध्यक्ष": 1466,
      "बी": 1467,
      "र्च": 1468,
      "ूल": 1469,
      "कु": 1470,
      "पुर": 1471,
      "▁नगर": 1472,
      "▁मो": 1473,
      "▁या": 1474,
      "जन": 1475,
      "हरुले": 1476,
      "▁प्रदेश": 1477,
      "▁लगा": 1478,
      "▁व्यवस्था": 1479,
      "ाउन": 1480,
      "▁धेरै": 1481,
      "▁अधिका": 1482,
      "ब्": 1483,
      "▁स्वा": 1484,
      "▁केन्द्र": 1485,
      "▁खा": 1486,
      "नुपर्ने": 1487,
      "ूप": 1488,
      "▁पो": 1489,
      "▁श्र": 1490,
      "फल": 1491,
      "ारा": 1492,
      "ँच": 1493,
      "यत": 1494,
      "घि": 1495,
      "दान": 1496,
      "▁आज": 1497,
      "म्ब": 1498,
      "▁समेत": 1499,
      "▁निर्वा": 1500,
      "▁रुपमा": 1501,
      "टो": 1502,
      "इन": 1503,
      "▁राम": 1504,
      "ाली": 1505,
      "वन": 1506,
      "खा": 1507,
      "▁घर": 1508,
      "▁६": 1509,
      "▁स्थानीय": 1510,
      "र्ता": 1511,
      "ग्": 1512,
      "▁प्रधान": 1513,
      "▁चि": 1514,
      "हित": 1515,
      "▁गु": 1516,
      "स्तै": 1517,
      "ष्ठ": 1518,
      "भन्दा": 1519,
      "▁सञ्च": 1520,
      "▁देख": 1521,
      "ेन्": 1522,
      "ुन": 1523,
      "▁लाख": 1524,
      "▁सकि": 1525,
      "यु": 1526,
      "▁सद": 1527,
      "ोर": 1528,
      "षय": 1529,
      "स्य": 1530,
      "▁नयाँ": 1531,
      "यन": 1532,
      "▁गाउँ": 1533,
      "भाग": 1534,
      "▁कार्यालय": 1535,
      "ङ्ग": 1536,
      "▁अवस्था": 1537,
      "▁भि": 1538,
      "▁विश्व": 1539,
      "▁आव": 1540,
      "मै": 1541,
      "▁निर्वाच": 1542,
      "▁बो": 1543,
      "▁जानकारी": 1544,
      "मी": 1545,
      "▁बताउ": 1546,
      "वास": 1547,
      "▁एउ": 1548,
      "▁सय": 1549,
      "...\n": 1550,
      "▁?": 1551,
      "▁गरेर": 1552,
      "भिन्न": 1553,
      "ीत": 1554,
      "मेर": 1555,
      "थि": 1556,
      "स्ट": 1557,
      "▁प्रमुख": 1558,
      "▁बताए": 1559,
      "▁हामी": 1560,
      "▁ढ": 1561,
      "▁त्यो": 1562,
      "लमा": 1563,
      "▁अनुसार": 1564,
      "रको": 1565,
      "▁महा": 1566,
      "पी": 1567,
      "▁विषय": 1568,
      "▁संघ": 1569,
      "णा": 1570,
      "▁समिति": 1571,
      "▁सम्बन्ध": 1572,
      "श्य": 1573,
      "▁प्रहरी": 1574,
      "ाना": 1575,
      "▁खु": 1576,
      "▁राजनी": 1577,
      "सो": 1578,
      "▁महिला": 1579,
      "▁गर्नु": 1580,
      "▁आएको": 1581,
      "्छ": 1582,
      "▁सरकारले": 1583,
      "न्दै": 1584,
      "▁अस": 1585,
      "ेव": 1586,
      "राज": 1587,
      "▁भइ": 1588,
      "▁खेल": 1589,
      "जिक": 1590,
      "▁ति": 1591,
      "▁कस": 1592,
      "▁सेवा": 1593,
      "▁७": 1594,
      "▁ल्या": 1595,
      "धा": 1596,
      "▁तय": 1597,
      "च्च": 1598,
      "ीमा": 1599,
      "प्त": 1600,
      "▁रूप": 1601,
      "▁पार्टी": 1602,
      "स्या": 1603,
      "▁डा": 1604,
      "ज्ञ": 1605,
      "न्ति": 1606,
      "वाद": 1607,
      "जि": 1608,
      "टि": 1609,
      "▁भयो": 1610,
      "▁उहाँ": 1611,
      "ट्": 1612,
      "वादी": 1613,
      "दुर": 1614,
      "सन": 1615,
      "▁नेता": 1616,
      "▁मन": 1617,
      "▁पहिलो": 1618,
      "▁विभिन्न": 1619,
      "▁सामा": 1620,
      "▁भू": 1621,
      "▁बढी": 1622,
      "▁छो": 1623,
      "▁रहेका": 1624,
      "▁नभ": 1625,
      "▁पछि": 1626,
      "▁कृ": 1627,
      "▁दल": 1628,
      "▁सहयोग": 1629,
      "▁रु": 1630,
      "▁नाम": 1631,
      "▁दो": 1632,
      "र्त": 1633,
      "▁पार": 1634,
      "▁लेख": 1635,
      "▁अब": 1636,
      "इएको": 1637,
      "र्ग": 1638,
      "धन": 1639,
      "्यान": 1640,
      "▁औ": 1641,
      "यर": 1642,
      "सको": 1643,
      "▁समस्या": 1644,
      "हो": 1645,
      "चना": 1646,
      "▁एउटा": 1647,
      "▁पत्र": 1648,
      "हार": 1649,
      "▁कार्": 1650,
      "▁बज": 1651,
      "र्श": 1652,
      "▁जि": 1653,
      "टना": 1654,
      "▁आयोजना": 1655,
      "▁गर्दा": 1656,
      "▁राष्ट्रिय": 1657,
      "नुपर्छ": 1658,
      "▁जी": 1659,
      "▁अप": 1660,
      "▁हे": 1661,
      "सं": 1662,
      "▁संस्था": 1663,
      "पाद": 1664,
      "▁सम्प": 1665,
      "▁प्रयोग": 1666,
      "▁विद्य": 1667,
      "ेन": 1668,
      "▁कम्प": 1669,
      "र्थिक": 1670,
      "विधान": 1671,
      "▁गो": 1672,
      "▁समाज": 1673,
      "पूर्ण": 1674,
      "▁सदस्य": 1675,
      "▁सञ्चाल": 1676,
      "त्म": 1677,
      "श्यक": 1678,
      "▁मे": 1679,
      "▁व्यक्ति": 1680,
      "सले": 1681,
      "▁आर्थिक": 1682,
      "हरुलाई": 1683,
      "हरूले": 1684,
      "▁हुँदै": 1685,
      "हरूको": 1686,
      "▁छा": 1687,
      "रहेका": 1688,
      "▁संविधान": 1689,
      "▁अन्य": 1690,
      "▁सुरु": 1691,
      "▁१०": 1692,
      "साय": 1693,
      "▁८": 1694,
      "▁तपा": 1695,
      "▁सुर": 1696,
      "र्क": 1697,
      "हादुर": 1698,
      "▁निय": 1699,
      "▁आइ": 1700,
      "▁मन्त्र": 1701,
      "तामा": 1702,
      "त्त": 1703,
      "▁व्या": 1704,
      "ोग": 1705,
      "▁मानि": 1706,
      "▁रूपमा": 1707,
      "▁शु": 1708,
      "▁मुल": 1709,
      "पति": 1710,
      "▁“": 1711,
      "ृद्ध": 1712,
      "डक": 1713,
      "िएको": 1714,
      "माले": 1715,
      "▁भन्दै": 1716,
      "टन": 1717,
      "▁उक्त": 1718,
      "▁बाल": 1719,
      "▁सक": 1720,
      "▁बस": 1721,
      "▁चु": 1722,
      "मो": 1723,
      "श्च": 1724,
      "▁प्रधानमन्त्री": 1725,
      "▁अभ": 1726,
      "▁अस्": 1727,
      "▁तीन": 1728,
      "▁दिने": 1729,
      "िर": 1730,
      "▁आफू": 1731,
      "▁ठू": 1732,
      "क्षण": 1733,
      "सम": 1734,
      "▁अनि": 1735,
      "सकेको": 1736,
      "्रेस": 1737,
      "शत": 1738,
      "▁बेला": 1739,
      "ित्": 1740,
      "▁भनेर": 1741,
      "▁नगरपालिका": 1742,
      "पत": 1743,
      "▁आधार": 1744,
      "▁गते": 1745,
      "▁क्षेत्रमा": 1746,
      "तन्त्र": 1747,
      "▁उनको": 1748,
      "ेष": 1749,
      "ामा": 1750,
      "ुल": 1751,
      "▁९": 1752,
      "स्थ्य": 1753,
      "पना": 1754,
      "▁भन्दा": 1755,
      "समा": 1756,
      "ड्": 1757,
      "▁प्रतिशत": 1758,
      "दैन": 1759,
      "▁आवश्यक": 1760,
      "पन": 1761,
      "न्या": 1762,
      "चा": 1763,
      "करण": 1764,
      "▁कम्पनी": 1765,
      "जु": 1766,
      "ठक": 1767,
      "▁बे": 1768,
      "▁अमेर": 1769,
      "स्थित": 1770,
      "रोड": 1771,
      "▁बस्": 1772,
      "पि": 1773,
      "तृ": 1774,
      "▁सम्म": 1775,
      "वी": 1776,
      "▁सडक": 1777,
      "▁प्रश": 1778,
      "▁क्रम": 1779,
      "▁बैंक": 1780,
      "ञ्": 1781,
      "▁स्था": 1782,
      "उँ": 1783,
      "▁मुख": 1784,
      "▁प्रव": 1785,
      "▁रुपै": 1786,
      "यक": 1787,
      "▁करोड": 1788,
      "▁पोख": 1789,
      "स्तु": 1790,
      "▁सू": 1791,
      "▁सार्व": 1792,
      "▁संग": 1793,
      "▁डि": 1794,
      "▁तपाई": 1795,
      "▁तह": 1796,
      "▁बने": 1797,
      "पत्र": 1798,
      "▁रि": 1799,
      "ोष": 1800,
      "द्या": 1801,
      "▁नेपालको": 1802,
      "▁हाल": 1803,
      "बि": 1804,
      "▁मत": 1805,
      "▁पर्ने": 1806,
      "जनिक": 1807,
      "भित्र": 1808,
      "न्स": 1809,
      "सक्": 1810,
      "▁स्वास्थ्य": 1811,
      "▁खोज": 1812,
      "▁माग": 1813,
      "▁होइन": 1814,
      "शी": 1815,
      "नुभएको": 1816,
      "▁२०७": 1817,
      "कम": 1818,
      "काल": 1819,
      "सद": 1820,
      "णय": 1821,
      "▁बुझ": 1822,
      "्रि": 1823,
      "▁छ,": 1824,
      "लेको": 1825,
      "ेन्द्र": 1826,
      "▁उत्पाद": 1827,
      "▁पुन": 1828,
      "▁बजार": 1829,
      "्यु": 1830,
      "ेरो": 1831,
      "▁निका": 1832,
      "▁निर्णय": 1833,
      "▁मूल": 1834,
      "गरिक": 1835,
      "बहादुर": 1836,
      "▁राजनीतिक": 1837,
      "ेमा": 1838,
      "बीच": 1839,
      "न्ड": 1840,
      "▁निर्वाचन": 1841,
      "ुवा": 1842,
      "त्या": 1843,
      "युक्त": 1844,
      "▁तर,": 1845,
      "▁महिना": 1846,
      "▁पर्य": 1847,
      "▁पूर्व": 1848,
      "▁सार्वजनिक": 1849,
      "▁उल्": 1850,
      "▁हाम्रो": 1851,
      "▁नागरिक": 1852,
      "राष्ट्र": 1853,
      "काश": 1854,
      "▁मुलुक": 1855,
      "एपछि": 1856,
      "▁बैठक": 1857,
      "हान": 1858,
      "ृत": 1859,
      "▁मान": 1860,
      "▁राज्य": 1861,
      "धिक": 1862,
      "न्व": 1863,
      "▁रुपैयाँ": 1864,
      "▁किन": 1865,
      "▁दिएको": 1866,
      "▁पढ": 1867,
      "▁हुनु": 1868,
      "▁।’": 1869,
      "▁सन्": 1870,
      "▁चल": 1871,
      "र्न": 1872,
      "▁वै": 1873,
      "ीन": 1874,
      "▁छ।\n": 1875,
      "▁बाँ": 1876,
      "ख्या": 1877,
      "र्ने": 1878,
      "दाय": 1879,
      "▁निक": 1880,
      "▁अघि": 1881,
      "पु": 1882,
      "▁गीत": 1883,
      "▁कर्म": 1884,
      "▁अन्तर्": 1885,
      "▁निर्देश": 1886,
      "वै": 1887,
      "▁योजना": 1888,
      "▁लोक": 1889,
      "▁नेतृ": 1890,
      "▁भनि": 1891,
      "▁ले": 1892,
      "क्रिया": 1893,
      "ैं": 1894,
      "सभा": 1895,
      "प्रति": 1896,
      "▁प्राप्त": 1897,
      "▁जनता": 1898,
      "▁अगा": 1899,
      "▁नेपालमा": 1900,
      "▁मन्त्रालय": 1901,
      "▁सम्पन्न": 1902,
      "चिव": 1903,
      "गरी": 1904,
      "लको": 1905,
      "▁यस्तो": 1906,
      "दछ": 1907,
      "▁पटक": 1908,
      "बु": 1909,
      "▁खो": 1910,
      "▁नेतृत्व": 1911,
      "▁भेट": 1912,
      "न्छन्": 1913,
      "▁घटना": 1914,
      "▁शिक्षा": 1915,
      "ठन": 1916,
      "▁अभि": 1917,
      "▁कति": 1918,
      "▁कार्यक्रममा": 1919,
      "▁सभा": 1920,
      "क्षक": 1921,
      "▁सहभाग": 1922,
      "र्ड": 1923,
      "▁पाइ": 1924,
      "अघि": 1925,
      "▁टो": 1926,
      "▁मेरो": 1927,
      "▁पक्ष": 1928,
      "▁ठूलो": 1929,
      "रोध": 1930,
      "▁राम्रो": 1931,
      "▁दश": 1932,
      "▁विद्या": 1933,
      "चारी": 1934,
      "▁पुर": 1935,
      "▁मैले": 1936,
      "सु": 1937,
      "राम": 1938,
      "पताल": 1939,
      "फा": 1940,
      "ेष्ठ": 1941,
      "▁सफल": 1942,
      "न,": 1943,
      "▁मुख्य": 1944,
      "▁व्यवसाय": 1945,
      "▁गाउँपालिका": 1946,
      "▁अस्पताल": 1947,
      "घा": 1948,
      "▁चौ": 1949,
      "ोट": 1950,
      "▁रे": 1951,
      "▁दिए": 1952,
      "▁प्रभाव": 1953,
      "ृत्य": 1954,
      "▁विशेष": 1955,
      "त्मक": 1956,
      "▁छन्।": 1957,
      "▁उद्य": 1958,
      "▁नी": 1959,
      "से": 1960,
      "▁अधिकारी": 1961,
      "▁सर्व": 1962,
      "सहित": 1963,
      "▁सम्झ": 1964,
      "▁माओ": 1965,
      "▁लगानी": 1966,
      "थ्यो": 1967,
      "▁आएका": 1968,
      "▁काठमाडौँ": 1969,
      "▁अर्को": 1970,
      "वरण": 1971,
      "▁विदेश": 1972,
      "स्कृ": 1973,
      "पनि": 1974,
      "भर": 1975,
      "▁जनाएको": 1976,
      "▁पाँच": 1977,
      "▁वडा": 1978,
      "षा": 1979,
      "▁थप": 1980,
      "सर": 1981,
      "ृद्धि": 1982,
      "▁बार": 1983,
      "क्ता": 1984,
      "▁मात्रै": 1985,
      "▁वटा": 1986,
      "▁समु": 1987,
      "▁यहाँ": 1988,
      "ेपछि": 1989,
      "ूह": 1990,
      "दो": 1991,
      "▁ऐ": 1992,
      "मति": 1993,
      "त्ति": 1994,
      "▁ओली": 1995,
      "▁कर्मचारी": 1996,
      "▁,": 1997,
      "ध्ये": 1998,
      "▁थापा": 1999,
      "▁हामीले": 2000,
      "नेछ": 2001,
      "▁साथै": 2002,
      "▁सामाजिक": 2003,
      "▁भने,": 2004,
      "सँगै": 2005,
      "▁क्रममा": 2006,
      "ंग्रेस": 2007,
      "म्भ": 2008,
      "▁आग": 2009,
      "▁बनाउन": 2010,
      "▁चाह": 2011,
      "व्य": 2012,
      "▁यी": 2013,
      "▁चार": 2014,
      "▁मध": 2015,
      "▁अझ": 2016,
      "कल": 2017,
      "▁विद्यालय": 2018,
      "▁लक्ष": 2019,
      "▁संर": 2020,
      "तमा": 2021,
      "▁लगायत": 2022,
      "▁न्य": 2023,
      "▁ठाउँ": 2024,
      "हरुमा": 2025,
      "▁परिवार": 2026,
      "▁गर्छ": 2027,
      "▁उठ": 2028,
      "▁भएर": 2029,
      "पर": 2030,
      "▁लागेको": 2031,
      "त्ता": 2032,
      "▁सङ्": 2033,
      "▁पि": 2034,
      "▁रकम": 2035,
      "र्थी": 2036,
      "▁|": 2037,
      "▁कांग्रेस": 2038,
      "मार": 2039,
      "▁सुरक्षा": 2040,
      "▁उल्लेख": 2041,
      "▁१९": 2042,
      "नका": 2043,
      "▁सक्छ": 2044,
      "▁फो": 2045,
      "▁कृष": 2046,
      "चित्र": 2047,
      "अनु": 2048,
      "▁१५": 2049,
      "र्ट": 2050,
      "न्दोल": 2051,
      "ेज": 2052,
      "स्रो": 2053,
      "्री": 2054,
      "▁अर्थ": 2055,
      "▁साम": 2056,
      "▁अवस्थामा": 2057,
      "▁इन्": 2058,
      "नाव": 2059,
      "▁गएको": 2060,
      "वेद": 2061,
      "▁छन": 2062,
      "▁एमाले": 2063,
      "टै": 2064,
      "▁क्या": 2065,
      "▁युवा": 2066,
      "▁'": 2067,
      "न्तर": 2068,
      "▁साल": 2069,
      "▁प्रतिनि": 2070,
      "्नु": 2071,
      "लाइ": 2072,
      "हरूलाई": 2073,
      "ष्ण": 2074,
      "ीर": 2075,
      "डियो": 2076,
      "▁यसको": 2077,
      "दर्श": 2078,
      "ञ्ज": 2079,
      "बर": 2080,
      "▁श्रेष्ठ": 2081,
      "▁एव": 2082,
      "▁उपा": 2083,
      "▁श्री": 2084,
      "▁हुँदा": 2085,
      "▁मृत्य": 2086,
      "▁विषयमा": 2087,
      "▁बनाउने": 2088,
      "धी": 2089,
      "▁१२": 2090,
      "बारे": 2091,
      "▁पै": 2092,
      "▁नहु": 2093,
      "▁अमेरिका": 2094,
      "▁नग": 2095,
      "▁जे": 2096,
      "▁आउने": 2097,
      "▁नीति": 2098,
      "समेत": 2099,
      "▁हर": 2100,
      "▁व्याप": 2101,
      "ल्ला": 2102,
      "▁घोष": 2103,
      "▁परेको": 2104,
      "▁–": 2105,
      "▁ता": 2106,
      "राष्ट्रिय": 2107,
      "तर": 2108,
      "▁हुनेछ": 2109,
      "साद": 2110,
      "न्ने": 2111,
      "▁मन्त्री": 2112,
      "एन": 2113,
      "▁उपचार": 2114,
      "▁क्र": 2115,
      "▁उत्पादन": 2116,
      "्वास": 2117,
      "▁अगाडि": 2118,
      "▁उद्योग": 2119,
      "ल्या": 2120,
      "नाइ": 2121,
      "▁उपल": 2122,
      "▁मौ": 2123,
      "▁सञ्चालन": 2124,
      "म्बर": 2125,
      "जक": 2126,
      "▁जारी": 2127,
      "क्स": 2128,
      "▁तत्": 2129,
      "▁जाने": 2130,
      "▁परिव": 2131,
      "▁पद": 2132,
      "▁आन्दोल": 2133,
      "सन्": 2134,
      "बल": 2135,
      "▁समूह": 2136,
      "▁चलचित्र": 2137,
      "▁मृत्यु": 2138,
      "▁प्रतियोग": 2139,
      "▁छि": 2140,
      "▁खे": 2141,
      "दार": 2142,
      "र्मा": 2143,
      "वारी": 2144,
      "ेड": 2145,
      "▁जित": 2146,
      "▁टोली": 2147,
      "तको": 2148,
      "▁उहाँले": 2149,
      "▁मलाई": 2150,
      "ामी": 2151,
      "तर्फ": 2152,
      "ाएको": 2153,
      "▁खर्च": 2154,
      "▁अभिय": 2155,
      "हाल": 2156,
      "▁११": 2157,
      "▁भारतीय": 2158,
      "मित": 2159,
      "पो": 2160,
      "▁अन": 2161,
      "▁बन्द": 2162,
      "▁सकिन्छ": 2163,
      "▁बी": 2164,
      "▁करि": 2165,
      "▁जन्": 2166,
      "चाल": 2167,
      "▁अद": 2168,
      "▁फिल्": 2169,
      "▁जीवन": 2170,
      "▁जुन": 2171,
      "▁सक्ने": 2172,
      "ल्लो": 2173,
      "▁प्रकाश": 2174,
      "▁निकै": 2175,
      "टमा": 2176,
      "रुद्ध": 2177,
      "▁उद्": 2178,
      "ेकी": 2179,
      "ोधन": 2180,
      "▁गुरु": 2181,
      "र्फत": 2182,
      "▁समयमा": 2183,
      "▁आउ": 2184,
      "▁दोस्रो": 2185,
      "तिर": 2186,
      "मको": 2187,
      "▁परी": 2188,
      "माथि": 2189,
      "र्या": 2190,
      "▁छल": 2191,
      "ीका": 2192,
      "▁बाहि": 2193,
      "▁दुर्": 2194,
      "▁तयार": 2195,
      "▁तपाईं": 2196,
      "▁आयोग": 2197,
      "▁पौ": 2198,
      "▁सां": 2199,
      "विधि": 2200,
      "धारण": 2201,
      "▁यात्र": 2202,
      "ग्रह": 2203,
      "▁भएकाले": 2204,
      "गायत": 2205,
      "▁शक्ति": 2206,
      "लग": 2207,
      "▁उच्च": 2208,
      "▁जोड": 2209,
      "राई": 2210,
      "▁अधिकार": 2211,
      "च्छ": 2212,
      "िता": 2213,
      "कर्ता": 2214,
      "सन्धान": 2215,
      "▁प्रहरीले": 2216,
      "▁भ्रम": 2217,
      "▁घोषणा": 2218,
      "▁छलफल": 2219,
      "▁अध्ययन": 2220,
      "▁कला": 2221,
      "▁भाग": 2222,
      "अनुसार": 2223,
      "▁उपलब्": 2224,
      "▁चर्च": 2225,
      "▁२०१": 2226,
      "▁पोखरा": 2227,
      "लब": 2228,
      "▁अफ": 2229,
      "्दै": 2230,
      "▁तयारी": 2231,
      "▁पत्रकार": 2232,
      "▁न्या": 2233,
      "हुन्छ": 2234,
      "▁रोज": 2235,
      "▁पठ": 2236,
      "▁जस्तो": 2237,
      "▁विक": 2238,
      "झा": 2239,
      "▁बर्ष": 2240,
      "▁अनुसन्धान": 2241,
      "तिमा": 2242,
      "▁भएपछि": 2243,
      "थे": 2244,
      "छा": 2245,
      "▁दे": 2246,
      "▁भइरहेको": 2247,
      "▁गर्नुपर्ने": 2248,
      "▁छु": 2249,
      "ानो": 2250,
      "▁कानु": 2251,
      "मन": 2252,
      "ङ्क": 2253,
      "▁भित्र": 2254,
      "भव": 2255,
      "▁बताउनुभयो": 2256,
      "▁माओवादी": 2257,
      "▁प्रत्य": 2258,
      "यात": 2259,
      "▁फि": 2260,
      "्ना": 2261,
      "▁कार्या": 2262,
      "▁महान": 2263,
      "▁हो।": 2264,
      "डेल": 2265,
      "ेरि": 2266,
      "▁त्यसैले": 2267,
      "▁महत्व": 2268,
      "वल": 2269,
      "▁भु": 2270,
      "सिक": 2271,
      "नामा": 2272,
      "ट्ट": 2273,
      "▁आरो": 2274,
      "▁मानिस": 2275,
      "▁पानी": 2276,
      "वर": 2277,
      "▁बजेट": 2278,
      "▁ग्र": 2279,
      "▁होला": 2280,
      "▁मूल्य": 2281,
      "▁पक्र": 2282,
      "वाह": 2283,
      "▁परिवर्त": 2284,
      "कपा": 2285,
      "▁५०": 2286,
      "▁ट्र": 2287,
      "▁त्यहाँ": 2288,
      "▁लिएर": 2289,
      "रक": 2290,
      "धिका": 2291,
      "▁अदाल": 2292,
      "काली": 2293,
      "▁कृषि": 2294,
      "मिक": 2295,
      "तिहा": 2296,
      "शु": 2297,
      "र्स": 2298,
      "नले": 2299,
      "ल्ने": 2300,
      "जो": 2301,
      "▁प्रक्रिया": 2302,
      "इन्": 2303,
      "मिका": 2304,
      "▁विस्त": 2305,
      "▁सी": 2306,
      "▁प्रस्तु": 2307,
      "▁विज्ञ": 2308,
      "▁पी": 2309,
      "ेन्ट": 2310,
      "▁त्यही": 2311,
      "▁कार्यान्व": 2312,
      "▁यसै": 2313,
      "▁यही": 2314,
      "▁बस्ने": 2315,
      "▁सरकारी": 2316,
      "ृह": 2317,
      "र्वा": 2318,
      "▁योग": 2319,
      "संग": 2320,
      "▁फा": 2321,
      "स्ताव": 2322,
      "ष्टि": 2323,
      "तले": 2324,
      "▁पक्राउ": 2325,
      "▁राष्ट्रपति": 2326,
      "लु": 2327,
      "▁लामो": 2328,
      "▁विद्यार्थी": 2329,
      "ंश": 2330,
      "▁स्थापना": 2331,
      "▁भनेको": 2332,
      "▁देखिन्छ": 2333,
      "लेर": 2334,
      "▁थियो।": 2335,
      "▁प्रदान": 2336,
      "▁अभियान": 2337,
      "▁बताएका": 2338,
      "▁रहे": 2339,
      "▁विभाग": 2340,
      "▁:": 2341,
      "हित्य": 2342,
      "तिको": 2343,
      "▁ज्ञ": 2344,
      "यी": 2345,
      "सम्": 2346,
      "▁२५": 2347,
      "▁चीन": 2348,
      "ैनिक": 2349,
      "▁सबैभन्दा": 2350,
      "▁दिएका": 2351,
      "▁छुट": 2352,
      "▁कसरी": 2353,
      "▁भ्रमण": 2354,
      "▁हरेक": 2355,
      "लामा": 2356,
      "▁ब्या": 2357,
      "▁निर": 2358,
      "▁आधारमा": 2359,
      "तम": 2360,
      "ंह": 2361,
      "▁गरिने": 2362,
      "▁सचिव": 2363,
      "▁-": 2364,
      "▁कार": 2365,
      "स्क": 2366,
      "पटक": 2367,
      "▁सरकारको": 2368,
      "▁अर्ब": 2369,
      "▁निकाय": 2370,
      "▁कर": 2371,
      "ालिका": 2372,
      "▁दुवै": 2373,
      "ारि": 2374,
      "्दा": 2375,
      "▁आँ": 2376,
      "▁बाटो": 2377,
      "▁त्यस्तै": 2378,
      "र्जा": 2379,
      "▁गौ": 2380,
      "▁डा.": 2381,
      "द्दा": 2382,
      "▁सन्द": 2383,
      "▁एवं": 2384,
      "प्रसाद": 2385,
      "▁प्रतिनिधि": 2386,
      "ध्यक्ष": 2387,
      "▁थाले": 2388,
      "▁।’\n": 2389,
      "▁सूचना": 2390,
      "▁अरु": 2391,
      "भू": 2392,
      "▁त्यसको": 2393,
      "कर्ष": 2394,
      "▁पुगेको": 2395,
      "▁विज": 2396,
      "▁प्रशा": 2397,
      "▁उम्म": 2398,
      "▁जु": 2399,
      "▁पाउने": 2400,
      "▁फिल्म": 2401,
      "नाले": 2402,
      "▁चुनाव": 2403,
      "ेम": 2404,
      "▁नं": 2405,
      "▁बारेमा": 2406,
      "लगायत": 2407,
      "वेश": 2408,
      "▁पैसा": 2409,
      "▁चरण": 2410,
      "सिया": 2411,
      "▁सोच": 2412,
      "▁प्रस्ताव": 2413,
      "रत": 2414,
      "▁धा": 2415,
      "▁साहित्य": 2416,
      "▁समुदाय": 2417,
      "▁शुरु": 2418,
      "▁दक्ष": 2419,
      "▁नेकपा": 2420,
      "▁आफ्ना": 2421,
      "▁रोजग": 2422,
      "▁म्या": 2423,
      "चित": 2424,
      "▁मान्छ": 2425,
      "▁अधिक": 2426,
      "▁बनेको": 2427,
      "दर": 2428,
      "कको": 2429,
      "▁थाल": 2430,
      "▁ब्य": 2431,
      "▁रोग": 2432,
      "▁सहभागी": 2433,
      "▁३०": 2434,
      "▁चला": 2435,
      "▁अन्तर्राष्ट्रिय": 2436,
      "▁प्रच": 2437,
      "यम": 2438,
      "▁मुद्दा": 2439,
      "▁देव": 2440,
      "▁पर्यटक": 2441,
      "▁पूरा": 2442,
      "उनु": 2443,
      "त्री": 2444,
      "▁गोल": 2445,
      "स्कार": 2446,
      "▁सहमति": 2447,
      "▁राई": 2448,
      "▁उनलाई": 2449,
      "▁समाचार": 2450,
      "▁फाइ": 2451,
      "ैँ": 2452,
      "▁खेला": 2453,
      "▁यस्तै": 2454,
      "▁थाहा": 2455,
      "▁अति": 2456,
      "▁पूर्ण": 2457,
      "▁नेपालले": 2458,
      "▁नियन्त्र": 2459,
      "तार": 2460,
      "▁हो,": 2461,
      "मध्ये": 2462,
      "▁ई": 2463,
      "▁करिब": 2464,
      "▁पछिल्लो": 2465,
      "पान": 2466,
      "▁बिक": 2467,
      "▁लिन": 2468,
      "तो": 2469,
      "ढी": 2470,
      "▁उपलब्ध": 2471,
      "▁व्यवस्थापन": 2472,
      "▁यस्ता": 2473,
      "▁सम्झौ": 2474,
      "▁हत्या": 2475,
      "▁देखिएको": 2476,
      "▁बिहान": 2477,
      "▁दर": 2478,
      "र्ति": 2479,
      "ताका": 2480,
      "ाउनु": 2481,
      "दिन": 2482,
      "▁शे": 2483,
      "के": 2484,
      "▁गण": 2485,
      "▁आमा": 2486,
      "रिया": 2487,
      "पक्ष": 2488,
      "▁डे": 2489,
      "▁यसले": 2490,
      "▁मानव": 2491,
      "▁आफ्नै": 2492,
      "▁संघीय": 2493,
      "▁आरोप": 2494,
      "कमा": 2495,
      "▁फुट": 2496,
      "▁१३": 2497,
      "▁परेका": 2498,
      "▁स्रो": 2499,
      "सका": 2500,
      "▁स्प": 2501,
      "सकेका": 2502,
      "▁सम्भाव": 2503,
      "▁पार्ट": 2504,
      "▁स्ट": 2505,
      "▁विश्वास": 2506,
      "▁थिएन": 2507,
      "▁पौडेल": 2508,
      "▁भूमिका": 2509,
      "न्तिम": 2510,
      "जित": 2511,
      "लव": 2512,
      "श्व": 2513,
      "▁प्रया": 2514,
      "▁चाल": 2515,
      "▁भो": 2516,
      "ल्न": 2517,
      "▁ताल": 2518,
      "▁आदि": 2519,
      "एस": 2520,
      "▁उम्मेद": 2521,
      "उँदै": 2522,
      "पक": 2523,
      "▁प्रश्न": 2524,
      "▁पर्छ": 2525,
      "▁अर": 2526,
      "परि": 2527,
      "▁अन्तिम": 2528,
      "▁नभएको": 2529,
      "कम्प": 2530,
      "िण": 2531,
      "▁१४": 2532,
      "▁दृ": 2533,
      "र्जन": 2534,
      "▁तो": 2535,
      "वान": 2536,
      "▁१८": 2537,
      "ते": 2538,
      "▁अझै": 2539,
      "▁संसद": 2540,
      "शि": 2541,
      "▁केन्द्रीय": 2542,
      "लले": 2543,
      "ल्प": 2544,
      "▁देउ": 2545,
      "तरण": 2546,
      "विधा": 2547,
      "ज्य": 2548,
      "▁प्रदर्श": 2549,
      "▁आगामी": 2550,
      "▁शर्मा": 2551,
      "▁नेपालका": 2552,
      "▁कै": 2553,
      "▁मै": 2554,
      "▁भद": 2555,
      "▁वर्षको": 2556,
      "▁त्यसै": 2557,
      "▁...\n": 2558,
      "▁भट्ट": 2559,
      "हरूमा": 2560,
      "▁!": 2561,
      "▁खेलमा": 2562,
      "▁बाहिर": 2563,
      "▁हेर्": 2564,
      "▁नियन्त्रण": 2565,
      "▁यति": 2566,
      "विद्य": 2567,
      "न्ट": 2568,
      "वेदन": 2569,
      "▁हुँदैन": 2570,
      "▁परिवर्तन": 2571,
      "▁सहित": 2572,
      "त्तिक": 2573,
      "re": 2574,
      "▁गुरुङ": 2575,
      "▁सामान्य": 2576,
      "▁नम्बर": 2577,
      "▁खाने": 2578,
      "▁संख्या": 2579,
      "लिक": 2580,
      "▁छोरा": 2581,
      "▁विमान": 2582,
      "द्वार": 2583,
      "यण": 2584,
      "▁टा": 2585,
      "डित": 2586,
      "सक्ने": 2587,
      "▁नारा": 2588,
      "ैर": 2589,
      "▁प्रण": 2590,
      "▁भई": 2591,
      "कर्म": 2592,
      "▁हात": 2593,
      "▁दी": 2594,
      "▁पर्व": 2595,
      "▁पश्च": 2596,
      "▁१६": 2597,
      "शील": 2598,
      "ल्क": 2599,
      "्युनि": 2600,
      "▁मना": 2601,
      "▁सम्मेल": 2602,
      "▁शान्ति": 2603,
      "रुप": 2604,
      "▁विद्यु": 2605,
      "ँड": 2606,
      "▁जिम्म": 2607,
      "▁लु": 2608,
      "▁तिम": 2609,
      "▁बलि": 2610,
      "तावरण": 2611,
      "काम": 2612,
      "▁राजधान": 2613,
      "▁सुन": 2614,
      "क्का": 2615,
      "वासी": 2616,
      "▁संयो": 2617,
      "▁निम्": 2618,
      "▁चाहि": 2619,
      "िकी": 2620,
      "ढा": 2621,
      "ग्गा": 2622,
      "बेला": 2623,
      "▁विस्तार": 2624,
      "मन्त्र": 2625,
      "कालीन": 2626,
      "ाल्": 2627,
      "▁टि": 2628,
      "▁बाट": 2629,
      "▁सात": 2630,
      "▁पहिले": 2631,
      "▁प्रस्तुत": 2632,
      "▁ध्यान": 2633,
      "▁व्यापार": 2634,
      "साइ": 2635,
      "धु": 2636,
      "▁संस्कृ": 2637,
      "ध्यम": 2638,
      "▁भण्ड": 2639,
      "▁न्याय": 2640,
      "▁ऋ": 2641,
      "ंगल": 2642,
      "▁पदा": 2643,
      "र्ज": 2644,
      "▁धर्म": 2645,
      "▁गठन": 2646,
      "रीको": 2647,
      "▁स्थानमा": 2648,
      "▁शै": 2649,
      "▁वातावरण": 2650,
      "ुरो": 2651,
      "▁बढेको": 2652,
      "▁सोम": 2653,
      "घटना": 2654,
      "▁दू": 2655,
      "द्धा": 2656,
      "ुरुष": 2657,
      "▁कम्युनि": 2658,
      "ी,": 2659,
      "ंगा": 2660,
      "बद्ध": 2661,
      "▁भिडियो": 2662,
      "▁तर्फ": 2663,
      "▁टु": 2664,
      "क्षित": 2665,
      "▁सुधार": 2666,
      "हन": 2667,
      "क्क": 2668,
      "▁बजारमा": 2669,
      "▁सहज": 2670,
      "होस्": 2671,
      "▁प्रवेश": 2672,
      "देव": 2673,
      "▁छैनन्": 2674,
      "▁बहु": 2675,
      "▁फर्": 2676,
      "कुमार": 2677,
      "▁छौं": 2678,
      "सान": 2679,
      "▁गति": 2680,
      "▁सम्मान": 2681,
      "म्मा": 2682,
      "णि": 2683,
      "▁याद": 2684,
      "▁क्षम": 2685,
      "लै": 2686,
      "▁संयुक्त": 2687,
      "▁दर्श": 2688,
      "▁मान्छे": 2689,
      "▁खान": 2690,
      "संघ": 2691,
      "▁साँ": 2692,
      "▁जस्ता": 2693,
      "▁जन्म": 2694,
      "सलाई": 2695,
      "किएको": 2696,
      "ियन": 2697,
      "नाथ": 2698,
      "विक": 2699,
      "ताले": 2700,
      "पित": 2701,
      "▁भाषा": 2702,
      "▁दर्ता": 2703,
      "▁ठाउँमा": 2704,
      "▁दक्षिण": 2705,
      "▁घरमा": 2706,
      "▁जल": 2707,
      "▁शुक्र": 2708,
      "▁गि": 2709,
      "▁आग्रह": 2710,
      "▁निर्देशन": 2711,
      "उँछ": 2712,
      "▁गृह": 2713,
      "कोट": 2714,
      "स्थिति": 2715,
      "▁गर्दछ": 2716,
      "▁जनताको": 2717,
      "▁वितरण": 2718,
      "▁फरक": 2719,
      "ब्द": 2720,
      "▁एस": 2721,
      "▁हुन्छन्": 2722,
      "▁सांसद": 2723,
      "▁यसरी": 2724,
      "▁तथ": 2725,
      "क्रमण": 2726,
      "▁अपरा": 2727,
      "▁गरिरहेको": 2728,
      "▁झा": 2729,
      "▁सुविधा": 2730,
      "▁नजिक": 2731,
      "▁प्रमाण": 2732,
      "▁कार्यान्वयन": 2733,
      "स्त्र": 2734,
      "▁उत्तर": 2735,
      "देश्य": 2736,
      "▁अन्तर": 2737,
      "हेक": 2738,
      "लाको": 2739,
      "▁कवि": 2740,
      "▁भनाइ": 2741,
      "▁पुरुष": 2742,
      "सरमा": 2743,
      "▁पर्यटन": 2744,
      "कृत": 2745,
      "क्टर": 2746,
      "▁स्वी": 2747,
      "▁जग्गा": 2748,
      "▁सम्झौता": 2749,
      "▁दुर्घटना": 2750,
      "▁त्यति": 2751,
      "▁भूकम्प": 2752,
      "ेलि": 2753,
      "▁भै": 2754,
      "▁त्यसपछि": 2755,
      "्रै": 2756,
      "▁असार": 2757,
      "पय": 2758,
      "▁त्रि": 2759,
      "▁मन्द": 2760,
      "▁सीमा": 2761,
      "▁गरा": 2762,
      "▁अर्था": 2763,
      "▁तुल": 2764,
      "▁दैनिक": 2765,
      ",’": 2766,
      "एकी": 2767,
      "ून": 2768,
      "▁कारो": 2769,
      "▁विचार": 2770,
      "▁०": 2771,
      "▁बताउँ": 2772,
      "र्भ": 2773,
      "▁एन": 2774,
      "खु": 2775,
      "ङको": 2776,
      "लाग": 2777,
      "▁बाँकी": 2778,
      "▁जिल्लामा": 2779,
      "चान": 2780,
      "मे": 2781,
      "▁अवसर": 2782,
      "▁शाखा": 2783,
      "in": 2784,
      "▁फेरि": 2785,
      "दू": 2786,
      "▁बालब": 2787,
      "▁विरोध": 2788,
      "ेप": 2789,
      "▁कतिपय": 2790,
      "▁तत्काल": 2791,
      "▁पराज": 2792,
      "▁यसलाई": 2793,
      "सम्बन्ध": 2794,
      "▁प्रेम": 2795,
      "▁तिन": 2796,
      "▁भर्": 2797,
      "▁संरक्षण": 2798,
      "▁नहुने": 2799,
      "▁सवारी": 2800,
      "▁थिए।": 2801,
      "नाको": 2802,
      "▁शनि": 2803,
      "▁१७": 2804,
      "▁२१": 2805,
      "▁जस्तै": 2806,
      "▁सञ्चार": 2807,
      "▁संश": 2808,
      "ता,": 2809,
      "▁छन्।\n": 2810,
      "ँदैन": 2811,
      "यार": 2812,
      "▁व्यक्त": 2813,
      "▁दाहाल": 2814,
      "▁उनका": 2815,
      "▁जीव": 2816,
      "षण": 2817,
      "▁भदौ": 2818,
      "निर्": 2819,
      "कार्य": 2820,
      "▁कहिले": 2821,
      "▁कायम": 2822,
      "▁बुध": 2823,
      "▁आत्म": 2824,
      "▁बीच": 2825,
      "द्वारा": 2826,
      "▁रहने": 2827,
      "▁लक्ष्य": 2828,
      "▁कमा": 2829,
      "▁ऊ": 2830,
      "▁अधिकृत": 2831,
      "▁विगत": 2832,
      "▁प्रयास": 2833,
      "▁।”": 2834,
      "▁नाममा": 2835,
      "▁लाई": 2836,
      "िकित्": 2837,
      "▁लाग्ने": 2838,
      "▁गरिरहेका": 2839,
      "▁स्त": 2840,
      "ठा": 2841,
      "ीलाई": 2842,
      "▁सिंह": 2843,
      "▁तामा": 2844,
      "▁जति": 2845,
      "▁धन": 2846,
      "▁गर्छन्": 2847,
      "ल्य": 2848,
      "००": 2849,
      "▁चिनि": 2850,
      "▁कलाकार": 2851,
      "▁कथा": 2852,
      "▁चित": 2853,
      "▁सम्भावना": 2854,
      "▁देशको": 2855,
      "▁भन्छन्": 2856,
      "िकेट": 2857,
      "▁जब": 2858,
      "▁कात्तिक": 2859,
      "▁मध्य": 2860,
      "टल": 2861,
      "▁कृष्ण": 2862,
      "▁आन्दोलन": 2863,
      "▁घु": 2864,
      "र्‍": 2865,
      "पको": 2866,
      "▁गठ": 2867,
      "▁घट": 2868,
      "सित": 2869,
      "▁लो": 2870,
      "डान": 2871,
      "▁बालबालिका": 2872,
      "▁आई": 2873,
      "▁तेस": 2874,
      "▁शुभ": 2875,
      "▁असोज": 2876,
      "▁संयोजक": 2877,
      "गो": 2878,
      "मत": 2879,
      "▁अमेरिकी": 2880,
      "कले": 2881,
      "▁च्या": 2882,
      "▁गरेपछि": 2883,
      "्ले": 2884,
      "तबार": 2885,
      "▁राजा": 2886,
      "▁सकिने": 2887,
      "▁शिक्षक": 2888,
      "▁वृद्धि": 2889,
      "▁चिकित्": 2890,
      "▁खेत": 2891,
      "▁सकेको": 2892,
      "▁दिनुभयो": 2893,
      "▁भण्डारी": 2894,
      "नेट": 2895,
      "धे": 2896,
      "चालन": 2897,
      "▁उम्मेदवार": 2898,
      "▁निजी": 2899,
      "कारा": 2900,
      "▁प्रणाली": 2901,
      "राब": 2902,
      "पानी": 2903,
      "▁गर्नुभएको": 2904,
      "डिया": 2905,
      "भु": 2906,
      "▁लिने": 2907,
      "स्ती": 2908,
      "ालले": 2909,
      "▁विवाद": 2910,
      "▁निरन्तर": 2911,
      "▁क्षेत्रको": 2912,
      "▁खेलाडी": 2913,
      "▁प्रतियोगि": 2914,
      "▁लगायतका": 2915,
      "▁भन्नुभयो": 2916,
      "▁यसमा": 2917,
      "्वा": 2918,
      "▁उमेर": 2919,
      "▁सम्ब": 2920,
      "▁बन्न": 2921,
      "▁माथि": 2922,
      "▁सङ्घ": 2923,
      "▁लिएको": 2924,
      "शाख": 2925,
      "▁किसान": 2926,
      "▁प्रविधि": 2927,
      "▁गुण": 2928,
      "▁यसअघि": 2929,
      "▁औष": 2930,
      "▁आम": 2931,
      "सचिव": 2932,
      "▁२२": 2933,
      "▁गरिन्छ": 2934,
      "योजना": 2935,
      "▁तेस्रो": 2936,
      "गरपालिका": 2937,
      "▁फै": 2938,
      "▁राख्ने": 2939,
      "▁भौ": 2940,
      "स्थल": 2941,
      "▁विश्वक": 2942,
      "श्चित": 2943,
      "च्चा": 2944,
      "हल": 2945,
      "मार्ग": 2946,
      "▁लाग्छ": 2947,
      "er": 2948,
      "▁यादव": 2949,
      "▁अभाव": 2950,
      "▁महत्वपूर्ण": 2951,
      "▁अन्त्य": 2952,
      "▁क्लब": 2953,
      "▁गराउने": 2954,
      "▁थालेको": 2955,
      "▁मंगल": 2956,
      "▁शब्द": 2957,
      "▁श्रम": 2958,
      "▁सम्बन्धित": 2959,
      "▁गर्नुपर्छ": 2960,
      "ेता": 2961,
      "▁ढु": 2962,
      "▁आश": 2963,
      "ालि": 2964,
      "▁बनाएको": 2965,
      "ंका": 2966,
      "इरा": 2967,
      "▁पुरा": 2968,
      "▁बजे": 2969,
      "▁२४": 2970,
      "▁कले": 2971,
      "ेवारी": 2972,
      "तै": 2973,
      "▁आफु": 2974,
      "न्त्रिक": 2975,
      "▁सोमबार": 2976,
      "▁टिम": 2977,
      "ित्व": 2978,
      "▁सर्": 2979,
      "▁मधेश": 2980,
      "▁शुक्रबार": 2981,
      "▁मिल्": 2982,
      "▁यात्रा": 2983,
      "सम्बन्धी": 2984,
      "▁सोही": 2985,
      "▁पुनः": 2986,
      "वे": 2987,
      "▁जसले": 2988,
      "नो": 2989,
      "▁प्राथ": 2990,
      "▁सम्पूर्ण": 2991,
      "▁काठमाडौं,": 2992,
      "▁देशमा": 2993,
      "▁गैर": 2994,
      "▁उद्देश्य": 2995,
      "▁रहेछ": 2996,
      "▁प्रचण्ड": 2997,
      "▁एका": 2998,
      "▁अवसरमा": 2999,
      "मले": 3000,
      "▁संरचना": 3001,
      "आर": 3002,
      "कलन": 3003,
      "▁इतिहा": 3004,
      "▁हिमा": 3005,
      "▁बुद्ध": 3006,
      "बाही": 3007,
      "फाइ": 3008,
      "▁दिइ": 3009,
      "▁शरी": 3010,
      "▁साथी": 3011,
      "ाउँदै": 3012,
      "ष्टा": 3013,
      "▁बच": 3014,
      "▁काँग": 3015,
      "▁दिव": 3016,
      "▁टे": 3017,
      "भो": 3018,
      "▁घा": 3019,
      "▁सहकारी": 3020,
      "▁प्राथमिक": 3021,
      "▁पहिचान": 3022,
      "▁ठा": 3023,
      "▁प्रकार": 3024,
      "▁एज": 3025,
      "सव": 3026,
      "स्पर्": 3027,
      "on": 3028,
      "▁जिम्मेवारी": 3029,
      "णी": 3030,
      "▁हेर": 3031,
      "▁कानुन": 3032,
      "▁खरि": 3033,
      "▁स्रोत": 3034,
      "कारात्मक": 3035,
      "ग्री": 3036,
      "ोरी": 3037,
      "ीकरण": 3038,
      "लित": 3039,
      "▁कान": 3040,
      "▁स्वतन्त्र": 3041,
      "रेल": 3042,
      "ोत्": 3043,
      "▁फे": 3044,
      "▁भारतको": 3045,
      "▁२०६": 3046,
      "▁राजनीति": 3047,
      "▁पूर्वा": 3048,
      "ध्या": 3049,
      "▁भाव": 3050,
      "प्ता": 3051,
      "▁कसै": 3052,
      "न्,": 3053,
      "▁पुस्त": 3054,
      "▁बुधबार": 3055,
      "▁बिक्री": 3056,
      "▁बताउँछन्": 3057,
      "▁विवरण": 3058,
      "लर": 3059,
      "टु": 3060,
      "▁नदि": 3061,
      "ंसा": 3062,
      "▁काँग्रेस": 3063,
      "िल्लो": 3064,
      "डो": 3065,
      "▁औं": 3066,
      "▁हस्ता": 3067,
      "न्थ्यो": 3068,
      "▁पृ": 3069,
      "▁प्रशासन": 3070,
      "दु": 3071,
      "▁कारोबार": 3072,
      "▁एकता": 3073,
      "▁स्पष्ट": 3074,
      "े,": 3075,
      "ङ,": 3076,
      "चार्य": 3077,
      "त्कार": 3078,
      "▁आवश्यकता": 3079,
      "an": 3080,
      "शन": 3081,
      "▁बनाएर": 3082,
      "▁कार्की": 3083,
      "▁क्षति": 3084,
      "▁रोजगारी": 3085,
      "▁सामु": 3086,
      "▁याता": 3087,
      "▁आइतबार": 3088,
      "▁समाधान": 3089,
      "▁ओलीले": 3090,
      "▁सिर्": 3091,
      "▁पाएको": 3092,
      "▁गाडी": 3093,
      "▁वर्ग": 3094,
      "▁प्रतिस्पर्": 3095,
      "▁खड्": 3096,
      "तान्त्रिक": 3097,
      "▁यौ": 3098,
      "▁?\n": 3099,
      "एम": 3100,
      "षद्": 3101,
      "▁गराउन": 3102,
      "▁सन्त": 3103,
      "▁२८": 3104,
      "लग्न": 3105,
      "▁खरिद": 3106,
      "वाट": 3107,
      "▁बाध्य": 3108,
      "▁संसार": 3109,
      "▁भट्टराई": 3110,
      "▁देखा": 3111,
      "▁सँग": 3112,
      "▁किलो": 3113,
      "ल,": 3114,
      "▁अन्तर्गत": 3115,
      "▁खुला": 3116,
      "र्‍या": 3117,
      "▁साइ": 3118,
      "ङमा": 3119,
      "ेश्व": 3120,
      "▁धार": 3121,
      "▁पुग्ने": 3122,
      "▁अग्र": 3123,
      "▁निर्देशक": 3124,
      "फो": 3125,
      "–१": 3126,
      "लका": 3127,
      "▁सुझा": 3128,
      "▁पूजा": 3129,
      "▁पारि": 3130,
      "२०": 3131,
      "▁केहि": 3132,
      "▁होइन,": 3133,
      "स्व": 3134,
      "ची": 3135,
      "▁साउन": 3136,
      "▁व्यवसायी": 3137,
      "▁चर्चा": 3138,
      "म्भीर": 3139,
      "धिकरण": 3140,
      "▁आउन": 3141,
      "▁मान्य": 3142,
      "कृष्ट": 3143,
      "▁दिनमा": 3144,
      "▁वरि": 3145,
      "▁कुल": 3146,
      "▁सुनि": 3147,
      "▁जिल्लाको": 3148,
      "▁जनाको": 3149,
      "▁द्व": 3150,
      "▁छन्,": 3151,
      "ष्य": 3152,
      "ालको": 3153,
      "▁२७": 3154,
      "▁घाइ": 3155,
      "▁गम्भीर": 3156,
      "▁आफूलाई": 3157,
      "▁दाबी": 3158,
      "▁दिनु": 3159,
      "▁केपी": 3160,
      "al": 3161,
      "क्रिय": 3162,
      "▁यसका": 3163,
      "▁देउवा": 3164,
      "▁फर्क": 3165,
      "▁वन": 3166,
      "▁अत्य": 3167,
      "▁शनिबार": 3168,
      "▁प्रत्येक": 3169,
      "▁पेश": 3170,
      "▁नव": 3171,
      "▁कम्पनीले": 3172,
      "▁संशोधन": 3173,
      "▁जेठ": 3174,
      "देशिक": 3175,
      "▁हरा": 3176,
      "▁पार्टीको": 3177,
      "दे": 3178,
      "▁राख्न": 3179,
      "सिर": 3180,
      "▁आठ": 3181,
      "▁आकर्ष": 3182,
      "▁ज्यान": 3183,
      "▁समितिले": 3184,
      "▁संलग्न": 3185,
      "▁सभापति": 3186,
      "न्ज": 3187,
      "हे": 3188,
      "▁भन्न": 3189,
      "▁माध्यम": 3190,
      "▁मधेस": 3191,
      "रामी": 3192,
      "▁जापान": 3193,
      "▁कोइरा": 3194,
      "▁बला": 3195,
      "न्दु": 3196,
      "म्परा": 3197,
      "▁अवधि": 3198,
      "▁खबर": 3199,
      "पद": 3200,
      "▁प्राधिकरण": 3201,
      "कृति": 3202,
      "▁अहिलेसम्म": 3203,
      "▁विदेशी": 3204,
      "योजन": 3205,
      "▁उसले": 3206,
      "▁परिण": 3207,
      "सद्": 3208,
      "▁छोरी": 3209,
      "▁गर्नुभयो": 3210,
      "▁भवन": 3211,
      "▁राखेर": 3212,
      "▁त्यस्तो": 3213,
      "▁वर्षीय": 3214,
      "▁शहर": 3215,
      "▁[": 3216,
      "रले": 3217,
      "▁भी": 3218,
      "मात्र": 3219,
      "▁४०": 3220,
      "▁सिर्जना": 3221,
      "काे": 3222,
      "▁संगीत": 3223,
      "▁अरू": 3224,
      "▁२०७५": 3225,
      "▁प्रावि": 3226,
      "▁परीक्षा": 3227,
      "टे": 3228,
      "▁कलेज": 3229,
      "ेसम्म": 3230,
      "न्तरण": 3231,
      "ल्ली": 3232,
      "▁सजि": 3233,
      "▁त्यसलाई": 3234,
      "▁अनुभव": 3235,
      "पूर्व": 3236,
      "▁प्रजा": 3237,
      "▁घण्": 3238,
      "▁२३": 3239,
      "▁परम्परा": 3240,
      "▁खास": 3241,
      "▁प्रशि": 3242,
      "▁बह": 3243,
      "▁ठूला": 3244,
      "▁ऋण": 3245,
      "चन": 3246,
      "न्वय": 3247,
      "▁२९": 3248,
      "▁चै": 3249,
      "▁कसैले": 3250,
      "▁उपाध्यक्ष": 3251,
      "▁कक्षा": 3252,
      "स्थान": 3253,
      "द्र": 3254,
      "ल्दै": 3255,
      "सरी": 3256,
      "▁निर्वाचनमा": 3257,
      "▁चुन": 3258,
      "▁बसेको": 3259,
      "▁पीडित": 3260,
      "▁सपना": 3261,
      "धेयक": 3262,
      "▁भइसकेको": 3263,
      "विरुद्ध": 3264,
      "थी": 3265,
      "हरण": 3266,
      "▁पुरस्कार": 3267,
      "▁मं": 3268,
      "▁बन्ने": 3269,
      "▁समितिको": 3270,
      "पमा": 3271,
      "वसाय": 3272,
      "▁बाबु": 3273,
      "¥या": 3274,
      "▁भक्त": 3275,
      "▁बम": 3276,
      "स,": 3277,
      "▁भ्र": 3278,
      "▁लै": 3279,
      "▁सम्बोधन": 3280,
      "▁ग्रा": 3281,
      "▁ऐन": 3282,
      "▁पाल": 3283,
      "▁मनो": 3284,
      "लेका": 3285,
      "▁विवाह": 3286,
      "िएका": 3287,
      "ौती": 3288,
      "▁बर्": 3289,
      "तालाई": 3290,
      "यो।": 3291,
      "▁वर्षमा": 3292,
      "▁मंगलबार": 3293,
      "बाटै": 3294,
      "▁पहा": 3295,
      "मिट": 3296,
      "▁हरि": 3297,
      "त्रा": 3298,
      "▁यदि": 3299,
      "▁माया": 3300,
      "▁विधेयक": 3301,
      "डमा": 3302,
      "सीले": 3303,
      "▁२००": 3304,
      "]\n": 3305,
      "छु": 3306,
      "▁वे": 3307,
      "▁हट": 3308,
      "▁पुगेका": 3309,
      "▁२६": 3310,
      "ेलु": 3311,
      "▁राजधानी": 3312,
      "▁पश्चिम": 3313,
      "फ्": 3314,
      "▁क्रिकेट": 3315,
      "नेर": 3316,
      "▁आँखा": 3317,
      "ँजी": 3318,
      "र्मिक": 3319,
      "▁घाइते": 3320,
      "▁सानो": 3321,
      "▁कारणले": 3322,
      "▁फु": 3323,
      "ल्ट": 3324,
      "▁लागू": 3325,
      "रीय": 3326,
      "▁आफूले": 3327,
      "▁लागी": 3328,
      "▁आजको": 3329,
      "▁स्थापित": 3330,
      "▁वीर": 3331,
      "▁२०७४": 3332,
      "▁समन्वय": 3333,
      "न्दी": 3334,
      "▁प्रदर्शन": 3335,
      "सीको": 3336,
      "▁प्राविधिक": 3337,
      "▁प्रतियोगिता": 3338,
      "▁संस्कृति": 3339,
      "▁अख": 3340,
      "वटा": 3341,
      "▁सक्दैन": 3342,
      "हरुका": 3343,
      "▁युव": 3344,
      "▁सुन्द": 3345,
      "मका": 3346,
      "मेन्ट": 3347,
      "▁शेयर": 3348,
      "▁कोष": 3349,
      "ेले": 3350,
      "न्तरिक": 3351,
      "▁हामीलाई": 3352,
      "▁मिला": 3353,
      "▁बैठकले": 3354,
      "नुहुन्छ": 3355,
      "▁प्रतिष्ठ": 3356,
      "▁क्षेत्रका": 3357,
      "▁वित्त": 3358,
      "▁एकै": 3359,
      "▁व्यवहार": 3360,
      "▁जम": 3361,
      "मती": 3362,
      "▁नाका": 3363,
      "सिय": 3364,
      "▁इन्टर": 3365,
      "▁संक": 3366,
      "▁यातायात": 3367,
      "▁बनाइ": 3368,
      "जोर": 3369,
      "▁सश": 3370,
      "▁अघ": 3371,
      "▁पाइन्छ": 3372,
      "▁पेट": 3373,
      "सिल": 3374,
      "चेत": 3375,
      "▁उत्कृष्ट": 3376,
      "▁बैंकले": 3377,
      "साब": 3378,
      "▁डो": 3379,
      "ज्ञान": 3380,
      "▁भएन": 3381,
      "▁पूर्वाधार": 3382,
      "▁संगठन": 3383,
      "▁सक्रिय": 3384,
      "▁सालमा": 3385,
      "▁कारबाही": 3386,
      "▁क्षमता": 3387,
      "▁कोरिया": 3388,
      "▁आन्तरिक": 3389,
      "गुन": 3390,
      "▁छिन्": 3391,
      "▁थापाले": 3392,
      "स्कृतिक": 3393,
      "लाले": 3394,
      "विद्यालय": 3395,
      "▁एक्": 3396,
      "सँगको": 3397,
      "▁सुझाव": 3398,
      "▁त्यसमा": 3399,
      "गु": 3400,
      "▁भाइ": 3401,
      "▁सर्वो": 3402,
      "खर": 3403,
      "▁महासंघ": 3404,
      "▁सम्बन्धी": 3405,
      "थो": 3406,
      "र्चा": 3407,
      "क्न": 3408,
      "▁कुन": 3409,
      "▁बिही": 3410,
      "▁बन्": 3411,
      "तियार": 3412,
      "▁\"": 3413,
      "▁छाड": 3414,
      "▁नपा": 3415,
      "▁फुटबल": 3416,
      "▁कर्ण": 3417,
      "▁मज": 3418,
      "▁भनी": 3419,
      "▁आयोजित": 3420,
      "▁निष्": 3421,
      "▁गर्ने,": 3422,
      "▁सकेन": 3423,
      "लाल": 3424,
      "▁अधिकांश": 3425,
      "बाइ": 3426,
      "ण्डा": 3427,
      "▁समितिका": 3428,
      "▁अंक": 3429,
      "ल्लाह": 3430,
      "प्प": 3431,
      "वाज": 3432,
      "ar": 3433,
      "गमन": 3434,
      "▁माघ": 3435,
      "▁हुनुपर्छ": 3436,
      "रीमा": 3437,
      "▁जोख": 3438,
      "नेपाल": 3439,
      "▁बैठकमा": 3440,
      "▁वास्त": 3441,
      "तीमा": 3442,
      "्रे": 3443,
      "ारो": 3444,
      "यो,": 3445,
      "वाल": 3446,
      "▁कार्यकर्ता": 3447,
      "यौं": 3448,
      "▁जरु": 3449,
      "▁अपराध": 3450,
      "▁नसकेको": 3451,
      "▁चितवन": 3452,
      "▁प्रभावित": 3453,
      "▁कार्यक्रमको": 3454,
      "▁लाग्": 3455,
      "▁ट्रा": 3456,
      "्यास": 3457,
      "’,": 3458,
      "ad": 3459,
      "▁पक्षमा": 3460,
      "▁आदेश": 3461,
      "अन्त": 3462,
      "▁योगदान": 3463,
      "▁जरुरी": 3464,
      "वाफ": 3465,
      "▁मन्त्रालयले": 3466,
      "कर्मी": 3467,
      "▁उनीहरू": 3468,
      "▁उदा": 3469,
      "▁सुना": 3470,
      "कन": 3471,
      "ानि": 3472,
      "चारिक": 3473,
      "▁मिति": 3474,
      "इँ": 3475,
      "▁कोही": 3476,
      "▁फेस": 3477,
      "▁मार्फत": 3478,
      "ङले": 3479,
      "▁सम्बन्धमा": 3480,
      "दल": 3481,
      "▁तहको": 3482,
      "▁खाना": 3483,
      "वली": 3484,
      "आई": 3485,
      "ला,": 3486,
      "▁समृद्धि": 3487,
      "▁अधि": 3488,
      "हत": 3489,
      "दानी": 3490,
      "▁स्थिति": 3491,
      "▁ज्ञान": 3492,
      "ृत्ति": 3493,
      "▁समर्थ": 3494,
      "▁बोक": 3495,
      "श्": 3496,
      "▁तिहार": 3497,
      "▁भवि": 3498,
      "▁एउटै": 3499,
      "▁असर": 3500,
      "▁नौ": 3501,
      "▁डु": 3502,
      "▁वस्तु": 3503,
      "▁यौन": 3504,
      "लाका": 3505,
      "at": 3506,
      "▁लक्ष्": 3507,
      "▁गठबन्ध": 3508,
      "▁क्रा": 3509,
      "▁धार्मिक": 3510,
      "▁गरेकी": 3511,
      "लत": 3512,
      "▁दृष्टि": 3513,
      "निर्माण": 3514,
      "धीश": 3515,
      "लन": 3516,
      "▁सध": 3517,
      "▁देशका": 3518,
      "▁चरणमा": 3519,
      "▁पराजित": 3520,
      "▁हुनुपर्ने": 3521,
      "णिज्य": 3522,
      "न्छु": 3523,
      "▁घण्टा": 3524,
      "▁काममा": 3525,
      "▁जोडि": 3526,
      "▁तालिम": 3527,
      "▁किसि": 3528,
      "▁गुना": 3529,
      "▁सहा": 3530,
      "▁कमजोर": 3531,
      "▁तथ्या": 3532,
      "▁खड्का": 3533,
      "▁कामदार": 3534,
      "▁अंग": 3535,
      "▁थिइन्": 3536,
      "▁प्रतिस्पर्धा": 3537,
      "▁नदी": 3538,
      "▁नारायण": 3539,
      "▁शाह": 3540,
      "र्तमान": 3541,
      "▁हुन्छ।": 3542,
      "तीय": 3543,
      "▁रमा": 3544,
      "▁सहभागिता": 3545,
      "रूप": 3546,
      "यता": 3547,
      "▁चिनियाँ": 3548,
      "▁तहमा": 3549,
      "▁धु": 3550,
      "िनी": 3551,
      "▁रू": 3552,
      "▁राखिएको": 3553,
      "▁गुणस्त": 3554,
      "...\t": 3555,
      "घाटन": 3556,
      "पे": 3557,
      "ारमा": 3558,
      "ममा": 3559,
      "सस": 3560,
      "▁सञ्ज": 3561,
      "en": 3562,
      "▁साँझ": 3563,
      "▁राखेको": 3564,
      "▁निर्वाचित": 3565,
      "▁कस्तो": 3566,
      "▁उसको": 3567,
      "▁गरिएका": 3568,
      "▁ल्याउन": 3569,
      "▁श्रेष्ठले": 3570,
      "रीले": 3571,
      "▁बिरामी": 3572,
      "▁विरा": 3573,
      "▁कम्": 3574,
      "▁उपत्य": 3575,
      "▁आम्": 3576,
      "▁हुँ": 3577,
      "▁पुष्": 3578,
      "▁सर्वोच्च": 3579,
      "▁विश्वविद्यालय": 3580,
      "▁चौध": 3581,
      "कुल": 3582,
      "’\n": 3583,
      "▁जोखिम": 3584,
      "छ।": 3585,
      "▁स्थित": 3586,
      "▁शी": 3587,
      "▁आशा": 3588,
      "पुग": 3589,
      "▁आए": 3590,
      "▁जवाफ": 3591,
      "▁हक": 3592,
      "▁प्रचार": 3593,
      "▁सिफ": 3594,
      "▁थियो,": 3595,
      "ल्याण्ड": 3596,
      "▁ब्रा": 3597,
      "▁नप": 3598,
      "▁पार्टीका": 3599,
      "क्षर": 3600,
      "पोर्ट": 3601,
      "अन्तर्": 3602,
      "जर": 3603,
      "▁अस्पतालमा": 3604,
      "रीक्षक": 3605,
      "▁ची": 3606,
      "▁लाइ": 3607,
      "▁भौतिक": 3608,
      "▁तत्कालीन": 3609,
      "मार्फत": 3610,
      "्यू": 3611,
      "▁अभिन": 3612,
      "▁कार्यकारी": 3613,
      "नाई": 3614,
      "▁बिहीबार": 3615,
      "दय": 3616,
      "▁क्रिया": 3617,
      "▁मन्दिर": 3618,
      "▁मतदान": 3619,
      "तः": 3620,
      "▁बोर्ड": 3621,
      "ल्यै": 3622,
      "▁लगाउने": 3623,
      "▁चिन्": 3624,
      "▁कठ": 3625,
      "याधीश": 3626,
      "▁प्रत्यक्ष": 3627,
      "▁जनताले": 3628,
      "साथ": 3629,
      "तिकै": 3630,
      "▁उनीहरु": 3631,
      "▁वित्तीय": 3632,
      "द्द": 3633,
      "र्द": 3634,
      "र्इ": 3635,
      "▁जम्मा": 3636,
      "▁गुमा": 3637,
      "▁आप": 3638,
      "▁उद्ध": 3639,
      "▁अर्का": 3640,
      "रिक": 3641,
      "▁पोखरेल": 3642,
      "▁सन्दर्भ": 3643,
      "▁अल": 3644,
      "▁स्या": 3645,
      "▁वाम": 3646,
      "▁नसक्ने": 3647,
      "▁चिकित्सक": 3648,
      "▁छुट्": 3649,
      "▁हाम्रा": 3650,
      "▁पाउँ": 3651,
      "▁नर": 3652,
      "▁बच्चा": 3653,
      "▁सेना": 3654,
      "▁उपत्यका": 3655,
      "▁‘अ": 3656,
      "▁क्रान्ति": 3657,
      "▁गए": 3658,
      "▁साह": 3659,
      "▁तर्फबाट": 3660,
      "▁नब": 3661,
      "र्षिक": 3662,
      "▁सुख": 3663,
      "▁सल्लाह": 3664,
      "▁पुर्‍या": 3665,
      "▁बराब": 3666,
      "थम": 3667,
      "▁कप": 3668,
      "छन्।": 3669,
      "▁यू": 3670,
      "▁प्रकाशित": 3671,
      "▁नियम": 3672,
      "▁गएका": 3673,
      "▁गावि": 3674,
      "▁उपभो": 3675,
      "▁६०": 3676,
      "▁बढि": 3677,
      "▁भविष्य": 3678,
      "ेली": 3679,
      "▁प्या": 3680,
      "▁अर्थात्": 3681,
      "पर्क": 3682,
      "▁शिव": 3683,
      "▁निम्ति": 3684,
      "ामु": 3685,
      "डे": 3686,
      "▁बलात्कार": 3687,
      "टको": 3688,
      "▁वैशाख": 3689,
      "▁l": 3690,
      "▁सिफारि": 3691,
      "साधारण": 3692,
      "ज्ञा": 3693,
      "जस्ता": 3694,
      "यिका": 3695,
      "▁समावेश": 3696,
      "▁ढि": 3697,
      "▁पस": 3698,
      "पश्च": 3699,
      "▁पु¥या": 3700,
      "▁रेल": 3701,
      "▁काग": 3702,
      "▁विरुद्ध": 3703,
      "कला": 3704,
      "नेको": 3705,
      "▁छैन।": 3706,
      "▁संकलन": 3707,
      "▁नं.": 3708,
      "▁तराई": 3709,
      "▁हेर्न": 3710,
      "▁प्रतिवेदन": 3711,
      "▁परीक्षण": 3712,
      "▁दिइएको": 3713,
      "▁विप": 3714,
      "▁आचार्य": 3715,
      "क्ने": 3716,
      "▁फूल": 3717,
      "न्तु": 3718,
      "▁नियमित": 3719,
      "अन्तर्गत": 3720,
      "▁माइ": 3721,
      "▁सुन्दर": 3722,
      "▁जहाँ": 3723,
      "िने": 3724,
      "टनगर": 3725,
      "र्ख": 3726,
      "▁अने": 3727,
      "▁धारणा": 3728,
      "▁दिएर": 3729,
      "▁बनेका": 3730,
      "▁साता": 3731,
      "▁साउ": 3732,
      "▁सकारात्मक": 3733,
      "ित्त": 3734,
      "▁प्रभावकारी": 3735,
      "▁थियो।\n": 3736,
      "ारम्भ": 3737,
      "▁मले": 3738,
      "▁वर्षा": 3739,
      "▁रन": 3740,
      "▁आयोजक": 3741,
      "जस्तो": 3742,
      "ुट्": 3743,
      "▁सरकारलाई": 3744,
      "▁ल्याएको": 3745,
      "▁अनुमान": 3746,
      "om": 3747,
      "ःख": 3748,
      "▁सत्य": 3749,
      "हरा": 3750,
      "▁बढ्ने": 3751,
      "ँडा": 3752,
      "▁बताउँदै": 3753,
      "▁बताइएको": 3754,
      "▁m": 3755,
      "▁प्": 3756,
      "ाइएको": 3757,
      "धुनिक": 3758,
      "क्य": 3759,
      "लाइन": 3760,
      "▁[...": 3761,
      "▁सहर": 3762,
      "क्षिक": 3763,
      "▁।”\n": 3764,
      "▁चन्द्र": 3765,
      "▁छिम": 3766,
      "▁सत्ता": 3767,
      "st": 3768,
      "गी": 3769,
      "त्न": 3770,
      "नीय": 3771,
      "ानु": 3772,
      "▁भग": 3773,
      "कुर": 3774,
      "▁भन्छन्,": 3775,
      "▁गौतम": 3776,
      "▁फर्कि": 3777,
      "जको": 3778,
      "▁खन": 3779,
      "ज्": 3780,
      "भिजन": 3781,
      "▁गलत": 3782,
      "ानीको": 3783,
      "▁साधन": 3784,
      "▁गायक": 3785,
      "▁उहाँको": 3786,
      "▁जनक": 3787,
      "ञ्चन": 3788,
      "▁सदर": 3789,
      "▁ल्याउने": 3790,
      "▁स्वागत": 3791,
      "▁छौँ": 3792,
      "▁टोलीले": 3793,
      "▁कम्युनिष्ट": 3794,
      "▁गुनासो": 3795,
      "▁छान": 3796,
      "▁साना": 3797,
      "▁[...]\n": 3798,
      "▁हो।\n": 3799,
      "▁औषधि": 3800,
      "▁लाभ": 3801,
      "▁लिग": 3802,
      "दारी": 3803,
      "▁लामा": 3804,
      "▁सुरक्षित": 3805,
      "शक्ति": 3806,
      "▁मेड": 3807,
      "र,": 3808,
      "बुक": 3809,
      "▁मिडिया": 3810,
      "पुरमा": 3811,
      "▁दुख": 3812,
      "),": 3813,
      "▁कालो": 3814,
      "▁प्रवक्ता": 3815,
      "▁दशम": 3816,
      "खो": 3817,
      "▁बद": 3818,
      "▁सम्भव": 3819,
      "▁विद्युत्": 3820,
      "▁भनिएको": 3821,
      "▁पहिरो": 3822,
      "▁2": 3823,
      "▁अग": 3824,
      "▁गोर": 3825,
      "▁टेलि": 3826,
      "▁सञ्चालनमा": 3827,
      "ुली": 3828,
      "▁फोर": 3829,
      "▁कहि": 3830,
      "न्।": 3831,
      "▁राति": 3832,
      "▁अदालत": 3833,
      "▁गएर": 3834,
      "दाता": 3835,
      "सम्मको": 3836,
      "▁थुप": 3837,
      "▁उनीहरुले": 3838,
      "▁परियोजना": 3839,
      "▁उपयोग": 3840,
      "ोजिम": 3841,
      "▁पुनर्": 3842,
      "▁पुर्या": 3843,
      "िकल": 3844,
      "▁थिएँ": 3845,
      "▁की": 3846,
      "▁अहिलेको": 3847,
      "▁बेच": 3848,
      "▁३१": 3849,
      "▁आवाज": 3850,
      "▁मोबाइ": 3851,
      "▁हुनुहुन्छ": 3852,
      "दायिक": 3853,
      "▁युनि": 3854,
      "क्ट": 3855,
      "▁समाजमा": 3856,
      "▁बनाउ": 3857,
      "▁नभए": 3858,
      "▁है": 3859,
      "▁बढ्दै": 3860,
      "▁आयोगले": 3861,
      "▁जिल्लाका": 3862,
      "▁प्रतिनिधिसभा": 3863,
      "▁पाण्ड": 3864,
      "क्षेप": 3865,
      "▁हिजो": 3866,
      "▁सेयर": 3867,
      "िमा": 3868,
      "म्बु": 3869,
      "▁अपे": 3870,
      "▁सिका": 3871,
      "▁संसद्": 3872,
      "▁सहकार्य": 3873,
      "ालो": 3874,
      "▁दुःख": 3875,
      "▁पे": 3876,
      "▁जग": 3877,
      "▁भएपनि": 3878,
      "किस्ता": 3879,
      "▁तस्": 3880,
      "क्कै": 3881,
      "▁बेलायत": 3882,
      "▁पाएका": 3883,
      "▁शैक्षिक": 3884,
      "▁फिर्ता": 3885,
      "▁ब्र": 3886,
      "▁ग्राह": 3887,
      "▁प्रधानमन्त्र": 3888,
      "▁प्रग": 3889,
      "▁पदार्थ": 3890,
      "▁मगर": 3891,
      "▁सिद्धा": 3892,
      "▁भे": 3893,
      "ेन्सी": 3894,
      "▁बसेर": 3895,
      "पचारिक": 3896,
      "▁मिटर": 3897,
      "▁चुनौती": 3898,
      "सू": 3899,
      "▁कहाँ": 3900,
      "▁डाक्टर": 3901,
      "ोका": 3902,
      "▁भर": 3903,
      "▁नो": 3904,
      "▁मान्यता": 3905,
      "▁परिणाम": 3906,
      "▁मध्ये": 3907,
      "▁आक्रमण": 3908,
      "कर": 3909,
      "पुरको": 3910,
      "▁विकासका": 3911,
      "▁तरिका": 3912,
      "▁ठु": 3913,
      "▁वरिष्ठ": 3914,
      "▁लोकतन्त्र": 3915,
      "▁जाँदा": 3916,
      "▁समान": 3917,
      "▁हेर्दा": 3918,
      "▁कडा": 3919,
      "▁प्रतियोगितामा": 3920,
      "िमिर": 3921,
      "▁उद्घाटन": 3922,
      "▁होस्": 3923,
      "▁निर्म": 3924,
      "▁पाउन": 3925,
      "▁बलियो": 3926,
      "▁मोड": 3927,
      "ष्टाचार": 3928,
      "▁सौ": 3929,
      "▁सम्पत्ति": 3930,
      "▁केसी": 3931,
      "▁लागेका": 3932,
      "▁न्यू": 3933,
      "▁सबैको": 3934,
      "▁साधारण": 3935,
      "▁शासन": 3936,
      "▁कुरामा": 3937,
      "▁खेती": 3938,
      "विध": 3939,
      "ेसन": 3940,
      "आफ": 3941,
      "▁खण्ड": 3942,
      "▁सबैलाई": 3943,
      "▁दलित": 3944,
      "▁अनुमति": 3945,
      "▁थालेका": 3946,
      "▁नम": 3947,
      "▁ब्": 3948,
      "▁हिसाब": 3949,
      "दीको": 3950,
      "कलाई": 3951,
      "▁फोन": 3952,
      "▁अधिकारीले": 3953,
      "▁दबा": 3954,
      "कूल": 3955,
      "▁प्रतिबद्ध": 3956,
      "▁पुष्प": 3957,
      "▁हिंसा": 3958,
      "▁झापा": 3959,
      "▁रंग": 3960,
      "▁चर्चित": 3961,
      "▁पञ्च": 3962,
      "▁फागुन": 3963,
      "▁मंसिर": 3964,
      "ेदार": 3965,
      "▁अभिनय": 3966,
      "▁वैदेशिक": 3967,
      "▁हुन्थ्यो": 3968,
      "▁पहल": 3969,
      "▁जाग": 3970,
      "▁दाय": 3971,
      "म्बा": 3972,
      "शुल्क": 3973,
      "▁फाइदा": 3974,
      "बाहेक": 3975,
      "▁t": 3976,
      "▁वार्ता": 3977,
      "▁अम": 3978,
      "ारु": 3979,
      "▁यथा": 3980,
      "ेलिया": 3981,
      "▁आर": 3982,
      "कारि": 3983,
      "▁विधि": 3984,
      "▁लाग्यो": 3985,
      "मिटर": 3986,
      "री,": 3987,
      "▁‘म": 3988,
      "वाही": 3989,
      "▁व्यावसाय": 3990,
      "▁मोटर": 3991,
      "▁बल": 3992,
      "▁शीर्ष": 3993,
      "ङ्गा": 3994,
      "▁लोकतान्त्रिक": 3995,
      "▁कार्यालयमा": 3996,
      "▁प्रदेशसभा": 3997,
      "र्सि": 3998,
      "▁पाए": 3999,
      "▁अा": 4000,
      "ेदेखि": 4001,
      "▁कार्यालयले": 4002,
      "‍यो": 4003,
      "▁उनीहरुको": 4004,
      "▁काठमाडौँ,": 4005,
      "▁फोटो": 4006,
      "पूर्ति": 4007,
      "▁हुन्छ,": 4008,
      "▁३५": 4009,
      "▁छोड": 4010,
      "▁हित": 4011,
      "▁स्वदेश": 4012,
      "धानिक": 4013,
      "▁अत्यन्त": 4014,
      "▁भनेका": 4015,
      "▁बहादुर": 4016,
      "▁कल": 4017,
      "▁शेर": 4018,
      "▁कमि": 4019,
      "यल": 4020,
      "▁सजा": 4021,
      "▁विराटनगर": 4022,
      "▁नेतृत्वको": 4023,
      "▁रण": 4024,
      "▁सर्वसाधारण": 4025,
      "▁संचालन": 4026,
      "▁/": 4027,
      "कामना": 4028,
      "किङ": 4029,
      "▁पाउ": 4030,
      "▁मन्त्रि": 4031,
      "▁धर": 4032,
      "▁सदरमु": 4033,
      "नगर": 4034,
      "▁ढा": 4035,
      "▁भएकोले": 4036,
      "▁बढाउन": 4037,
      "▁घिमिर": 4038,
      "▁मैदान": 4039,
      "▁सम्पाद": 4040,
      "▁उपभोक्ता": 4041,
      "▁आयात": 4042,
      "▁निर्माणको": 4043,
      "▁मुलुकको": 4044,
      "▁S": 4045,
      "▁समेट": 4046,
      "च्छा": 4047,
      "▁तरकारी": 4048,
      "तिहासिक": 4049,
      "▁चढ": 4050,
      "भी": 4051,
      "▁स्म": 4052,
      "▁नेतृत्वमा": 4053,
      "▁पुरानो": 4054,
      "हिनी": 4055,
      "▁छनोट": 4056,
      "▁वर्तमान": 4057,
      "ुकु": 4058,
      "घाट": 4059,
      "▁पाकिस्ता": 4060,
      "▁सामुदायिक": 4061,
      "पर्ने": 4062,
      "र्ब": 4063,
      "▁सामान": 4064,
      "▁नस": 4065,
      "▁मोर्चा": 4066,
      "▁कञ्चन": 4067,
      "▁यात्रु": 4068,
      "▁पदाधिका": 4069,
      "▁विकल्प": 4070,
      "▁जुट": 4071,
      "▁सम्मेलन": 4072,
      "▁पाठ": 4073,
      "▁खि": 4074,
      "कृतिक": 4075,
      "▁अनुगमन": 4076,
      "एल": 4077,
      "रोह": 4078,
      "रका": 4079,
      "▁पारेको": 4080,
      "▁फेसबुक": 4081,
      "फी": 4082,
      "▁पारित": 4083,
      "▁क्याम्प": 4084,
      "▁प्रथम": 4085,
      "लिएको": 4086,
      "▁छिमेकी": 4087,
      "रामा": 4088,
      "▁वाणिज्य": 4089,
      "ोध": 4090,
      "▁तिनी": 4091,
      "▁कतै": 4092,
      "▁आएर": 4093,
      "▁दलका": 4094,
      "▁आम्दानी": 4095,
      "▁मार्ग": 4096,
      "▁चासो": 4097,
      "▁महानगरपालिका": 4098,
      "▁प्रतिष्ठान": 4099,
      "▁चाड": 4100,
      "▁निश्चित": 4101,
      "or": 4102,
      "वाई": 4103,
      "▁सबैले": 4104,
      "▁संविधानसभा": 4105,
      "▁कार्यरत": 4106,
      "▁आफैं": 4107,
      "▁बंग": 4108,
      "▁बुट": 4109,
      "▁आलो": 4110,
      "▁पार्ने": 4111,
      "▁पुल": 4112,
      "द्र्": 4113,
      "▁उदाहरण": 4114,
      "ीया": 4115,
      "▁गर्नका": 4116,
      "▁मानसिक": 4117,
      "यको": 4118,
      "▁सचेत": 4119,
      "▁सभ": 4120,
      "▁सदरमुकाम": 4121,
      "▁प्रसार": 4122,
      "▁पर्दछ": 4123,
      "होर": 4124,
      "▁भ्रष्टाचार": 4125,
      "▁हासिल": 4126,
      "सकेपछि": 4127,
      "▁सामग्री": 4128,
      "गढी": 4129,
      "बीचको": 4130,
      "हारी": 4131,
      "रुपमा": 4132,
      "....": 4133,
      "▁कम्पनीको": 4134,
      "समि": 4135,
      "▁युरो": 4136,
      "र्नु": 4137,
      "हीन": 4138,
      "▁रेडियो": 4139,
      "हण": 4140,
      "▁गरिदि": 4141,
      "चक": 4142,
      "▁मुलुकमा": 4143,
      "त्तै": 4144,
      "▁पृथ": 4145,
      "दन": 4146,
      "▁होटल": 4147,
      "▁नभई": 4148,
      "▁चुना": 4149,
      "▁त्यसैगरी": 4150,
      "▁फल": 4151,
      "▁पहु": 4152,
      "▁दिँदै": 4153,
      "▁राज्यको": 4154,
      "▁हेर्ने": 4155,
      "▁राख्": 4156,
      "▁ज्ञा": 4157,
      "▁कर्जा": 4158,
      "▁विज्ञान": 4159,
      "▁सन्देश": 4160,
      "▁ललित": 4161,
      "लादेश": 4162,
      "▁दोष": 4163,
      "▁गरियो": 4164,
      "▁उपस्थित": 4165,
      "▁मेला": 4166,
      "▁संसदीय": 4167,
      "▁महोत्": 4168,
      "▁भारतले": 4169,
      "पथ": 4170,
      "तिका": 4171,
      "सला": 4172,
      "▁जानु": 4173,
      "ङका": 4174,
      "▁अपेक्षा": 4175,
      "▁स्वय": 4176,
      "▁विकेट": 4177,
      "▁शुल्क": 4178,
      "चौ": 4179,
      "कुद": 4180,
      "▁हैन": 4181,
      "▁उपयुक्त": 4182,
      "▁अनुरोध": 4183,
      "▁1": 4184,
      "▁पर्या": 4185,
      "▁वार्षिक": 4186,
      "▁कहिल्यै": 4187,
      "▁जेल": 4188,
      "▁सन्दर्भमा": 4189,
      "▁ट्या": 4190,
      "कानी": 4191,
      "▁ऐतिहासिक": 4192,
      "न्छ।": 4193,
      "▁बाहेक": 4194,
      "▁युद्ध": 4195,
      "हरूका": 4196,
      "▁डलर": 4197,
      "▁लगाएर": 4198,
      "▁अनुदान": 4199,
      "जिनि": 4200,
      "त,": 4201,
      "▁प्राय": 4202,
      "▁पौडेलले": 4203,
      "सुक": 4204,
      "▁बढाउने": 4205,
      "▁सही": 4206,
      "▁सांस्कृतिक": 4207,
      "▁भूमि": 4208,
      "▁रोजगार": 4209,
      "विद्यु": 4210,
      "ठो": 4211,
      "▁लिएका": 4212,
      "▁लगाएको": 4213,
      "▁दोहो": 4214,
      "▁गाई": 4215,
      "▁पुग्न": 4216,
      "▁उपस्थिति": 4217,
      "▁विकासको": 4218,
      "▁मेगा": 4219,
      "▁पछा": 4220,
      "लीमा": 4221,
      "▁प्रहरीको": 4222,
      "▁न्यून": 4223,
      "मिला": 4224,
      "▁त्यसले": 4225,
      "▁खेलकुद": 4226,
      "▁अघिल्लो": 4227,
      "▁धान": 4228,
      "▁प्रेस": 4229,
      "▁प्रारम्भ": 4230,
      "▁कुमार": 4231,
      "▁—": 4232,
      "▁हिमाल": 4233,
      "▁प्राकृतिक": 4234,
      "र्का": 4235,
      "▁भत्": 4236,
      "ेश्वर": 4237,
      "▁सञ्जाल": 4238,
      "गढ": 4239,
      "ीक": 4240,
      "▁गतिविधि": 4241,
      "▁बाग": 4242,
      "▁मुख्यमन्त्री": 4243,
      "श्र": 4244,
      "▁मन्त्रिपरि": 4245,
      "▁कविता": 4246,
      "▁सरो": 4247,
      "▁ज्या": 4248,
      "▁ते": 4249,
      "ल्ल": 4250,
      "परेको": 4251,
      "भने": 4252,
      "▁विमानस्थल": 4253,
      "▁बढ्": 4254,
      "▁अभिने": 4255,
      "पण": 4256,
      "▁त्यसका": 4257,
      "▁दशमलव": 4258,
      "न्तव्य": 4259,
      "र्पा": 4260,
      "▁समग्र": 4261,
      "एक": 4262,
      "▁निर्धारण": 4263,
      "रे": 4264,
      "ज्ञानिक": 4265,
      "▁गाँ": 4266,
      "▁पुस्तक": 4267,
      "तह": 4268,
      "मेल": 4269,
      "▁लगाउन": 4270,
      "वाला": 4271,
      "▁फ्रा": 4272,
      "▁काठमाण्ड": 4273,
      "बिन": 4274,
      "▁N": 4275,
      "▁कम्युनिस्ट": 4276,
      "▁नगद": 4277,
      "▁साझा": 4278,
      "प्रिय": 4279,
      "▁केन्द्रित": 4280,
      "▁सार": 4281,
      "ore": 4282,
      "▁नसक्": 4283,
      "▁भनाई": 4284,
      "प्रतिनि": 4285,
      "▁गोली": 4286,
      "▁संघर्ष": 4287,
      "▁निर्माणका": 4288,
      "▁छैन,": 4289,
      "▁कर्णाली": 4290,
      "लगायतका": 4291,
      "वधान": 4292,
      "तका": 4293,
      "कोटा": 4294,
      "▁गज": 4295,
      "▁अथ": 4296,
      "▁चिया": 4297,
      "ेकै": 4298,
      "ल्ड": 4299,
      "▁थुप्रै": 4300,
      "▁सम्पर्क": 4301,
      "▁अन्": 4302,
      "▁पार्न": 4303,
      "शाली": 4304,
      "▁भावना": 4305,
      "▁एम": 4306,
      "▁मलेसिया": 4307,
      "▁पहुँच": 4308,
      "▁बन्दै": 4309,
      "▁भोज": 4310,
      "▁थिए।\n": 4311,
      "▁नगर्ने": 4312,
      "▁नगरी": 4313,
      "ंगो": 4314,
      "▁भन्छ": 4315,
      "▁उनीहरूले": 4316,
      "▁ढकाल": 4317,
      "मारी": 4318,
      "▁भर्ना": 4319,
      "▁किलोमिटर": 4320,
      "▁चित्र": 4321,
      "नल": 4322,
      "▁आफै": 4323,
      "ुपयोग": 4324,
      "यनमा": 4325,
      "▁रोक": 4326,
      "▁प्रदेशको": 4327,
      "▁महोत्सव": 4328,
      "राको": 4329,
      "▁जलविद्यु": 4330,
      "▁वर्षदेखि": 4331,
      "▁विनि": 4332,
      "हुँ": 4333,
      "▁स्थायी": 4334,
      "▁कुराकानी": 4335,
      "न्थ": 4336,
      "सिंह": 4337,
      "▁टीका": 4338,
      "▁आउँछ": 4339,
      "राख": 4340,
      "▁सिद्धान्त": 4341,
      "▁उचित": 4342,
      "▁त्यस्ता": 4343,
      "▁भोलि": 4344,
      "▁परिच": 4345,
      "ग्रा": 4346,
      "▁हाँ": 4347,
      "▁पत्रिका": 4348,
      "▁नति": 4349,
      "▁७०": 4350,
      "▁बोला": 4351,
      "गम": 4352,
      "▁शव": 4353,
      "▁दर्जन": 4354,
      "▁कार्तिक": 4355,
      "प्रधान": 4356,
      "▁मर्म": 4357,
      "ढे": 4358,
      "नेटमा": 4359,
      "▁भेला": 4360,
      "▁सरोकार": 4361,
      "▁आयोजनामा": 4362,
      "▁सोध": 4363,
      "▁हालसम्म": 4364,
      "▁आधुनिक": 4365,
      "▁बग": 4366,
      "▁सफलता": 4367,
      "त्ती": 4368,
      "▁गणतन्त्र": 4369,
      "▁जनतालाई": 4370,
      "▁सम्व": 4371,
      "▁बैंकको": 4372,
      "▁गाउँमा": 4373,
      "फिक": 4374,
      "▁ऊर्जा": 4375,
      "▁बैङ्क": 4376,
      "▁यता": 4377,
      "▁बढ्न": 4378,
      "रीका": 4379,
      "क्रो": 4380,
      "▁उनीहरूको": 4381,
      "▁गराएको": 4382,
      "▁मेडिकल": 4383,
      "िल": 4384,
      "▁सै": 4385,
      "षद": 4386,
      "▁इतिहास": 4387,
      "▁गल्": 4388,
      "▁उपाधि": 4389,
      "▁एवम्": 4390,
      "▁लक्ष्मी": 4391,
      "▁प्रगति": 4392,
      "भरि": 4393,
      "द्रा": 4394,
      "▁विजय": 4395,
      "▁अर्ज": 4396,
      "गञ्ज": 4397,
      "▁अर्थतन्त्र": 4398,
      "▁झु": 4399,
      "▁उत्त": 4400,
      "▁अलि": 4401,
      "▁हुन्।": 4402,
      "लीको": 4403,
      "बन्दी": 4404,
      "ेन्स": 4405,
      "▁बौ": 4406,
      "▁समृद्ध": 4407,
      "स्की": 4408,
      "▁जनप्रतिनि": 4409,
      "▁दशक": 4410,
      "▁८०": 4411,
      "▁२०७३": 4412,
      "▁आफन्त": 4413,
      "▁विश्वकप": 4414,
      "ष्णु": 4415,
      "▁दबाब": 4416,
      "▁नहुँदा": 4417,
      "▁क्षेत्रीय": 4418,
      "चन्द्र": 4419,
      "▁प्रो": 4420,
      "▁प्रहार": 4421,
      "▁तिर": 4422,
      "▁भाष": 4423,
      "वात": 4424,
      "र्माले": 4425,
      "▁गर्द": 4426,
      "लाम": 4427,
      "▁व्यक्तिगत": 4428,
      "आइ": 4429,
      "▁पन्त": 4430,
      "▁किश": 4431,
      "ट्टा": 4432,
      "▁निस्क": 4433,
      "▁उत्सा": 4434,
      "▁विद्यार्थ": 4435,
      "▁क्यान्स": 4436,
      "▁सक्छन्": 4437,
      "▁पास": 4438,
      "▁जोग": 4439,
      "ारायण": 4440,
      "▁विजयी": 4441,
      "व्र": 4442,
      "भूत": 4443,
      "▁फेला": 4444,
      "मेश": 4445,
      "वस्था": 4446,
      "्याल": 4447,
      "▁महिलाको": 4448,
      "▁मिनेट": 4449,
      "▁आधारित": 4450,
      "एफ": 4451,
      "▁झन्": 4452,
      "नलमा": 4453,
      "बारी": 4454,
      "बास": 4455,
      "▁त्यसो": 4456,
      "▁राहत": 4457,
      "▁भरत": 4458,
      "माओ": 4459,
      "▁सरकारका": 4460,
      "’को": 4461,
      "▁कट": 4462,
      "▁२०५": 4463,
      "ाई": 4464,
      "▁शुभकामना": 4465,
      "▁महत्": 4466,
      "श्रम": 4467,
      "ियम": 4468,
      "▁जमिन": 4469,
      "▁माथ": 4470,
      "▁सडकमा": 4471,
      "▁प्रतिनिध": 4472,
      "ाउँछ": 4473,
      "it": 4474,
      "दम": 4475,
      "▁औपचारिक": 4476,
      "किने": 4477,
      "▁अन्न": 4478,
      "▁नेपाललाई": 4479,
      "ण्डै": 4480,
      "▁व्यवस्थाप": 4481,
      "मूल": 4482,
      "▁अवधिमा": 4483,
      "न्द्व": 4484,
      "▁मोबाइल": 4485,
      "ेटि": 4486,
      "▁बस्न": 4487,
      "लम्ब": 4488,
      "डिङ": 4489,
      "मावली": 4490,
      "▁दिनको": 4491,
      "▁नभएका": 4492,
      "ाउँदा": 4493,
      "▁वर्षीया": 4494,
      "स्ट्र": 4495,
      "▁P": 4496,
      "▁हिँड": 4497,
      "जे": 4498,
      "▁विविध": 4499,
      "▁अध्या": 4500,
      "▁ठे": 4501,
      "▁सिट": 4502,
      "▁सजिलो": 4503,
      "▁बताए।": 4504,
      "ड्ने": 4505,
      "▁राजदू": 4506,
      "▁भन्नु": 4507,
      "महान": 4508,
      "▁पर्यटकीय": 4509,
      "▁दुबै": 4510,
      "सङ्": 4511,
      "▁४५": 4512,
      "▁तिमी": 4513,
      "▁चैत": 4514,
      "▁चुनावी": 4515,
      "▁अनेक": 4516,
      "चो": 4517,
      "▁महेन्द्र": 4518,
      "▁पार्टीले": 4519,
      "पन्न": 4520,
      "्रु": 4521,
      "▁श्रीमती": 4522,
      "▁ढंग": 4523,
      "भे": 4524,
      "▁मित्र": 4525,
      "▁व्यक्तिको": 4526,
      "७५": 4527,
      "▁सशस्त्र": 4528,
      "र्ती": 4529,
      "पदण्ड": 4530,
      "▁सम्मेलनमा": 4531,
      "▁मिलेर": 4532,
      "▁समारोह": 4533,
      "कारण": 4534,
      "▁तामाङ": 4535,
      "दिने": 4536,
      "▁सिफारिस": 4537,
      "▁प्रतिक्रिया": 4538,
      "▁दिल्ली": 4539,
      "▁विद्यालयमा": 4540,
      "▁शेर्पा": 4541,
      "घु": 4542,
      "es": 4543,
      "उँदा": 4544,
      "▁भारतमा": 4545,
      "▁दाजु": 4546,
      "▁नियन्त्रणमा": 4547,
      "▁महिनामा": 4548,
      "लक": 4549,
      "▁मेल": 4550,
      "▁बनाएका": 4551,
      "▁आउँ": 4552,
      "▁स्थानिय": 4553,
      "चर": 4554,
      "▁जसमा": 4555,
      "▁अनलाइन": 4556,
      "▁निज": 4557,
      "ुरू": 4558,
      "न्टर": 4559,
      "▁अर्थात": 4560,
      "▁मापदण्ड": 4561,
      "पूर्वक": 4562,
      "▁झण्डै": 4563,
      "▁व्यावसायिक": 4564,
      "बे": 4565,
      "र्खा": 4566,
      "शुप": 4567,
      "ेशन": 4568,
      "▁सङ्ग": 4569,
      "▁गोरखा": 4570,
      "▁कैला": 4571,
      "जान": 4572,
      "▁भित्": 4573,
      "▁अदालतले": 4574,
      "▁हुनसक्": 4575,
      "▁उडान": 4576,
      "▁भनिन्छ": 4577,
      "साई": 4578,
      "▁खुसी": 4579,
      "▁उजु": 4580,
      "▁ट्रम्प": 4581,
      "▁३२": 4582,
      "▁महासचिव": 4583,
      "▁हस्तान्तरण": 4584,
      "▁भन्नुभयो,": 4585,
      "▁नगरपालिकाको": 4586,
      "▁काठमाडौंमा": 4587,
      "सुकै": 4588,
      "▁गर्नेछ": 4589,
      "▁चलन": 4590,
      "▁C": 4591,
      "▁गरिरह": 4592,
      "ीकृत": 4593,
      "▁किनभने": 4594,
      "▁आधा": 4595,
      "▁दस": 4596,
      "▁नियुक्त": 4597,
      "क्षेत्र": 4598,
      "▁बसेका": 4599,
      "▁कानुनी": 4600,
      "ङक": 4601,
      "▁प्रतिबद्धता": 4602,
      "▁कानून": 4603,
      "ेलिक": 4604,
      "▁दिउँ": 4605,
      "▁मोर": 4606,
      "▁नतिजा": 4607,
      "कट": 4608,
      "▁टिक": 4609,
      "▁नाटक": 4610,
      "▁तु": 4611,
      "गोल": 4612,
      "▁वर्षअघि": 4613,
      "▁उद्धार": 4614,
      "भाइ": 4615,
      "▁विष्ट": 4616,
      "वार्ड": 4617,
      "▁बिभिन्न": 4618,
      "विन्द": 4619,
      "▁चरणको": 4620,
      "▁स्वीकार": 4621,
      "▁२०७२": 4622,
      "▁दौ": 4623,
      "▁सब": 4624,
      "▁अगाडी": 4625,
      "श्वर": 4626,
      "▁अवि": 4627,
      "▁बीमा": 4628,
      "तावास": 4629,
      "▁चलि": 4630,
      "▁दिवस": 4631,
      "जमा": 4632,
      "Re": 4633,
      "▁काट": 4634,
      "¥यो": 4635,
      "▁विश्ले": 4636,
      "▁दुर": 4637,
      "▁जनजा": 4638,
      "▁जिम्मा": 4639,
      "–२": 4640,
      "▁मुक्त": 4641,
      "▁T": 4642,
      "मा,": 4643,
      "▁तुलनामा": 4644,
      "भाविक": 4645,
      "खेल": 4646,
      "▁पुँजी": 4647,
      "▁दलको": 4648,
      "▁महाधि": 4649,
      "▁अभिभाव": 4650,
      "रुवा": 4651,
      "▁पीडा": 4652,
      "्यता": 4653,
      "▁कमी": 4654,
      "देवी": 4655,
      "▁माओवाद": 4656,
      "▁जय": 4657,
      "▁अमेरिकाको": 4658,
      "ंकन": 4659,
      "▁यसैगरी": 4660,
      "मीले": 4661,
      "टाइ": 4662,
      "ou": 4663,
      "▁अत्या": 4664,
      "विन": 4665,
      "▁काउ": 4666,
      "▁परिचय": 4667,
      "▁मू": 4668,
      "▁एश": 4669,
      "▁बोल": 4670,
      "यन्त्र": 4671,
      "क,": 4672,
      "▁राखेका": 4673,
      "जस्तै": 4674,
      "▁बताएको": 4675,
      "▁प्रवृत्ति": 4676,
      "छी": 4677,
      "र्दै": 4678,
      "गार": 4679,
      "▁घो": 4680,
      "▁तर्क": 4681,
      "▁न्यु": 4682,
      "▁चयन": 4683,
      "गरमा": 4684,
      "▁दै": 4685,
      "डीको": 4686,
      "कृष्ण": 4687,
      "▁जनप्रतिनिधि": 4688,
      "▁बालिका": 4689,
      "▁राजमार्ग": 4690,
      "▁समर्थन": 4691,
      "▁दिदी": 4692,
      "▁धारा": 4693,
      ")\n": 4694,
      "▁बौद्ध": 4695,
      "व्यक्ति": 4696,
      "▁मौलिक": 4697,
      "▁उनि": 4698,
      "▁भाडा": 4699,
      "▁पशुप": 4700,
      "▁करी": 4701,
      "▁सूर्य": 4702,
      "ठी": 4703,
      "▁संघका": 4704,
      "▁सुनु": 4705,
      "▁हस्ताक्षर": 4706,
      "वाइ": 4707,
      "▁सैनिक": 4708,
      "▁व्यापारी": 4709,
      "ङ्ग्र": 4710,
      "▁नआ": 4711,
      "▁संचाल": 4712,
      "क्सी": 4713,
      "▁गरिसकेको": 4714,
      "ल्पना": 4715,
      "▁छिटो": 4716,
      "नीतिक": 4717,
      "वत": 4718,
      "▁सजाय": 4719,
      "▁पृथ्व": 4720,
      "सहितको": 4721,
      "▁यद्य": 4722,
      "▁राणा": 4723,
      "▁कार्यालयका": 4724,
      "हरु,": 4725,
      "▁सन्ता": 4726,
      "▁पहिला": 4727,
      "▁सिन्ध": 4728,
      "▁एकजना": 4729,
      "▁भुक्ता": 4730,
      "▁तथ्य": 4731,
      "▁जहा": 4732,
      "▁जनाएका": 4733,
      "▁बिषय": 4734,
      "▁रगत": 4735,
      "▁थोर": 4736,
      "▁एयर": 4737,
      "▁३३": 4738,
      "▁हार": 4739,
      "▁अथवा": 4740,
      "he": 4741,
      "▁वास्तविक": 4742,
      "▁ठुलो": 4743,
      "▁जनालाई": 4744,
      "▁मुस्": 4745,
      "▁जसरी": 4746,
      "▁अपना": 4747,
      "▁हालै": 4748,
      "नीको": 4749,
      "▁गणेश": 4750,
      "नित": 4751,
      "▁परिस्थिति": 4752,
      "▁केन्द्रका": 4753,
      "▁पदाधिकारी": 4754,
      "▁विकासमा": 4755,
      "▁संविधानको": 4756,
      "▁हाइ": 4757,
      "▁निर्माणमा": 4758,
      "वार्य": 4759,
      "▁डी": 4760,
      "ण्डकी": 4761,
      "▁सङ्घीय": 4762,
      "▁चिन्ता": 4763,
      "▁चो": 4764,
      "▁चीनको": 4765,
      "▁भक्तपुर": 4766,
      "▁एजेन्सी": 4767,
      "▁राजी": 4768,
      "▁आस": 4769,
      "▁‘स": 4770,
      "न्ती": 4771,
      "▁पत्ता": 4772,
      "▁तपाईंको": 4773,
      "▁संस्थाको": 4774,
      "▁इज": 4775,
      "▁जसको": 4776,
      "र्ताको": 4777,
      "▁सप्त": 4778,
      "▁महसु": 4779,
      "▁बाह": 4780,
      "यमा": 4781,
      "कमल": 4782,
      "ic": 4783,
      "▁प्रदेशमा": 4784,
      "▁सहयोगमा": 4785,
      "▁देखिएका": 4786,
      "▁परा": 4787,
      "▁जनकपुर": 4788,
      "▁निरा": 4789,
      "▁परिषद्": 4790,
      "▁अनिवार्य": 4791,
      "ह्रो": 4792,
      "▁रात": 4793,
      "क्रा": 4794,
      "▁यिन": 4795,
      "▁हिसाबले": 4796,
      "▁अभ्यास": 4797,
      "▁बीचमा": 4798,
      "▁हुनाले": 4799,
      "▁हस्त": 4800,
      "▁चौथो": 4801,
      "▁शाही": 4802,
      "इरहेको": 4803,
      "▁विदेशमा": 4804,
      "▁मिनेटमा": 4805,
      "▁संस्थाले": 4806,
      "▁शरीर": 4807,
      "▁पुगेर": 4808,
      "▁पुस्ता": 4809,
      "▁चेत": 4810,
      "▁विभागले": 4811,
      "नन्द": 4812,
      "▁रक्त": 4813,
      "ियर": 4814,
      "ल्पा": 4815,
      "▁खत": 4816,
      "▁मन्त्रालयका": 4817,
      "▁पुस": 4818,
      "▁प्रावधान": 4819,
      "▁मेरा": 4820,
      "▁आलोचना": 4821,
      "देख": 4822,
      "ञ्चल": 4823,
      "▁रासस": 4824,
      "▁पर्याप्त": 4825,
      "नीति": 4826,
      "▁नेपालीको": 4827,
      "▁बराबरको": 4828,
      "▁म्याग्": 4829,
      "ेदन": 4830,
      "होस": 4831,
      "▁मौका": 4832,
      "निया": 4833,
      "▁more": 4834,
      "टिङ": 4835,
      "▁केन्द्रमा": 4836,
      "▁उपमहान": 4837,
      "लार्इ": 4838,
      "▁बमोजिम": 4839,
      "▁अख्": 4840,
      "▁अष्ट्र": 4841,
      "▁समुह": 4842,
      "सामा": 4843,
      "बो": 4844,
      "सिन्दा": 4845,
      "ामुख": 4846,
      "▁शर्माले": 4847,
      "▁पशु": 4848,
      "िन्": 4849,
      "▁दिउँसो": 4850,
      "मिटेड": 4851,
      "प्रमुख": 4852,
      "▁दुर्घटनामा": 4853,
      "▁साझ": 4854,
      "▁बताउनु": 4855,
      "▁गुल्": 4856,
      "▁बुझ्न": 4857,
      "श्वास": 4858,
      "▁सञ्चालक": 4859,
      "▁७५": 4860,
      "शासन": 4861,
      "▁बिच": 4862,
      "भित्रै": 4863,
      "▁तथ्यांक": 4864,
      "▁लोकप्रिय": 4865,
      "्युट": 4866,
      "▁नजिकै": 4867,
      "▁नभएर": 4868,
      "▁रु.": 4869,
      "नुभएका": 4870,
      "▁भन्सार": 4871,
      "▁महाधिवेश": 4872,
      "प्रा": 4873,
      "▁पछाडि": 4874,
      "▁पदमा": 4875,
      "यद": 4876,
      "▁तेल": 4877,
      "▁राजनीतिमा": 4878,
      "▁कमल": 4879,
      "र्घ": 4880,
      "पश्चिम": 4881,
      "▁तलब": 4882,
      "▁विज्ञप्": 4883,
      "▁बसो": 4884,
      "▁गराइ": 4885,
      "▁प्रवाह": 4886,
      "▁अनुहार": 4887,
      "▁सँगै": 4888,
      "मार्ट": 4889,
      "▁म्यु": 4890,
      "ानमा": 4891,
      "▁बुढा": 4892,
      "▁र,": 4893,
      "▁पर्न": 4894,
      "▁थोरै": 4895,
      "▁खोजी": 4896,
      "▁जान्छ": 4897,
      "▁A": 4898,
      "▁पात्र": 4899,
      "▁छै": 4900,
      "▁छे": 4901,
      "▁विस्तृत": 4902,
      "▁राउ": 4903,
      "▁२०४": 4904,
      "▁खानेपानी": 4905,
      "▁इट": 4906,
      "▁मौसम": 4907,
      "क्षम": 4908,
      "बजार": 4909,
      "▁एसिया": 4910,
      "व्या": 4911,
      "ताब": 4912,
      "▁हङक": 4913,
      "टीमा": 4914,
      "▁प्रकारको": 4915,
      "▁रक्षा": 4916,
      "▁बिदा": 4917,
      "▁चुनावमा": 4918,
      "▁न्यायाधीश": 4919,
      "▁नाच": 4920,
      "शाखा": 4921,
      "▁ट्राफिक": 4922,
      "▁दम": 4923,
      "▁कोरि": 4924,
      "▁प्रजातन्त्र": 4925,
      "७४": 4926,
      "संख्या": 4927,
      "▁प्राथमिकता": 4928,
      "▁देखिने": 4929,
      "र्को": 4930,
      "शेष": 4931,
      "▁पाइने": 4932,
      "रात": 4933,
      "▁‘हा": 4934,
      "▁स्वार्थ": 4935,
      "▁पुष्पकमल": 4936,
      "जसो": 4937,
      "▁आएपछि": 4938,
      "▁प्रतिपक्ष": 4939,
      "कोण": 4940,
      "▁आउनु": 4941,
      "▁मेगावाट": 4942,
      "▁लाग्न": 4943,
      "▁कानू": 4944,
      "▁बिका": 4945,
      "▁धन्य": 4946,
      "▁व्यवस्थित": 4947,
      "▁अपा": 4948,
      "▁थिए,": 4949,
      "सै": 4950,
      "▁पढ्न": 4951,
      "▁तल": 4952,
      "▁शेरबहादुर": 4953,
      "स्टर": 4954,
      "्रोल": 4955,
      "भूति": 4956,
      "▁M": 4957,
      "▁विना": 4958,
      "धिकार": 4959,
      "▁p": 4960,
      "▁भोट": 4961,
      "▁देख्न": 4962,
      "युद्ध": 4963,
      "वमा": 4964,
      "▁इच्छा": 4965,
      "जनक": 4966,
      "▁तोकिएको": 4967,
      "▁केसीले": 4968,
      "रहे": 4969,
      "▁घरेलु": 4970,
      "▁भएमा": 4971,
      "▁प्रतियोगिताको": 4972,
      "▁आवास": 4973,
      "वैधानिक": 4974,
      "▁महसुस": 4975,
      "▁जनशक्ति": 4976,
      "▁खुशी": 4977,
      "▁निः": 4978,
      "द्र्धन": 4979,
      "्याउने": 4980,
      "▁टाढा": 4981,
      "▁शो": 4982,
      "▁लिमिटेड": 4983,
      "▁संस्कार": 4984,
      "वर्ष": 4985,
      "न्थे": 4986,
      "▁प्रसाद": 4987,
      "सके": 4988,
      "▁मृत": 4989,
      "▁पाइएको": 4990,
      "▁युरोप": 4991,
      "▁च्याम्प": 4992,
      "▁कास्की": 4993,
      "डको": 4994,
      "ाएका": 4995,
      "▁यसो": 4996,
      "▁थु": 4997,
      "▁स्थल": 4998,
      "▁अमेरिकामा": 4999,
      "▁उत्पन्न": 5000,
      "लागि": 5001,
      "▁सीमित": 5002,
      "आफ्न": 5003,
      "▁कम्तीमा": 5004,
      "▁गरिनेछ": 5005,
      "ूट": 5006,
      "▁जीवनमा": 5007,
      "घर": 5008,
      "▁जाति": 5009,
      "छ,": 5010,
      "▁20": 5011,
      "▁बताए।\n": 5012,
      "▁भयो।": 5013,
      "ंदै": 5014,
      "▁राज्यले": 5015,
      "▁प्रसारण": 5016,
      "▁दिला": 5017,
      "सेवा": 5018,
      "▁कोइराला": 5019,
      "▁साढे": 5020,
      "▁सूच": 5021,
      "▁लगाए": 5022,
      "परा": 5023,
      "▁चाहिँ": 5024,
      "▁गोविन्द": 5025,
      "▁फर": 5026,
      "▁बाढी": 5027,
      "ितो": 5028,
      "▁बिना": 5029,
      "▁माध्यमबाट": 5030,
      "ब्य": 5031,
      "▁खार": 5032,
      "जाने": 5033,
      "▁तोक": 5034,
      "▁बनि": 5035,
      "▁मन्त्रिपरिषद्": 5036,
      "▁त्रिभु": 5037,
      "▁करीब": 5038,
      "माओवादी": 5039,
      "▁बुटवल": 5040,
      "▁हरु": 5041,
      "▁देखाएको": 5042,
      "▁कांग्रेसका": 5043,
      "▁यादवले": 5044,
      "ौला": 5045,
      "▁‘क": 5046,
      "▁भएकी": 5047,
      "▁महत्त्व": 5048,
      "▁९०": 5049,
      "▁उनीहरुलाई": 5050,
      "खित": 5051,
      "▁कामको": 5052,
      "▁उद्देश्यले": 5053,
      "▁सचिवालय": 5054,
      "▁क्य": 5055,
      "चु": 5056,
      "▁एनआर": 5057,
      "▁गाउ": 5058,
      "▁सरस": 5059,
      "▁खेल्ने": 5060,
      "▁यसबाट": 5061,
      "िकार": 5062,
      "▁संगठ": 5063,
      "▁गुरुङले": 5064,
      "▁हप्ता": 5065,
      "▁भरि": 5066,
      "भेद": 5067,
      "▁भण्डारीले": 5068,
      "द्व": 5069,
      "तु": 5070,
      "▁द्वन्द्व": 5071,
      "▁तस्क": 5072,
      "▁निधन": 5073,
      "▁उजुरी": 5074,
      "नलाई": 5075,
      "▁नागरिकता": 5076,
      "▁फोरम": 5077,
      "▁मण्ड": 5078,
      "▁जनसंख्या": 5079,
      "▁बेलामा": 5080,
      "यौँ": 5081,
      "▁छानबिन": 5082,
      "▁चाहना": 5083,
      "▁सेत": 5084,
      "▁अच": 5085,
      "▁अप्": 5086,
      "▁असफल": 5087,
      "▁१९९": 5088,
      "नन्": 5089,
      "▁मन्दि": 5090,
      "▁a": 5091,
      "▁उत्र": 5092,
      "ाल,": 5093,
      "▁कारवाही": 5094,
      "▁औँ": 5095,
      "▁अवार्ड": 5096,
      "्याम": 5097,
      "▁उपचारका": 5098,
      "▁म्यान": 5099,
      "▁सवै": 5100,
      "▁निर्वाचनको": 5101,
      "▁प्रशिक्षण": 5102,
      "▁समाजको": 5103,
      "▁मासु": 5104,
      "▁वैज्ञानिक": 5105,
      "▁व्यक्तिले": 5106,
      "▁परे": 5107,
      "▁सिमा": 5108,
      "▁जाँच": 5109,
      "▁s": 5110,
      "गमा": 5111,
      "▁पुग्": 5112,
      "▁सङ्ख्या": 5113,
      "▁परिचालन": 5114,
      "▁लगातार": 5115,
      "▁आयोजनाको": 5116,
      "▁बंगलादेश": 5117,
      "▁त्रिभुवन": 5118,
      "ाउको": 5119,
      "▁मुटु": 5120,
      "▁टाइ": 5121,
      "▁बाँच": 5122,
      "▁भीम": 5123,
      "▁पर्दैन": 5124,
      "भारत": 5125,
      "इने": 5126,
      ".\n": 5127,
      "▁उसलाई": 5128,
      "▁मानिसको": 5129,
      "▁केवल": 5130,
      "▁अक्": 5131,
      "▁खस": 5132,
      "▁रस": 5133,
      "▁रमाइ": 5134,
      "द्रो": 5135,
      "▁आय": 5136,
      "ईएको": 5137,
      "▁माछा": 5138,
      "▁तीव्र": 5139,
      "ियाली": 5140,
      "स्थलमा": 5141,
      "▁थालेपछि": 5142,
      "▁बोकेर": 5143,
      "▁सिने": 5144,
      "▁बरु": 5145,
      "▁प्रकाशन": 5146,
      "▁गाह्रो": 5147,
      "▁सेवन": 5148,
      "▁देवकोटा": 5149,
      "नीमा": 5150,
      "le": 5151,
      "याली": 5152,
      "▁नम्ब": 5153,
      "▁काल": 5154,
      "▁लडा": 5155,
      "▁प्रशिक्षक": 5156,
      "▁गाविस": 5157,
      "संस्था": 5158,
      "▁महिनाको": 5159,
      "ल्यान्ड": 5160,
      "फि": 5161,
      "▁कतार": 5162,
      "▁सहायक": 5163,
      "▁सकेका": 5164,
      "▁पत्रकारि": 5165,
      "र्खेत": 5166,
      "▁बनाइएको": 5167,
      "▁परराष्ट्र": 5168,
      "लोकन": 5169,
      "▁आह": 5170,
      "▁एकीकृत": 5171,
      "▁मुक्ति": 5172,
      "▁लाल": 5173,
      "होला": 5174,
      "▁विपक्ष": 5175,
      "टीका": 5176,
      "जन्य": 5177,
      "▁गीतमा": 5178,
      "▁मोटरसाइ": 5179,
      "Read": 5180,
      "स्को": 5181,
      "▁प्रतिनिधित्व": 5182,
      "▁प्रमाणपत्र": 5183,
      "▁सन्ध": 5184,
      "▁रचना": 5185,
      "▁व्यापक": 5186,
      "▁मनाइ": 5187,
      "▁नियु": 5188,
      "▁रहेर": 5189,
      "▁सरकारमा": 5190,
      "नाम": 5191,
      "ालका": 5192,
      "▁अख्तियार": 5193,
      "▁मेस": 5194,
      "▁लक्षित": 5195,
      "▁दर्शक": 5196,
      "ाएर": 5197,
      "वार्ता": 5198,
      "▁बर": 5199,
      "▁आनन्द": 5200,
      "▁कार्यक्रमका": 5201,
      "▁प्रे": 5202,
      "▁अप्र": 5203,
      "▁भोग": 5204,
      "ियो": 5205,
      "▁निर्मा": 5206,
      "▁निरन्तरता": 5207,
      "किलो": 5208,
      "▁यहाँका": 5209,
      "▁२०१८": 5210,
      "▁दशैं": 5211,
      "खण्ड": 5212,
      "▁गरे।": 5213,
      "जय": 5214,
      "▁क्रियाकला": 5215,
      "ुट्टा": 5216,
      "▁सफा": 5217,
      "बम": 5218,
      "तीको": 5219,
      "▁समयदेखि": 5220,
      "▁अतिथि": 5221,
      "वीर": 5222,
      "▁रोक्न": 5223,
      "▁सकिएको": 5224,
      "▁पुराना": 5225,
      "▁ढंगले": 5226,
      "भग": 5227,
      "▁नामक": 5228,
      "▁पारेर": 5229,
      "▁गर्छु": 5230,
      "▁आत": 5231,
      "लिया": 5232,
      "▁मानिन्छ": 5233,
      "”\n": 5234,
      "▁संवैधानिक": 5235,
      "द्योग": 5236,
      "न्दे": 5237,
      "▁बारे": 5238,
      "▁दाहालले": 5239,
      "ानै": 5240,
      "▁जर्म": 5241,
      "हुन्थ्यो": 5242,
      "टिल": 5243,
      "▁लगानीकर्ता": 5244,
      "▁नियुक्ति": 5245,
      "▁बिजु": 5246,
      "डर": 5247,
      "▁चरि": 5248,
      "लुङ": 5249,
      "▁मेयर": 5250,
      "भार": 5251,
      "▁निकट": 5252,
      "▁एक्स": 5253,
      "▁घरको": 5254,
      "मण": 5255,
      "ए।": 5256,
      "▁न्यौ": 5257,
      "▁लागु": 5258,
      "छिन्": 5259,
      "▁असन्तु": 5260,
      "▁जन्मि": 5261,
      "▁निर्वाह": 5262,
      "ing": 5263,
      "गण": 5264,
      "▁निस्": 5265,
      "▁माटो": 5266,
      "▁प्ला": 5267,
      "जुर": 5268,
      "▁खाद्य": 5269,
      "▁आइपुग": 5270,
      "▁नवल": 5271,
      "ने,": 5272,
      "्याउन": 5273,
      "▁नगरपालिकाले": 5274,
      "▁व्यस्त": 5275,
      "त्वमा": 5276,
      "वहार": 5277,
      "▁गन्तव्य": 5278,
      "▁ब्याज": 5279,
      "हरुसँग": 5280,
      "▁कार्यमा": 5281,
      "▁बोल्दै": 5282,
      "▁कांग्रेसले": 5283,
      "▁मञ्च": 5284,
      "▁मात्रामा": 5285,
      "▁कसैलाई": 5286,
      "▁सुर्खेत": 5287,
      "▁हिन्द": 5288,
      "म्स": 5289,
      "▁निग": 5290,
      "▁क्यान्सर": 5291,
      "▁बताउनुभएको": 5292,
      "▁म्युजिक": 5293,
      "नाका": 5294,
      "▁बाबुराम": 5295,
      "▁पत्": 5296,
      "▁होट": 5297,
      "▁महिलाले": 5298,
      "▁नाफा": 5299,
      "▁महाशाखा": 5300,
      "▁भुक्तानी": 5301,
      "▁राख्नु": 5302,
      "▁बहस": 5303,
      "▁पर्दा": 5304,
      "नैतिक": 5305,
      "▁मूल्या": 5306,
      "▁संकेत": 5307,
      "▁भ्रमणमा": 5308,
      "ियाँ": 5309,
      "ब्र": 5310,
      "छन्,": 5311,
      "▁तहका": 5312,
      "▁गरिब": 5313,
      "▁भव": 5314,
      "श्रो": 5315,
      "▁हातमा": 5316,
      "▁कुट": 5317,
      "ँ,": 5318,
      "▁अग्": 5319,
      "▁अध्यक्षतामा": 5320,
      "ृति": 5321,
      "▁न्यौपा": 5322,
      "स्तार": 5323,
      "▁काठमाण्डौ": 5324,
      "▁पानीको": 5325,
      "▁दिशा": 5326,
      "▁क्रमश": 5327,
      "▁c": 5328,
      "▁नगरपालिकाका": 5329,
      "िनो": 5330,
      "▁लामि": 5331,
      "▁समुदायको": 5332,
      "▁लेखक": 5333,
      "▁बासिन्दा": 5334,
      "▁सालको": 5335,
      "गाउँ": 5336,
      "नाल्": 5337,
      "वनी": 5338,
      "▁यथार्थ": 5339,
      "▁रिपोर्ट": 5340,
      "▁एकल": 5341,
      "▁जुम्": 5342,
      "▁बेर": 5343,
      "▁रासस\n": 5344,
      "▁सृ": 5345,
      "▁५५": 5346,
      "▁इन्टरनेट": 5347,
      "▁दायित्व": 5348,
      "▁समाजवादी": 5349,
      "▁उपाय": 5350,
      "▁दरबार": 5351,
      "▁घुम्": 5352,
      "िको": 5353,
      "▁हिन्दु": 5354,
      "▁पढ्नु": 5355,
      "▁बस्ती": 5356,
      "▁यद्यपि": 5357,
      "▁खासै": 5358,
      "▁बित": 5359,
      "रल": 5360,
      "ौं,": 5361,
      "र्दा": 5362,
      "▁राईले": 5363,
      "▁काठमाडौ": 5364,
      "▁व्यक्तिलाई": 5365,
      "▁खेलको": 5366,
      "▁निःशुल्क": 5367,
      "परी": 5368,
      "▁लेखा": 5369,
      "▁दृष्टिकोण": 5370,
      "राइ": 5371,
      "▁गराएका": 5372,
      "ईको": 5373,
      "▁रेग्": 5374,
      "फ्ट": 5375,
      "▁मजदुर": 5376,
      "म्बिनी": 5377,
      "▁अर्य": 5378,
      "▁वर्षसम्म": 5379,
      "नुपा": 5380,
      "▁स्कुल": 5381,
      "कालमा": 5382,
      "प्ले": 5383,
      "▁प्रकारका": 5384,
      "हरुबाट": 5385,
      "▁खटि": 5386,
      "पत्रमा": 5387,
      "▁खोजेको": 5388,
      "▁भाषामा": 5389,
      "▁जनाले": 5390,
      "▁देउवाले": 5391,
      "▁कपडा": 5392,
      "मय": 5393,
      "▁लागिएको": 5394,
      "ब्जा": 5395,
      "▁विक्र": 5396,
      "▁कसैको": 5397,
      "▁अदालतमा": 5398,
      "ha": 5399,
      "▁फैसला": 5400,
      "▁साँच": 5401,
      "▁रिय": 5402,
      "बिर": 5403,
      "लिङ": 5404,
      "▁अवै": 5405,
      "▁डेढ": 5406,
      "▁बढ्दो": 5407,
      "ुप्": 5408,
      "▁बताइन्": 5409,
      "▁मधेशी": 5410,
      "▁गतेदेखि": 5411,
      "▁पुगे": 5412,
      "▁समयमै": 5413,
      "▁तार": 5414,
      "ोत्त": 5415,
      "▁लामिछा": 5416,
      "▁भर्खर": 5417,
      "▁बिता": 5418,
      "▁टिप्प": 5419,
      "▁उन्": 5420,
      "▁वि.": 5421,
      "▁विगतमा": 5422,
      "▁इन्जिनि": 5423,
      "झदारी": 5424,
      "▁डिजा": 5425,
      "▁देशभर": 5426,
      "▁संस्थागत": 5427,
      "▁कञ्चनपुर": 5428,
      "गन्ज": 5429,
      "भक्त": 5430,
      "▁राजदूत": 5431,
      "गल": 5432,
      "समिति": 5433,
      "▁स्तर": 5434,
      "▁दिन्छ": 5435,
      "ध्यापक": 5436,
      "▁पुनर्निर्माण": 5437,
      "▁स्वयं": 5438,
      "▁हेट": 5439,
      "▁पाठक": 5440,
      "”,": 5441,
      "▁सेमि": 5442,
      "▁अष्ट्रेलिया": 5443,
      "▁साउदी": 5444,
      "विर": 5445,
      "▁राजस्व": 5446,
      "▁विष्णु": 5447,
      "चे": 5448,
      "▁विधान": 5449,
      "वादको": 5450,
      "▁उपकरण": 5451,
      "▁टिकट": 5452,
      "▁ग्राहक": 5453,
      "▁भ्या": 5454,
      "लिज": 5455,
      "नुपातिक": 5456,
      "▁लगाइ": 5457,
      "▁नगरेको": 5458,
      "▁छुट्टै": 5459,
      "▁खतरा": 5460,
      "▁भट्टराईले": 5461,
      "मीको": 5462,
      "बाबु": 5463,
      "▁हुदै": 5464,
      "▁भारतका": 5465,
      "▁रहन": 5466,
      "▁मिस": 5467,
      "▁एण्ड": 5468,
      "▁सुनिश्चित": 5469,
      "▁चालक": 5470,
      "ेवार": 5471,
      "▁दिनुपर्ने": 5472,
      "ंगी": 5473,
      "▁रातो": 5474,
      "▁प्रदेशका": 5475,
      "▁बनाउनु": 5476,
      "▁किसिमको": 5477,
      "▁प्रकृ": 5478,
      "▁सर्वा": 5479,
      "▁छौ": 5480,
      "▁बैं": 5481,
      "जनको": 5482,
      "▁नारी": 5483,
      "▁दूध": 5484,
      "▁चाँड": 5485,
      "र्चु": 5486,
      "▁...": 5487,
      "▁रौ": 5488,
      "▁पहाडी": 5489,
      "▁जातीय": 5490,
      "स्वा": 5491,
      "▁एमालेका": 5492,
      "▁पुष्टि": 5493,
      "▁टी": 5494,
      "▁निवास": 5495,
      "प्रधानमन्त्री": 5496,
      "▁मेट": 5497,
      "▁सिक": 5498,
      "▁विभा": 5499,
      "▁गृहमन्त्री": 5500,
      "▁गराउ": 5501,
      "▁विद्युत": 5502,
      "▁स्कु": 5503,
      "▁(ए": 5504,
      "▁साथमा": 5505,
      "भोग": 5506,
      "▁आवेदन": 5507,
      "धारणा": 5508,
      "▁बेल्": 5509,
      "▁सुत्": 5510,
      "▁जलविद्युत्": 5511,
      "▁प्रतिवेद": 5512,
      "▁छाप": 5513,
      "▁द्": 5514,
      "▁चे": 5515,
      "is": 5516,
      "▁संघको": 5517,
      "पोख": 5518,
      "ौल": 5519,
      "▁केश": 5520,
      "▁विधा": 5521,
      "▁आफैँ": 5522,
      "▁सल": 5523,
      "▁अल्": 5524,
      "▁आदिवासी": 5525,
      "चाइ": 5526,
      "▁गाउँपालिकाको": 5527,
      "▁d": 5528,
      "▁भेटि": 5529,
      "▁ठीक": 5530,
      "▁त्यतिबेला": 5531,
      "▁कित्": 5532,
      "▁शुरू": 5533,
      "▁मनमा": 5534,
      "लाग्": 5535,
      "▁ओलीको": 5536,
      "यनको": 5537,
      "▁गौर": 5538,
      "▁समानुपातिक": 5539,
      "▁घटनाको": 5540,
      "▁विश्लेषण": 5541,
      "▁संस्थाका": 5542,
      "▁उपमहानगरपालिका": 5543,
      "ंकर": 5544,
      "▁सिक्": 5545,
      "▁रेक": 5546,
      "ड्न": 5547,
      "▁माल": 5548,
      "▁लुम्बिनी": 5549,
      "पकोटा": 5550,
      "▁डर": 5551,
      "गि": 5552,
      "▁उभि": 5553,
      "ँस": 5554,
      "▁मतदाता": 5555,
      "▁महानि": 5556,
      "▁प्रतिशतले": 5557,
      "क्षी": 5558,
      "स्यौ": 5559,
      "ालीको": 5560,
      "▁चेता": 5561,
      "▁रुपियाँ": 5562,
      "▁पठाउने": 5563,
      "▁प्रचण्डले": 5564,
      "ढु": 5565,
      "रामर्श": 5566,
      "▁मैदानमा": 5567,
      "▁छोटो": 5568,
      "▁सापकोटा": 5569,
      "▁३६": 5570,
      "▁औद्योग": 5571,
      "न्टा": 5572,
      "▁चिकित्सा": 5573,
      "▁उपलब्धि": 5574,
      "▁निर्मला": 5575,
      "▁विभागका": 5576,
      "▁भागमा": 5577,
      "▁कुराको": 5578,
      "ग्राही": 5579,
      "▁उता": 5580,
      "▁टाउको": 5581,
      "▁एनआरएन": 5582,
      "▁गुणस्तर": 5583,
      "▁नसक्दा": 5584,
      "▁निर्यात": 5585,
      "▁संक्रमण": 5586,
      "उड": 5587,
      "▁रमेश": 5588,
      "/०": 5589,
      "▁ठो": 5590,
      "▁प्रष्ट": 5591,
      "▁तरिकाले": 5592,
      "केट": 5593,
      "▁नुवा": 5594,
      "स्तरीय": 5595,
      "सल": 5596,
      "▁बालुवा": 5597,
      "वडा": 5598,
      "▁आयोगको": 5599,
      "▁प्रेर": 5600,
      "▁सम्मा": 5601,
      "▁पढाइ": 5602,
      "▁नाय": 5603,
      "▁लगाएका": 5604,
      "मल": 5605,
      "▁सहयोगी": 5606,
      "▁काठमाडौंको": 5607,
      "▁पेट्रोल": 5608,
      "▁त्या": 5609,
      "प्टर": 5610,
      "ण्ट": 5611,
      "▁खारेज": 5612,
      "औं": 5613,
      "▁गायिका": 5614,
      "▁अभिव्यक्ति": 5615,
      "▁मधेसी": 5616,
      "▁आगो": 5617,
      "▁ग्या": 5618,
      "▁चन्द": 5619,
      "हरी": 5620,
      "▁जोडिएको": 5621,
      "▁हावा": 5622,
      "▁मी": 5623,
      "▁पहाड": 5624,
      "न्देही": 5625,
      "▁सत्": 5626,
      "▁गतेसम्म": 5627,
      "वद्ध": 5628,
      "▁स्मार्ट": 5629,
      "्यो।": 5630,
      "▁फोहोर": 5631,
      "▁मनोर": 5632,
      "▁दुर्गा": 5633,
      "ईमा": 5634,
      "▁वर्षका": 5635,
      "▁मारि": 5636,
      "▁सधैं": 5637,
      "▁प्रकृति": 5638,
      "▁आपूर्ति": 5639,
      "▁प्रधानमन्त्रीको": 5640,
      "▁प्रशास": 5641,
      "ion": 5642,
      "▁एफ": 5643,
      "▁हेर्नु": 5644,
      "▁लागेर": 5645,
      "▁बाहिरि": 5646,
      "▁आधारभूत": 5647,
      "▁दुरुपयोग": 5648,
      "▁खालको": 5649,
      "स्ति": 5650,
      "▁भित्र्या": 5651,
      "▁शाक्य": 5652,
      "▁क्षेत्रलाई": 5653,
      "▁रमाइलो": 5654,
      "▁निष्कर्ष": 5655,
      "्लो": 5656,
      "▁ढोका": 5657,
      "▁मल्": 5658,
      "▁मिश्र": 5659,
      "▁दीर्घ": 5660,
      "▁पञ्चा": 5661,
      "नीले": 5662,
      "▁सके": 5663,
      "▁डुब": 5664,
      "▁पसल": 5665,
      "▁राजेन्द्र": 5666,
      "▁कार्यान्वयनमा": 5667,
      "▁हैसिय": 5668,
      "▁राजीनामा": 5669,
      "▁कुकुर": 5670,
      "▁पाई": 5671,
      "▁परामर्श": 5672,
      "▁संस्": 5673,
      "ेलले": 5674,
      "▁चलाउन": 5675,
      "ep": 5676,
      "यान": 5677,
      "▁महिलालाई": 5678,
      "रेको": 5679,
      "▁वृद्ध": 5680,
      "▁साध": 5681,
      "म,": 5682,
      "▁समितिमा": 5683,
      "▁नियमावली": 5684,
      "▁लगभग": 5685,
      "सेव": 5686,
      "▁हल": 5687,
      "▁उम्मेदवारी": 5688,
      "▁जहाज": 5689,
      "▁वेब": 5690,
      "▁यहाँको": 5691,
      "▁कार्यालयको": 5692,
      "▁धन्यवाद": 5693,
      "शाला": 5694,
      "▁तारि": 5695,
      "...\t\n": 5696,
      "▁कुर": 5697,
      "दिएको": 5698,
      "▁बहुमत": 5699,
      "▁जोड्ने": 5700,
      "▁दुइ": 5701,
      "▁कोठा": 5702,
      "▁आन्दोलनमा": 5703,
      "न्नु": 5704,
      "▁मोदी": 5705,
      "▁नगरपालिका–": 5706,
      "▁राजपा": 5707,
      "▁विनियोजन": 5708,
      "▁तनाव": 5709,
      "▁नरहेको": 5710,
      "▁खुट्टा": 5711,
      "बुझ": 5712,
      "हरू,": 5713,
      "▁हतियार": 5714,
      "▁अवधारणा": 5715,
      "उमा": 5716,
      "▁सहि": 5717,
      "▁नराम": 5718,
      "▁मनाउने": 5719,
      "▁गित": 5720,
      "▁मद्द": 5721,
      "▁मन्त्रालयको": 5722,
      "▁समृद्धिको": 5723,
      "▁I": 5724,
      "पात": 5725,
      "▁घटनामा": 5726,
      "▁चेतावनी": 5727,
      "▁सल्लाहकार": 5728,
      "▁पर्ख": 5729,
      "▁टेलिभिजन": 5730,
      "▁बनाई": 5731,
      "ौट": 5732,
      "बाद": 5733,
      "कुरा": 5734,
      "▁सन": 5735,
      "▁बुद्धि": 5736,
      "▁बाटोमा": 5737,
      "▁आउँदा": 5738,
      "▁विजेता": 5739,
      "▁लाइन": 5740,
      "ंख": 5741,
      "▁मस्यौ": 5742,
      "▁गीतको": 5743,
      "ामीण": 5744,
      "शै": 5745,
      "▁‘ए": 5746,
      "्वान": 5747,
      "फोन": 5748,
      "▁नागरिकको": 5749,
      "▁दृश्य": 5750,
      "▁कान्ति": 5751,
      "▁वर्षे": 5752,
      "▁मामिला": 5753,
      "▁प्रबन्ध": 5754,
      "▁बेल": 5755,
      "▁यहि": 5756,
      "▁B": 5757,
      "स्ने": 5758,
      "▁आकाश": 5759,
      "▁चिसो": 5760,
      "▁रोप": 5761,
      "▁जस": 5762,
      "▁कठिन": 5763,
      "क्सन": 5764,
      "▁समाजका": 5765,
      "रै": 5766,
      "▁f": 5767,
      "▁त्यस्तै,": 5768,
      "▁दावी": 5769,
      "▁उदय": 5770,
      "▁नरेन्द्र": 5771,
      "▁बिस्तार": 5772,
      "जत": 5773,
      "थ्य": 5774,
      "कका": 5775,
      "▁खुल्ला": 5776,
      "गरमाथा": 5777,
      "▁फेरी": 5778,
      "▁ठेक्का": 5779,
      "▁मस्यौदा": 5780,
      "▁जसलाई": 5781,
      "▁ग्रहण": 5782,
      "▁ललितपुर": 5783,
      "▁आकर्षण": 5784,
      "▁ग्रामीण": 5785,
      "▁हवाई": 5786,
      "रहने": 5787,
      "▁विश्वका": 5788,
      "रिङ": 5789,
      "▁मल": 5790,
      "नुपर्दछ": 5791,
      "▁भइरहेका": 5792,
      "रिक्त": 5793,
      "▁खेल्न": 5794,
      "▁बढाएको": 5795,
      "व्": 5796,
      "▁टिप्पणी": 5797,
      "काउने": 5798,
      "पुग्": 5799,
      "▁चलेको": 5800,
      "▁अलग": 5801,
      "▁दोश्रो": 5802,
      "▁जटिल": 5803,
      "▁ठेक": 5804,
      "▁देखेर": 5805,
      "र्यो": 5806,
      "▁गयो": 5807,
      "नेन्द्र": 5808,
      "प्रपा": 5809,
      "▁परिवारको": 5810,
      "एसपी": 5811,
      "▁प्रोत्": 5812,
      "▁बसोबास": 5813,
      "▁सेमिफाइ": 5814,
      "ईन": 5815,
      "▁आरोपमा": 5816,
      "▁६५": 5817,
      "▁बेलु": 5818,
      "▁ठहर": 5819,
      "न्यास": 5820,
      "▁गर्भ": 5821,
      "सीमा": 5822,
      "▁बुबा": 5823,
      "ात": 5824,
      "▁चल्": 5825,
      "▁देखी": 5826,
      "▁दूतावास": 5827,
      "▁एन्": 5828,
      "▁सभामुख": 5829,
      "▁कमजो": 5830,
      "▁प्रिय": 5831,
      "▁माथिल्लो": 5832,
      "▁कन्": 5833,
      "▁वर्षपछि": 5834,
      "बन्द": 5835,
      "▁शंका": 5836,
      "▁वृ": 5837,
      "षि": 5838,
      "▁चलाउने": 5839,
      "▁बनाए": 5840,
      "▁लिइ": 5841,
      "▁भगवान": 5842,
      "▁अगुवा": 5843,
      "▁प्ले": 5844,
      "▁पोखरेलले": 5845,
      "माको": 5846,
      "▁‘प्र": 5847,
      "३०": 5848,
      "▁भार": 5849,
      "▁विव": 5850,
      "▁औद्योगिक": 5851,
      "भूमि": 5852,
      "▁निवेदन": 5853,
      "▁परम्परागत": 5854,
      "▁पशुपति": 5855,
      "▁पूँजी": 5856,
      "▁विषयलाई": 5857,
      "▁नृत्य": 5858,
      "▁नदिने": 5859,
      "▁स्मरण": 5860,
      "▁प्रक्रियामा": 5861,
      "दूर": 5862,
      "▁प्रोत्सा": 5863,
      "▁सम्वन्ध": 5864,
      "▁विशि": 5865,
      "▁जनजाति": 5866,
      "▁अश": 5867,
      "▁अतिरिक्त": 5868,
      "दृ": 5869,
      "▁धनी": 5870,
      "▁गठबन्धन": 5871,
      "पल्ट": 5872,
      "मुखी": 5873,
      "▁हुनसक्छ": 5874,
      "▁विकसित": 5875,
      "▁शारी": 5876,
      "ियत": 5877,
      "▁प्रारम्भिक": 5878,
      "▁कुरालाई": 5879,
      "▁चोरी": 5880,
      "▁राखि": 5881,
      "न्डै": 5882,
      "▁माध": 5883,
      "र्छ": 5884,
      "▁शक्तिशाली": 5885,
      "▁सञ्चालित": 5886,
      "▁फ्रान्स": 5887,
      "▁सन्तोष": 5888,
      "▁अस्ति": 5889,
      "▁पठाएको": 5890,
      "▁काभ": 5891,
      "▁नायिका": 5892,
      "तक": 5893,
      "▁रुकु": 5894,
      "हरूसँग": 5895,
      "▁चरित्र": 5896,
      "▁डिभिजन": 5897,
      "▁एमालेले": 5898,
      "आफ्नो": 5899,
      "▁परिवारका": 5900,
      "▁तयारीमा": 5901,
      "▁च्याम्पियन": 5902,
      "▁ध्य": 5903,
      "▁सक्षम": 5904,
      "▁साहित्यकार": 5905,
      "▁यसपटक": 5906,
      "▁त्र": 5907,
      "▁हिन्दू": 5908,
      "धै": 5909,
      "▁जिम्मेवार": 5910,
      "▁अभियानमा": 5911,
      "▁उपरीक्षक": 5912,
      "▁विज्ञा": 5913,
      "▁तै": 5914,
      "▁बोल्": 5915,
      "▁हजुर": 5916,
      "दीप": 5917,
      "▁नोट": 5918,
      "▁कर्मचारीको": 5919,
      "▁गोपाल": 5920,
      "▁भयो,": 5921,
      "▁बैशाख": 5922,
      "▁जागिर": 5923,
      "▁मोह": 5924,
      "▁चीनले": 5925,
      "▁राप्रपा": 5926,
      "▁समझदारी": 5927,
      "▁कदम": 5928,
      "▁सगरमाथा": 5929,
      "▁जनाइएको": 5930,
      "▁क्रो": 5931,
      "▁केन्द्रले": 5932,
      "▁छात्र": 5933,
      "▁समूहले": 5934,
      "▁w": 5935,
      "▁श्रेष्ठ,": 5936,
      "▁परम": 5937,
      "▁थालिएको": 5938,
      "चाहि": 5939,
      "न्यायाधीश": 5940,
      "▁दीपक": 5941,
      "▁राना": 5942,
      "हिरो": 5943,
      "▁सघ": 5944,
      "▁खेल्": 5945,
      "▁अनौ": 5946,
      "लिन": 5947,
      "▁जीवनको": 5948,
      "▁विभेद": 5949,
      "▁किताब": 5950,
      "एमा": 5951,
      "नेका": 5952,
      "▁उत्साह": 5953,
      "▁पूर्वी": 5954,
      "▁आह्वान": 5955,
      "▁माध्य": 5956,
      "▁प्रती": 5957,
      "▁केटा": 5958,
      "▁‘य": 5959,
      "▁शारीरिक": 5960,
      "▁सदस्यीय": 5961,
      "▁पृष्ठ": 5962,
      "क्सा": 5963,
      "चोक": 5964,
      "जनमा": 5965,
      "▁अफि": 5966,
      "▁मासिक": 5967,
      "▁दर्शन": 5968,
      "▁रेख": 5969,
      "मध": 5970,
      "७३": 5971,
      "▁खाली": 5972,
      "ब्बा": 5973,
      "▁सेनाको": 5974,
      "यले": 5975,
      "▁विहान": 5976,
      "हिता": 5977,
      "▁खोटा": 5978,
      "▁चौकी": 5979,
      "नेले": 5980,
      "▁सायद": 5981,
      "▁बाढ": 5982,
      "▁केन्द्रको": 5983,
      "▁जडान": 5984,
      "▁नेपालीले": 5985,
      "▁कोठ": 5986,
      "▁भुट": 5987,
      "▁चौधरी": 5988,
      "▁संघले": 5989,
      "▁कार्कीले": 5990,
      "बहिनी": 5991,
      "▁गर्दछन्": 5992,
      "▁पुर्व": 5993,
      "▁‘प": 5994,
      "▁अवरोध": 5995,
      "▁D": 5996,
      "▁प्रकट": 5997,
      "ईं": 5998,
      "रिव": 5999,
      "▁स्वर": 6000,
      "▁कल्पना": 6001,
      "▁लघु": 6002,
      "▁फिल्ममा": 6003,
      "▁दिनसम्म": 6004,
      "सिद्ध": 6005,
      "▁आकार": 6006,
      "▁पद्ध": 6007,
      "▁अन्तराष्ट्रिय": 6008,
      "मुना": 6009,
      "▁आन्दोलनको": 6010,
      "▁टेलिक": 6011,
      "▁चाँ": 6012,
      "▁पेशा": 6013,
      "▁भत्ता": 6014,
      "ालु": 6015,
      "ङ्गो": 6016,
      "▁चाम": 6017,
      "वृद्धि": 6018,
      "एँ": 6019,
      "▁पाउनु": 6020,
      "ट,": 6021,
      "▁मिल्ने": 6022,
      "▁चालु": 6023,
      "▁(अ": 6024,
      "▁सक्नु": 6025,
      "शास्त्र": 6026,
      "▁चलचित्रमा": 6027,
      "▁टोल": 6028,
      "▁अर्जुन": 6029,
      "▁इलाका": 6030,
      "ent": 6031,
      "▁आयु": 6032,
      "▁अप्ठ": 6033,
      "▁छाया": 6034,
      "्रिक": 6035,
      "▁झन्डै": 6036,
      "▁प्रतिभा": 6037,
      "▁तीज": 6038,
      "▁संख्यामा": 6039,
      "▁गर्नुहोस्": 6040,
      "▁हेरेर": 6041,
      "▁बिग्र": 6042,
      "▁खति": 6043,
      "▁चेक": 6044,
      "▁एकीकरण": 6045,
      "व्यापी": 6046,
      "▁मदन": 6047,
      "▁बरा": 6048,
      "▁गरिसकेका": 6049,
      "▁पोखरामा": 6050,
      "▁नवलपरा": 6051,
      "ारण": 6052,
      "▁राख्दै": 6053,
      "▁२०१७": 6054,
      "भाष": 6055,
      "▁इन": 6056,
      "▁रिज": 6057,
      "▁छ,’": 6058,
      "▁हाउ": 6059,
      "▁उड": 6060,
      "▁कप्ता": 6061,
      "▁तपाईंले": 6062,
      "स्वर": 6063,
      "▁जमा": 6064,
      "▁बर्दि": 6065,
      "▁उनीहरूलाई": 6066,
      "ौली": 6067,
      "▁ठेकेदार": 6068,
      "▁राजनैतिक": 6069,
      "▁कम्प्युट": 6070,
      "▁प्रवद्र्धन": 6071,
      "▁बेल्ज": 6072,
      "▁असह": 6073,
      "चीन": 6074,
      "टार": 6075,
      "▁मोहन": 6076,
      "▁सामना": 6077,
      "▁नया": 6078,
      "▁आकर्षक": 6079,
      "▁टिका": 6080,
      "किएका": 6081,
      "▁यतिबेला": 6082,
      "▁विद्रो": 6083,
      "▁व्यक्तित्व": 6084,
      "▁महानगर": 6085,
      "▁नुवाकोट": 6086,
      "▁सहभागि": 6087,
      "▁खोला": 6088,
      "धारा": 6089,
      "ेसी": 6090,
      "▁श्रो": 6091,
      "न्थी": 6092,
      "▁रेकर्ड": 6093,
      "▁मक": 6094,
      "▁मुद्दामा": 6095,
      "▁संस्थान": 6096,
      "▁हल्ला": 6097,
      "▁जितेको": 6098,
      "▁समी": 6099,
      "नुभन्दा": 6100,
      "पीडित": 6101,
      "▁सेवामा": 6102,
      "▁नेताहरु": 6103,
      "▁चल्ने": 6104,
      "▁तस्बिर": 6105,
      "▁नकारात्मक": 6106,
      "क्ष्": 6107,
      "▁ल्याएर": 6108,
      "▁क्रियाकलाप": 6109,
      "▁रहन्छ": 6110,
      "्रेजी": 6111,
      "▁किनकि": 6112,
      "▁रहनु": 6113,
      "▁परिवारलाई": 6114,
      "▁पराजुली": 6115,
      "▁खतिवडा": 6116,
      "▁बाध्यता": 6117,
      "▁टेक": 6118,
      "▁अस्था": 6119,
      "▁योग्य": 6120,
      "▁चर": 6121,
      "▁रहेकाले": 6122,
      "▁सन्तुल": 6123,
      "ौं।": 6124,
      "▁शिक्षण": 6125,
      "▁सडकको": 6126,
      "▁सेन्टर": 6127,
      "हीँ": 6128,
      "▁प्राधिकरणले": 6129,
      "योग्य": 6130,
      "▁201": 6131,
      "▁विशिष्ट": 6132,
      "▁बिजुली": 6133,
      "▁लिखित": 6134,
      "▁तब": 6135,
      "▁प्रमाणित": 6136,
      "-१": 6137,
      "▁प्रधानमन्त्रीले": 6138,
      "▁बिज": 6139,
      "▁मदि": 6140,
      "मूलक": 6141,
      "▁समयको": 6142,
      "▁आधिका": 6143,
      "▁सुरुवात": 6144,
      "ed": 6145,
      "▁नवी": 6146,
      "▁खण्डमा": 6147,
      "ह्": 6148,
      "▁पाल्": 6149,
      "ानको": 6150,
      "प्रतिको": 6151,
      "▁पुग्छ": 6152,
      "▁मात्रा": 6153,
      "छोरी": 6154,
      "▁क्रि": 6155,
      "▁त्यसरी": 6156,
      "▁सम्पदा": 6157,
      "▁मर्मत": 6158,
      "▁मोटरसाइकल": 6159,
      "▁जंग": 6160,
      "▁सहितको": 6161,
      "▁संसदमा": 6162,
      "▁बचत": 6163,
      "▁खुवा": 6164,
      "▁दलले": 6165,
      "▁अधिवेश": 6166,
      "▁घटेको": 6167,
      "il": 6168,
      "राव": 6169,
      "▁सकिनेछ": 6170,
      "ोषण": 6171,
      "▁हृ": 6172,
      "ँु": 6173,
      "▁माझ": 6174,
      "▁श्रमिक": 6175,
      "▁गर्‍यो": 6176,
      "▁गोर्खा": 6177,
      "▁शता": 6178,
      "▁५१": 6179,
      "▁नगरपालिकामा": 6180,
      "▁इन्द्र": 6181,
      "▁)": 6182,
      "▁३४": 6183,
      "▁सम्पादन": 6184,
      "▁खर्ब": 6185,
      "पान्तरण": 6186,
      "▁अन्नपूर्ण": 6187,
      "दरबार": 6188,
      "क्सि": 6189,
      "▁मद्दत": 6190,
      "▁धनगढी": 6191,
      "काइ": 6192,
      "▁कर्त": 6193,
      "▁स्वीकृत": 6194,
      "▁माधव": 6195,
      "हिक": 6196,
      "▁नाइ": 6197,
      "ेदारी": 6198,
      "▁हस्तक्षेप": 6199,
      "▁कांग्रेसको": 6200,
      "▁धेर": 6201,
      "▁संवाद": 6202,
      "▁ज्ञानेन्द्र": 6203,
      "घरमा": 6204,
      "दीले": 6205,
      "▁सजिलै": 6206,
      "ंदा": 6207,
      "▁ह्या": 6208,
      "▁देवी": 6209,
      "▁३७": 6210,
      "▁दीप": 6211,
      "▁घाटा": 6212,
      "▁गर्थे": 6213,
      "▁उत्तिकै": 6214,
      "माया": 6215,
      "▁स्वस्थ": 6216,
      "▁स्क": 6217,
      "▁नलाग": 6218,
      "▁बाँध": 6219,
      "खेर": 6220,
      "▁न्यूनतम": 6221,
      "▁रहि": 6222,
      "▁परिषद": 6223,
      "▁संयन्त्र": 6224,
      "▁चोक": 6225,
      "▁प्य": 6226,
      "▁कृति": 6227,
      "▁खोज्ने": 6228,
      "▁काँ": 6229,
      "▁संस्थापक": 6230,
      "▁सद्": 6231,
      "▁३८": 6232,
      "सिना": 6233,
      "▁निर्माता": 6234,
      "▁पुग्यो": 6235,
      "▁विशेषज्ञ": 6236,
      "▁ब्रि": 6237,
      "▁शिक्षाको": 6238,
      "▁तथ्याङ्क": 6239,
      "▁रह्यो": 6240,
      "यती": 6241,
      "▁सूची": 6242,
      "▁पुगि": 6243,
      "▁श्रील": 6244,
      "as": 6245,
      "कल्प": 6246,
      "▁सीप": 6247,
      "मण्ड": 6248,
      "▁क्यान": 6249,
      "टाएर": 6250,
      "▁देशलाई": 6251,
      "▁गोप": 6252,
      "▁म्याग्दी": 6253,
      "प्ने": 6254,
      "▁स्थिर": 6255,
      "▁थपि": 6256,
      "▁युवती": 6257,
      "▁स्थग": 6258,
      "फे": 6259,
      "▁शैली": 6260,
      "▁बढेर": 6261,
      "▁नपाउने": 6262,
      "▁युनियन": 6263,
      "▁बेप": 6264,
      "▁तारा": 6265,
      "▁चक्र": 6266,
      "▁मावि": 6267,
      "▁पक्षले": 6268,
      "सिए": 6269,
      "जात": 6270,
      "ञ्जन": 6271,
      "वत्": 6272,
      "कर्षण": 6273,
      "▁H": 6274,
      "हत्या": 6275,
      "▁कार्यविधि": 6276,
      "▁जोश": 6277,
      "▁१००": 6278,
      "▁थाल्यो": 6279,
      "▁खडा": 6280,
      "▁संविधानले": 6281,
      "▁केसीको": 6282,
      "▁संस्करण": 6283,
      "ह्र": 6284,
      "र्प": 6285,
      "▁पहिलोपटक": 6286,
      "▁अबको": 6287,
      "▁बस्दै": 6288,
      "▁गल्ती": 6289,
      "▁अलिक": 6290,
      "▁खाता": 6291,
      "शल": 6292,
      "▁दिनुभएको": 6293,
      "▁अवैध": 6294,
      "▁४२": 6295,
      "▁गुल्मी": 6296,
      "ोस्": 6297,
      "▁मही": 6298,
      "▁लुट": 6299,
      "▁तारिख": 6300,
      "▁सेनाले": 6301,
      "पिट": 6302,
      "▁चर्चामा": 6303,
      "▁लागे": 6304,
      "▁इन्ड": 6305,
      "▁भनिन्,": 6306,
      "__": 6307,
      "स्तृत": 6308,
      "▁श्रीमा": 6309,
      "▁भाउ": 6310,
      "▁पक्कै": 6311,
      "▁जोशी": 6312,
      "▁कित्ता": 6313,
      "ित्तिकै": 6314,
      "▁म्याद": 6315,
      "▁|\n": 6316,
      "क्कली": 6317,
      "▁धनु": 6318,
      "▁सस्तो": 6319,
      "▁गाउँपालिका–": 6320,
      "▁क्षेत्रबाट": 6321,
      "▁सक्छ।": 6322,
      "▁शासक": 6323,
      "▁प्रयोगकर्ता": 6324,
      "▁कसले": 6325,
      "▁आमाको": 6326,
      "छो": 6327,
      "▁नेपालबाट": 6328,
      "▁उपभोग": 6329,
      "वती": 6330,
      "▁प्रय": 6331,
      "▁शू": 6332,
      "लास": 6333,
      "▁उमेरमा": 6334,
      "▁समाप्त": 6335,
      "▁स्टार": 6336,
      "वान्": 6337,
      "▁डिजाइन": 6338,
      "▁कार्ड": 6339,
      "▁सेवाको": 6340,
      "▁लैजाने": 6341,
      "▁अत्यधिक": 6342,
      "दायी": 6343,
      "▁युए": 6344,
      "▁पछ": 6345,
      "ैमा": 6346,
      "▁मातृ": 6347,
      "खाना": 6348,
      "ग्राम": 6349,
      "▁ब्यक्ति": 6350,
      "▁कैद": 6351,
      "▁प्रिम": 6352,
      "▁बिराम": 6353,
      "यौ": 6354,
      "ुक्त": 6355,
      "▁‘आ": 6356,
      "▁सवाल": 6357,
      "▁स्ना": 6358,
      "▁विद्यालयको": 6359,
      "▁धादि": 6360,
      "▁काठ": 6361,
      "▁रिलिज": 6362,
      "▁प्रधानन्यायाधीश": 6363,
      "वित": 6364,
      "▁मुद्रा": 6365,
      "▁तल्लो": 6366,
      "▁आकर्षित": 6367,
      "▁more\n": 6368,
      "▁कपि": 6369,
      "▁आएकी": 6370,
      "भल": 6371,
      "ुञ्ज": 6372,
      "क्रममा": 6373,
      "▁भरतपुर": 6374,
      "▁प्रतिबन्ध": 6375,
      "▁राखी": 6376,
      "▁b": 6377,
      "com": 6378,
      "▁जानुप": 6379,
      "▁मकवान": 6380,
      "ण्डित": 6381,
      "▁स्वरुप": 6382,
      "रूपमा": 6383,
      "ेलको": 6384,
      "▁छनौट": 6385,
      "▁जन्मा": 6386,
      "ङ्गल": 6387,
      "▁धितो": 6388,
      "▁थान": 6389,
      "▁तिम्रो": 6390,
      "▁भेटघाट": 6391,
      "▁हेरि": 6392,
      "▁तिनै": 6393,
      "▁रुख": 6394,
      "▁ब्राजि": 6395,
      "याम": 6396,
      "▁नागरिकलाई": 6397,
      "▁ज्यो": 6398,
      "टी,": 6399,
      "qu": 6400,
      "त्तर": 6401,
      "▁दफा": 6402,
      "िरहेको": 6403,
      "▁उपहार": 6404,
      "कुमारी": 6405,
      "▁माओवादीले": 6406,
      "▁पेस": 6407,
      "नी,": 6408,
      "▁अंग्रेजी": 6409,
      "▁संग्रह": 6410,
      "▁अन्तरि": 6411,
      "▁सन्तान": 6412,
      "▁मोडल": 6413,
      "▁लिए": 6414,
      "▁रुपैया": 6415,
      "▁अवलोकन": 6416,
      "▁परिवारले": 6417,
      "▁प्रविधिको": 6418,
      "▁समूहको": 6419,
      "ुरे": 6420,
      "स्फ": 6421,
      "श्रमिक": 6422,
      "am": 6423,
      "▁गर्यो": 6424,
      "▁जोडी": 6425,
      "शिल": 6426,
      "रा,": 6427,
      "▁ल्याइएको": 6428,
      "▁सँ": 6429,
      "ाउनुपर्ने": 6430,
      "▁भिडियोमा": 6431,
      "▁श्रेष्ठको": 6432,
      "▁भाषण": 6433,
      "▁लेखिएको": 6434,
      "हाले": 6435,
      "जीको": 6436,
      "िरहेका": 6437,
      "▁आयोगका": 6438,
      "▁रसुवा": 6439,
      "▁नेप्": 6440,
      "▁केन्द्रिय": 6441,
      "▁हुनसक्ने": 6442,
      "▁शरीरमा": 6443,
      "▁बेपत्ता": 6444,
      "▁खनालले": 6445,
      "▁अवरुद्ध": 6446,
      "▁बनेर": 6447,
      "▁अभिनेत्री": 6448,
      "काउन": 6449,
      "्यमा": 6450,
      "▁बसि": 6451,
      "ew": 6452,
      "▁सरोकारवाला": 6453,
      "तन": 6454,
      "▁बहिनी": 6455,
      "बासी": 6456,
      "▁नेताले": 6457,
      "▁हुँदैछ": 6458,
      "▁नक्कली": 6459,
      "▁थाइ": 6460,
      "▁जुनसुकै": 6461,
      "▁रुपन्देही": 6462,
      "ालमा": 6463,
      "उनुपर्ने": 6464,
      "▁चलिरहेको": 6465,
      "▁संचार": 6466,
      "▁अस्थायी": 6467,
      "▁सिन्धु": 6468,
      "धीन": 6469,
      "▁नपर्ने": 6470,
      "▁बैंकका": 6471,
      "ेसँग": 6472,
      "▁!\n": 6473,
      "▁भिन्न": 6474,
      "epal": 6475,
      "▁साहित्यिक": 6476,
      "▁ष": 6477,
      "▁दुर्ग": 6478,
      "ag": 6479,
      "▁अरब": 6480,
      "वको": 6481,
      "▁गाउँपालिकाका": 6482,
      "▁.": 6483,
      "च्या": 6484,
      "▁एच": 6485,
      "?\n": 6486,
      "▁दाइ": 6487,
      "▁गुणस्तरीय": 6488,
      "ल्स": 6489,
      "लागी": 6490,
      "▁सिनेमा": 6491,
      "वानी": 6492,
      "रस": 6493,
      "▁तोकेको": 6494,
      "▁नष्ट": 6495,
      "डामा": 6496,
      "▁ध्याना": 6497,
      "िकरण": 6498,
      "▁क्रान्तिकारी": 6499,
      "निर्भर": 6500,
      "▁देखिन": 6501,
      "मला": 6502,
      "पार": 6503,
      "▁हुन्न": 6504,
      "▁हुनेछन्": 6505,
      "उदै": 6506,
      "▁४८": 6507,
      "▁विच": 6508,
      "▁पोष्ट": 6509,
      "▁सम्बन्धि": 6510,
      "▁घट्": 6511,
      "▁२०१६": 6512,
      "▁काउन्": 6513,
      "▁सूचीमा": 6514,
      "पुर,": 6515,
      "वारिक": 6516,
      "▁हौ": 6517,
      "▁अस्वी": 6518,
      "▁महत्त्वपूर्ण": 6519,
      "▁वी": 6520,
      "▁हिँ": 6521,
      "त्मा": 6522,
      "▁अभिभावक": 6523,
      "▁ओभ": 6524,
      "ङ्ग्रेस": 6525,
      "▁हुनेछ।": 6526,
      "▁लागत": 6527,
      "▁चितव": 6528,
      "el": 6529,
      "सङ्घ": 6530,
      "’मा": 6531,
      "▁विसं": 6532,
      "▁गरिन्": 6533,
      "▁काली": 6534,
      "▁प्राप्": 6535,
      "▁सरुवा": 6536,
      "▁थारु": 6537,
      ".५": 6538,
      "टका": 6539,
      "▁अदालतको": 6540,
      "▁आफुले": 6541,
      "▁समस्याको": 6542,
      "▁संवेदन": 6543,
      "▁जनताका": 6544,
      "न्ता": 6545,
      "▁फलफ": 6546,
      "र्जी": 6547,
      "▁उहाँलाई": 6548,
      "▁लैजान": 6549,
      "▁मानिसले": 6550,
      "▁बुवा": 6551,
      "▁कारा": 6552,
      "न्छ,": 6553,
      "▁कोइरालाले": 6554,
      "विहीन": 6555,
      "स्टेक": 6556,
      "▁फुटब": 6557,
      "▁सिर": 6558,
      "▁जनयुद्ध": 6559,
      "▁एल": 6560,
      "दैनन्": 6561,
      "▁छाडेर": 6562,
      "▁विद्यार्थीलाई": 6563,
      "▁अंश": 6564,
      "▁जै": 6565,
      "ट्टै": 6566,
      "ुङ": 6567,
      "▁कृषक": 6568,
      "▁शुक्": 6569,
      "▁बिशेष": 6570,
      "पेक्ष": 6571,
      "▁हटाउन": 6572,
      "▁नायक": 6573,
      "ंग्": 6574,
      "▁कर्मचारीलाई": 6575,
      "सत": 6576,
      "▁किरण": 6577,
      "सम्मका": 6578,
      "▁सर्वाधिक": 6579,
      "▁प्रकरण": 6580,
      "▁दिगो": 6581,
      "▁क्रमशः": 6582,
      "खन": 6583,
      "▁यम": 6584,
      "▁सभामा": 6585,
      "यरको": 6586,
      "▁मानवीय": 6587,
      "▁श्रे": 6588,
      "ूहिक": 6589,
      "▁वायु": 6590,
      "▁बाँड": 6591,
      "▁चलचित्रको": 6592,
      "▁वास्तवमा": 6593,
      "▁आधिकारिक": 6594,
      "फर": 6595,
      "क्वा": 6596,
      "▁चित्त": 6597,
      "–०": 6598,
      "डाको": 6599,
      "▁थापा,": 6600,
      "▁भैरहेको": 6601,
      "▁पछिल्ला": 6602,
      "परिवार": 6603,
      "र्की": 6604,
      "▁विद्युतीय": 6605,
      "▁माध्यमिक": 6606,
      "▁कूट": 6607,
      "रहँदा": 6608,
      "रासस": 6609,
      "▁एकद": 6610,
      "▁विश्वमा": 6611,
      "▁युग": 6612,
      "रिवाना": 6613,
      "स्सा": 6614,
      "▁समयसम्म": 6615,
      "▁हुन्।\n": 6616,
      "डीले": 6617,
      "▁खुलेको": 6618,
      "▁प्रायः": 6619,
      "▁अधिकारको": 6620,
      "▁पढ्ने": 6621,
      "▁अभियोग": 6622,
      ")को": 6623,
      "कर्ताको": 6624,
      "विका": 6625,
      "▁तत्व": 6626,
      "▁o": 6627,
      "▁मुलुकका": 6628,
      "▁बन": 6629,
      "▁एकपटक": 6630,
      "जीवन": 6631,
      "▁ल्याइ": 6632,
      "कां": 6633,
      "७६": 6634,
      "▁खिच": 6635,
      "▁तपाइँ": 6636,
      "▁लगाइएको": 6637,
      "▁शरण": 6638,
      "▁संविधानमा": 6639,
      "▁थापाको": 6640,
      "▁देखाउन": 6641,
      "▁मसा": 6642,
      "े।": 6643,
      "▁रणनीति": 6644,
      "▁राजधानीमा": 6645,
      "▁किसिमका": 6646,
      "▁बिकास": 6647,
      "▁विज्ञापन": 6648,
      "▁अर्थमन्त्री": 6649,
      "▁पारिवारिक": 6650,
      "▁वेला": 6651,
      "ब्ब": 6652,
      "▁लिनु": 6653,
      "▁होम": 6654,
      "▁खालका": 6655,
      "and": 6656,
      "▁जरिवाना": 6657,
      "▁सामूहिक": 6658,
      "▁नपुग": 6659,
      "▁महँग": 6660,
      "'\n": 6661,
      "▁पोखरा,": 6662,
      "▁रहनेछ": 6663,
      "▁कमजोरी": 6664,
      "ें": 6665,
      "▁लम": 6666,
      "▁बिदेश": 6667,
      "स्टि": 6668,
      "ए,": 6669,
      "▁यिनी": 6670,
      "यमित": 6671,
      "▁निकुञ्ज": 6672,
      "▁कर्मचारीले": 6673,
      "▁प्राथमिकतामा": 6674,
      "▁आइरहेको": 6675,
      "सं.": 6676,
      "▁नेताहरुले": 6677,
      "▁सेट": 6678,
      "▁एन्ड": 6679,
      "▁अत्यन्तै": 6680,
      "जाको": 6681,
      "मा\n": 6682,
      "▁आख": 6683,
      "▁बिद्य": 6684,
      "▁अफग": 6685,
      ".com": 6686,
      "▁राम्रा": 6687,
      "हुँदै": 6688,
      "▁पार्टीमा": 6689,
      "▁निजाम": 6690,
      "▁जाँदै": 6691,
      "धर": 6692,
      "▁मधु": 6693,
      "▁दशैँ": 6694,
      "▁नम्बरको": 6695,
      "▁ध्यानाकर्षण": 6696,
      "▁मूल्यमा": 6697,
      "ac": 6698,
      "▁बिहे": 6699,
      "सक्यो": 6700,
      "▁कार्यक्रमलाई": 6701,
      "▁साझेदारी": 6702,
      "▁दिई": 6703,
      "▁प्रा.": 6704,
      "▁भारतबाट": 6705,
      "ट्या": 6706,
      "▁सत्त": 6707,
      "▁पं": 6708,
      "▁»": 6709,
      "▁वर": 6710,
      "▁शिखर": 6711,
      "▁भइसकेका": 6712,
      "छन": 6713,
      "ल्का": 6714,
      "▁देखियो": 6715,
      "लम्बन": 6716,
      "▁कहिलेका": 6717,
      "▁पूरै": 6718,
      "▁लेखेको": 6719,
      "▁बारा": 6720,
      "गरीय": 6721,
      "▁‘ब": 6722,
      "▁दोल": 6723,
      "्चोक": 6724,
      "ख्य": 6725,
      "संगै": 6726,
      "▁गाउँपालिकामा": 6727,
      "क्की": 6728,
      "▁महाधिवेशन": 6729,
      "▁काङ्ग्रेस": 6730,
      "▁कार्यपालिका": 6731,
      "▁जात": 6732,
      "ेन्टि": 6733,
      "▁उन्न": 6734,
      "▁स्वीकृति": 6735,
      "नायक": 6736,
      "▁कार्यकाल": 6737,
      "▁फिल्मको": 6738,
      "▁स्कूल": 6739,
      "▁सुदूर": 6740,
      "▁सिरि": 6741,
      "▁स्वच्छ": 6742,
      "▁नसकिने": 6743,
      "▁विद्यार्थीको": 6744,
      "▁युट": 6745,
      "▁अपहरण": 6746,
      "हरूबाट": 6747,
      "et": 6748,
      "▁अनुभूति": 6749,
      "▁पुग्दा": 6750,
      "▁दिनदेखि": 6751,
      "▁भर्खरै": 6752,
      "▁महतो": 6753,
      "▁टुंगो": 6754,
      "भरी": 6755,
      "▁तन": 6756,
      "▁दुईवटा": 6757,
      "▁४१": 6758,
      "▁नमा": 6759,
      "फाई": 6760,
      "▁अस्ट्र": 6761,
      "▁सुन्न": 6762,
      "▁कौ": 6763,
      "▁नैतिक": 6764,
      "ेन्ड": 6765,
      "षाध्यक्ष": 6766,
      "▁नराम्रो": 6767,
      "हिर": 6768,
      "▁स्वर्ग": 6769,
      "▁मन्दिरमा": 6770,
      "▁ग्राम": 6771,
      "▁वर्षभित्र": 6772,
      "र्पण": 6773,
      "धारित": 6774,
      "चाह": 6775,
      "▁पारिश्रमिक": 6776,
      "म्की": 6777,
      "टले": 6778,
      "▁एकदमै": 6779,
      "▁re": 6780,
      "▁खराब": 6781,
      "▁मुस्ता": 6782,
      "▁ठाकुर": 6783,
      "▁‘नेपाल": 6784,
      "▁रनको": 6785,
      "▁साँच्च": 6786,
      "▁मिल": 6787,
      "▁आशंका": 6788,
      "▁दोषी": 6789,
      "पन्थी": 6790,
      "▁ध्व": 6791,
      "▁धेरैले": 6792,
      "▁पोस्ट": 6793,
      "▁बस्त": 6794,
      "▁तुलसी": 6795,
      "र्दिक": 6796,
      "▁प्रतिवद्ध": 6797,
      "▁पाठ्य": 6798,
      "र्ना": 6799,
      "▁सद्भाव": 6800,
      "▁४४": 6801,
      "▁चाहन्छु": 6802,
      "▁चालू": 6803,
      "▁स्वर्ण": 6804,
      "▁बजेसम्म": 6805,
      "▁दरले": 6806,
      "▁कुरो": 6807,
      "दत्त": 6808,
      "वस्तु": 6809,
      "▁अवस्थित": 6810,
      "वरी": 6811,
      "पाल्चोक": 6812,
      "▁महानगरीय": 6813,
      "▁बृह": 6814,
      "▁खनाल": 6815,
      "पर्छ": 6816,
      "▁कम्पनीका": 6817,
      "▁५२": 6818,
      "▁जिन्द": 6819,
      "उप": 6820,
      "▁मानिसहरु": 6821,
      "▁चाहेको": 6822,
      "काएर": 6823,
      "▁कल्या": 6824,
      "पले": 6825,
      "▁बढिरहेको": 6826,
      "▁कालि": 6827,
      "▁छोराछोरी": 6828,
      "ण्डको": 6829,
      "यात्रा": 6830,
      "▁निरीक्षक": 6831,
      "इरहेका": 6832,
      "स्थापित": 6833,
      "▁सिद्ध": 6834,
      "▁सशक्त": 6835,
      "▁पालना": 6836,
      "▁गुरुङ,": 6837,
      "▁आसपा": 6838,
      "▁प्रशस्त": 6839,
      "▁गंगा": 6840,
      "▁खड्काले": 6841,
      "▁रोकि": 6842,
      "▁छठ": 6843,
      "▁क्वा": 6844,
      "माध्यम": 6845,
      "▁निम": 6846,
      "▁हार्दिक": 6847,
      "▁गिरि": 6848,
      "▁कोठामा": 6849,
      "▁फाउ": 6850,
      "▁कार्यालय,": 6851,
      "▁समीक्षा": 6852,
      "▁काठमाडा": 6853,
      "▁४३": 6854,
      "लोक": 6855,
      "▁भेट्न": 6856,
      "▁सुशासन": 6857,
      "▁पला": 6858,
      "▁घन्टा": 6859,
      "▁(१": 6860,
      "गन": 6861,
      "▁अह": 6862,
      "▁निक्षेप": 6863,
      "▁सेतो": 6864,
      "▁कप्तान": 6865,
      "खल": 6866,
      "▁समारोहमा": 6867,
      "▁गजल": 6868,
      "योर्क": 6869,
      "▁व्याख्या": 6870,
      "▁निम्न": 6871,
      "▁दोलखा": 6872,
      "प्ट": 6873,
      "▁तस": 6874,
      "▁मान्ने": 6875,
      "ro": 6876,
      "▁कानूनी": 6877,
      "▁देखिए": 6878,
      "▁अल्प": 6879,
      "डिएको": 6880,
      "▁३९": 6881,
      "▁त्यसकारण": 6882,
      "▁पुनःनिर्माण": 6883,
      "वक्ता": 6884,
      "▁हकमा": 6885,
      "▁बर्षको": 6886,
      "▁गराउनु": 6887,
      "▁रोल्पा": 6888,
      "▁भेटिएको": 6889,
      "नस": 6890,
      "▁वस": 6891,
      "▁सरकारसँग": 6892,
      "▁काँग्रेसका": 6893,
      "स्वास्थ्य": 6894,
      "▁नेट": 6895,
      "▁उहाँका": 6896,
      "▁विवेक": 6897,
      "पार्क": 6898,
      "ंस": 6899,
      "▁कर्तव्य": 6900,
      "▁तपाईंलाई": 6901,
      "▁प्रशंसा": 6902,
      "▁राई,": 6903,
      "▁गुट": 6904,
      "गरि": 6905,
      "।’\n": 6906,
      "▁पुलि": 6907,
      "▁कामना": 6908,
      "कता": 6909,
      "▁दान": 6910,
      "▁आदान": 6911,
      "▁रत्न": 6912,
      "▁राष्ट्रको": 6913,
      "▁उस्तै": 6914,
      "▁बाम": 6915,
      "▁गरिए": 6916,
      "▁गर्दैन": 6917,
      "▁सहायता": 6918,
      "त:": 6919,
      "▁स्वतन्त्रता": 6920,
      "▁गौतमले": 6921,
      "▁सेवाग्राही": 6922,
      "▁समाजले": 6923,
      "▁शास्त्र": 6924,
      "▁संस्थामा": 6925,
      "▁वडाध्यक्ष": 6926,
      "▁बाली": 6927,
      "थर": 6928,
      "ेरा": 6929,
      "▁पदक": 6930,
      "▁छोडेर": 6931,
      "प्टे": 6932,
      "▁लाभा": 6933,
      "काको": 6934,
      "शेर": 6935,
      "▁रामचन्द्र": 6936,
      "▁प्रयत्न": 6937,
      "▁राती": 6938,
      "▁प्रहरीका": 6939,
      "सनको": 6940,
      "▁कन्स": 6941,
      "▁अस्पतालको": 6942,
      "▁रिस": 6943,
      "▁शिक्षा,": 6944,
      "▁पति": 6945,
      "▁पवि": 6946,
      "▁रानी": 6947,
      "▁सिंहले": 6948,
      "▁कान्छ": 6949,
      "▁नेपाल,": 6950,
      "▁ब्यवस्था": 6951,
      "▁रू.": 6952,
      "चाहिँ": 6953,
      "▁भानु": 6954,
      "▁वार": 6955,
      "▁आ–": 6956,
      "▁निकायको": 6957,
      "▁भविष्यमा": 6958,
      "▁सिम": 6959,
      "दिए": 6960,
      "▁गर्नै": 6961,
      "▁खासगरी": 6962,
      "्छन्": 6963,
      "▁५६": 6964,
      "▁पाल्पा": 6965,
      "▁निर्णा": 6966,
      "▁कुखु": 6967,
      "▁भिड": 6968,
      "▁सिन्धुपाल्चोक": 6969,
      "▁देखाउने": 6970,
      "▁बन्यो": 6971,
      "▁स्थानीयले": 6972,
      "▁प्रस्तुति": 6973,
      "▁सुरुमा": 6974,
      "यू": 6975,
      "दको": 6976,
      "▁आफुलाई": 6977,
      "▁रवि": 6978,
      "▁जगत": 6979,
      "▁पत्रकारिता": 6980,
      "▁दियो": 6981,
      "▁कैलाली": 6982,
      "इको": 6983,
      "▁सक्नुहुन्छ": 6984,
      "उँछन्": 6985,
      "विद्": 6986,
      "▁लिम्बु": 6987,
      "▁संगै": 6988,
      "▁छिट्टै": 6989,
      "▁नदीमा": 6990,
      "साधन": 6991,
      "▁करिव": 6992,
      "▁&": 6993,
      "▁बनाउँदै": 6994,
      "भ्": 6995,
      "▁चर्को": 6996,
      "▁इन्ध": 6997,
      "▁ढुंग": 6998,
      "▁इन्टरने": 6999,
      "▁मदिरा": 7000,
      "▁कल्याण": 7001,
      "▁पाण्डे": 7002,
      "▁शून्य": 7003,
      "▁अपराधी": 7004,
      "ँदे": 7005,
      "▁लेखेका": 7006,
      "▁लोड": 7007,
      "▁बिषयमा": 7008,
      "un": 7009,
      "सी,": 7010,
      "काई": 7011,
      "▁तपाईको": 7012,
      "00": 7013,
      "▁चोट": 7014,
      "▁अग्रता": 7015,
      "▁कामका": 7016,
      "▁असल": 7017,
      "पक्षीय": 7018,
      "हिने": 7019,
      "▁ठिक": 7020,
      "▁चिन्त": 7021,
      "▁लेख्न": 7022,
      "▁स्थगित": 7023,
      "ँचो": 7024,
      "सरकारी": 7025,
      "्वाइ": 7026,
      "ेमी": 7027,
      "▁दिनुपर्छ": 7028,
      "▁स्वाभाविक": 7029,
      "▁पठाउन": 7030,
      "माल": 7031,
      "▁आत्महत्या": 7032,
      "संर": 7033,
      "▁संवेदनशील": 7034,
      "▁परिक": 7035,
      "▁समायोजन": 7036,
      "▁डिजि": 7037,
      "▁ट्": 7038,
      "▁उत्तम": 7039,
      "▁प्रस": 7040,
      "▁मन्त्रालयमा": 7041,
      "▁गण्डकी": 7042,
      "ग्रस्त": 7043,
      "▁झि": 7044,
      "▁बस्नेत": 7045,
      "▁चेतना": 7046,
      "▁परिणत": 7047,
      "औँ": 7048,
      "राय": 7049,
      "▁सिल": 7050,
      "▁समुदायका": 7051,
      "▁भरमा": 7052,
      "▁प्रब": 7053,
      "▁तातो": 7054,
      "▁क्षेत्रफल": 7055,
      "▁सिंहदरबार": 7056,
      "स्पद": 7057,
      "▁रोकिएको": 7058,
      "▁हिमाली": 7059,
      "▁भिसा": 7060,
      "▁निर्णायक": 7061,
      "▁शुद्ध": 7062,
      "जले": 7063,
      "▁आद": 7064,
      "▁गै": 7065,
      "▁गुप्": 7066,
      "▁निर्वाचनका": 7067,
      "▁मङ्": 7068,
      "▁कुराहरु": 7069,
      "स्न": 7070,
      "▁तसर्थ": 7071,
      "नुको": 7072,
      "▁विशाल": 7073,
      "▁पण्डित": 7074,
      "▁किशोर": 7075,
      "गं": 7076,
      "पट": 7077,
      "▁त्यहाँको": 7078,
      "▁सभाको": 7079,
      "▁ढकालले": 7080,
      "▁ग¥यो": 7081,
      "▁बानी": 7082,
      "▁सम्मानित": 7083,
      "▁संघीयता": 7084,
      "▁सत": 7085,
      "लिम": 7086,
      "▁गएपछि": 7087,
      "गोलिक": 7088,
      "▁हद": 7089,
      "▁उपप्रमुख": 7090,
      "लाग्दो": 7091,
      "▁निवासी": 7092,
      "▁विष": 7093,
      "▁एकताको": 7094,
      "▁बनाउँछ": 7095,
      "▁गरेमा": 7096,
      "सेन": 7097,
      "▁हिउँ": 7098,
      "▁वर्ण": 7099,
      "▁सुनसरी": 7100,
      "▁विमानस्थलमा": 7101,
      "▁F": 7102,
      "भौ": 7103,
      "▁चाहन्छ": 7104,
      "▁बोकेको": 7105,
      "ह्न": 7106,
      "मुनि": 7107,
      "▁बाहु": 7108,
      "▁गतिमा": 7109,
      "▁तुरु": 7110,
      "वृत्ति": 7111,
      "▁उद": 7112,
      "▁थियौं": 7113,
      "▁त्याग": 7114,
      "▁प्रहरीलाई": 7115,
      "मुक्त": 7116,
      "▁राम्रै": 7117,
      "▁श्रीमान": 7118,
      "▁दसैं": 7119,
      "▁ग्यास": 7120,
      "▁झो": 7121,
      "▁वटै": 7122,
      "▁जित्न": 7123,
      "याको": 7124,
      "▁गोक": 7125,
      "▁जला": 7126,
      "▁बस्नेतले": 7127,
      "केको": 7128,
      "▁नगर्न": 7129,
      "▁रोगको": 7130,
      "▁भव्य": 7131,
      "हको": 7132,
      "–२०": 7133,
      "▁अभावमा": 7134,
      "काउ": 7135,
      "लोड": 7136,
      "▁सुरक्षाको": 7137,
      "▁उत्तरी": 7138,
      "▁बोल्न": 7139,
      "ानामा": 7140,
      "▁ब्यब": 7141,
      "▁प्रि": 7142,
      "▁तिहा": 7143,
      "▁कमिटी": 7144,
      "▁फ्": 7145,
      "▁भारी": 7146,
      "▁फाइनल": 7147,
      "▁विद्यार्थीले": 7148,
      "▁हृदय": 7149,
      "▁पह": 7150,
      "▁ओम": 7151,
      "▁अस्तित्व": 7152,
      "▁सहसचिव": 7153,
      "▁यस्तै,": 7154,
      "▁मनाउन": 7155,
      "▁लाग्दैन": 7156,
      "▁गाँउ": 7157,
      "ाराम": 7158,
      "हुने": 7159,
      "तया": 7160,
      "चार्ज": 7161,
      "▁पारेका": 7162,
      "ले,": 7163,
      "▁हिरा": 7164,
      "▁बलिउड": 7165,
      "▁युवराज": 7166,
      "▁धरान": 7167,
      "▁आतंक": 7168,
      "▁स्रोतले": 7169,
      "▁तुरुन्त": 7170,
      "▁चाहिने": 7171,
      "▁ऐन,": 7172,
      "▁पठाइ": 7173,
      "▁चौधरीले": 7174,
      "▁ज्योति": 7175,
      "▁अडान": 7176,
      "दायक": 7177,
      "▁सृजना": 7178,
      "▁दिवसको": 7179,
      "ड्दै": 7180,
      "▁छुट्या": 7181,
      "▁५८": 7182,
      "▁आचार्यले": 7183,
      "भाषा": 7184,
      "ur": 7185,
      "मणि": 7186,
      "टामा": 7187,
      "▁दिनेश": 7188,
      "▁कान्तिपुर": 7189,
      "खत": 7190,
      "▁अनुरुप": 7191,
      "▁लड": 7192,
      "▁नु": 7193,
      "▁अनुकूल": 7194,
      "▁प्रचलन": 7195,
      "षे": 7196,
      "▁मेसिन": 7197,
      "▁त्यसबेला": 7198,
      "sp": 7199,
      "ण्डर": 7200,
      "▁अभिनेता": 7201,
      "▁क्षण": 7202,
      "▁भौगोलिक": 7203,
      "थु": 7204,
      "▁आक्रो": 7205,
      "विरोध": 7206,
      "▁४६": 7207,
      "▁दिएपछि": 7208,
      "▁सधैँ": 7209,
      "▁बोल्ने": 7210,
      "र्फत्": 7211,
      "▁आबद्ध": 7212,
      "▁बङ्ग": 7213,
      "७२": 7214,
      "▁एसियाली": 7215,
      "▁शाहले": 7216,
      "▁ल्याएका": 7217,
      "▁स्तरमा": 7218,
      "▁उठाउन": 7219,
      "▁क्षमताको": 7220,
      "नारायण": 7221,
      "▁प्रदीप": 7222,
      "▁१.": 7223,
      "▁थिएनन्": 7224,
      "▁जसका": 7225,
      "▁दिदीबहिनी": 7226,
      "लोमा": 7227,
      "▁किरा": 7228,
      "▁प्रसिद्ध": 7229,
      "▁कूल": 7230,
      "त्तिकै": 7231,
      "▁अचम्म": 7232,
      "▁एल्": 7233,
      "▁विद्यालयका": 7234,
      "▁उठाउने": 7235,
      "मर": 7236,
      "्ररी": 7237,
      "▁ड्र": 7238,
      "पल": 7239,
      "▁फरा": 7240,
      "▁बुझाइ": 7241,
      "▁साब": 7242,
      "▁लिई": 7243,
      "▁चाहने": 7244,
      "–अ": 7245,
      "▁टन": 7246,
      "▁सुपर": 7247,
      "▁रोमा": 7248,
      "▁रहेछन्": 7249,
      "▁भीड": 7250,
      "▁रामबहादुर": 7251,
      "▁क्याम्पस": 7252,
      "टीको": 7253,
      "▁चाडपर्": 7254,
      "भित्रको": 7255,
      "▁बाइ": 7256,
      "▁कोषाध्यक्ष": 7257,
      "▁ः": 7258,
      "▁रुपैयाँको": 7259,
      "▁आउँदै": 7260,
      "▁किशोरी": 7261,
      "▁जनाए": 7262,
      "▁वेबसाइ": 7263,
      "न्सको": 7264,
      "▁द्वारा": 7265,
      "्ने,": 7266,
      "▁ट्रम्पले": 7267,
      "▁छलफलमा": 7268,
      "▁निजामती": 7269,
      "▁गई": 7270,
      "▁मानिसलाई": 7271,
      "▁पत्नी": 7272,
      "▁प्रोत्साहन": 7273,
      "▁स्टो": 7274,
      "▁सिँच": 7275,
      "▁पारदर्श": 7276,
      "▁उपाध्या": 7277,
      "निकी": 7278,
      "▁ज्ञापन": 7279,
      "हुनेछ": 7280,
      "▁भन्नेमा": 7281,
      "डा,": 7282,
      "▁प्रान्त": 7283,
      "▁रोनाल्": 7284,
      "क्कर": 7285,
      "▁गराई": 7286,
      "▁तुलना": 7287,
      "ेँ": 7288,
      "▁हुदा": 7289,
      "ङ्कन": 7290,
      "▁हारा": 7291,
      ")ले": 7292,
      "▁इन्स": 7293,
      "▁भएकै": 7294,
      "मित्व": 7295,
      "▁बू": 7296,
      "▁व्र": 7297,
      "▁नबुझ": 7298,
      "▁सरल": 7299,
      "▁क्लव": 7300,
      "▁दाँ": 7301,
      "–स": 7302,
      "▁अन्ध": 7303,
      "▁उपेन्द्र": 7304,
      "ेकाले": 7305,
      "कारले": 7306,
      "स्थापन": 7307,
      "१०": 7308,
      "▁फौ": 7309,
      "▁तिब्ब": 7310,
      "ानिस्ता": 7311,
      "▁शौ": 7312,
      "▁उत्पादनमा": 7313,
      "▁निकायले": 7314,
      "निङ": 7315,
      "▁राष्ट्रसंघ": 7316,
      "▁सुवेद": 7317,
      "▁रहँदा": 7318,
      "र्मी": 7319,
      "▁नेपालगञ्ज": 7320,
      "किल": 7321,
      "▁आदर्श": 7322,
      "▁करा": 7323,
      "▁त्यसबाट": 7324,
      "▁लाग्दा": 7325,
      "▁घाम": 7326,
      "खोला": 7327,
      "▁लगानीमा": 7328,
      "श्री": 7329,
      "▁त्यहाँका": 7330,
      "▁विपक्षी": 7331,
      "न्याय": 7332,
      "▁उर्जा": 7333,
      "▁रहेन": 7334,
      "▁बताइ": 7335,
      "▁अनियमित": 7336,
      "आमा": 7337,
      "▁खेलेको": 7338,
      "▁हिम": 7339,
      "▁प्रशासक": 7340,
      "▁व्यवस्थापिका": 7341,
      "▁दिदै": 7342,
      "वेदी": 7343,
      "...\tRead": 7344,
      "▁मसान्त": 7345,
      "विश्वास": 7346,
      "ज्यू": 7347,
      "▁परिमा": 7348,
      "▁इतिहासमा": 7349,
      "▁घिमिरे": 7350,
      "▁सैन्य": 7351,
      "▁साविक": 7352,
      "▁हुने,": 7353,
      "▁नागरिकले": 7354,
      "▁अधिकारीको": 7355,
      "अधिकार": 7356,
      "▁आर्जन": 7357,
      "▁तपाईँ": 7358,
      "▁इन्जिनियर": 7359,
      "▁घि": 7360,
      "▁पर्वत": 7361,
      "▁नमुना": 7362,
      "स्थापना": 7363,
      "▁फ्र": 7364,
      "▁चाँडै": 7365,
      "▁प्रालि": 7366,
      "▁प्रणालीमा": 7367,
      "’ले": 7368,
      "▁फाइनलमा": 7369,
      "▁०६": 7370,
      "▁कब्जा": 7371,
      "▁आस्था": 7372,
      "▁सम्मको": 7373,
      "▁उचाइ": 7374,
      "▁रहर": 7375,
      "▁विर": 7376,
      "▁चुक्ता": 7377,
      "प्रकाश": 7378,
      "▁श्रद्धा": 7379,
      "▁साम्रा": 7380,
      "▁बताउँछन्।": 7381,
      "▁अभ्या": 7382,
      "▁नाकाबन्दी": 7383,
      "▁सहमत": 7384,
      "▁तर्": 7385,
      "▁सुनको": 7386,
      "▁जनतामा": 7387,
      "▁बगा": 7388,
      "▁परिचित": 7389,
      "▁८५": 7390,
      "कल्पिक": 7391,
      "▁भोक": 7392,
      "▁गुणा": 7393,
      "च्छेद": 7394,
      "▁संयोजकत्वमा": 7395,
      "▁लगत्तै": 7396,
      "ना,": 7397,
      "▁नेपालीलाई": 7398,
      "▁श्रीमान्": 7399,
      "ई,": 7400,
      "▁सेप्टे": 7401,
      "▁सामाग्री": 7402,
      "▁हुनुहुन्थ्यो": 7403,
      "वरले": 7404,
      "▁प्रिमियर": 7405,
      "▁पश्चात": 7406,
      "▁हराएको": 7407,
      "▁बेइ": 7408,
      "शैली": 7409,
      "कस्": 7410,
      "▁महर्जन": 7411,
      "ुकी": 7412,
      "▁पार्दै": 7413,
      "▁अमर": 7414,
      "प,": 7415,
      "▁प्रभु": 7416,
      "▁४९": 7417,
      "▁किसानले": 7418,
      "▁निषे": 7419,
      "▁मानिएको": 7420,
      "▁भद्र": 7421,
      "निस": 7422,
      "शालामा": 7423,
      "िए": 7424,
      "▁“अ": 7425,
      "ीता": 7426,
      "ेलमा": 7427,
      "एकाले": 7428,
      "▁स्वास्थ्यमा": 7429,
      "▁व्यवसायीले": 7430,
      "मात्रै": 7431,
      "प्रसार": 7432,
      "▁बोलको": 7433,
      "▁गाली": 7434,
      "ब्दी": 7435,
      "▁अन्तरक्रिया": 7436,
      "▁बहि": 7437,
      "िती": 7438,
      "▁सिमेन्ट": 7439,
      "▁(ने": 7440,
      "डीमा": 7441,
      "शनल": 7442,
      "▁तत्कालिन": 7443,
      "▁इलाम": 7444,
      "▁विश्वको": 7445,
      "▁क्रोए": 7446,
      "▁असन्तुष्टि": 7447,
      "▁सेन्ट": 7448,
      "▁विपरी": 7449,
      "र्देश": 7450,
      "▁दिए।": 7451,
      "▁अस्पतालका": 7452,
      "▁एमालेको": 7453,
      "▁बरि": 7454,
      "▁सर्वे": 7455,
      "▁डाटा": 7456,
      "▁दाजुभाइ": 7457,
      "▁रेड": 7458,
      "▁गैरआ": 7459,
      "ज्यालो": 7460,
      "▁घाँ": 7461,
      "▁काभ्र": 7462,
      "▁भ्रमणका": 7463,
      "▁बजारको": 7464,
      "▁यात्रामा": 7465,
      "▁व्यापारिक": 7466,
      "▁झनै": 7467,
      "▁मतदा": 7468,
      "यरमा": 7469,
      "▁दिइने": 7470,
      "▁बराबर": 7471,
      "▁संशोध": 7472,
      "▁पात": 7473,
      "▁नलि": 7474,
      "▁स्वामित्व": 7475,
      "जन्तु": 7476,
      "▁काय": 7477,
      "▁निर्धारित": 7478,
      "प्रद": 7479,
      "▁महोत्त": 7480,
      "स्तर": 7481,
      "▁हाराहारी": 7482,
      "ङ्गले": 7483,
      "▁देशले": 7484,
      "थ्": 7485,
      "टेड": 7486,
      "▁’": 7487,
      "▁एक्लै": 7488,
      "वण": 7489,
      "▁बृद्धि": 7490,
      "गणना": 7491,
      "▁उप्र": 7492,
      "▁पारी": 7493,
      "▁वीरेन्द्र": 7494,
      "फु": 7495,
      "ालगायत": 7496,
      "▁आफैले": 7497,
      "▁उम": 7498,
      "▁गर्नेछन्": 7499,
      "पुर्ण": 7500,
      "ड्नु": 7501,
      "▁नेताहरू": 7502,
      "▁क्रियाशील": 7503,
      "▁५३": 7504,
      "▁यसबारे": 7505,
      "जिङ": 7506,
      "▁शक्तिको": 7507,
      "ेटिङ": 7508,
      "▁रेखा": 7509,
      "निर्वा": 7510,
      "▁शिशु": 7511,
      "दश": 7512,
      "थान": 7513,
      "▁समाजवाद": 7514,
      "▁एकातिर": 7515,
      "▁the": 7516,
      "मैत्री": 7517,
      "▁तिनको": 7518,
      "▁समूहका": 7519,
      "▁प्रतिवेदनमा": 7520,
      "राले": 7521,
      "▁५४": 7522,
      "▁नगरि": 7523,
      "▁फलफूल": 7524,
      "▁पल्": 7525,
      "ेती": 7526,
      "▁भोग्": 7527,
      "▁अन्तरिम": 7528,
      "न्सले": 7529,
      "▁खाएर": 7530,
      "म्बू": 7531,
      "▁ताप": 7532,
      "▁२०२": 7533,
      "बमोजिम": 7534,
      "▁अफगानिस्ता": 7535,
      "किन": 7536,
      "▁अनाव": 7537,
      "▁सदा": 7538,
      "म्बार": 7539,
      "▁अफ्र": 7540,
      "▁सुवेदी": 7541,
      ":ख": 7542,
      "▁विश्वभर": 7543,
      "▁बालक": 7544,
      ")का": 7545,
      "▁मालिक": 7546,
      "▁वि.सं.": 7547,
      "सम्ममा": 7548,
      "▁अनशन": 7549,
      "▁खरी": 7550,
      "▁गरेकाले": 7551,
      "▁मैत्री": 7552,
      "▁नायब": 7553,
      "नियाँ": 7554,
      "ानीले": 7555,
      "▁हुनुभएको": 7556,
      "▁पर्सा": 7557,
      "▁परेर": 7558,
      "▁प्रजातान्त्रिक": 7559,
      "्वी": 7560,
      "▁देखिन्छन्": 7561,
      "▁बागलुङ": 7562,
      "▁डट": 7563,
      "▁खोज्न": 7564,
      "▁पाकिस्तान": 7565,
      "▁सुब्बा": 7566,
      "▁L": 7567,
      "▁अस्थ": 7568,
      "▁बिमा": 7569,
      "▁मङ्सिर": 7570,
      "▁निमा": 7571,
      "काले": 7572,
      "▁गरौं": 7573,
      "▁किन्न": 7574,
      "▁बिस्तारै": 7575,
      "ञ्चित": 7576,
      "▁मिल्दैन": 7577,
      "▁एशिया": 7578,
      "▁‘वि": 7579,
      "्युब": 7580,
      "नोद": 7581,
      "दुई": 7582,
      "▁स्मृति": 7583,
      "▁रोनाल्डो": 7584,
      "टाएको": 7585,
      "खे": 7586,
      "▁समूहमा": 7587,
      "▁मर्या": 7588,
      "जीवी": 7589,
      "▁सकेनन्": 7590,
      "ेसँगै": 7591,
      "▁सङ्कलन": 7592,
      "र्नुपर्ने": 7593,
      "▁अशोक": 7594,
      "▁लमजु": 7595,
      "▁हुन्छ।\n": 7596,
      "वासीय": 7597,
      "▁छैन।\n": 7598,
      "▁सन्धि": 7599,
      "▁प्रशासनिक": 7600,
      "▁धनुषा": 7601,
      "▁तोड": 7602,
      "▁गाउँपालिकाले": 7603,
      "ईले": 7604,
      "यामा": 7605,
      "▁राजु": 7606,
      "▁आपसी": 7607,
      "▁बाह्य": 7608,
      "▁वता": 7609,
      "▁गर्‍": 7610,
      "बापत": 7611,
      "▁बिरामीको": 7612,
      "▁सुचना": 7613,
      "रहेकी": 7614,
      "स्थलको": 7615,
      "▁मौन": 7616,
      "▁देउसी": 7617,
      "▁उपत्यकामा": 7618,
      "धाम": 7619,
      "▁केशव": 7620,
      "▁विज्ञप्तिमा": 7621,
      "▁अक्टो": 7622,
      "▁तनहुँ": 7623,
      "▁गराए": 7624,
      "▁सन्तु": 7625,
      "▁गर्नको": 7626,
      "▁शनिवार": 7627,
      "घन": 7628,
      "▁परियार": 7629,
      "▁महारा": 7630,
      "▁अड्": 7631,
      "▁प्याक": 7632,
      "ुरि": 7633,
      "▁श्रृ": 7634,
      "–३": 7635,
      "▁इंग्": 7636,
      "▁बिरुवा": 7637,
      "▁चरम": 7638,
      "▁आप्र": 7639,
      "▁श्याम": 7640,
      "▁बराम": 7641,
      "▁गराइएको": 7642,
      "▁लामाले": 7643,
      "▁वाइ": 7644,
      "▁सट्टा": 7645,
      "▁स्टा": 7646,
      "▁लगाउ": 7647,
      "▁पश्चिमा": 7648,
      "▁बैंकिङ": 7649,
      "▁हुन्,": 7650,
      "▁प्रत्या": 7651,
      "▁हजारौं": 7652,
      "▁कपाल": 7653,
      "▁रुपैयाँमा": 7654,
      "▁उत्पादक": 7655,
      "ढुंगा": 7656,
      "▁कम्प्युटर": 7657,
      "▁E": 7658,
      "▁२०३": 7659,
      "▁७२": 7660,
      "▁गइरहेको": 7661,
      "▁विक्री": 7662,
      "कू": 7663,
      "▁जित्ने": 7664,
      "▁सकिन": 7665,
      "▁निको": 7666,
      "लगत्तै": 7667,
      "▁बालबालिकालाई": 7668,
      "▁ओभरमा": 7669,
      "कीय": 7670,
      "▁किरात": 7671,
      "▁दीर्घकालीन": 7672,
      "▁२.": 7673,
      "सक्दा": 7674,
      "▁पाण्डेले": 7675,
      "▁निमित्त": 7676,
      "▁राजतन्त्र": 7677,
      "▁विशेषता": 7678,
      "▁गर्न,": 7679,
      "्यारो": 7680,
      "बादी": 7681,
      "िन्छ": 7682,
      "ट्स": 7683,
      "▁करण": 7684,
      "▁छवि": 7685,
      "स्कृत": 7686,
      "▁२०१५": 7687,
      "▁नेपालीहरुको": 7688,
      "▁(क": 7689,
      "स्तिष्": 7690,
      "▁कक्ष": 7691,
      "▁परिसर": 7692,
      "▁पद्धति": 7693,
      "▁सागर": 7694,
      "▁दैलेख": 7695,
      "▁हिं": 7696,
      "▁बलमा": 7697,
      "ड्ड": 7698,
      "▁पारिएको": 7699,
      "कहाँ": 7700,
      "▁मुलुकी": 7701,
      "▁घिमिरेले": 7702,
      "▁आजै": 7703,
      "▁भनिन्": 7704,
      "▁उज्यालो": 7705,
      "▁विदा": 7706,
      "▁सोलु": 7707,
      "▁सतह": 7708,
      "▁अनुप": 7709,
      "▁उपचारको": 7710,
      "ात्": 7711,
      "▁संसारमा": 7712,
      "▁मनि": 7713,
      "▁२०७१": 7714,
      "▁जापानी": 7715,
      "▁शान्त": 7716,
      "▁तिहारको": 7717,
      "▁सुशील": 7718,
      "▁विद्यमान": 7719,
      "ot": 7720,
      "▁लगेर": 7721,
      "▁घरबाट": 7722,
      "▁उल्ल": 7723,
      "▁आइपुग्": 7724,
      "▁नेकपाका": 7725,
      "▁हतार": 7726,
      "▁बन्ध": 7727,
      "▁बढाइ": 7728,
      "▁राज्यका": 7729,
      "▁सञ्चारमाध्यम": 7730,
      "▁अस्ट्रेलिया": 7731,
      "गण्डकी": 7732,
      "▁देखिन्छ।": 7733,
      "▁अक्ष": 7734,
      "▁च्यान": 7735,
      "▁सुन्त": 7736,
      "नुपर्छ।": 7737,
      "▁रुचि": 7738,
      "स.": 7739,
      "▁६४": 7740,
      "▁सिँचाइ": 7741,
      "▁४७": 7742,
      "▁पवित्र": 7743,
      "▁खरेल": 7744,
      "मलाई": 7745,
      "▁स्वदेशी": 7746,
      "▁नेटव": 7747,
      "▁कुँ": 7748,
      "टाम": 7749,
      "लेट": 7750,
      "▁प्रको": 7751,
      "▁अपरि": 7752,
      "▁१९८": 7753,
      "▁G": 7754,
      "▁देख्दा": 7755,
      "▁नेताको": 7756,
      "▁पाएपछि": 7757,
      "▁अन्यो": 7758,
      "▁मार्": 7759,
      "▁शंकर": 7760,
      "वर्ग": 7761,
      "५०": 7762,
      "बिस्तृत": 7763,
      "▁महरा": 7764,
      "▁१,": 7765,
      "▁गाउँका": 7766,
      "▁दु:ख": 7767,
      "▁अरुण": 7768,
      "▁रै": 7769,
      "महा": 7770,
      "पछिको": 7771,
      "▁प्रस्ट": 7772,
      "▁पु¥याउने": 7773,
      "▁मङ्गल": 7774,
      "▁प्ल": 7775,
      "▁हङकङ": 7776,
      "▁फ्या": 7777,
      "▁गरे।\n": 7778,
      "▁संकल": 7779,
      "ण्डमा": 7780,
      "▁आगलागी": 7781,
      "▁बयान": 7782,
      "▁‘यो": 7783,
      "पुरका": 7784,
      "▁अर्जेन्टि": 7785,
      "▁गे": 7786,
      "▁अनावश्यक": 7787,
      "गडा": 7788,
      "बिस्तृतमा\n": 7789,
      "▁लगानीको": 7790,
      "▁बढ्छ": 7791,
      "▁कता": 7792,
      "▁भाद्र": 7793,
      "▁बाघ": 7794,
      "ालयमा": 7795,
      "▁अस्वीकार": 7796,
      "खास्त": 7797,
      "▁बिहानै": 7798,
      "▁थो": 7799,
      "▁बैत": 7800,
      "▁महासंघका": 7801,
      "▁सधै": 7802,
      "▁R": 7803,
      "▁सुनुवाइ": 7804,
      "ण्ठ": 7805,
      "▁अनुसार,": 7806,
      "▁अमेरिकाले": 7807,
      "▁मार्क": 7808,
      "▁प्राध्यापक": 7809,
      "▁रियल": 7810,
      "वास्ता": 7811,
      "र्भिक": 7812,
      "▁भैरह": 7813,
      "▁नपाएको": 7814,
      "▁पार्टीलाई": 7815,
      "र्द्ध": 7816,
      "▁विकृति": 7817,
      "▁फेर": 7818,
      "▁वडामा": 7819,
      "▁विपन्न": 7820,
      "वाली": 7821,
      "काठमा": 7822,
      "▁आमाले": 7823,
      "▁सदुपयोग": 7824,
      "▁परिवेश": 7825,
      "▁मानिने": 7826,
      "▁मार": 7827,
      "अप": 7828,
      "ाए": 7829,
      "स्तरमा": 7830,
      "▁खाद्या": 7831,
      "...\tबिस्तृतमा\n": 7832,
      "▁विभाजन": 7833,
      "सिस": 7834,
      "▁रोजगारीको": 7835,
      "▁बजेदेखि": 7836,
      "समक्ष": 7837,
      "▁स्वभाव": 7838,
      "▁धेरैजसो": 7839,
      "▁उल्लेख्य": 7840,
      "▁सकिन्छ।": 7841,
      "मू": 7842,
      "▁डाँडा": 7843,
      "ews": 7844,
      "▁आयुक्त": 7845,
      "▁ठग": 7846,
      "▁परिवर्तनको": 7847,
      "▁नीतिगत": 7848,
      "द्रिक": 7849,
      "▁जोखिममा": 7850,
      "▁महँगो": 7851,
      "ँट": 7852,
      "▁O": 7853,
      "▁रङ्ग": 7854,
      "▁विनोद": 7855,
      "▁व्यवसायिक": 7856,
      "quo": 7857,
      "▁मुना": 7858,
      "▁सिं": 7859,
      "▁कारोवार": 7860,
      "▁कीर्ति": 7861,
      "▁बास": 7862,
      "▁हिस्सा": 7863,
      "ेजी": 7864,
      "▁खै": 7865,
      "▁यसपाल": 7866,
      "▁दोहोरो": 7867,
      "न्ह": 7868,
      "▁भएसँगै": 7869,
      "▁अस्पतालले": 7870,
      "▁भाषाको": 7871,
      "▁ज्व": 7872,
      "नीकरण": 7873,
      "▁अटो": 7874,
      "▁पुन:": 7875,
      "▁आत्मनिर्भर": 7876,
      "▁तामाङले": 7877,
      "▁यिनै": 7878,
      "▁सदस्यको": 7879,
      "quo;": 7880,
      "घात": 7881,
      "▁पैदा": 7882,
      "द्धारा": 7883,
      "▁प्रतिपक्षी": 7884,
      "ख्रा": 7885,
      "▁खानेकुरा": 7886,
      "▁हप्": 7887,
      "▁यसैबीच": 7888,
      "▁लिइएको": 7889,
      "सनल": 7890,
      "▁सञ्जालमा": 7891,
      "▁भलि": 7892,
      "▁रुकुम": 7893,
      "संरचना": 7894,
      "▁खाद्यान्न": 7895,
      "रेड": 7896,
      "लाउने": 7897,
      "▁ट्रे": 7898,
      "बाह": 7899,
      "▁वु": 7900,
      "▁क्षतिपूर्ति": 7901,
      "▁ढिला": 7902,
      "र्सिलो": 7903,
      "ol": 7904,
      "▁गरिबी": 7905,
      "▁विरोधी": 7906,
      "▁पेट्रोलियम": 7907,
      "▁फराकिलो": 7908,
      "▁गहिरो": 7909,
      "राष्ट्रपति": 7910,
      "न।": 7911,
      "▁६३": 7912,
      "▁सुरेन्द्र": 7913,
      "ेषण": 7914,
      "▁on": 7915,
      "लभ": 7916,
      "▁फरार": 7917,
      "▁गफ": 7918,
      "▁मान्न": 7919,
      "▁बालबालिकाको": 7920,
      "▁गिरी": 7921,
      "▁बौद्धिक": 7922,
      "▁श्रीलंका": 7923,
      "िनको": 7924,
      "▁विस्तारै": 7925,
      "▁नेपाल–": 7926,
      "तिय": 7927,
      "▁एकेड": 7928,
      "▁संस्कृतिको": 7929,
      "▁विश्वकपमा": 7930,
      "▁चम्": 7931,
      "ल्नु": 7932,
      "▁हाफ": 7933,
      "▁दायर": 7934,
      "▁अञ्चल": 7935,
      "▁सुदृ": 7936,
      "▁विस्थापित": 7937,
      "▁बिहि": 7938,
      "▁पट": 7939,
      "▁वाल": 7940,
      "लीले": 7941,
      "▁राखे": 7942,
      "▁पर्यटकको": 7943,
      "▁डिजिटल": 7944,
      "▁लण्ड": 7945,
      "▁ढिलो": 7946,
      "▁श्रा": 7947,
      "चको": 7948,
      "▁विपरीत": 7949,
      "▁हुदैन": 7950,
      "▁लोभ": 7951,
      "▁विक्रम": 7952,
      "▁राय": 7953,
      "दिनु": 7954,
      "▁जिज्ञा": 7955,
      "▁५७": 7956,
      "▁फिट": 7957,
      "▁एसपी": 7958,
      "▁राह": 7959,
      "▁दिमा": 7960,
      "▁पन्तको": 7961,
      "▁गैरआवासीय": 7962,
      "▁भ्रमणको": 7963,
      "्छु": 7964,
      "▁मानिसहरू": 7965,
      "▁सरसफाइ": 7966,
      "ख्": 7967,
      "रालो": 7968,
      "न्दर्य": 7969,
      "▁सेक्स": 7970,
      "▁?’": 7971,
      "▁बार्सिलो": 7972,
      "▁(रासस": 7973,
      "▁रेग्मी": 7974,
      "▁सारा": 7975,
      "▁स्याङ्": 7976,
      "▁जोगाउन": 7977,
      "▁भन": 7978,
      "▁पञ्चायत": 7979,
      "ठू": 7980,
      "▁नर्स": 7981,
      "▁आफनो": 7982,
      "प्रदान": 7983,
      "▁महाकाली": 7984,
      "भाग्य": 7985,
      "▁अस्थिर": 7986,
      "गान": 7987,
      "▁सम्झना": 7988,
      "एनन्": 7989,
      "त्रि": 7990,
      "▁माग्": 7991,
      "▁योजनामा": 7992,
      "▁सिलसि": 7993,
      "▁एसो": 7994,
      "पालन": 7995,
      "▁चाप": 7996,
      "लय": 7997,
      "▁‘ज": 7998,
      "ँगा": 7999,
      "▁हेटौं": 8000,
      "तीले": 8001,
      "▁तीनै": 8002,
      "▁पक्षको": 8003,
      "▁प्रतिवद्धता": 8004,
      "▁स्याउ": 8005,
      "त्रु": 8006,
      "▁रौतह": 8007,
      "▁राजश्व": 8008,
      "▁हुनेमा": 8009,
      "▁राष्ट्रियसभा": 8010,
      "▁चिनी": 8011,
      "▁बुझ्ने": 8012,
      "▁बेस": 8013,
      "▁देखिँदैन": 8014,
      "▁लेख्ने": 8015,
      "▁औषधी": 8016,
      "▁संकट": 8017,
      "कारको": 8018,
      "▁खरीद": 8019,
      "जरको": 8020,
      "▁राजेश": 8021,
      "▁नराख": 8022,
      "▁केटी": 8023,
      "▁सङ्गठन": 8024,
      "squo;": 8025,
      "▁पृथ्वी": 8026,
      "▁in": 8027,
      "▁दिए।\n": 8028,
      "▁बजेटमा": 8029,
      "▁मृ": 8030,
      "प्लव": 8031,
      "▁शैलीमा": 8032,
      "▁जनआ": 8033,
      "पेर": 8034,
      "ट्टी": 8035,
      "▁कोरियाली": 8036,
      "▁पढ्नुहोस्": 8037,
      "▁बरामद": 8038,
      "ँ।": 8039,
      "▁तपाईले": 8040,
      "▁‘उ": 8041,
      "▁हुनै": 8042,
      "रोग": 8043,
      "▁मिलन": 8044,
      "▁पुगेपछि": 8045,
      "ङ्का": 8046,
      "ज,": 8047,
      "▁बाबा": 8048,
      "▁अभियुक्त": 8049,
      "च्छुक": 8050,
      "▁सोझ": 8051,
      "▁गौरव": 8052,
      "▁चाहिन्छ": 8053,
      "▁‘त्य": 8054,
      "▁लुगा": 8055,
      "न्यजन्तु": 8056,
      "▁गराएर": 8057,
      "▁लघुव": 8058,
      "धारी": 8059,
      "▁त्यहि": 8060,
      "▁सफ्ट": 8061,
      "▁उका": 8062,
      "▁लक्षण": 8063,
      "▁दुध": 8064,
      "▁छैन्": 8065,
      "▁फुल": 8066,
      "▁सिरहा": 8067,
      "--": 8068,
      "▁केजी": 8069,
      "▁सिटी": 8070,
      "०००": 8071,
      "▁२०१४": 8072,
      "▁संसद्मा": 8073,
      "▁ताली": 8074,
      "▁अनिल": 8075,
      "▁मुलुकलाई": 8076,
      "▁रेमिट": 8077,
      "▁नोभे": 8078,
      "▁दाङ": 8079,
      "▁एजेन्": 8080,
      "ञ्चार": 8081,
      "▁ब्लग": 8082,
      "▁अन्र्त": 8083,
      "▁एजे": 8084,
      "▁सरकारबाट": 8085,
      "▁भूमिकामा": 8086,
      "▁कन्ट": 8087,
      "सेन्स": 8088,
      "▁निगर": 8089,
      "▁मनोन": 8090,
      "कियो": 8091,
      "ज्ज": 8092,
      "▁बोर्डले": 8093,
      "▁परिवारमा": 8094,
      "▁ख्याल": 8095,
      "▁लिम्बू": 8096,
      "▁सार्वभौ": 8097,
      "▁गोप्य": 8098,
      "न्तिक": 8099,
      "▁आक्रोश": 8100,
      "▁हेम": 8101,
      "▁चाहे": 8102,
      "सिएको": 8103,
      "▁रिहा": 8104,
      "▁बारम्बार": 8105,
      "▁राईको": 8106,
      "ड,": 8107,
      "▁सामग्र": 8108,
      "वि.": 8109,
      "▁समावेशी": 8110,
      "▁लगायतको": 8111,
      "em": 8112,
      "▁डाइ": 8113,
      "▁मनोज": 8114,
      "▁हत्य": 8115,
      "▁शौच": 8116,
      "▁रहस्य": 8117,
      "किए": 8118,
      "▁सन्दी": 8119,
      "nb": 8120,
      "ङ्गी": 8121,
      "▁दैनिकमा": 8122,
      "लट": 8123,
      "पाटी": 8124,
      "▁सम्हाल": 8125,
      "लिपि": 8126,
      "▁सर्वेक्षण": 8127,
      "परित": 8128,
      "▁पौडेल,": 8129,
      "▁शताब्दी": 8130,
      "भावना": 8131,
      "▁गर्दैछ": 8132,
      "▁कुराले": 8133,
      "▁प्रेरणा": 8134,
      "▁कार्ययोजना": 8135,
      "ड्य": 8136,
      "▁समुदायले": 8137,
      "▁ग्लो": 8138,
      "▁निषेध": 8139,
      "▁होटलमा": 8140,
      "▁शल्य": 8141,
      "सत्ता": 8142,
      "▁उपचारमा": 8143,
      "ch": 8144,
      "▁आ.": 8145,
      "▁चुनौ": 8146,
      "▁खोल्न": 8147,
      "▁आन्दोलनका": 8148,
      "▁विकास,": 8149,
      "ड्रो": 8150,
      "▁ठोस": 8151,
      "▁बिन्दु": 8152,
      "▁फैलिएको": 8153,
      "▁राइ": 8154,
      "▁पुनले": 8155,
      "▁ट्रेड": 8156,
      "पावर": 8157,
      "्नुपर्ने": 8158,
      "▁मस्तिष्": 8159,
      "▁लापर": 8160,
      "▁बस्नु": 8161,
      "▁नदिन": 8162,
      "▁ओटा": 8163,
      "▁विभागको": 8164,
      "▁स्तरीय": 8165,
      "▁पोखराको": 8166,
      "▁आचार": 8167,
      "▁डल": 8168,
      "▁६२": 8169,
      "▁बिद्या": 8170,
      "▁वैकल्पिक": 8171,
      "▁तस्वीर": 8172,
      "▁इमा": 8173,
      "▁धनकु": 8174,
      "▁लगाई": 8175,
      "जेल": 8176,
      "▁मल्ल": 8177,
      "▁बढुवा": 8178,
      "▁शिविर": 8179,
      "▁पक्का": 8180,
      "त्रो": 8181,
      "▁निरी": 8182,
      "▁सहयोगको": 8183,
      "▁रोजगारीका": 8184,
      "नासाथ": 8185,
      "▁गठित": 8186,
      "▁निगमले": 8187,
      "्यार": 8188,
      "▁संयोजन": 8189,
      "▁अग्रसर": 8190,
      "▁प्रशासनले": 8191,
      "ब्लिक": 8192,
      "▁कामलाई": 8193,
      "▁जाडो": 8194,
      "मिता": 8195,
      "औष": 8196,
      "्रिड": 8197,
      "▁सानै": 8198,
      "▁कार्यद": 8199,
      "▁मिले": 8200,
      "▁ढुवानी": 8201,
      "▁भाई": 8202,
      "▁आपत्ति": 8203,
      "ँकी": 8204,
      "▁स्वीका": 8205,
      "▁तुला": 8206,
      "स्टा": 8207,
      "▁जापानमा": 8208,
      "राज्य": 8209,
      "▁संघसंस्था": 8210,
      "▁निगरानी": 8211,
      "▁ल्": 8212,
      "लवस्तु": 8213,
      "याे": 8214,
      "▁समुदायमा": 8215,
      "▁५९": 8216,
      "▁कागज": 8217,
      "ाधीन": 8218,
      "▁मुल्य": 8219,
      "▁माइक्रो": 8220,
      "▁मार्च": 8221,
      "्रास": 8222,
      "ेरिया": 8223,
      "▁फला": 8224,
      "▁अलपत्र": 8225,
      "▁अनुगम": 8226,
      "▁शिक्षामा": 8227,
      "▁भुमिका": 8228,
      "▁सिस्ट": 8229,
      "▁ढुंगा": 8230,
      "▁झन": 8231,
      "▁राम्ररी": 8232,
      "▁लेखनाथ": 8233,
      "▁खोल्ने": 8234,
      "▁नेत्र": 8235,
      "▁मात": 8236,
      "▁दिँदा": 8237,
      "▁प्रयोगमा": 8238,
      "▁सौन्दर्य": 8239,
      "▁प्रादेशिक": 8240,
      "▁अधिकतम": 8241,
      "▁हँु": 8242,
      "▁खोलामा": 8243,
      "▁तिर्न": 8244,
      "▁नमिल्": 8245,
      "म्वर": 8246,
      "्यो,": 8247,
      "▁बिल": 8248,
      "ँदैछ": 8249,
      "म्या": 8250,
      "▁कार्यक्रमहरु": 8251,
      "▁बेलुका": 8252,
      "▁थिइन": 8253,
      "▁राजकुमार": 8254,
      "इमा": 8255,
      "▁बस्तु": 8256,
      "▁भएकोमा": 8257,
      "आउ": 8258,
      "▁देखाएर": 8259,
      "▁लन्ड": 8260,
      "▁बुँदे": 8261,
      "▁हत्यारा": 8262,
      "▁कृष्णप्रसाद": 8263,
      "▁of": 8264,
      "▁तहले": 8265,
      "▁नज": 8266,
      "नियर": 8267,
      "▁बोनस": 8268,
      "▁प्रदर्शनमा": 8269,
      "▁व्यहो": 8270,
      "▁माल्": 8271,
      "▁स्थितिमा": 8272,
      "कान": 8273,
      "▁सभ्य": 8274,
      "▁चिन": 8275,
      "▁आयोजकले": 8276,
      "ाको": 8277,
      "▁अनुसारको": 8278,
      "▁तस्करी": 8279,
      "ली,": 8280,
      "म्रो": 8281,
      "▁गर्मी": 8282,
      "▁सार्क": 8283,
      "▁सबभन्दा": 8284,
      "▁काला": 8285,
      "▁बुझाएको": 8286,
      "▁जुलाई": 8287,
      "ay": 8288,
      "▁नामको": 8289,
      "▁हटाउने": 8290,
      "ाउँमा": 8291,
      "▁रोक्": 8292,
      "ौँ,": 8293,
      "▁रूपले": 8294,
      "▁उपन्यास": 8295,
      "▁साइट": 8296,
      "▁बेरोज": 8297,
      "▁प्रस्तावित": 8298,
      "▁पोलि": 8299,
      "▁निकायमा": 8300,
      "वट": 8301,
      "▁मान्छेको": 8302,
      "▁इला": 8303,
      "▁जनमत": 8304,
      "▁मरि": 8305,
      "▁काठमाडौं–": 8306,
      "▁लगाउनु": 8307,
      "▁लियो": 8308,
      "▁सिन्धुली": 8309,
      "एच": 8310,
      "▁हजार,": 8311,
      "▁विरोधमा": 8312,
      "डाँडा": 8313,
      "▁समापन": 8314,
      "▁मिलेको": 8315,
      "▁पाउँदा": 8316,
      "▁इर": 8317,
      "▁”": 8318,
      "▁हलमा": 8319,
      "▁मिलाएर": 8320,
      "▁n": 8321,
      "▁धम्की": 8322,
      "ww": 8323,
      "हरि": 8324,
      "▁कम्तिमा": 8325,
      "▁आउँदो": 8326,
      "▁सिंगा": 8327,
      "▁रुच": 8328,
      "▁हुन्थे": 8329,
      "▁परेपछि": 8330,
      "▁नदीको": 8331,
      "▁गर्भव": 8332,
      "▁बल्": 8333,
      "▁कुव": 8334,
      "▁अध्यक्षमा": 8335,
      "▁मन्तव्य": 8336,
      "▁गर्नुहुन्छ": 8337,
      "▁थिएन।": 8338,
      "▁चैत्र": 8339,
      "▁दलहरू": 8340,
      "▁रोजगारीमा": 8341,
      "▁पिता": 8342,
      "साम": 8343,
      "ड्दा": 8344,
      "▁निम्त्या": 8345,
      "▁बागलु": 8346,
      "स्,": 8347,
      "▁हकप्रद": 8348,
      "▁आफैंले": 8349,
      "▁कथ": 8350,
      "▁एक्का": 8351,
      "▁बिश्व": 8352,
      "▁२०७०": 8353,
      "जीले": 8354,
      "ation": 8355,
      "सीसी": 8356,
      "▁शिक्ष": 8357,
      "▁वीरगञ्ज": 8358,
      "▁खाल्": 8359,
      "▁समि": 8360,
      "▁कम्पनीलाई": 8361,
      "▁भनेपछि": 8362,
      "वारण": 8363,
      "▁च्याम्पियनसि": 8364,
      "▁ली": 8365,
      "वटै": 8366,
      "▁गोष्ठ": 8367,
      "▁नमू": 8368,
      "▁धितोपत्र": 8369,
      "▁क्रोएसिया": 8370,
      "ुटि": 8371,
      "▁आफ्": 8372,
      "nbsp": 8373,
      "▁मूल्यांकन": 8374,
      "▁भन्नुहुन्छ": 8375,
      "▁ऋषि": 8376,
      "▁दीपा": 8377,
      "▁रेलमार्ग": 8378,
      "▁संविधानसभाको": 8379,
      "nbsp;": 8380,
      "▁नदेख": 8381,
      "▁उर्": 8382,
      "सिङ": 8383,
      "▁रुपले": 8384,
      "▁९५": 8385,
      "▁ग्रुप": 8386,
      "▁बल्ल": 8387,
      "ारको": 8388,
      "▁आरोहण": 8389,
      "▁७४": 8390,
      "▁तालमेल": 8391,
      "▁रोपनी": 8392,
      "▁राशि": 8393,
      "▁शहरमा": 8394,
      "▁मैन": 8395,
      "▁पर्नेछ": 8396,
      "बन": 8397,
      "▁दवा": 8398,
      "ञ्जु": 8399,
      "▁शरणा": 8400,
      "▁दाउ": 8401,
      "भित्रका": 8402,
      "▁चलाएको": 8403,
      "▁गर्नुपर्": 8404,
      "▁अभिवृद्धि": 8405,
      "▁शिवि": 8406,
      "▁छात्रा": 8407,
      "▁दृष्टिले": 8408,
      "▁व्रत": 8409,
      "जारी": 8410,
      "▁निकास": 8411,
      "▁अखिल": 8412,
      "▁मोरङ": 8413,
      "▁पारे": 8414,
      "▁भय": 8415,
      "▁नेपालमै": 8416,
      "▁पेन": 8417,
      "▁बेनी": 8418,
      "▁अधिकारी,": 8419,
      "▁गराउँदै": 8420,
      "▁खसेको": 8421,
      "▁छापा": 8422,
      "न्च": 8423,
      "▁सकिन्न": 8424,
      "लेले": 8425,
      "▁छाला": 8426,
      "दित": 8427,
      "▁निकालेको": 8428,
      "▁टिमले": 8429,
      "▁अङ्क": 8430,
      "▁ब्यक्त": 8431,
      "▁साई": 8432,
      "▁बेलायती": 8433,
      "▁भैरहवा": 8434,
      "▁परिचयपत्र": 8435,
      "स्फोट": 8436,
      "निज": 8437,
      "▁५००": 8438,
      "चरण": 8439,
      "तारी": 8440,
      "▁आखिर": 8441,
      "▁मकै": 8442,
      "▁तिनका": 8443,
      "▁सुदूरपश्चिम": 8444,
      "▁नत्र": 8445,
      "▁बिरोध": 8446,
      "▁न्यायिक": 8447,
      "न्छन्।": 8448,
      "▁सम्बन्धलाई": 8449,
      "▁संस्कृति,": 8450,
      "मशेर": 8451,
      "▁उनकी": 8452,
      "▁द्वि": 8453,
      "▁शरीरको": 8454,
      "▁छिन": 8455,
      "छिन": 8456,
      "हुन्न": 8457,
      "▁घोषित": 8458,
      "▁होलान्": 8459,
      "▁विष्टले": 8460,
      "▁माओवादीको": 8461,
      "▁वन्यजन्तु": 8462,
      "▁उत्पादित": 8463,
      "▁सरस्व": 8464,
      "▁भईरहेको": 8465,
      "ेश्रो": 8466,
      "..\n": 8467,
      "▁अलिकति": 8468,
      "▁ट्रान्स": 8469,
      "▁साइकल": 8470,
      "▁रहँदै": 8471,
      "्यौं": 8472,
      "▁गर्नुको": 8473,
      "▁अभिलेख": 8474,
      "द्धान्तिक": 8475,
      "▁६६": 8476,
      "▁मिलाउन": 8477,
      "▁अपाङ्ग": 8478,
      "दलीय": 8479,
      "▁आलु": 8480,
      "▁राम्रोसँग": 8481,
      "वेयर": 8482,
      "▁प्रतिस्पर्धी": 8483,
      "ब्बर": 8484,
      "▁निर्देशिका": 8485,
      "▁l\n": 8486,
      "जनी": 8487,
      "▁महीना": 8488,
      "जल": 8489,
      "▁उठेको": 8490,
      "▁प्राधिकरणका": 8491,
      "▁कँ": 8492,
      "▁देखेको": 8493,
      "▁उत्सव": 8494,
      "▁आवद्ध": 8495,
      "▁आति": 8496,
      "▁दिप": 8497,
      "▁आउट": 8498,
      "काठमाड": 8499,
      "ंै": 8500,
      "▁नसक": 8501,
      "▁सांगी": 8502,
      "▁नेताहरूले": 8503,
      "▁पुरानै": 8504,
      "▁महानिर्देश": 8505,
      "न्दार": 8506,
      "▁राजन": 8507,
      "▁भित्री": 8508,
      "▁उचा": 8509,
      "▁ओखल": 8510,
      "▁बैंकमा": 8511,
      "▁गैरसरकारी": 8512,
      "▁पुर्‍याउने": 8513,
      "▁प्रतिफल": 8514,
      "▁आया": 8515,
      "▁भुस": 8516,
      "▁मध्यम": 8517,
      "▁दलहरु": 8518,
      "▁तमु": 8519,
      "ालीले": 8520,
      "▁पक्षलाई": 8521,
      "▁गाइ": 8522,
      "रोप": 8523,
      "टिस": 8524,
      "▁हौं": 8525,
      "▁खोज्दै": 8526,
      "▁असन्तुष्ट": 8527,
      "▁पाइप": 8528,
      "▁बचाउन": 8529,
      "▁शुक्ल": 8530,
      "▁K": 8531,
      "▁कार्यसमिति": 8532,
      "▁जोडेर": 8533,
      "▁उत्साहित": 8534,
      "लाही": 8535,
      "बाटो": 8536,
      "▁उनकै": 8537,
      "ामन्त्री": 8538,
      "▁अनुमो": 8539,
      "मुक्ति": 8540,
      "▁पोर्चु": 8541,
      "▁वसन्त": 8542,
      "णु": 8543,
      "वले": 8544,
      "न्डर": 8545,
      "ंच": 8546,
      "▁६१": 8547,
      "▁डिसे": 8548,
      "रू": 8549,
      "उनुभयो": 8550,
      "औषध": 8551,
      "▁बत्ती": 8552,
      "▁फर्म": 8553,
      "▁रेष्ट": 8554,
      "▁म्याने": 8555,
      "▁महानिरीक्षक": 8556,
      "नालाई": 8557,
      "त्सव": 8558,
      "▁किनकी": 8559,
      "▁जोडिएका": 8560,
      "▁पछी": 8561,
      "▁खेल्दै": 8562,
      "▁कम्पनीमा": 8563,
      "▁नेप्से": 8564,
      "▁चिर": 8565,
      "▁नभएकाले": 8566,
      "▁परिमार्जन": 8567,
      "वरको": 8568,
      "जका": 8569,
      "▁बडा": 8570,
      "▁चरा": 8571,
      "▁उम्मे": 8572,
      "▁पेन्": 8573,
      "ञ्जा": 8574,
      "▁अनुसन्धानमा": 8575,
      "▁आराम": 8576,
      "▁उनै": 8577,
      "▁क्यामे": 8578,
      "जुमा": 8579,
      "▁तेश्रो": 8580,
      "हिन": 8581,
      "▁बीउ": 8582,
      "▁ठाँ": 8583,
      "बको": 8584,
      "▁माला": 8585,
      "▁सकिँदैन": 8586,
      "▁प्रसंग": 8587,
      "▁छु,": 8588,
      "▁सांगीतिक": 8589,
      "▁प्रदू": 8590,
      "▁गर्नुका": 8591,
      "▁तट": 8592,
      "▁बढ्नु": 8593,
      "▁वैद्य": 8594,
      "▁सेमिफाइनलमा": 8595,
      "/१": 8596,
      "▁कष्ट": 8597,
      "▁सत्तामा": 8598,
      "▁झर": 8599,
      "▁रामे": 8600,
      "▁हनु": 8601,
      "▁६८": 8602,
      "▁नभएपछि": 8603,
      "▁अना": 8604,
      "प्न": 8605,
      "▁बजेटको": 8606,
      "▁धो": 8607,
      "▁महिलाहरु": 8608,
      "▁पत्रमा": 8609,
      "▁असा": 8610,
      "▁होला,": 8611,
      "▁बाढीले": 8612,
      "ोने": 8613,
      "▁एमाओवादी": 8614,
      "▁पुजा": 8615,
      "स्त्री": 8616,
      "▁घरमै": 8617,
      "धाई": 8618,
      "▁मेहन": 8619,
      "▁पुरै": 8620,
      "ir": 8621,
      "▁प्रश्नको": 8622,
      "▁वरिपरि": 8623,
      "▁शल्यक्रिया": 8624,
      "▁मान्छेले": 8625,
      "▁खोज्दा": 8626,
      "न्जेल": 8627,
      "ारू": 8628,
      "▁रही": 8629,
      "▁तिवारी": 8630,
      "▁कूटनीतिक": 8631,
      "▁रुट": 8632,
      "▁ज्य": 8633,
      "▁निवारण": 8634,
      "▁विश्वव्यापी": 8635,
      "▁मूर्ति": 8636,
      "▁बाधा": 8637,
      "▁प्रणालीको": 8638,
      "▁दौड": 8639,
      "सय": 8640,
      "▁हेलिक": 8641,
      "▁राजनीतिको": 8642,
      "▁स्रोतका": 8643,
      "र्कि": 8644,
      "टारमा": 8645,
      "▁लेखन": 8646,
      "▁रसिया": 8647,
      "▁राजनि": 8648,
      "▁‘न": 8649,
      "रोज": 8650,
      "▁७६": 8651,
      "द्र्ध": 8652,
      "▁खपत": 8653,
      "रहनु": 8654,
      "▁‘हामी": 8655,
      "▁हैसियत": 8656,
      "गै": 8657,
      "▁मोदीले": 8658,
      "कालिन": 8659,
      "▁टुंग": 8660,
      "▁उसका": 8661,
      "जम": 8662,
      "▁झण्डा": 8663,
      "▁सैद्धान्तिक": 8664,
      "▁जितेका": 8665,
      "तर्फको": 8666,
      "ठ्": 8667,
      "▁होइन।": 8668,
      "▁बाख्रा": 8669,
      "▁हुम्": 8670,
      "▁कुर्": 8671,
      "▁धू": 8672,
      "▁घरपरिवार": 8673,
      "▁गेट": 8674,
      "▁शर्त": 8675,
      "us": 8676,
      "▁व्यवसायमा": 8677,
      "▁कार्यलाई": 8678,
      "▁स्थाय": 8679,
      "▁ज्ञवाल": 8680,
      "▁पुस्तकाल": 8681,
      "▁»\n": 8682,
      "लेपछि": 8683,
      "▁अङ्ग": 8684,
      "▁हस्": 8685,
      "▁नहुनु": 8686,
      "▁मार्ने": 8687,
      "▁सञ्चार,": 8688,
      "▁ठक्कर": 8689,
      "▁गर्दछु": 8690,
      "बिया": 8691,
      "▁ब्ल": 8692,
      "ेरु": 8693,
      "▁झैं": 8694,
      "▁पदार्थको": 8695,
      "▁इजला": 8696,
      "▁इस्": 8697,
      "दिभ्": 8698,
      "▁मौद्रिक": 8699,
      "▁जानकार": 8700,
      "▁नियमन": 8701,
      "▁लोडसे": 8702,
      "▁जोशीले": 8703,
      "ंकी": 8704,
      "▁3": 8705,
      "▁रहेकी": 8706,
      "▁बराबरी": 8707,
      "▁अवकाश": 8708,
      "बुल": 8709,
      "भेट": 8710,
      "▁माक्": 8711,
      "ष्कार": 8712,
      "प्ती": 8713,
      "▁चितवनको": 8714,
      "▁गरेपनि": 8715,
      "▁भुटान": 8716,
      "वहारिक": 8717,
      "▁रुपान्तरण": 8718,
      "▁पठाइएको": 8719,
      "▁औषध": 8720,
      "चण्ड": 8721,
      ".१": 8722,
      "▁स्र": 8723,
      "▁तौल": 8724,
      "▁लाखको": 8725,
      "▁गोर्ख": 8726,
      "▁आश्वास": 8727,
      "▁मर": 8728,
      "बिधान": 8729,
      "▁बाँडफा": 8730,
      "▁पैदल": 8731,
      "▁स्रोतको": 8732,
      "▁मोदीको": 8733,
      "▁खानु": 8734,
      "▁निकाल्न": 8735,
      "▁कुटपिट": 8736,
      "प्लेजु": 8737,
      "▁मनोरञ्जन": 8738,
      "पोखरी": 8739,
      "▁होस": 8740,
      "▁निर्भर": 8741,
      "गाह": 8742,
      "▁गोदा": 8743,
      "▁तीनवटा": 8744,
      "▁भेटवार्ता": 8745,
      "▁बुढ": 8746,
      "▁चिना": 8747,
      "▁समस्यामा": 8748,
      "▁पुर्याउने": 8749,
      "क्या": 8750,
      "▁बीचको": 8751,
      "▁अधिवेशन": 8752,
      "▁अर्कै": 8753,
      "▁तिनले": 8754,
      "लम्प": 8755,
      "सनमा": 8756,
      "िकृत": 8757,
      "▁सुवेदीले": 8758,
      "तवार": 8759,
      "▁फार्म": 8760,
      "लेन्स": 8761,
      "▁लिटर": 8762,
      "ग्लै": 8763,
      "▁उत्पादनको": 8764,
      "▁व्यवहारमा": 8765,
      "▁डोल्पा": 8766,
      "आज": 8767,
      "डल": 8768,
      "ारुढ": 8769,
      "▁भूकम्पले": 8770,
      "▁भूभाग": 8771,
      "▁ओलीलाई": 8772,
      "▁शान्तिपूर्ण": 8773,
      "थोकी": 8774,
      "वु": 8775,
      "▁काफ": 8776,
      "▁सकेसम्म": 8777,
      "▁धनकुटा": 8778,
      "▁रामेछा": 8779,
      "▁पन्छ": 8780,
      "▁ठाउ": 8781,
      "▁७७": 8782,
      "▁अस्व": 8783,
      "–पटक": 8784,
      "▁बाक्": 8785,
      "▁सहजै": 8786,
      "▁घुम्न": 8787,
      "id": 8788,
      "▁७३": 8789,
      "तपा": 8790,
      "▁क्लि": 8791,
      "वश्यक": 8792,
      "▁अछ": 8793,
      "▁लाग्नु": 8794,
      "▁लोकतन्त्रको": 8795,
      "▁व्यवस्थापनमा": 8796,
      "▁आश्च": 8797,
      "▁अवश्य": 8798,
      "विराज": 8799,
      "▁जुवा": 8800,
      "▁सेप्टेम्बर": 8801,
      "▁भोली": 8802,
      "▁नन्द": 8803,
      "▁भैसकेको": 8804,
      "देन": 8805,
      "▁शरि": 8806,
      "मेरो": 8807,
      "▁प्रचलित": 8808,
      "▁सर्लाही": 8809,
      "▁अध्ययनरत": 8810,
      "▁गणना": 8811,
      "▁घुस": 8812,
      "▁जनाउँदै": 8813,
      "स्टिक": 8814,
      "▁स्वि": 8815,
      "▁छायांकन": 8816,
      "▁प्रकोप": 8817,
      "-०": 8818,
      "▁गह": 8819,
      "▁फाल": 8820,
      "▁गर्भवती": 8821,
      "ाउँछन्": 8822,
      "▁तेज": 8823,
      "▁दिनअघि": 8824,
      "▁जेष्ठ": 8825,
      "▁उड्ड": 8826,
      "▁देखाइ": 8827,
      "▁उच्चस्तरीय": 8828,
      "राजा": 8829,
      "▁सकियो": 8830,
      ".२": 8831,
      "▁ओभर": 8832,
      "▁मतगणना": 8833,
      "▁प्रचारप्रसार": 8834,
      "▁मुस्लिम": 8835,
      "▁प्यारा": 8836,
      "▁उहा": 8837,
      "तेर": 8838,
      "▁खत्री": 8839,
      "▁दण्ड": 8840,
      "▁दिनका": 8841,
      "▁साँच्चै": 8842,
      "▁पेसा": 8843,
      "▁नमूना": 8844,
      "▁धमा": 8845,
      "▁फोहर": 8846,
      "टरमा": 8847,
      "चौर": 8848,
      "िन्,": 8849,
      "▁पर्यो": 8850,
      "▁विद्यादेवी": 8851,
      "र्सा": 8852,
      "▁दिपक": 8853,
      "▁कुमारी": 8854,
      "▁भाग्य": 8855,
      "▁साधारणसभा": 8856,
      "केन्द्र": 8857,
      "ig": 8858,
      "▁लाखौं": 8859,
      "▁बताउनुहुन्छ": 8860,
      "▁पढाई": 8861,
      "▁विशेषगरी": 8862,
      "▁कार्यान्वयनका": 8863,
      "▁तीर्थ": 8864,
      "▁कार्यान्वयनको": 8865,
      "▁सुत्के": 8866,
      ".वि.": 8867,
      "बाहिर": 8868,
      "▁स्तरो": 8869,
      "पाठ": 8870,
      "▁पटक–पटक": 8871,
      "▁सिलसिलामा": 8872,
      "▁किस्ता": 8873,
      "▁खतिवडाले": 8874,
      "▁पावर": 8875,
      "▁कामदारको": 8876,
      "▁सम्पादक": 8877,
      "▁सत्तारुढ": 8878,
      "▁महेश": 8879,
      "▁नेतृत्वले": 8880,
      "▁ईश्वर": 8881,
      "▁स्पे": 8882,
      "▁W": 8883,
      "ुप्र": 8884,
      "▁उमा": 8885,
      "▁वान": 8886,
      "▁राजधानीको": 8887,
      "▁प्रियंका": 8888,
      "▁त्यहाँबाट": 8889,
      "▁दरबन्दी": 8890,
      "▁कागजात": 8891,
      "भिर": 8892,
      "▁डाउन": 8893,
      "▁सङ्घर्ष": 8894,
      "▁लामिछाने": 8895,
      "▁रोचक": 8896,
      "▁संस्थालाई": 8897,
      "बिना": 8898,
      "▁दिशामा": 8899,
      "▁अभियोगमा": 8900,
      "▁जनआन्दोल": 8901,
      "▁मुलुकले": 8902,
      "▁अर्थमा": 8903,
      "▁हुँदैन,": 8904,
      "▁नाकाबन्द": 8905,
      "▁जलविद्युत": 8906,
      "▁ठूल": 8907,
      "▁अर्ध": 8908,
      "▁साथै,": 8909,
      "ुर्ण": 8910,
      "▁यात": 8911,
      "▁बन्छ": 8912,
      "▁अन्यत्र": 8913,
      "▁निश": 8914,
      "मोहन": 8915,
      "▁गुरुङको": 8916,
      "▁नवराज": 8917,
      "▁नसक्नु": 8918,
      "▁कोट": 8919,
      "▁संगठित": 8920,
      "▁बन्नु": 8921,
      "▁हाइड्रो": 8922,
      "▁चम": 8923,
      "▁स्क्र": 8924,
      "भावी": 8925,
      "▁काँग्रेसले": 8926,
      "टनको": 8927,
      "▁बिगत": 8928,
      "र्तामो": 8929,
      "जिन": 8930,
      "्योर": 8931,
      "षक": 8932,
      "सामु": 8933,
      "▁(एमाले": 8934,
      "▁शेख": 8935,
      "▁स्टक": 8936,
      "बारेमा": 8937,
      "▁कमाएको": 8938,
      "▁जापानको": 8939,
      "▁गम्": 8940,
      "▁खाइ": 8941,
      "▁सदस्यमा": 8942,
      "▁पहलमा": 8943,
      "७०": 8944,
      "▁भेष": 8945,
      "▁सवार": 8946,
      "▁करोडको": 8947,
      "▁शोषण": 8948,
      "▁ताप्लेजु": 8949,
      "▁थालनी": 8950,
      "कवि": 8951,
      "▁बर्दिया": 8952,
      "im": 8953,
      "–४": 8954,
      "▁प्रज्ञा": 8955,
      "▁हरियो": 8956,
      "▁प्रभा": 8957,
      "▁तापनि": 8958,
      "▁अप्ठ्यारो": 8959,
      "▁आपू": 8960,
      "माथिको": 8961,
      "▁सुरू": 8962,
      "▁न्यूनीकरण": 8963,
      "▁संज": 8964,
      "▁बोट": 8965,
      "▁हेक्टर": 8966,
      "▁छु।": 8967,
      "▁छेउ": 8968,
      "ंदैन": 8969,
      "▁हुनुको": 8970,
      "▁इन्धन": 8971,
      "▁विश्वकै": 8972,
      "▁होइनन्": 8973,
      "▁उभ": 8974,
      "▁हाराहारीमा": 8975,
      "▁यसैले": 8976,
      "▁कालोपत्र": 8977,
      "▁शौचालय": 8978,
      "▁संवत्": 8979,
      "▁सुन्दा": 8980,
      "▁सुरेश": 8981,
      "▁संगठनको": 8982,
      "▁ब्रो": 8983,
      "▁करको": 8984,
      "▁ध्रु": 8985,
      "ेजमा": 8986,
      "िकन": 8987,
      "▁विगतका": 8988,
      "▁स्थानीयवासी": 8989,
      "▁मेरी": 8990,
      "यस": 8991,
      "▁नक्सा": 8992,
      "▁आत्मा": 8993,
      "▁माने": 8994,
      "▁लगाउँदै": 8995,
      "▁बेवास्ता": 8996,
      "▁एजेण्डा": 8997,
      "शिया": 8998,
      "सुर": 8999,
      "▁टेक्": 9000,
      "सह": 9001,
      "▁भेद": 9002,
      "सेवी": 9003,
      "▁बेल्जियम": 9004,
      "▁रोक्ने": 9005,
      "▁जीत": 9006,
      "▁सर्त": 9007,
      "▁नेवार": 9008,
      "▁राजविराज": 9009,
      "▁आयोजनाले": 9010,
      "▁सदस्यले": 9011,
      "▁संसदको": 9012,
      "▁नाग": 9013,
      "▁डिल्ली": 9014,
      "▁सामेल": 9015,
      "▁७१": 9016,
      "तेको": 9017,
      "ङ्ख": 9018,
      "▁लक्ष्मण": 9019,
      "▁चामल": 9020,
      "▁अपर": 9021,
      "▁भट्टले": 9022,
      "▁जवान": 9023,
      "▁पार्क": 9024,
      "▁धर्मा": 9025,
      "▁गर्नेलाई": 9026,
      "▁स्वरूप": 9027,
      "▁ओलम्प": 9028,
      "▁उदेश्य": 9029,
      "▁बाहिरी": 9030,
      "▁विश्वकपको": 9031,
      "▁औसत": 9032,
      "▁९९": 9033,
      "▁फाई": 9034,
      "▁पोल": 9035,
      "▁जाजरको": 9036,
      "▁हास्य": 9037,
      "▁महासङ्घ": 9038,
      "▁चुर": 9039,
      "▁फुटबलको": 9040,
      "▁आश्चर्य": 9041,
      "▁सुरुङ": 9042,
      "ङ्गे": 9043,
      "▁कानुनको": 9044,
      "▁प्राधिकरणको": 9045,
      "▁अर्काे": 9046,
      "▁फर्कने": 9047,
      "उनुपर्छ": 9048,
      "▁दलाल": 9049,
      "ठूला": 9050,
      "डोर": 9051,
      "▁८८": 9052,
      "▁सुधारका": 9053,
      "▁ढिलाइ": 9054,
      "▁सता": 9055,
      "▁अनुवाद": 9056,
      "▁समाजलाई": 9057,
      "▁यि": 9058,
      "▁सहुल": 9059,
      "▁कपिलवस्तु": 9060,
      "▁बुझाउन": 9061,
      "पाइ": 9062,
      "▁अचान": 9063,
      "▁नसकेका": 9064,
      "▁छानविन": 9065,
      "▁गच्छ": 9066,
      "▁विषा": 9067,
      "▁सिजन": 9068,
      "▁भन्यो": 9069,
      "स)": 9070,
      "▁आर्य": 9071,
      "▁Nepal": 9072,
      "मध्य": 9073,
      "▁स्थायित्व": 9074,
      "▁ट्रेल": 9075,
      "स्ले": 9076,
      "▁विषयको": 9077,
      "चाप": 9078,
      "▁डरा": 9079,
      "▁अग्लो": 9080,
      "रलाई": 9081,
      "▁नगरपालिका–१": 9082,
      "▁बिद्यालय": 9083,
      "▁हामीसँग": 9084,
      "▁स्तरोन्न": 9085,
      "▁रक्सी": 9086,
      "वासीले": 9087,
      "ारोपण": 9088,
      "▁प्रेमी": 9089,
      "दछन्": 9090,
      "▁गर्छौं": 9091,
      "एनए": 9092,
      "▁उड्डयन": 9093,
      "गामी": 9094,
      "सीय": 9095,
      "िकै": 9096,
      "▁खानी": 9097,
      "▁समक्ष": 9098,
      "▁तिमीलाई": 9099,
      "तापूर्वक": 9100,
      "▁शीत": 9101,
      "▁वीरगन्ज": 9102,
      "▁संचालनमा": 9103,
      "▁हिरो": 9104,
      "▁ज्येष्ठ": 9105,
      "ेन्टमा": 9106,
      "▁जमी": 9107,
      "▁प्राचीन": 9108,
      "▁नदिएको": 9109,
      "▁साम्राज्य": 9110,
      "नान्स": 9111,
      "ुकम्प": 9112,
      "▁अनौठो": 9113,
      "▁गइ": 9114,
      "▁भारत,": 9115,
      "▁धुलो": 9116,
      "▁बधाई": 9117,
      "कस्मिक": 9118,
      "▁रिट": 9119,
      "▁जैविक": 9120,
      "▁h": 9121,
      "▁गतेको": 9122,
      "▁खातामा": 9123,
      "अध्यक्ष": 9124,
      "पञ्च": 9125,
      "▁सत्र": 9126,
      "▁बसन्त": 9127,
      "ुलु": 9128,
      "▁नच": 9129,
      "▁सम्पुर्ण": 9130,
      "▁बनाउँदा": 9131,
      "झैं": 9132,
      "▁मुद्धा": 9133,
      "▁लगायतले": 9134,
      "▁अर्यालले": 9135,
      "▁बेहो": 9136,
      "▁कमला": 9137,
      "▁औचित": 9138,
      "▁पठन": 9139,
      "▁मातहत": 9140,
      "▁निश्च": 9141,
      "▁फौज": 9142,
      "▁छात्रवृत्ति": 9143,
      "▁खुद": 9144,
      "नाइटेड": 9145,
      "▁प्रस्थान": 9146,
      "▁सुरक्षाका": 9147,
      "▁भनिने": 9148,
      "▁सहकार्यमा": 9149,
      "▁चुनावको": 9150,
      "▁पर्वको": 9151,
      "▁अन्त्यमा": 9152,
      "▁जुम्ला": 9153,
      "▁अचानक": 9154,
      "▁निर्देशनमा": 9155,
      "▁चीनमा": 9156,
      "▁छैनन्।": 9157,
      "▁खेलाडीले": 9158,
      "▁सल्यान": 9159,
      "▁छोरीको": 9160,
      "द्वय": 9161,
      "लान्": 9162,
      "▁‘ग": 9163,
      "▁लाग्थ्यो": 9164,
      "▁मेलम्": 9165,
      "▁बुढाथोकी": 9166,
      "बाजी": 9167,
      "▁पुर्ण": 9168,
      "▁परिक्षण": 9169,
      "▁पानीमा": 9170,
      "काण्ड": 9171,
      "▁बढा": 9172,
      "▁२००७": 9173,
      "▁सम्मेलनको": 9174,
      "▁झापाको": 9175,
      "▁फेसबुकमा": 9176,
      "▁यज्ञ": 9177,
      "▁सीता": 9178,
      "्रैमा": 9179,
      "▁उद्यमी": 9180,
      "▁and": 9181,
      "न्दैन": 9182,
      "▁जथा": 9183,
      "न्दो": 9184,
      "▁गरिनु": 9185,
      "पादन": 9186,
      "नाल्ड": 9187,
      "ँै": 9188,
      "▁शृ": 9189,
      "ेल,": 9190,
      "ती,": 9191,
      "▁लाइसेन्स": 9192,
      "▁सयौं": 9193,
      "▁८४": 9194,
      "टेको": 9195,
      "वन्ध": 9196,
      "▁काटि": 9197,
      "▁चल्न": 9198,
      "▁राखिएका": 9199,
      "▁७८": 9200,
      "ow": 9201,
      "वाको": 9202,
      "डी,": 9203,
      "▁उही": 9204,
      "▁सरसफाई": 9205,
      "▁संबिधान": 9206,
      "▁कुखुरा": 9207,
      "▁वेद": 9208,
      "▁कमाउने": 9209,
      "▁कठि": 9210,
      "कानु": 9211,
      "▁सम्प्र": 9212,
      "▁जसो": 9213,
      "▁सकिए": 9214,
      "▁ठगी": 9215,
      "क्रान्ति": 9216,
      "विज्ञान": 9217,
      "▁सवारीसाधन": 9218,
      "▁नदेखि": 9219,
      "▁दुब": 9220,
      "▁आयोजनाका": 9221,
      "▁९८": 9222,
      "▁हुन्छन्।": 9223,
      "▁नवीन": 9224,
      "▁सार्थ": 9225,
      "जीकरण": 9226,
      "▁सक्छ,": 9227,
      "▁कारागार": 9228,
      "धनी": 9229,
      "▁लुक": 9230,
      "▁अन्तरगत": 9231,
      "स्वरुप": 9232,
      "▁शिकार": 9233,
      "▁दिनभित्र": 9234,
      "▁महान्": 9235,
      "▁प्रदर्शनी": 9236,
      "▁खुलासा": 9237,
      "वधि": 9238,
      "▁प्रथा": 9239,
      "दियो": 9240,
      "▁एड": 9241,
      "ीनारायण": 9242,
      "▁पुरुषको": 9243,
      "▁कार्यपालिकाको": 9244,
      "▁विप्लव": 9245,
      "▁तर्जुमा": 9246,
      "▁जग्गामा": 9247,
      "स्प": 9248,
      "▁बनायो": 9249,
      "▁ठुला": 9250,
      "▁साधनको": 9251,
      "▁नेटवर्क": 9252,
      "्नुपर्छ": 9253,
      "▁वाग्": 9254,
      "▁६७": 9255,
      "▁सञ्चालनका": 9256,
      "▁मच्च": 9257,
      "▁नेपालकै": 9258,
      "▁अवस्थाको": 9259,
      "▁रजि": 9260,
      "▁गरेकोमा": 9261,
      "▁आकस्मिक": 9262,
      "▁कार्यको": 9263,
      "▁परमेश्व": 9264,
      "▁तत्कालै": 9265,
      "▁आफ्नी": 9266,
      "शरण": 9267,
      "दर्शन": 9268,
      "\t\n": 9269,
      "▁अन्ततः": 9270,
      "▁प्रवासी": 9271,
      "▁भाडामा": 9272,
      "▁महानिर्देशक": 9273,
      "▁हालको": 9274,
      "▁कारखाना": 9275,
      "न्दि": 9276,
      "▁ट्वी": 9277,
      "▁योग्यता": 9278,
      "▁सलमान": 9279,
      "▁कुरै": 9280,
      "▁शर": 9281,
      "दले": 9282,
      "▁प्रयोजन": 9283,
      "लियो": 9284,
      "▁प्रेरित": 9285,
      "▁(नेकपा": 9286,
      "▁बृद्ध": 9287,
      "▁अन्याय": 9288,
      "▁हल्का": 9289,
      "स्पति": 9290,
      "▁गरेन": 9291,
      "▁शाहीले": 9292,
      "▁सुने": 9293,
      "▁पर्नेमा": 9294,
      "▁संस्कृत": 9295,
      "▁डोनाल्ड": 9296,
      "!\n": 9297,
      "ताप": 9298,
      "▁केदार": 9299,
      "क्ष्मी": 9300,
      "▁बसाइ": 9301,
      "▁असुर": 9302,
      "▁मन्दिरको": 9303,
      "ost": 9304,
      "▁जनचेत": 9305,
      "स्टार": 9306,
      "ेग": 9307,
      "▁ट्रया": 9308,
      "सम्पर्क": 9309,
      "▁मन्त्रिपरिषद": 9310,
      "▁खेलाडीको": 9311,
      "मगर": 9312,
      "▁पसलमा": 9313,
      "▁भने–": 9314,
      "▁डाय": 9315,
      "▁महिनादेखि": 9316,
      "सिएसन": 9317,
      "▁पश्चिमी": 9318,
      "▁नोक्स": 9319,
      "▁दार्चु": 9320,
      "▁परीक्षामा": 9321,
      "▁विज्ञप्ति": 9322,
      "▁ढाँच": 9323,
      "सतमा": 9324,
      "च्": 9325,
      "▁पुरस्कृत": 9326,
      "▁पर्छ।": 9327,
      "▁पालन": 9328,
      "▁थाइल्याण्ड": 9329,
      "▁जित्": 9330,
      "▁मानेर": 9331,
      "▁‘फ": 9332,
      "▁विमानस्थलको": 9333,
      "▁बरिष्ठ": 9334,
      "▁धौ": 9335,
      "▁रेस्ट": 9336,
      "▁उद्योगमा": 9337,
      "सम्प": 9338,
      "▁एभर": 9339,
      "▁नेपालीहरु": 9340,
      "आएको": 9341,
      "▁भए।": 9342,
      "▁औचित्य": 9343,
      "पछी": 9344,
      "▁सालदेखि": 9345,
      "वाहक": 9346,
      "▁मेलमिला": 9347,
      "▁तपाईलाई": 9348,
      "बीचमा": 9349,
      "▁अवलम्बन": 9350,
      "▁जग्गाको": 9351,
      "▁शर्मा,": 9352,
      "▁उपयोगी": 9353,
      "▁वामपन्थी": 9354,
      "पुल": 9355,
      "▁भूगोल": 9356,
      "▁बनाउनुपर्ने": 9357,
      "▁अवतरण": 9358,
      "iv": 9359,
      "▁चाइ": 9360,
      "▁मुम्ब": 9361,
      "र्वेद": 9362,
      "▁माइती": 9363,
      "▁जता": 9364,
      "योजित": 9365,
      "▁गरे,": 9366,
      "▁विवादमा": 9367,
      "▁हितमा": 9368,
      "▁अफ्रिका": 9369,
      "पिटल": 9370,
      "रहित": 9371,
      "लिने": 9372,
      "▁आयोगमा": 9373,
      "▁सङ्क": 9374,
      "छौं": 9375,
      "सेको": 9376,
      "ष्टिक": 9377,
      "▁जनस्वास्थ्य": 9378,
      "▁सम्ममा": 9379,
      "▁२०१३": 9380,
      "▁साँस्कृतिक": 9381,
      "▁to": 9382,
      "ul": 9383,
      "▁हराउँदै": 9384,
      "ंगे": 9385,
      "▁१९६": 9386,
      "▁अनुमोदन": 9387,
      "▁हेलि": 9388,
      "▁नसके": 9389,
      "▁बिम": 9390,
      "▁तरल": 9391,
      "▁गर्छ।": 9392,
      "▁समर्थक": 9393,
      "▁नवलपरासी": 9394,
      "▁ढुक्क": 9395,
      "▁ग्लोबल": 9396,
      "▁ऐनको": 9397,
      "▁अछाम": 9398,
      "भएको": 9399,
      "पत्रिका": 9400,
      "▁उठाएको": 9401,
      "बेर": 9402,
      "▁तालिका": 9403,
      "▁कार्यालयबाट": 9404,
      "▁समुदायलाई": 9405,
      "▁गृहकार्य": 9406,
      "▁त्रिवि": 9407,
      "▁भलिबल": 9408,
      "प्रेर": 9409,
      "▁असु": 9410,
      "▁अन्यथा": 9411,
      "▁किसानलाई": 9412,
      "▁आश्वासन": 9413,
      "▁त्रैमा": 9414,
      "▁पौडेलको": 9415,
      "▁Read": 9416,
      "▁नेपालगन्ज": 9417,
      "▁सुवास": 9418,
      "तर्फी": 9419,
      "▁गिर": 9420,
      "▁हेर्दै": 9421,
      "▁गुज": 9422,
      "ers": 9423,
      "शो": 9424,
      "▁शहरी": 9425,
      "▁तैपनि": 9426,
      "▁अभियानको": 9427,
      "▁वर्": 9428,
      "▁बिर्स": 9429,
      "▁सिधै": 9430,
      "▁कुशल": 9431,
      "▁हजारभन्दा": 9432,
      "▁मधुमे": 9433,
      "▁माओवादीका": 9434,
      "▁सम्भावित": 9435,
      "व.": 9436,
      "▁भने।\n": 9437,
      "▁चारै": 9438,
      "▁सरा": 9439,
      "संहिता": 9440,
      "▁समुद्र": 9441,
      "जू": 9442,
      "▁स्रष्टा": 9443,
      "▁थप्": 9444,
      "▁फार": 9445,
      "▁बिष्ट": 9446,
      "▁भावी": 9447,
      "पानीको": 9448,
      "▁बोलाएर": 9449,
      "▁चुप": 9450,
      "▁कं": 9451,
      "▁८२": 9452,
      "▁दुर्गम": 9453,
      "▁बिहिबार": 9454,
      "्यौ": 9455,
      "▁जंगल": 9456,
      "▁रावल": 9457,
      "▁एम्बु": 9458,
      "▁पाहु": 9459,
      "▁त्यहीँ": 9460,
      "▁भाषा,": 9461,
      "▁नहोस्": 9462,
      "ओस्": 9463,
      "जस्ती": 9464,
      "▁खेर": 9465,
      "▁पाटो": 9466,
      "▁पटकपटक": 9467,
      "अर्का": 9468,
      "▁गुमाएका": 9469,
      "▁लिमिटेडले": 9470,
      "▁अक्टोबर": 9471,
      "▁छुट्टा": 9472,
      "▁गाउँको": 9473,
      "मन्त्रीको": 9474,
      "▁बाँच्न": 9475,
      "▁विद्रोह": 9476,
      "▁खट": 9477,
      "▁इमान": 9478,
      "प्ताहिक": 9479,
      "▁ग्": 9480,
      "सम्मत": 9481,
      "▁घोषणापत्र": 9482,
      "▁युनिभ": 9483,
      "▁युक": 9484,
      "▁झै": 9485,
      "▁काठमाडौँमा": 9486,
      "▁युवालाई": 9487,
      "▁दृढ": 9488,
      "स्मा": 9489,
      "▁सुनार": 9490,
      "▁महामन्त्री": 9491,
      "▁सहिद": 9492,
      "▁माल्दिभ्": 9493,
      "न्मुख": 9494,
      "▁रोजा": 9495,
      "▁६९": 9496,
      "▁नगर्नु": 9497,
      "▁थालि": 9498,
      "▁लाग्छ,": 9499,
      "▁नसकेपछि": 9500,
      "▁विस्फोट": 9501,
      "▁आइरहेका": 9502,
      "▁सूचनाको": 9503,
      "▁८३": 9504,
      "▁मिल्छ": 9505,
      "▁प्रकृया": 9506,
      "ुले": 9507,
      "▁नामावली": 9508,
      "ारामा": 9509,
      "▁हुँदैन।": 9510,
      "▁दम्प": 9511,
      "▁परिकल्पना": 9512,
      "▁•": 9513,
      "▁भवनमा": 9514,
      "▁आयल": 9515,
      "▁उतार": 9516,
      "▁झड": 9517,
      "▁मङ्गलबार": 9518,
      "▁(२": 9519,
      "▁छोराको": 9520,
      "▁विश्वकर्मा": 9521,
      "डेल्": 9522,
      "▁शरणार्थी": 9523,
      "▁पर्‍यो": 9524,
      "▁कलेजमा": 9525,
      "▁धेरैको": 9526,
      "▁जितेर": 9527,
      "▁शुक्रवार": 9528,
      "▁सुत्केरी": 9529,
      "न्डा": 9530,
      "रिय": 9531,
      "कांक्षा": 9532,
      "▁३.": 9533,
      "केश": 9534,
      "▁शर्माको": 9535,
      "किम": 9536,
      "▁सुनाए": 9537,
      "▁गिरिजा": 9538,
      "▁गान्ध": 9539,
      "ट्टि": 9540,
      "विरुद्धको": 9541,
      "▁तिहारमा": 9542,
      "▁बाह्र": 9543,
      "किङ्ग": 9544,
      "ोजे": 9545,
      "▁सोलुखु": 9546,
      "पारी": 9547,
      "सुन": 9548,
      "▁चलखेल": 9549,
      "▁२०६४": 9550,
      "।०": 9551,
      "▁ताम": 9552,
      "▁२०६८": 9553,
      "▁काउन्सि": 9554,
      "रन": 9555,
      "कामा": 9556,
      "▁उद्यम": 9557,
      "▁विरामी": 9558,
      "▁छौं।": 9559,
      "▁सक्दैनन्": 9560,
      "▁चीनका": 9561,
      "▁भिटाम": 9562,
      "▁ब्यवसाय": 9563,
      "▁एसएल": 9564,
      "आउट": 9565,
      "▁शही": 9566,
      "▁परिसरमा": 9567,
      "वाहित": 9568,
      "▁हिड": 9569,
      "▁दोब्बर": 9570,
      "▁काठमाडौंका": 9571,
      "ट्र": 9572,
      "श्मा": 9573,
      "धनको": 9574,
      "▁मेलामा": 9575,
      "▁पल्ट": 9576,
      "अगा": 9577,
      "▁बैठकको": 9578,
      "▁यतिखेर": 9579,
      "▁झगडा": 9580,
      "▁हालेर": 9581,
      "▁हुँदाहुँदै": 9582,
      "▁आपसमा": 9583,
      "▁जिज्ञासा": 9584,
      "▁जाम": 9585,
      "▁गतेबाट": 9586,
      "ct": 9587,
      "▁जात्रा": 9588,
      "▁मानन्ध": 9589,
      "▁दक्षिणी": 9590,
      "दमा": 9591,
      "▁जिक": 9592,
      "सकेकी": 9593,
      "▁लागतमा": 9594,
      "▁जीवित": 9595,
      "▁अँ": 9596,
      "▁दायरामा": 9597,
      "▁मनोनयन": 9598,
      "▁अडि": 9599,
      "▁खल": 9600,
      "▁घुमा": 9601,
      "▁पृथ्वीनारायण": 9602,
      "▁प्रकृतिको": 9603,
[...]
