{
  "version": "1.0",
  "truncation": null,
  "padding": null,
  "added_tokens": [],
  "normalizer": null,
  "pre_tokenizer": {
    "type": "ByteLevel",
    "add_prefix_space": false,
    "trim_offsets": true,
    "use_regex": true
  },
  "post_processor": {
    "type": "ByteLevel",
    "add_prefix_space": true,
    "trim_offsets": false,
    "use_regex": true
  },
  "decoder": {
    "type": "ByteLevel",
    "add_prefix_space": true,
    "trim_offsets": true,
    "use_regex": true
  },
  "model": {
    "type": "BPE",
    "dropout": null,
    "unk_token": null,
    "continuing_subword_prefix": null,
    "end_of_word_suffix": null,
    "fuse_unk": false,
    "byte_fallback": false,
    "vocab": {
      "!": 0,
      "\"": 1,
      "#": 2,
      "$": 3,
      "%": 4,
      "&": 5,
      "'": 6,
      "(": 7,
      ")": 8,
      "*": 9,
      "+": 10,
      ",": 11,
      "-": 12,
      ".": 13,
      "/": 14,
      "0": 15,
      "1": 16,
      "2": 17,
      "3": 18,
      "4": 19,
      "5": 20,
      "6": 21,
      "7": 22,
      "8": 23,
      "9": 24,
      ":": 25,
      ";": 26,
      "<": 27,
      "=": 28,
      ">": 29,
      "?": 30,
      "@": 31,
      "A": 32,
      "B": 33,
      "C": 34,
      "D": 35,
      "E": 36,
      "F": 37,
      "G": 38,
      "H": 39,
      "I": 40,
      "J": 41,
      "K": 42,
      "L": 43,
      "M": 44,
      "N": 45,
      "O": 46,
      "P": 47,
      "Q": 48,
      "R": 49,
      "S": 50,
      "T": 51,
      "U": 52,
      "V": 53,
      "W": 54,
      "X": 55,
      "Y": 56,
      "Z": 57,
      "[": 58,
      "\\": 59,
      "]": 60,
      "^": 61,
      "_": 62,
      "`": 63,
      "a": 64,
      "b": 65,
      "c": 66,
      "d": 67,
      "e": 68,
      "f": 69,
      "g": 70,
      "h": 71,
      "i": 72,
      "j": 73,
      "k": 74,
      "l": 75,
      "m": 76,
      "n": 77,
      "o": 78,
      "p": 79,
      "q": 80,
      "r": 81,
      "s": 82,
      "t": 83,
      "u": 84,
      "v": 85,
      "w": 86,
      "x": 87,
      "y": 88,
      "z": 89,
      "{": 90,
      "|": 91,
      "}": 92,
      "~": 93,
      "¡": 94,
      "¢": 95,
      "£": 96,
      "¤": 97,
      "¥": 98,
      "¦": 99,
      "§": 100,
      "¨": 101,
      "©": 102,
      "ª": 103,
      "«": 104,
      "¬": 105,
      "®": 106,
      "¯": 107,
      "°": 108,
      "±": 109,
      "²": 110,
      "³": 111,
      "´": 112,
      "µ": 113,
      "¶": 114,
      "·": 115,
      "¸": 116,
      "¹": 117,
      "º": 118,
      "»": 119,
      "¼": 120,
      "½": 121,
      "¾": 122,
      "¿": 123,
      "À": 124,
      "Á": 125,
      "Â": 126,
      "Ã": 127,
      "Ä": 128,
      "Å": 129,
      "Æ": 130,
      "Ç": 131,
      "È": 132,
      "É": 133,
      "Ê": 134,
      "Ë": 135,
      "Ì": 136,
      "Í": 137,
      "Î": 138,
      "Ï": 139,
      "Ð": 140,
      "Ñ": 141,
      "Ò": 142,
      "Ó": 143,
      "Ô": 144,
      "Õ": 145,
      "Ö": 146,
      "×": 147,
      "Ø": 148,
      "Ù": 149,
      "Ú": 150,
      "Û": 151,
      "Ü": 152,
      "Ý": 153,
      "Þ": 154,
      "ß": 155,
      "à": 156,
      "á": 157,
      "â": 158,
      "ã": 159,
      "ä": 160,
      "å": 161,
      "æ": 162,
      "ç": 163,
      "è": 164,
      "é": 165,
      "ê": 166,
      "ë": 167,
      "ì": 168,
      "í": 169,
      "î": 170,
      "ï": 171,
      "ð": 172,
      "ñ": 173,
      "ò": 174,
      "ó": 175,
      "ô": 176,
      "õ": 177,
      "ö": 178,
      "÷": 179,
      "ø": 180,
      "ù": 181,
      "ú": 182,
      "û": 183,
      "ü": 184,
      "ý": 185,
      "þ": 186,
      "ÿ": 187,
      "Ā": 188,
      "ā": 189,
      "Ă": 190,
      "ă": 191,
      "Ą": 192,
      "ą": 193,
      "Ć": 194,
      "ć": 195,
      "Ĉ": 196,
      "ĉ": 197,
      "Ċ": 198,
      "ċ": 199,
      "Č": 200,
      "č": 201,
      "Ď": 202,
      "ď": 203,
      "Đ": 204,
      "đ": 205,
      "Ē": 206,
      "ē": 207,
      "Ĕ": 208,
      "ĕ": 209,
      "Ė": 210,
      "ė": 211,
      "Ę": 212,
      "ę": 213,
      "Ě": 214,
      "ě": 215,
      "Ĝ": 216,
      "ĝ": 217,
      "Ğ": 218,
      "ğ": 219,
      "Ġ": 220,
      "ġ": 221,
      "Ģ": 222,
      "ģ": 223,
      "Ĥ": 224,
      "ĥ": 225,
      "Ħ": 226,
      "ħ": 227,
      "Ĩ": 228,
      "ĩ": 229,
      "Ī": 230,
      "ī": 231,
      "Ĭ": 232,
      "ĭ": 233,
      "Į": 234,
      "į": 235,
      "İ": 236,
      "ı": 237,
      "Ĳ": 238,
      "ĳ": 239,
      "Ĵ": 240,
      "ĵ": 241,
      "Ķ": 242,
      "ķ": 243,
      "ĸ": 244,
      "Ĺ": 245,
      "ĺ": 246,
      "Ļ": 247,
      "ļ": 248,
      "Ľ": 249,
      "ľ": 250,
      "Ŀ": 251,
      "ŀ": 252,
      "Ł": 253,
      "ł": 254,
      "Ń": 255,
      "à¤": 256,
      "à¥": 257,
      "Ġà¤": 258,
      "à¤¾": 259,
      "à¥į": 260,
      "à¤°": 261,
      "à¤¨": 262,
      "à¤ķ": 263,
      "à¤¿": 264,
      "à¥ĩ": 265,
      "à¥ĭ": 266,
      "à¤²": 267,
      "à¤®": 268,
      "à¤¤": 269,
      "à¤¯": 270,
      "à¥ģ": 271,
      "à¥Ģ": 272,
      "à¤¸": 273,
      "Ġà¤¸": 274,
      "Ġà¥": 275,
      "Ġà¤ª": 276,
      "à¤¹": 277,
      "à¤ª": 278,
      "à¤¦": 279,
      "à¤µ": 280,
      "Ġà¥¤": 281,
      "Ġà¤ķ": 282,
      "Ġà¤Ĺ": 283,
      "à¤Ĺ": 284,
      "Ġà¤°": 285,
      "à¥Ī": 286,
      "à¤Ł": 287,
      "Ġà¤¨": 288,
      "Ġà¤¬": 289,
      "à¤ı": 290,
      "Ġà¤®": 291,
      "Ġà¤Ń": 292,
      "à¤ľ": 293,
      "Ġà¤ħ": 294,
      "Ġà¤¹": 295,
      "Ġà¤Ĺà¤°": 296,
      "Ġà¤µ": 297,
      "à¤¬": 298,
      "à¤·": 299,
      "Ġà¤Ľ": 300,
      "à¤§": 301,
      "Ġ?": 302,
      "Ġà¤¤": 303,
      "Ġà¤¦": 304,
      "à¤ıà¤ķ": 305,
      "à¤¥": 306,
      "à¤ģ": 307,
      "Ġà¤Ĩ": 308,
      "à¤¶": 309,
      "Ġà¤ľ": 310,
      "à¤Ĥ": 311,
      "Ġà¤²": 312,
      "à¤Ī": 313,
      "à¤ļ": 314,
      "à¤¡": 315,
      "à¤£": 316,
      "à¤Ľ": 317,
      "à¥Ĥ": 318,
      "Ġà¤ī": 319,
      "à¤Ń": 320,
      "à¤ĸ": 321,
      "à¤ī": 322,
      "Ġà¤¯": 323,
      "à¤¹à¤°": 324,
      "Ġà¤¸à¤®": 325,
      "à¤°à¤ķ": 326,
      "à¤ĩ": 327,
      "à¤°à¤®": 328,
      "Ġà¤ļ": 329,
      "Ġà¤Ńà¤¨": 330,
      "à¤«": 331,
      "à¥Į": 332,
      "Ġà¤¶": 333,
      "Ġà¤¥": 334,
      "Ġà¤ĸ": 335,
      "à¤¯à¤ķ": 336,
      "Ġà¤ı": 337,
      "à¤īà¤¨": 338,
      "Ġà¤ªà¤¨": 339,
      "à¤¾à¤ģ": 340,
      "à¤ł": 341,
      "à¤¨à¤ķ": 342,
      "Ġà¤Ńà¤ıà¤ķ": 343,
      "Ġà¤ªà¤°": 344,
      "Ġà¤ħà¤¨": 345,
      "à¤°à¤¤": 346,
      "à¥ĥ": 347,
      "à¤Ļ": 348,
      "Ġà¤«": 349,
      "à¥¦": 350,
      "à¤°à¤£": 351,
      "à¤¸à¤ķ": 352,
      "Ġà¤Ľà¤¨": 353,
      "à¤ľà¤¨": 354,
      "Ġà¥§": 355,
      "Ġà¥¨": 356,
      "à¤¢": 357,
      "à¤¸à¤®": 358,
      "à¤ªà¤°": 359,
      "à¤ĺ": 360,
      "Ġà¤°à¤¹": 361,
      "à¤¨à¤®": 362,
      "à¤µà¤¸": 363,
      "Ġà¤ĺ": 364,
      "Ġà¤ıà¤ķ": 365,
      "à¤¨à¤²": 366,
      "Ġà¤®à¤¹": 367,
      "Ġà¤¬à¤¨": 368,
      "Ġà¤¯à¤¸": 369,
      "Ġà¤ľà¤¨": 370,
      "Ġà¤§": 371,
      "à¤²à¤ķ": 372,
      "à¤¯à¤®": 373,
      "Ġà¤Ł": 374,
      "Ġà¤¸à¤ķ": 375,
      "à¤ªà¤¨": 376,
      "à¤°à¤¹": 377,
      "à¤ŀ": 378,
      "à¤Ĺà¤°": 379,
      "Ġà¤Ĩà¤«": 380,
      "Ġà¤¤à¤¥": 381,
      "Ġà¤ħà¤§": 382,
      "à¤°à¤²": 383,
      "Ġà¤¸à¤¹": 384,
      "Ġà¤¡": 385,
      "Ġà¥§à¥": 386,
      "Ġà¤µà¤°": 387,
      "à¤¯à¤¸": 388,
      "à¤²à¤®": 389,
      "Ġà¤¤à¤°": 390,
      "à¤ªà¤Ľ": 391,
      "à¤¤à¤°": 392,
      "à¤¯à¤¤": 393,
      "à¤°à¤¸": 394,
      "à¤Ŀ": 395,
      "Ġà¤īà¤ª": 396,
      "Ġà¤¬à¤¤": 397,
      "Ġà¤ħà¤°": 398,
      "à¥Įà¤Ĥ": 399,
      "à¤ıà¤°": 400,
      "Ġà¤®à¤¨": 401,
      "Ġà¤¬à¤¢": 402,
      "Ġà¤¸à¤°à¤ķ": 403,
      "ĠĠ": 404,
      "Ġà¤ķà¤®": 405,
      "à¤°à¤¦": 406,
      "à¤ªà¤¤": 407,
      "à¤Ľà¤¨": 408,
      "Ġà¤ķà¤°": 409,
      "Ġà¤²à¤Ĺ": 410,
      "à¤ªà¤®": 411,
      "à¤ķà¤²": 412,
      "Ġà¤ł": 413,
      "à¤ĩà¤¨": 414,
      "à¤°à¤¹à¤°": 415,
      "Ġà¤ĩ": 416,
      "à¤łà¤®": 417,
      "à¤ķà¤®": 418,
      "Ġà¤ªà¤¹": 419,
      "à¥ģà¤ģ": 420,
      "à¤¤à¤ķ": 421,
      "Ġà¥¨à¥¦": 422,
      "Ġà¤¸à¤¬": 423,
      "Ġà¤ħà¤¸": 424,
      "à¤®à¤ķ": 425,
      "à¤Łà¤ķ": 426,
      "Ġà¤Ĩà¤¯": 427,
      "Ġà¤īà¤¨": 428,
      "à¤¯à¤¨": 429,
      "Ġà¥¨à¥": 430,
      "à¤µà¤ķ": 431,
      "à¤¬à¤¨": 432,
      "à¤µà¤°": 433,
      "à¤¯à¤µà¤¸": 434,
      "à¤ħ": 435,
      "Ġà¤īà¤¤": 436,
      "Ġà¤īà¤¨à¤²": 437,
      "Ġà¤Ńà¤ı": 438,
      "à¤µà¤¨": 439,
      "à¤²à¤²": 440,
      "Ġà¥©": 441,
      "Ġà¤¬à¤¸": 442,
      "à¤ļà¤¨": 443,
      "à¤¾à¤Ĥ": 444,
      "à¤Ĺà¤¤": 445,
      "à¤²à¤¯": 446,
      "à¤¸à¤²": 447,
      "à¤²à¤¨": 448,
      "à¤²à¤¬": 449,
      "Ġà¤Ĺà¤¤": 450,
      "à¤·à¤£": 451,
      "à¤Łà¤¨": 452,
      "à¥Ń": 453,
      "à¤°à¤µ": 454,
      "à¤°à¤¬": 455,
      "à¥§": 456,
      "à¤¶à¤ķ": 457,
      "Ġà¤ħà¤µà¤¸": 458,
      "Ġà¥«": 459,
      "Ġà¤¨à¤Ĺà¤°": 460,
      "Ġà¤ħà¤Ń": 461,
      "Ġà¤Ĩà¤ıà¤ķ": 462,
      "à¤¸à¤¨": 463,
      "Ġà¤Ŀ": 464,
      "Ġà¤¬à¤ľ": 465,
      "Ġà¤Ĩà¤°": 466,
      "à¥«": 467,
      "Ġà¤ħà¤¹": 468,
      "Ġà¤¹à¤ľ": 469,
      "à¤·à¤ķ": 470,
      "à¤¤à¤®": 471,
      "à¤Łà¤°": 472,
      "Ġà¤īà¤¦": 473,
      "à¥Īà¤Ĥ": 474,
      "à¤®à¤¤": 475,
      "à¤Ńà¤¨": 476,
      "à¤¤à¤¨": 477,
      "à¤°à¤§": 478,
      "à¤ķà¤ķ": 479,
      "Ġà¤¸à¤°": 480,
      "Ġà¤¸à¤¨": 481,
      "Ġà¥ª": 482,
      "à¤®à¤¨": 483,
      "à¤°à¤¯": 484,
      "à¤ķà¤°": 485,
      "à¤¯à¤²": 486,
      "Ġà¤Ĩà¤µ": 487,
      "à¥¨": 488,
      "Ġà¤¸à¤ŀ": 489,
      "à¤Ńà¤¯": 490,
      "Ġà¤ĵ": 491,
      "Ġà¤ļà¤²": 492,
      "à¥Įà¤ģ": 493,
      "à¤¡à¤ķ": 494,
      "à¤ªà¤ķ": 495,
      "à¤ľà¤ķ": 496,
      "à¤¨à¤¨": 497,
      "à¤Ĩ": 498,
      "Ġà¤¸à¤¦": 499,
      "à¤Ńà¤ıà¤ķ": 500,
      "à¤¦à¤¨": 501,
      "à¤°à¤®à¤®": 502,
      "à¤īà¤Ł": 503,
      "Ġà¥¬": 504,
      "à¤Ĺà¤²": 505,
      "Ġà¤ªà¤¤": 506,
      "Ġà¤¨à¤¯": 507,
      "Ġà¤ľà¤¸": 508,
      "Ġà¤ªà¤ķ": 509,
      "à¥¬": 510,
      "Ġà¤¬à¤°": 511,
      "à¥ª": 512,
      "à¤ĩà¤ıà¤ķ": 513,
      "à¤°à¤¶": 514,
      "Ġà¤ªà¤Ľ": 515,
      "à¤µà¤²": 516,
      "Ġà¤ķà¤¸": 517,
      "à¤«à¤²": 518,
      "à¤¶à¤¨": 519,
      "à¤¨à¤¸": 520,
      "à¤Ĺà¤ķ": 521,
      "à¤¿à¤Ĥ": 522,
      "Ġà¤Ĩà¤§": 523,
      "à¤¤à¤²": 524,
      "à¥©": 525,
      "à¤®à¤²": 526,
      "Ġà¤ıà¤īà¤Ł": 527,
      "Ġà¤īà¤¨à¤ķ": 528,
      "à¤§à¤¨": 529,
      "Ġà¤¹à¤°": 530,
      "à¤ĩà¤°à¤¹": 531,
      "Ġà¤¸à¤¯": 532,
      "à¤¬à¤°": 533,
      "Ġà¤¢": 534,
      "à¤¨à¤®à¤¨": 535,
      "à¤¯à¤°": 536,
      "Ġà¤īà¤¹": 537,
      "Ġà¤¯à¤¹": 538,
      "à¤®à¤®": 539,
      "Ġà¤ħà¤Ĺ": 540,
      "Ġà¤¸à¤®à¤¯": 541,
      "Ġà¤Ńà¤¯": 542,
      "à¤ĥ": 543,
      "Ġà¤Ĩà¤ľ": 544,
      "Ġà¤ħà¤®": 545,
      "à¤¿à¤ģ": 546,
      "Ġà¥Ń": 547,
      "Ġà¤ħà¤¬": 548,
      "à¤ķà¤°à¤£": 549,
      "ĠĠĠĠ": 550,
      "Ġà¤¤à¤¯": 551,
      "à¤ĸà¤°": 552,
      "à¤ĵ": 553,
      "à¤°à¤Ń": 554,
      "Ġà¤ĸà¤°": 555,
      "Ġà¤¸à¤¹à¤¯": 556,
      "Ġà¤®à¤§": 557,
      "Ġà¤¸à¤®à¤¸": 558,
      "Ġà¤¦à¤°": 559,
      "à¤µà¤®": 560,
      "Ġà¤ķà¤²": 561,
      "à¤¯à¤¹": 562,
      "à¤Łà¤®": 563,
      "Ġà¤Ķ": 564,
      "Ġà¤ľà¤¨à¤¤": 565,
      "Ġà¤ĺà¤°": 566,
      "Ġà¤ķà¤¤": 567,
      "Ġà¤īà¤ķ": 568,
      "Ġà¤¤à¤ª": 569,
      "à¤¸à¤¦": 570,
      "à¤Ĺà¤®": 571,
      "à¤¹à¤ķ": 572,
      "à¥®": 573,
      "Ġà¥§à¥¦": 574,
      "Ġà¤ªà¤¦": 575,
      "Ġà¤¸à¤¦à¤¸": 576,
      "Ġà¤®à¤²": 577,
      "Ġà¤Ĩà¤īà¤¨": 578,
      "Ġà¤ĩà¤¨": 579,
      "Ġà¤¨à¤Ĺà¤°à¤ª": 580,
      "Ġà¥®": 581,
      "Ġà¤ħà¤µ": 582,
      "à¤ľà¤¸": 583,
      "à¤ķà¤¤": 584,
      "Ġà¤ħà¤ĺ": 585,
      "à¤²à¤Ĺ": 586,
      "à¤·à¤®": 587,
      "à¤¶à¤®": 588,
      "à¤¦à¤°": 589,
      "Ġà¥¯": 590,
      "Ġà¤¬à¤¹": 591,
      "Ġà¤Ĩà¤µà¤¶": 592,
      "à¥¯": 593,
      "Ġà¤ıà¤®": 594,
      "Ġà¤Ĩà¤®": 595,
      "Ġà¤¬à¤²": 596,
      "à¤¾à¥ĩ": 597,
      "à¤¹à¤¨": 598,
      "Ġà¤Ĩà¤Ĺ": 599,
      "Ġà¤¯à¤¸à¤ķ": 600,
      "Ġà¤Ĩà¤ĩ": 601,
      "Ġà¤īà¤®": 602,
      "Ġà¤¸à¤Ń": 603,
      "Ġà¤¶à¤°": 604,
      "à¤£à¤ķ": 605,
      "Ġà¤Ĩà¤¨": 606,
      "à¤ħà¤¨": 607,
      "Ġà¤ħà¤¤": 608,
      "à¤µà¤¤": 609,
      "à¤ıà¤¨": 610,
      "Ġà¤¨à¤®": 611,
      "à¤Ńà¤°": 612,
      "Ġà¤¨à¤¸à¤ķ": 613,
      "à¤¯à¤µ": 614,
      "à¤Łà¤²": 615,
      "Ġà¤ļà¤°": 616,
      "à¤µà¤ľà¤¨": 617,
      "Ġà¤®à¤¤": 618,
      "Ġà¤ħà¤ª": 619,
      "Ġà¥¨à¥¦à¥Ń": 620,
      "Ġà¤Ĺà¤ıà¤ķ": 621,
      "Ġà¤¥à¤ª": 622,
      "à¤ıà¤ªà¤Ľ": 623,
      "Ġà¤«à¤°": 624,
      "Ġà¤īà¤²": 625,
      "Ġà¤īà¤ļ": 626,
      "à¤¶à¤¤": 627,
      "à¤ķà¤ª": 628,
      "Ġà¤¦à¤²": 629,
      "à¤ĩà¤²": 630,
      "Ġà¤ªà¤¢": 631,
      "à¤ľà¤®": 632,
      "à¤ķà¤¨": 633,
      "Ġà¤¸à¤Ļ": 634,
      "Ġà¤ķà¤¹": 635,
      "Ġà¤Ĩà¤¦": 636,
      "Ġà¤Ńà¤°": 637,
      "Ġà¤ªà¤Łà¤ķ": 638,
      "à¤¡à¤²": 639,
      "à¤°à¤ļ": 640,
      "à¤ĵà¤µ": 641,
      "Ġà¤¸à¤¤": 642,
      "à¤ħà¤ĺ": 643,
      "à¤²à¤¯à¤ķ": 644,
      "Ġà¤¯à¤¸à¤²": 645,
      "Ġà¤ĺà¤Łà¤¨": 646,
      "Ġà¤µà¤Ł": 647,
      "Ġà¤°à¤¹à¤¨": 648,
      "à¤¦à¤Ľ": 649,
      "à¤£à¤¯": 650,
      "Ġà¤¨à¤¹": 651,
      "Ġà¤®à¤¹à¤¤": 652,
      "à¤°à¤¨": 653,
      "Ġà¤¸à¤¹à¤Ń": 654,
      "Ġà¤²à¤ķ": 655,
      "Ġà¤¸à¤ļ": 656,
      "à¤¬à¤²": 657,
      "Ġà¤¸à¤«à¤²": 658,
      "à¤Ļà¤ķ": 659,
      "à¤®à¤ļ": 660,
      "à¤¥à¤®": 661,
      "à¤¦à¤ķ": 662,
      "à¤ļà¤ķ": 663,
      "Ġà¤µà¤¡": 664,
      "à¤¯à¤¸à¤ķ": 665,
      "à¤¤à¤µ": 666,
      "à¤¬à¤¹": 667,
      "à¤°à¤ª": 668,
      "Ġà¤ĵà¤²": 669,
      "Ġà¤¨à¤¦": 670,
      "à¤µà¤°à¤£": 671,
      "à¤łà¤¨": 672,
      "à¤ªà¤²": 673,
      "Ġà¤Ĳ": 674,
      "à¤¤à¤°à¤£": 675,
      "Ġà¤¤à¤¤": 676,
      "Ġà¤Ńà¤ĩà¤°à¤¹": 677,
      "à¤·à¤¯à¤®": 678,
      "Ġà¤ħà¤²": 679,
      "à¤¨à¤µ": 680,
      "Ġà¤¯à¤¤": 681,
      "Ġà¤¹à¤¤": 682,
      "à¤ľà¤Ĺ": 683,
      "Ġà¤¸à¤¡à¤ķ": 684,
      "Ġà¤¸à¤®à¤¯à¤®": 685,
      "à¤¡à¤®": 686,
      "à¤¯à¤¤à¤ķ": 687,
      "Ġà¤ħà¤Ŀ": 688,
      "à¤·à¤¤": 689,
      "Ġà¤§à¤°": 690,
      "à¤ĩà¤¸à¤ķ": 691,
      "à¤°à¤®à¤£": 692,
      "Ġà¤°à¤ķà¤®": 693,
      "Ġà¥§à¥¯": 694,
      "Ġà¤Ńà¤ıà¤°": 695,
      "à¤µà¤ª": 696,
      "Ġà¤īà¤ł": 697,
      "Ġà¥§à¥«": 698,
      "à¤ľà¤²": 699,
      "Ġà¤ªà¤¶": 700,
      "Ġà¤¸à¤µ": 701,
      "à¤«à¤¤": 702,
      "Ġà¤ľà¤®": 703,
      "à¤²à¤¤": 704,
      "Ġà¥§à¥¨": 705,
      "Ġà¤ıà¤¸": 706,
      "Ġà¤ħà¤¦": 707,
      "à¤¹à¤²": 708,
      "à¤°à¤ªà¤¤": 709,
      "à¤²à¤¯à¤²": 710,
      "à¤¨à¤¬": 711,
      "Ġà¥§à¥§": 712,
      "Ġà¤īà¤ªà¤ļ": 713,
      "à¤¸à¤¹": 714,
      "à¤¸à¤Ń": 715,
      "Ġà¤§à¤¨": 716,
      "Ġà¤Ĩà¤ķ": 717,
      "Ġà¤Ĩà¤¶": 718,
      "à¤§à¤ķ": 719,
      "Ġà¤Ľà¤²": 720,
      "Ġà¤ļà¤²à¤ļ": 721,
      "Ġà¤¨à¤Ń": 722,
      "à¤µà¤¯": 723,
      "à¤¦à¤²": 724,
      "à¤¸à¤°": 725,
      "Ġà¤¶à¤ķ": 726,
      "Ġà¤Ĩà¤¤": 727,
      "Ġà¤Ĩà¤ī": 728,
      "à¤¹à¤®": 729,
      "à¤¦à¤µ": 730,
      "Ġà¤ľà¤°": 731,
      "à¤Īà¤²": 732,
      "Ġà¥¨à¥¦à¥§": 733,
      "Ġà¤®à¤°": 734,
      "Ġà¤¦à¤¶": 735,
      "à¤¤à¤¬": 736,
      "à¤¯à¤ª": 737,
      "Ġà¤¨à¤Ńà¤ıà¤ķ": 738,
      "à¤ĺà¤ķ": 739,
      "à¤ĩà¤¦": 740,
      "Ġà¤ħà¤«": 741,
      "à¤·à¤¦": 742,
      "Ġà¤īà¤ªà¤²à¤¬": 743,
      "à¤²à¤¸": 744,
      "Ġà¤Ńà¤ıà¤ªà¤Ľ": 745,
      "à¤°à¤ľ": 746,
      "Ġà¤ªà¤ł": 747,
      "à¤ªà¤¯": 748,
      "à¤łà¤ķ": 749,
      "à¤·à¤¯": 750,
      "Ġà¤¨à¤ľ": 751,
      "Ġà¤¨à¤ª": 752,
      "Ġà¤¬à¤ļ": 753,
      "à¤§à¤®": 754,
      "à¤²à¤¨à¤®": 755,
      "à¤®à¤¦": 756,
      "à¥Īà¤ģ": 757,
      "Ġà¥«à¥¦": 758,
      "Ġà¤ľà¤Ĺ": 759,
      "à¤ıà¤¸": 760,
      "à¤°à¤¦à¤°": 761,
      "Ġà¤ıà¤¨": 762,
      "à¤²à¤¯à¤®": 763,
      "à¤ļà¤®": 764,
      "Ġà¤¸à¤¹à¤®à¤¤": 765,
      "à¤¨à¤°": 766,
      "à¤®à¤¬": 767,
      "à¤¨à¤ª": 768,
      "à¤²à¤µ": 769,
      "à¤¨à¤Ĺà¤°": 770,
      "Ġà¤ķà¤¸à¤°": 771,
      "à¤¨à¤¤": 772,
      "à¤¥à¤²": 773,
      "Ġà¤¨à¤°": 774,
      "à¤¤à¤ª": 775,
      "Ġà¤¸à¤¹à¤ķ": 776,
      "à¤Īà¤ķ": 777,
      "Ġà¥¨à¥«": 778,
      "à¤¦à¤®": 779,
      "à¤¯à¤¸à¤®": 780,
      "Ġà¤¹à¤¸": 781,
      "Ġà¤Ĺà¤£": 782,
      "Ġà¤ıà¤µ": 783,
      "à¤¯à¤¯à¤¨": 784,
      "Ġà¤ķà¤ª": 785,
      "Ġà¤ħà¤ªà¤°": 786,
      "âĢ": 787,
      "Ġà¥©à¥¦": 788,
      "à¤°à¤£à¤®": 789,
      "à¤¯à¤¹à¤°": 790,
      "âĢĬ": 791,
      "à¤Ńà¤µ": 792,
      "Ġà¤¸à¤ľ": 793,
      "Ġà¤ĺà¤Ł": 794,
      "Ġà¤¦à¤ķ": 795,
      "à¤ĩà¤ķ": 796,
      "à¤ªà¤Łà¤ķ": 797,
      "à¤Ļà¤²": 798,
      "Ġà¤Ī": 799,
      "à¥ģà¤Ĥ": 800,
      "à¤Ĺà¤¦": 801,
      "à¤¶à¤²": 802,
      "à¤°à¤®à¤ķ": 803,
      "Ġà¤Ľà¤²à¤«à¤²": 804,
      "à¤īà¤¦": 805,
      "à¤ĩà¤Ł": 806,
      "ĠĠĠĠĠĠĠĠ": 807,
      "à¤§à¤¤": 808,
      "Ġà¤Ńà¤Ł": 809,
      "à¤°à¤¤à¤ķ": 810,
      "à¤¯à¤¸à¤²": 811,
      "Ġà¥§à¥©": 812,
      "à¤ľà¤¯": 813,
      "Ġà¤¯à¤¦": 814,
      "à¤®à¤¸": 815,
      "à¤®à¤°": 816,
      "Ġà¤Ńà¤ĩà¤¸à¤ķ": 817,
      "Ġà¤ĺà¤°à¤®": 818,
      "Ġà¥¦": 819,
      "à¤ªà¤¦": 820,
      "à¤®à¤§": 821,
      "Ġà¤¸à¤¹à¤ľ": 822,
      "Ġà¤ıà¤ķà¤¤": 823,
      "Ġà¤Ńà¤¦": 824,
      "Ġà¥§à¥ª": 825,
      "Ġà¤Ńà¤µ": 826,
      "Ġà¤ľà¤¤": 827,
      "Ġà¥§à¥®": 828,
      "Ġà¤ªà¤°à¤®": 829,
      "à¤ľà¤¦": 830,
      "Ġà¤®à¤¸": 831,
      "à¤¬à¤¦": 832,
      "à¤¨à¤¸à¤ķ": 833,
      "à¤°à¤·": 834,
      "Ġà¥§à¥¬": 835,
      "à¤ĺà¤Łà¤¨": 836,
      "à¤¸à¤¸": 837,
      "Ġà¤ľà¤¸à¤²": 838,
      "Ġà¤°à¤®": 839,
      "Ġà¤ķà¤µ": 840,
      "Ġà¤Ńà¤Ī": 841,
      "Ġà¤°à¤ķ": 842,
      "à¤¯à¤Łà¤ķ": 843,
      "Ġà¤ķà¤¥": 844,
      "à¤¸à¤¹à¤°": 845,
      "à¤ľà¤§": 846,
      "à¤¯à¤¬": 847,
      "à¤¸à¤¬": 848,
      "Ġà¤¯à¤¸à¤°": 849,
      "à¤ıà¤®": 850,
      "à¤ļà¤²": 851,
      "Ġà¤Ńà¤£": 852,
      "à¤ķà¤¹à¤°": 853,
      "Ġà¤ľà¤¹": 854,
      "à¤·à¤®à¤¤": 855,
      "Ġà¤ħà¤µà¤§": 856,
      "à¤ĩà¤°": 857,
      "à¤¹à¤¤": 858,
      "Ġà¤ĭ": 859,
      "à¤µà¤¦": 860,
      "à¤¨à¤¹à¤°": 861,
      "à¤ľà¤¨à¤ķ": 862,
      "à¤¯à¤¸à¤ªà¤Ľ": 863,
      "Ġà¤īà¤¸à¤²": 864,
      "Ġà¤ĸà¤¡": 865,
      "Ġà¤īà¤ªà¤¸": 866,
      "à¤·à¤§": 867,
      "à¤²à¤¨à¤ķ": 868,
      "Ġà¤¸à¤²": 869,
      "à¤ķà¤Ł": 870,
      "à¤ĩà¤¤": 871,
      "Ġà¥¨à¥§": 872,
      "à¤°à¤ļà¤¨": 873,
      "à¤ķà¤¸": 874,
      "Ġà¤ļà¤¨": 875,
      "à¤¯à¤£": 876,
      "Ġà¤¹à¤Ł": 877,
      "à¤ĸà¤ķ": 878,
      "Ġà¤Ĺà¤łà¤¨": 879,
      "Ġà¤«à¤°à¤ķ": 880,
      "Ġà¤īà¤ªà¤¯": 881,
      "à¤µà¤µ": 882,
      "Ġà¤®à¤¤à¤¦": 883,
      "à¤Ńà¤ķ": 884,
      "à¤°à¤£à¤²": 885,
      "à¤²à¤°": 886,
      "Ġà¤¶à¤¨": 887,
      "à¤§à¤¬": 888,
      "à¤¯à¤ķà¤°": 889,
      "Ġà¤Ĩà¤ª": 890,
      "Ġà¤µà¤¨": 891,
      "Ġà¤īà¤¡": 892,
      "Ġà¥§à¥Ń": 893,
      "Ġà¤Ŀà¤¨": 894,
      "à¤ĺà¤°": 895,
      "à¤ľà¤°": 896,
      "à¤·à¤²": 897,
      "à¤°à¤£à¤ķ": 898,
      "à¤°à¤ļà¤£": 899,
      "à¤§à¤°": 900,
      "Ġà¤Ĩà¤Ī": 901,
      "Ġà¤Ĭ": 902,
      "Ġà¤¹à¤²": 903,
      "à¤¯à¤ķà¤¤": 904,
      "Ġà¤Ĺà¤ł": 905,
      "Ġà¤¤à¤¹à¤ķ": 906,
      "à¤Īà¤¨": 907,
      "Ġà¤¯à¤¸à¤®": 908,
      "Ġà¤¤à¤¸": 909,
      "Ġà¤Ĺà¤®": 910,
      "Ġà¥¨à¥¨": 911,
      "à¤¯à¤Łà¤¨": 912,
      "Ġà¤ķà¤ķ": 913,
      "Ġà¤¶à¤¬": 914,
      "Ġà¤¯à¤¸à¤ħà¤ĺ": 915,
      "à¤¤à¤¤": 916,
      "Ġà¤µà¤¸": 917,
      "Ġà¤ķà¤¨": 918,
      "à¤§à¤¨à¤ķ": 919,
      "Ġà¤ĩà¤¤": 920,
      "Ġà¤¨à¤ķ": 921,
      "à¤¤à¤¹à¤°": 922,
      "Ġà¤ķà¤®à¤ľ": 923,
      "à¤µà¤¯à¤¨": 924,
      "Ġà¥¨à¥ª": 925,
      "à¤Ļà¤®": 926,
      "à¤ªà¤£": 927,
      "à¤Ĺà¤²à¤¬": 928,
      "Ġà¤¸à¤¡": 929,
      "Ġà¤¦à¤²à¤ķ": 930,
      "Ġà¤¤à¤²": 931,
      "à¤ļà¤°": 932,
      "Ġà¤ħà¤ķ": 933,
      "à¤¯à¤µà¤¹": 934,
      "Ġà¤Ĩà¤ľà¤ķ": 935,
      "à¥ĩà¤Ĥ": 936,
      "à¤¯à¤¦": 937,
      "Ġà¤ĸà¤¨": 938,
      "à¤Ĩà¤°": 939,
      "Ġà¤Ķà¤·à¤§": 940,
      "Ġà¤Ĩà¤²": 941,
      "à¤µà¤¤à¤¨": 942,
      "à¤¸à¤ļ": 943,
      "à¤ķà¤²à¤¨": 944,
      "à¥ĩà¤ģ": 945,
      "à¤¨à¤Ĺà¤°à¤ª": 946,
      "Ġà¤ľà¤¬": 947,
      "Ġà¤Ĳà¤¨": 948,
      "à¤¯à¤®à¤¨": 949,
      "à¤®à¤Ĺ": 950,
      "Ġà¥ªà¥¦": 951,
      "à¤ªà¤·": 952,
      "Ġà¤ħà¤µà¤¸à¤°à¤®": 953,
      "à¤Ĺà¤¢": 954,
      "Ġà¤Ńà¤ķ": 955,
      "à¤łà¤ķà¤²": 956,
      "à¤ĩà¤¨à¤²": 957,
      "Ġà¤ľà¤µ": 958,
      "Ġà¤¸à¤®à¤°": 959,
      "à¤ĸà¤²": 960,
      "à¤ľà¤µ": 961,
      "Ġà¤īà¤ªà¤Ń": 962,
      "Ġà¥¨à¥¦à¥¬": 963,
      "à¤°à¤ĸ": 964,
      "à¤£à¤®": 965,
      "à¤ĩà¤®": 966,
      "Ġà¤Ĩà¤ļ": 967,
      "à¤ķà¤°à¤£à¤ķ": 968,
      "à¤¨à¤¦": 969,
      "Ġà¤ħà¤µà¤¸à¤°": 970,
      "Ġà¤«à¤²": 971,
      "à¤¥à¤ķ": 972,
      "Ġà¥¨à¥®": 973,
      "Ġà¤īà¤¸à¤ķ": 974,
      "Ġà¤¤à¤¹": 975,
      "Ġà¤²à¤¡": 976,
      "Ġà¤Ĩà¤ĩà¤¤à¤¬": 977,
      "à¤¡à¤°": 978,
      "Ġà¤īà¤ľ": 979,
      "à¤łà¤²": 980,
      "à¤®à¤ª": 981,
      "à¤Łà¤¬": 982,
      "à¤īà¤µ": 983,
      "Ġà¤Ńà¤¤": 984,
      "à¥¨à¥¦": 985,
      "Ġà¥¨à¥©": 986,
      "à¤Ĺà¤łà¤¨": 987,
      "Ġà¥¨à¥¦à¥¦": 988,
      "à¤¬à¤°à¤ķ": 989,
      "Ġà¥¨à¥Ń": 990,
      "Ġà¤ıà¤ľ": 991,
      "à¤ļà¤¨à¤®": 992,
      "Ġà¤ķà¤Ł": 993,
      "à¤°à¤¹à¤¨": 994,
      "Ġà¤Ĩà¤ķà¤°": 995,
      "Ġà¤ľà¤¨à¤¸": 996,
      "à¤£à¤¸": 997,
      "Ġà¤Ĩà¤ł": 998,
      "à¤Ĺà¤¨": 999,
      "Ġà¤¸à¤®à¤¨": 1000,
      "à¤¸à¤µ": 1001,
      "Ġà¤¶à¤¹à¤°": 1002,
      "Ġà¤®à¤¦": 1003,
      "Ġà¤¸à¤ªà¤¨": 1004,
      "Ġà¤ĺà¤£": 1005,
      "à¤¤à¤°à¤ķ": 1006,
      "Ġà¤¨à¤µ": 1007,
      "Ġà¥¨à¥¯": 1008,
      "à¤ĸà¤®": 1009,
      "à¤¨à¤¸à¤®": 1010,
      "Ġà¤¬à¤®": 1011,
      "Ġà¤ªà¤¸": 1012,
      "à¤¸à¤ª": 1013,
      "à¤¯à¤¯": 1014,
      "à¤¨à¤¯": 1015,
      "Ġà¤¸à¤ª": 1016,
      "Ġà¤¯à¤¸à¤¬": 1017,
      "Ġà¥¨à¥¦à¥Ńà¥«": 1018,
      "à¤£à¤¨": 1019,
      "à¤°à¤°": 1020,
      "à¤®à¤¹": 1021,
      "à¤°à¤¬à¤¹": 1022,
      "à¤°à¤µà¤ķ": 1023,
      "Ġà¤¦à¤²à¤¹à¤°": 1024,
      "ĠĠĠ": 1025,
      "Ġà¤ĩà¤²": 1026,
      "Ġà¤ħà¤ĸ": 1027,
      "Ġà¤¨à¤¤": 1028,
      "Ġà¥¨à¥¬": 1029,
      "à¤²à¤¸à¤®": 1030,
      "Ġà¤Ńà¤ıà¤¨": 1031,
      "à¤łà¤ķà¤®": 1032,
      "à¤Ĺà¤ł": 1033,
      "Ġà¤ĸà¤¸": 1034,
      "à¤Łà¤¬à¤²": 1035,
      "à¤ªà¤ļ": 1036,
      "à¤ĸà¤¨": 1037,
      "à¤ĩà¤ľ": 1038,
      "à¤Ĺà¤¬": 1039,
      "à¤µà¤Ł": 1040,
      "Ġà¤Ńà¤µà¤¨": 1041,
      "Ġà¤°à¤¸": 1042,
      "à¤ľà¤ª": 1043,
      "Ġà¥¨à¥¦à¥Ńà¥ª": 1044,
      "Ġà¤¬à¤Ĺ": 1045,
      "à¤«à¤¬": 1046,
      "Ġà¤ľà¤²": 1047,
      "Ġà¤Ĺà¤¨": 1048,
      "à¤µà¤§": 1049,
      "Ġà¤ªà¤²": 1050,
      "à¤Ńà¤®": 1051,
      "Ġà¤¨à¤¬": 1052,
      "Ġà¤¤à¤¹à¤®": 1053,
      "à¤Ĺà¤®à¤¨": 1054,
      "Ġà¤¤à¤¨": 1055,
      "Ġà¤Ĺà¤²": 1056,
      "Ġà¤Ĩà¤«à¤¨": 1057,
      "Ġà¤ĭà¤£": 1058,
      "Ġà¥¬à¥¦": 1059,
      "à¤Ķ": 1060,
      "Ġà¤Ĺà¤¯": 1061,
      "à¤īà¤ķ": 1062,
      "à¤°à¤¸à¤®": 1063,
      "à¤īà¤¨à¤ķ": 1064,
      "Ġà¤ªà¤ŀ": 1065,
      "Ġà¤Ĺà¤ıà¤°": 1066,
      "Ġà¤¸à¤§": 1067,
      "à¤Ĺà¤¤à¤ķ": 1068,
      "Ġà¤¸à¤¸": 1069,
      "Ġà¤ļà¤°à¤£à¤®": 1070,
      "Ġà¤¸à¤«": 1071,
      "Ġà¤¨à¤²": 1072,
      "à¤µà¤¶": 1073,
      "Ġà¤Ĺà¤łà¤¬à¤¨": 1074,
      "Ġà¤¸à¤«à¤²à¤¤": 1075,
      "à¤ķà¤¬": 1076,
      "à¤¶à¤¸": 1077,
      "Ġà¤ķà¤ł": 1078,
      "à¤ķà¤µ": 1079,
      "Ġà¤īà¤ªà¤¤": 1080,
      "Ġà¤ĸà¤¬à¤°": 1081,
      "à¤Łà¤°à¤¨": 1082,
      "à¤¸à¤¨à¤²": 1083,
      "à¤°à¤Ĺà¤¤": 1084,
      "Ġà¤Ńà¤Ĺ": 1085,
      "à¤ļà¤¨à¤ķ": 1086,
      "à¤ĩà¤¸": 1087,
      "à¤°à¤¤à¤²": 1088,
      "à¤¸à¤¨à¤ķ": 1089,
      "à¤ıà¤²": 1090,
      "Ġà¤ħà¤¡": 1091,
      "à¤®à¤£": 1092,
      "Ġà¤ķà¤¡": 1093,
      "Ġà¤¦à¤¸": 1094,
      "à¤Łà¤¹à¤°": 1095,
      "à¥ģà¤ĥ": 1096,
      "Ġà¤ľà¤¨à¤ķ": 1097,
      "à¤¡à¤¨": 1098,
      "Ġà¤¸à¤¹à¤°": 1099,
      "à¤¬à¤®": 1100,
      "à¤·à¤°": 1101,
      "Ġà¤ħà¤¸à¤°": 1102,
      "Ġà¥©à¥§": 1103,
      "Ġà¤ĸà¤Ł": 1104,
      "à¤²à¤ª": 1105,
      "à¤°à¤¥à¤®": 1106,
      "à¤¦à¤Ľà¤¨": 1107,
      "à¤ĩà¤¡": 1108,
      "à¥¦à¥¦": 1109,
      "à¤Īà¤®": 1110,
      "à¤°à¤®à¤£à¤ķ": 1111,
      "à¤Ĺà¤¤à¤®": 1112,
      "Ġà¤ħà¤¨à¤²": 1113,
      "à¤¥à¤¨": 1114,
      "à¤¤à¤°à¤®": 1115,
      "Ġà¤Ĩà¤ĩà¤ª": 1116,
      "Ġà¤°à¤¨": 1117,
      "Ġà¤ľà¤¸à¤ķ": 1118,
      "Ġà¤¯à¤¥": 1119,
      "Ġà¤ļà¤¢": 1120,
      "à¤Ĺà¤°à¤ķ": 1121,
      "Ġà¤ľà¤²à¤µ": 1122,
      "à¤Ĺà¤°à¤®": 1123,
      "à¤·à¤£à¤ķ": 1124,
      "à¤Łà¤µ": 1125,
      "Ġà¤Ĺà¤²à¤¤": 1126,
      "à¤ĺà¤²": 1127,
      "à¤¶à¤¬": 1128,
      "Ġà¤Ŀà¤£": 1129,
      "à¤µà¤Ń": 1130,
      "Ġà¤²à¤®": 1131,
      "Ġà¤Ńà¤ıà¤ªà¤¨": 1132,
      "Ġà¤¦à¤¬": 1133,
      "à¤¬à¤¸": 1134,
      "à¤ªà¤¸": 1135,
      "à¤²à¤Ń": 1136,
      "Ġà¤ĩà¤®": 1137,
      "à¤°à¤Ĺ": 1138,
      "à¤īà¤®": 1139,
      "à¤ķà¤¤à¤¨": 1140,
      "à¥ģà¥ģ": 1141,
      "Ġà¤ĸà¤¤": 1142,
      "à¤¶à¤¨à¤®": 1143,
      "Ġà¤ĸà¤£": 1144,
      "Ġà¤ªà¤¦à¤®": 1145,
      "à¤¶à¤¨à¤ķ": 1146,
      "Ġà¥©à¥«": 1147,
      "à¤¬à¤ķ": 1148,
      "à¤ļà¤¯": 1149,
      "à¤¨à¤¸à¤Ń": 1150,
      "Ġà¤¤à¤°à¤ķ": 1151,
      "Ġà¤īà¤°": 1152,
      "à¤Ŀà¤¨": 1153,
      "Ġà¤īà¤ªà¤°": 1154,
      "Ġà¤¹à¤ª": 1155,
      "à¤Łà¤°à¤ķ": 1156,
      "à¤ĩà¤¯": 1157,
      "à¤¹à¤°à¤£": 1158,
      "à¤¤à¤µà¤¨": 1159,
      "Ġà¤Ĩà¤ı": 1160,
      "à¤¯à¤¸à¤¬": 1161,
      "à¤Ĩà¤Ī": 1162,
      "à¤§à¤µ": 1163,
      "Ġà¤ľà¤¨à¤ľ": 1164,
      "à¤¶à¤¸à¤Ń": 1165,
      "Ġà¤ıà¤²": 1166,
      "Ġà¤²à¤²": 1167,
      "à¤¯à¤°à¤¤": 1168,
      "Ġà¤¸à¤¦à¤°à¤®": 1169,
      "Ġà¤¸à¤°à¤¸": 1170,
      "à¤Łà¤ª": 1171,
      "à¤ħà¤°": 1172,
      "à¤ļà¤¨à¤ª": 1173,
      "à¤¥à¤²à¤®": 1174,
      "Ġà¤īà¤¸": 1175,
      "à¤µà¤¨à¤ķ": 1176,
      "Ġà¤®à¤Ĺà¤°": 1177,
      "à¤¦à¤¨à¤®": 1178,
      "à¤ķà¤®à¤²": 1179,
      "Ġà¤ħà¤µà¤°": 1180,
      "Ġà¤ľà¤¸à¤®": 1181,
      "à¤ıà¤¨à¤¨": 1182,
      "Ġà¤Ĩà¤ıà¤°": 1183,
      "à¤°à¤¤à¤®": 1184,
      "Ġà¤ķà¤ŀ": 1185,
      "à¤¨à¤Ńà¤¨": 1186,
      "Ġà¤¨à¤ªà¤°": 1187,
      "Ġà¤ľà¤¨à¤ª": 1188,
      "à¤°à¤®à¤²": 1189,
      "à¤Ĺà¤¹à¤°": 1190,
      "Ġà¤¨à¤Ńà¤ı": 1191,
      "à¤¡à¤¬": 1192,
      "à¤°à¤«": 1193,
      "à¥ĭà¥ĩ": 1194,
      "Ġà¤Ĳà¤¤": 1195,
      "Ġà¤¢à¤ķ": 1196,
      "à¤¥à¤°": 1197,
      "Ġà¤ľà¤¡": 1198,
      "Ġà¤ıà¤ª": 1199,
      "Ġà¤¨à¤Ńà¤Ī": 1200,
      "à¤ľà¤¤": 1201,
      "Ġà¤®à¤ŀ": 1202,
      "Ġà¤ħà¤¶": 1203,
      "à¤¹à¤¦": 1204,
      "Ġà¤¸à¤¡à¤ķà¤®": 1205,
      "Ġà¤ħà¤·": 1206,
      "Ġà¤ĩà¤ļ": 1207,
      "à¤¥à¤µ": 1208,
      "Ġà¤®à¤¨à¤®": 1209,
      "à¤«à¤ķ": 1210,
      "Ġà¤ªà¤¹à¤²": 1211,
      "à¤Łà¤°à¤®": 1212,
      "à¤¶à¤¨à¤²": 1213,
      "Ġà¤Ĭà¤°": 1214,
      "à¤Ĭ": 1215,
      "à¤Ĩà¤«": 1216,
      "Ġà¤¨à¤Ĺà¤¦": 1217,
      "à¤²à¤¦": 1218,
      "Ġà¥ªà¥«": 1219,
      "à¤µà¤¨à¤®": 1220,
      "à¤¤à¤¸": 1221,
      "Ġà¤¦à¤¶à¤ķ": 1222,
      "à¤®à¤²à¤µ": 1223,
      "à¤²à¤¤à¤²": 1224,
      "à¤°à¤¥": 1225,
      "Ġà¤¦à¤¶à¤®à¤²à¤µ": 1226,
      "Ġà¤¸à¤®à¤Ĺ": 1227,
      "Ġà¤ıà¤µà¤®": 1228,
      "Ġà¤ľà¤¨à¤ķà¤ª": 1229,
      "Ġà¤®à¤¹à¤¸": 1230,
      "à¤²à¤¹à¤°": 1231,
      "à¤¶à¤¹à¤°": 1232,
      "Ġà¤®à¤£": 1233,
      "Ġà¤ħà¤ªà¤¨": 1234,
      "à¥Ĥà¤ģ": 1235,
      "à¤®à¤¹à¤°": 1236,
      "Ġà¤¹à¤ķ": 1237,
      "Ġà¤ĺà¤°à¤ķ": 1238,
      "à¤ħà¤§": 1239,
      "Ġà¥Ńà¥¦": 1240,
      "à¥Ģà¤ģ": 1241,
      "à¤§à¤²": 1242,
      "Ġà¤ļà¤ķ": 1243,
      "Ġà¤Ĩà¤¹": 1244,
      "Ġà¤ķà¤®à¤²": 1245,
      "Ġà¤¬à¤¡": 1246,
      "Ġà¤ļà¤°à¤£à¤ķ": 1247,
      "à¤ľà¤¬": 1248,
      "Ġà¤Ĺà¤ı": 1249,
      "Ġà¤Ķà¤ªà¤ļ": 1250,
      "à¤īà¤¸": 1251,
      "Ġà¥®à¥¦": 1252,
      "Ġà¥©à¥¨": 1253,
      "à¤¡à¤¸": 1254,
      "à¤¦à¤¤": 1255,
      "à¤ĩà¤ķà¤²": 1256,
      "à¤·à¤¹à¤°": 1257,
      "Ġà¤Ĺà¤£à¤¤à¤¨": 1258,
      "Ġà¥¨à¥¦à¥«": 1259,
      "Ġà¤ĸà¤¤à¤°": 1260,
      "Ġà¤¡à¤²à¤°": 1261,
      "Ġà¤ĺà¤¨": 1262,
      "à¤²à¤¤à¤®": 1263,
      "Ġà¤īà¤Ń": 1264,
      "à¤¯à¤Ł": 1265,
      "à¤¥à¤¤à¤¨": 1266,
      "Ġà¤ħà¤Ļ": 1267,
      "à¤Łà¤°à¤¸": 1268,
      "à¤Īà¤ıà¤ķ": 1269,
      "ĠĠĠĠĠĠĠĠĠĠĠĠĠĠĠĠ": 1270,
      "à¤¹à¤®à¤¨": 1271,
      "Ġà¤īà¤ªà¤®à¤¹": 1272,
      "Ġà¤Ĺà¤¹": 1273,
      "à¤·à¤ħà¤ĺ": 1274,
      "à¤µà¤¹à¤°": 1275,
      "à¤£à¤²": 1276,
      "à¤¹à¤¸": 1277,
      "Ġà¤µà¤ķ": 1278,
      "Ġà¤®à¤ľà¤¦": 1279,
      "à¤Łà¤¨à¤Ĺà¤°": 1280,
      "Ġà¥¨à¥¦à¥Ńà¥©": 1281,
      "à¤µà¤ķà¤ª": 1282,
      "à¤°à¤ķà¤°": 1283,
      "Ġà¤Ĩà¤¸": 1284,
      "Ġà¤§à¤®": 1285,
      "à¤¯à¤¤à¤²": 1286,
      "Ġà¤¤à¤®": 1287,
      "à¤£à¤¤": 1288,
      "à¤°à¤®à¤£à¤®": 1289,
      "à¤Ĺà¤ľ": 1290,
      "à¤¦à¤µà¤²": 1291,
      "Ġà¥©à¥©": 1292,
      "à¤¤à¤°à¤¤": 1293,
      "à¤ªà¤¦à¤£": 1294,
      "Ġà¤¸à¤¶à¤¸": 1295,
      "Ġà¤¦à¤®": 1296,
      "Ġà¤īà¤ªà¤ª": 1297,
      "à¤¬à¤ľ": 1298,
      "à¤·à¤¸à¤®": 1299,
      "Ġà¤®à¤¹à¤°": 1300,
      "Ġà¤ıà¤ķà¤²": 1301,
      "Ġà¤Ĩà¤ĩà¤°à¤¹": 1302,
      "Ġà¤ľà¤¨à¤®": 1303,
      "à¤Łà¤¸": 1304,
      "Ġà¤Ńà¤°à¤¤": 1305,
      "à¥Ńà¥«": 1306,
      "Ġà¤ļà¤²à¤¨": 1307,
      "à¤ŀà¤ª": 1308,
      "Ġà¤ªà¤¦à¤ķ": 1309,
      "à¤Ńà¤Ĺ": 1310,
      "Ġà¤ħà¤¸à¤¨": 1311,
      "Ġà¤¨à¤Ĩ": 1312,
      "Ġà¤¬à¤¦à¤²": 1313,
      "Ġà¤Ńà¤Ĺà¤µ": 1314,
      "Ġà¤ľà¤¸à¤°": 1315,
      "Ġà¤¶à¤¤": 1316,
      "Ġà¤®à¤Ļ": 1317,
      "à¤µà¤°à¤ķ": 1318,
      "à¤ĩà¤¨à¤²à¤®": 1319,
      "Ġà¤ıà¤¶": 1320,
      "à¤¿à¤ĥ": 1321,
      "à¤¶à¤µ": 1322,
      "Ġà¤°à¤£à¤¨": 1323,
      "Ġà¤¤à¤²à¤¬": 1324,
      "Ġà¤īà¤ªà¤¨": 1325,
      "Ġà¥Ńà¥«": 1326,
      "Ġà¤°à¤µ": 1327,
      "Ġà¤ıà¤ķà¤ľà¤¨": 1328,
      "à¤ªà¤¨à¤ķ": 1329,
      "à¤īà¤ª": 1330,
      "à¤Ńà¤²": 1331,
      "Ġà¤«à¤¸": 1332,
      "Ġà¤ĩà¤¸": 1333,
      "Ġà¤ħà¤¥à¤µ": 1334,
      "Ġà¤¶à¤µ": 1335,
      "à¤«à¤°": 1336,
      "à¤¯à¤®à¤¬": 1337,
      "à¤īà¤²": 1338,
      "Ġà¤ıà¤¨à¤Ĩà¤°": 1339,
      "à¤ªà¤Ł": 1340,
      "à¤®à¤¬à¤¹": 1341,
      "à¤Ĺà¤¸": 1342,
      "Ġà¤Ŀà¤°": 1343,
      "Ġà¤Ńà¤ıà¤®": 1344,
      "Ġà¤¹à¤µ": 1345,
      "à¤ķà¤°à¤£à¤²": 1346,
      "Ġà¤¡à¤°": 1347,
      "à¤¤à¤¹": 1348,
      "Ġà¤¹à¤Ļà¤ķ": 1349,
      "à¤īà¤°": 1350,
      "Ġà¥¨à¥¦à¥ª": 1351,
      "Ġà¤Ĩà¤ıà¤ªà¤Ľ": 1352,
      "Ġà¤Ĩà¤Ĩà¤«": 1353,
      "à¤·à¤¯à¤²": 1354,
      "Ġà¤ļà¤¯à¤¨": 1355,
      "Ġà¤¨à¤Ńà¤ıà¤°": 1356,
      "Ġà¤¨à¤°à¤¹": 1357,
      "à¤°à¤¬à¤¨": 1358,
      "Ġà¥¨à¥¦à¥Ńà¥¨": 1359,
      "à¤ªà¤ķà¤®à¤²": 1360,
      "à¤¦à¤¨à¤ķ": 1361,
      "Ġà¤ħà¤ļ": 1362,
      "Ġà¤Ľà¤°": 1363,
      "Ġà¥§à¥¯à¥¯": 1364,
      "Ġà¤ľà¤¨à¤¶à¤ķ": 1365,
      "à¤°à¤µà¤¦": 1366,
      "à¤Ŀà¤¦": 1367,
      "à¤°à¤®à¤¹à¤°": 1368,
      "à¤ĸà¤¦": 1369,
      "à¤¨à¤ļ": 1370,
      "à¤¸à¤¤": 1371,
      "Ġà¥¯à¥¦": 1372,
      "Ġà¤Ľà¤²à¤«": 1373,
      "à¤²à¤¯à¤¹à¤°": 1374,
      "à¤¨à¤¤à¤®": 1375,
      "à¤ĩà¤ª": 1376,
      "Ġà¤¸à¤®à¤¯à¤ķ": 1377,
      "à¤µà¤¹": 1378,
      "à¤²à¤¤à¤ķ": 1379,
      "à¤µà¤°à¤²": 1380,
      "à¤·à¤ķà¤ķ": 1381,
      "à¤£à¤ªà¤¤": 1382,
      "à¤·à¤¬": 1383,
      "à¤·à¤£à¤®": 1384,
      "Ġà¤Ĩà¤¨à¤¨": 1385,
      "Ġà¥«à¥«": 1386,
      "Ġà¤ªà¤°à¤°": 1387,
      "Ġà¤łà¤Ĺ": 1388,
      "Ġà¤¸à¤®à¤¯à¤¦": 1389,
      "à¤°à¤¹à¤£": 1390,
      "Ġà¤ħà¤¸à¤«à¤²": 1391,
      "à¤ıà¤«": 1392,
      "à¤²à¤ĸ": 1393,
      "à¥Ńà¥ª": 1394,
      "Ġà¥¨à¥¦à¥§à¥®": 1395,
      "Ġà¤Ńà¤²": 1396,
      "à¤¤à¤¨à¤ķ": 1397,
      "à¤²à¤¯à¤¬": 1398,
      "Ġà¤°à¤ļà¤¨": 1399,
      "Ġà¤ķà¤¬": 1400,
      "à¤¨à¤¸à¤°": 1401,
      "à¤®à¤µ": 1402,
      "Ġà¤ħà¤Ł": 1403,
      "à¤·à¤ķà¤²": 1404,
      "à¤īà¤£": 1405,
      "à¤Ĺà¤¶": 1406,
      "Ġà¤¦à¤²à¤²": 1407,
      "Ġà¤Ĺà¤ľ": 1408,
      "Ġà¤ķà¤¸à¤²": 1409,
      "Ġà¤ħà¤²à¤Ĺ": 1410,
      "à¤ľà¤¨à¤®": 1411,
      "à¤®à¤°à¤£": 1412,
      "à¤¯à¤°à¤ķ": 1413,
      "Ġà¤ªà¤¸à¤²": 1414,
      "à¤ªà¤¬": 1415,
      "à¤§à¤¨à¤²": 1416,
      "à¤Łà¤µà¤²": 1417,
      "à¤·à¤¯à¤ķ": 1418,
      "à¤°à¤®à¤¶": 1419,
      "Ġà¤łà¤¹à¤°": 1420,
      "à¤¸à¤¨à¤®": 1421,
      "Ġà¤¦à¤°à¤¬": 1422,
      "Ġà¤ķà¤ªà¤¡": 1423,
      "à¤Ĩà¤®": 1424,
      "à¤·à¤ªà¤Ľ": 1425,
      "à¤®à¤¯": 1426,
      "Ġà¤¸à¤¡à¤ķà¤ķ": 1427,
      "à¤µà¤ļ": 1428,
      "à¤·à¤ķà¤¹à¤°": 1429,
      "Ġà¥©à¥¬": 1430,
      "à¤°à¤¤à¤¬": 1431,
      "Ġà¤¬à¤¹à¤¸": 1432,
      "Ġà¤ıà¤ķà¤¦à¤®": 1433,
      "à¤·à¤Ń": 1434,
      "à¤²à¤¨à¤²": 1435,
      "Ġà¤¨à¤µà¤²": 1436,
      "Ġà¤§à¤¨à¤Ĺà¤¢": 1437,
      "Ġà¤ħà¤ŀ": 1438,
      "Ġà¤¸à¤°à¤¸à¤«": 1439,
      "Ġà¤ıà¤¨à¤Ĩà¤°à¤ıà¤¨": 1440,
      "Ġà¤ıà¤£": 1441,
      "Ġà¤ħà¤¸à¤¹": 1442,
      "à¤¬à¤°à¤®": 1443,
      "à¤¡à¤«": 1444,
      "à¤§à¤¨à¤®": 1445,
      "à¤¥à¤®à¤¨": 1446,
      "à¤£à¤ª": 1447,
      "Ġà¤ıà¤«": 1448,
      "à¤µà¤¸à¤ķ": 1449,
      "Ġà¤ħà¤¬à¤ķ": 1450,
      "à¤µà¤°à¤®": 1451,
      "à¤Ĺà¤ķà¤°": 1452,
      "Ġà¤ľà¤Ł": 1453,
      "Ġà¤¨à¤¸": 1454,
      "à¤¯à¤§": 1455,
      "Ġà¤Ķà¤¦": 1456,
      "à¤¦à¤¶": 1457,
      "à¤¶à¤¤à¤²": 1458,
      "à¤µà¤¯à¤¨à¤®": 1459,
      "Ġà¤¬à¤ķ": 1460,
      "à¤µà¤¯à¤®": 1461,
      "à¤µà¤¡": 1462,
      "à¤²à¤ķà¤²": 1463,
      "Ġà¤¸à¤ĺ": 1464,
      "Ġà¤¢à¤²": 1465,
      "à¤Łà¤ĺ": 1466,
      "Ġà¤ĺà¤°à¤¬": 1467,
      "à¤ľà¤¨à¤²": 1468,
      "Ġà¤°à¤¤": 1469,
      "Ġà¥©à¥ª": 1470,
      "à¤®à¤¶": 1471,
      "à¤¨à¤¥": 1472,
      "à¤Īà¤¦": 1473,
      "Ġà¥¬à¥«": 1474,
      "Ġà¤ªà¤Łà¤ķà¤ªà¤Łà¤ķ": 1475,
      "à¤¥à¤²à¤ķ": 1476,
      "à¤ĩà¤¬": 1477,
      "Ġà¤²à¤Ĺà¤Ńà¤Ĺ": 1478,
      "à¤Łà¤°à¤²": 1479,
      "à¤¦à¤¨à¤¶": 1480,
      "à¤īà¤¤": 1481,
      "Ġà¤¨à¤ĸ": 1482,
      "à¤ıà¤¸à¤ª": 1483,
      "à¤¨à¤Ń": 1484,
      "à¤°à¤Ļ": 1485,
      "Ġà¤Ńà¤°à¤¤à¤ª": 1486,
      "à¤¯à¤¤à¤®": 1487,
      "à¤¸à¤¦à¤®": 1488,
      "à¤īà¤¡": 1489,
      "à¥§à¥¦": 1490,
      "Ġà¤¡à¤Ł": 1491,
      "à¤Ĺà¤łà¤¨à¤ķ": 1492,
      "à¤¦à¤Ĺ": 1493,
      "à¤¸à¤Ļ": 1494,
      "à¤¯à¤¸à¤°": 1495,
      "à¤ļà¤¸": 1496,
      "Ġà¤¨à¤ļ": 1497,
      "Ġà¤ħà¤¸à¤®": 1498,
      "à¤¤à¤µà¤®": 1499,
      "à¤¦à¤¯": 1500,
      "Ġà¤ıà¤ķà¤¦": 1501,
      "Ġà¤ĩà¤ķ": 1502,
      "Ġà¤°à¤Ĺà¤¤": 1503,
      "à¤Ĺà¤¡": 1504,
      "à¤µà¤¯à¤¨à¤ķ": 1505,
      "Ġà¤µà¤¹": 1506,
      "Ġà¤ħà¤µà¤²": 1507,
      "à¤µà¤¬": 1508,
      "Ġà¤²à¤ĺ": 1509,
      "à¤°à¤ķà¤Ł": 1510,
      "Ġà¤ħà¤ľ": 1511,
      "Ġà¤ıà¤¡": 1512,
      "à¤ªà¤¥": 1513,
      "à¤¸à¤°à¤ķ": 1514,
      "à¥©à¥¦": 1515,
      "à¤²à¤ªà¤¤": 1516,
      "Ġà¤°à¤Ļ": 1517,
      "à¤·à¤ľ": 1518,
      "à¤¯à¤°à¤²": 1519,
      "à¤ĩà¤Ń": 1520,
      "à¤°à¤ŀ": 1521,
      "à¤ĺà¤¸": 1522,
      "Ġà¤¸à¤®à¤Ŀà¤¦": 1523,
      "Ġà¤ĵà¤Ń": 1524,
      "Ġà¤ªà¤Ł": 1525,
      "Ġà¤¸à¤Ĺà¤°à¤®": 1526,
      "Ġà¤Ĩà¤ĸ": 1527,
      "à¤ľà¤ķà¤¤": 1528,
      "Ġà¤ĵà¤°": 1529,
      "à¤Ńà¤µà¤¤": 1530,
      "Ġà¤¯à¤¸à¤ªà¤Łà¤ķ": 1531,
      "à¤°à¤¶à¤¸": 1532,
      "à¤Īà¤¤": 1533,
      "à¤īà¤¨à¤²": 1534,
      "Ġà¥«à¥§": 1535,
      "Ġà¤¸à¤Ł": 1536,
      "à¤īà¤Ľ": 1537,
      "à¤¯à¤®à¤ķ": 1538,
      "à¤ĸà¤£": 1539,
      "Ġà¥ªà¥¨": 1540,
      "à¤¶à¤Ń": 1541,
      "Ġà¤Īà¤¨": 1542,
      "Ġà¤®à¤ķ": 1543,
      "à¤Ĺà¤£": 1544,
      "à¤¸à¤¦à¤¹à¤°": 1545,
      "Ġà¤īà¤ªà¤ķà¤°à¤£": 1546,
      "à¤ķà¤¦": 1547,
      "à¤ļà¤¬": 1548,
      "Ġà¤¥à¤°": 1549,
      "à¤¶à¤Ńà¤°": 1550,
      "Ġà¤łà¤ķ": 1551,
      "Ġà¥¨à¥¦à¥§à¥Ń": 1552,
      "Ġà¤¯à¤¸à¤ª": 1553,
      "Ġà¤¤à¤¹à¤²": 1554,
      "Ġà¤īà¤ªà¤¹": 1555,
      "Ġà¤¤à¤¬": 1556,
      "à¤¤à¤¦": 1557,
      "Ġà¤¸à¤°à¤²": 1558,
      "à¤ŀà¤µ": 1559,
      "Ġà¤¸à¤®à¤¯à¤¸à¤®": 1560,
      "Ġà¤ĩà¤°": 1561,
      "Ġà¤ļà¤®": 1562,
      "Ġà¤Ĩà¤ªà¤¤": 1563,
      "à¤µà¤ľ": 1564,
      "Ġà¤¡à¤²": 1565,
      "Ġà¤ĩà¤ľ": 1566,
      "à¤¸à¤¦à¤ķ": 1567,
      "Ġà¥©à¥®": 1568,
      "à¤ĩà¤¨à¤¨": 1569,
      "à¤¤à¤ľ": 1570,
      "Ġà¤²à¤Ĺà¤¤": 1571,
      "Ġà¥©à¥Ń": 1572,
      "à¤¯à¤®à¤²": 1573,
      "à¤ĸà¤¤": 1574,
      "à¤ĺà¤°à¤®": 1575,
      "à¤¤à¤®à¤²": 1576,
      "Ġà¤¨à¤µà¤²à¤ªà¤°": 1577,
      "Ġà¤ľà¤¨à¤¯": 1578,
      "Ġà¥§à¥¦à¥¦": 1579,
      "à¤¨à¤¹": 1580,
      "à¤¾à¤¾": 1581,
      "à¤ģà¥ģ": 1582,
      "Ġà¤ķà¤¦à¤®": 1583,
      "à¤ľà¤¹à¤°": 1584,
      "Ġà¤Łà¤¨": 1585,
      "Ġà¤ļà¤°à¤£": 1586,
      "à¥Ģà¤Ĥ": 1587,
      "Ġà¤Łà¤°": 1588,
      "Ġà¤¦à¤«": 1589,
      "Ġà¤¬à¤ļà¤¤": 1590,
      "Ġà¤ħà¤¸à¤²": 1591,
      "à¤µà¤ķà¤°": 1592,
      "Ġà¤¨à¤¬à¤¨": 1593,
      "à¤Łà¤²à¤®": 1594,
      "à¤¤à¤µà¤¨à¤ķ": 1595,
      "à¤ŀà¤¹à¤°": 1596,
      "à¤¯à¤¶": 1597,
      "Ġà¤µà¤²": 1598,
      "Ġà¤Īà¤¶": 1599,
      "Ġà¤Ĺà¤ĩà¤°à¤¹": 1600,
      "à¥ĭà¤Ĥ": 1601,
      "Ġà¥ªà¥®": 1602,
      "à¤ªà¤¨à¤®": 1603,
      "à¤°à¤¯à¤¤": 1604,
      "Ġà¤ľà¤¬à¤°": 1605,
      "Ġà¥ªà¥§": 1606,
      "à¤Īà¤¹à¤°": 1607,
      "à¤«à¤®": 1608,
      "à¤ªà¤¶": 1609,
      "Ġà¤¸à¤¶à¤ķ": 1610,
      "à¤¤à¤ķà¤ķ": 1611,
      "à¤Īà¤¸": 1612,
      "Ġà¤¹à¤¨": 1613,
      "Ġà¥¦à¥Ń": 1614,
      "Ġà¤ªà¤ļ": 1615,
      "à¤Īà¤µà¤Ł": 1616,
      "Ġà¤Ńà¤ĩ": 1617,
      "à¤ĺà¤¨": 1618,
      "à¤¦à¤¹à¤°": 1619,
      "Ġà¤Ĩà¤Ĺà¤²": 1620,
      "Ġà¤Ľà¤ķ": 1621,
      "Ġà¥«à¥¬": 1622,
      "Ġà¥¨à¥¦à¥§à¥¬": 1623,
      "Ġà¥ªà¥ª": 1624,
      "à¤¯à¤°à¤®": 1625,
      "Ġà¤¨à¤·": 1626,
      "à¤µà¤¸à¤®": 1627,
      "à¤°à¤ªà¤Ľ": 1628,
      "Ġà¥ªà¥©": 1629,
      "Ġà¤«à¤²à¤«": 1630,
      "Ġà¤¨à¤¨": 1631,
      "Ġà¤Ĩà¤¦à¤°": 1632,
      "à¤Ĺà¤£à¤¨": 1633,
      "Ġà¤¬à¤Ł": 1634,
      "à¤¥à¤Ĺ": 1635,
      "à¤¬à¤¤": 1636,
      "à¤¯à¤¬à¤¸": 1637,
      "Ġà¥«à¥¨": 1638,
      "à¤¯à¤ľ": 1639,
      "à¤²à¤¬à¤²": 1640,
      "Ġà¤®à¤ķà¤µ": 1641,
      "à¤²à¤ķà¤ķ": 1642,
      "à¤ĵà¤¸": 1643,
      "Ġà¤·": 1644,
      "à¤¸à¤Ĺà¤°": 1645,
      "à¤ľà¤¶": 1646,
      "Ġà¤¹à¤®": 1647,
      "Ġà¤ªà¤µ": 1648,
      "à¤£à¤°": 1649,
      "à¤°à¤ªà¤¶": 1650,
      "à¤Ļà¤¬": 1651,
      "Ġà¤¦à¤°à¤²": 1652,
      "Ġà¤¸à¤¹à¤¸à¤ļ": 1653,
      "Ġà¤®à¤¦à¤¨": 1654,
      "à¤¯à¤ķà¤ķ": 1655,
      "à¤¤à¤¡": 1656,
      "Ġà¤°à¤¨à¤ķ": 1657,
      "à¤°à¤µà¤°": 1658,
      "à¤®à¤ľ": 1659,
      "à¤Łà¤«": 1660,
      "à¤¸à¤ķà¤¹à¤°": 1661,
      "Ġà¤ħà¤«à¤Ĺ": 1662,
      "Ġà¤¹à¤¦": 1663,
      "à¤¨à¤µà¤Ł": 1664,
      "à¤®à¤ļà¤¨": 1665,
      "Ġà¥©à¥¯": 1666,
      "à¤¹à¤¬": 1667,
      "ĠĠĠĠĠ": 1668,
      "Ġà¤®à¤ľ": 1669,
      "à¤¯à¤®à¤®": 1670,
      "à¤¡à¤²à¤ķ": 1671,
      "Ġà¤¬à¤Ļ": 1672,
      "Ġà¤¬à¤¯": 1673,
      "à¤ķà¤¹": 1674,
      "à¤łà¤ķà¤ķ": 1675,
      "Ġà¤ħà¤µà¤¶": 1676,
      "Ġà¤ªà¤£": 1677,
      "à¤Ĺà¤Ł": 1678,
      "Ġà¤®à¤ļ": 1679,
      "à¤ħà¤ª": 1680,
      "à¥Ńà¥¬": 1681,
      "à¤¤à¤°à¤²": 1682,
      "à¤ķà¤°à¤£à¤®": 1683,
      "Ġà¤ıà¤ķà¤ªà¤Łà¤ķ": 1684,
      "à¤¶à¤ķà¤²": 1685,
      "à¤¯à¤¨à¤ķ": 1686,
      "Ġà¥¨à¥¦à¥¨": 1687,
      "à¤¯à¤¯à¤¨à¤ķ": 1688,
      "à¤ªà¤¹à¤°": 1689,
      "Ġà¤īà¤ĸ": 1690,
      "à¤°à¤Ńà¤¨": 1691,
      "Ġà¤Ĩà¤¸à¤ª": 1692,
      "à¤Ĩà¤ľ": 1693,
      "à¤°à¤ľà¤¨": 1694,
      "à¤¡à¤ªà¤°": 1695,
      "Ġà¤¹à¤ķà¤®": 1696,
      "Ġà¤Ńà¤°à¤®": 1697,
      "à¥§à¥§": 1698,
      "à¤Ĩà¤µ": 1699,
      "Ġà¤§à¤¨à¤ķ": 1700,
      "à¤¹à¤¦à¤°à¤¬": 1701,
      "à¤¤à¤°à¤¦": 1702,
      "à¤ħà¤¸": 1703,
      "à¤¨à¤ªà¤Ľ": 1704,
      "à¤®à¤¹à¤¤": 1705,
      "Ġà¥ªà¥¬": 1706,
      "Ġà¤ľà¤¨à¤µ": 1707,
      "à¤ªà¤ª": 1708,
      "à¤°à¤¸à¤¹": 1709,
      "à¤¸à¤µà¤ķ": 1710,
      "à¤ľà¤ķà¤²": 1711,
      "Ġà¥¦à¥¬": 1712,
      "à¤¯à¤ľà¤¨": 1713,
      "à¤¾à¥Ī": 1714,
      "à¤Īà¤Ł": 1715,
      "à¤®à¤ªà¤¨": 1716,
      "à¤¦à¤¥": 1717,
      "Ġà¤ĸà¤²": 1718,
      "Ġà¥«à¥®": 1719,
      "à¤¤à¤¸à¤®": 1720,
      "à¤¯à¤¥": 1721,
      "Ġà¤Ĺà¤ıà¤ªà¤Ľ": 1722,
      "Ġà¤Ŀà¤²": 1723,
      "à¤¤à¤°à¤£à¤ķ": 1724,
      "Ġà¤Ńà¤ĩà¤¨": 1725,
      "à¤¨à¤ľ": 1726,
      "Ġà¤¨à¤Ĺ": 1727,
      "Ġà¤Ĩà¤¬à¤¦": 1728,
      "Ġà¤Ĩà¤ĩà¤¸à¤ķ": 1729,
      "à¤¯à¤Łà¤ķà¤ķ": 1730,
      "à¤Ĺà¤²à¤®": 1731,
      "à¤Ĩà¤¨": 1732,
      "Ġà¤ķà¤«": 1733,
      "Ġà¤°à¤ľ": 1734,
      "à¤¯à¤¨à¤¸": 1735,
      "à¤¿à¥į": 1736,
      "à¤ıà¤ªà¤¨": 1737,
      "à¤ĩà¤¨à¤®": 1738,
      "Ġà¤¤à¤¸à¤°": 1739,
      "Ġà¥®à¥«": 1740,
      "Ġà¤ħà¤ļà¤®": 1741,
      "Ġà¥«à¥©": 1742,
      "à¤¸à¤¦à¤²": 1743,
      "à¤µà¤ķà¤²": 1744,
      "à¤¸à¤°à¤®": 1745,
      "à¤¾à¥Īà¤Ĥ": 1746,
      "Ġà¤ĭà¤·": 1747,
      "à¤¯à¤¸à¤Ń": 1748,
      "Ġà¤Ľà¤²à¤«à¤²à¤®": 1749,
      "Ġà¤®à¤¨à¤¸": 1750,
      "Ġà¤¶à¤°à¤£": 1751,
      "à¤°à¤¤à¤¸": 1752,
      "Ġà¤Ńà¤ıà¤¸": 1753,
      "Ġà¤ķà¤ļ": 1754,
      "à¤ĸà¤¹à¤°": 1755,
      "Ġà¤µà¤¤": 1756,
      "à¤¦à¤¬": 1757,
      "Ġà¤¬à¤²à¤®": 1758,
      "Ġà¤§à¤ķ": 1759,
      "Ġà¤®à¤¨à¤ķ": 1760,
      "Ġà¤Ĩà¤Ń": 1761,
      "à¤²à¤¬à¤¹": 1762,
      "à¥§à¥«": 1763,
      "à¤®à¤¸à¤®": 1764,
      "Ġà¤ħà¤µà¤ķ": 1765,
      "Ġà¤¨à¤Ĺà¤°à¤ķ": 1766,
      "Ġà¤ĵà¤¸": 1767,
      "Ġà¥¬à¥ª": 1768,
      "à¤ĩà¤«": 1769,
      "Ġà¤Ľà¤µ": 1770,
      "à¤¶à¤°": 1771,
      "Ġà¤¸à¤®à¤ķ": 1772,
      "à¤²à¤ļ": 1773,
      "à¤¡à¤ª": 1774,
      "à¤Ĺà¤®à¤²": 1775,
      "à¥§à¥¯": 1776,
      "Ġà¤ıà¤¸à¤ª": 1777,
      "Ġà¥ªà¥¯": 1778,
      "Ġà¤¬à¤§": 1779,
      "à¤²à¤Ĺà¤ŀ": 1780,
      "Ġà¤ĵà¤Ł": 1781,
      "ĉĠ": 1782,
      "Ġà¤¤à¤¨à¤¹": 1783,
      "Ġà¥«à¥ª": 1784,
      "Ġà¤ħà¤°à¤¬": 1785,
      "à¤°à¤ļà¤²à¤¨": 1786,
      "Ġà¤°à¤¹à¤°": 1787,
      "Ġà¥¬à¥©": 1788,
      "Ġà¤ĥ": 1789,
      "Ġà¥«à¥Ń": 1790,
      "Ġà¤ĵà¤Ńà¤°à¤®": 1791,
      "à¤¡à¤µ": 1792,
      "Ġà¤ĵà¤Ŀ": 1793,
      "Ġà¤ķà¤®à¤°": 1794,
      "à¤ļà¤¨à¤²": 1795,
      "à¤Ļà¤Ĺ": 1796,
      "Ġà¤ĩà¤Łà¤¹à¤°": 1797,
      "Ġà¤ĩà¤ľà¤²": 1798,
      "Ġà¤Ĺà¤¹à¤¨": 1799,
      "à¤Ńà¤¦": 1800,
      "Ġà¤ļà¤°à¤®": 1801,
      "à¤£à¤µ": 1802,
      "Ġà¤Ĺà¤Ī": 1803,
      "Ġà¤¶à¤¹": 1804,
      "à¤ªà¤¹": 1805,
      "Ġà¥Ńà¥¨": 1806,
      "à¤¨à¤¡": 1807,
      "Ġà¤ıà¤ļ": 1808,
      "à¤µà¤¨à¤²": 1809,
      "à¤ĸà¤¬": 1810,
      "à¤£à¤¬à¤¹": 1811,
      "à¥§à¥¨": 1812,
      "à¥ĩà¥į": 1813,
      "à¤²à¤¬à¤ķ": 1814,
      "Ġà¤ıà¤ķà¤®": 1815,
      "à¤·à¤ķà¤®": 1816,
      "à¤°à¤®à¤¨": 1817,
      "à¤ľà¤°à¤ķ": 1818,
      "à¤¨à¤ķà¤°": 1819,
      "Ġà¤Ĩà¤ªà¤¸": 1820,
      "à¤¦à¤¨à¤²": 1821,
      "à¤¸à¤®à¤ķ": 1822,
      "à¤¬à¤Ī": 1823,
      "Ġà¥ªà¥Ń": 1824,
      "à¤·à¤¸": 1825,
      "Ġà¤Ńà¤Īà¤°à¤¹": 1826,
      "Ġà¤ıà¤¯à¤°": 1827,
      "à¥ĥà¤Ĥ": 1828,
      "à¤µà¤Ńà¤°": 1829,
      "à¤ħà¤²": 1830,
      "Ġà¥¨à¥¦à¥©": 1831,
      "à¤¤à¤ļ": 1832,
      "Ġà¤¦à¤£": 1833,
      "à¤Ĩà¤ıà¤ķ": 1834,
      "Ġà¤Ľà¤ł": 1835,
      "à¤Ļà¤¸": 1836,
      "Ġà¤ĺà¤¡": 1837,
      "Ġà¥¨à¥¦à¥§à¥«": 1838,
      "Ġà¤ķà¤°à¤ķ": 1839,
      "Ġà¤ĵà¤®": 1840,
      "à¤¡à¤¹à¤°": 1841,
      "Ġà¤ĩà¤ľà¤°": 1842,
      "à¤Łà¤¬à¤²à¤ķ": 1843,
      "Ġà¤¸à¤¹à¤¨": 1844,
      "Ġà¥¬à¥¨": 1845,
      "à¤łà¤Ń": 1846,
      "à¤¨à¤Ńà¤°": 1847,
      "à¤µà¤°à¤£à¤®": 1848,
      "à¤°à¤Ĩà¤µ": 1849,
      "Ġà¤¥à¤²": 1850,
      "Ġà¥§à¥¯à¥®": 1851,
      "Ġà¤ıà¤¨à¤¸": 1852,
      "Ġà¤ħà¤¨à¤¶à¤¨": 1853,
      "Ġà¤Ĩà¤®à¤¨": 1854,
      "Ġà¤ľà¤¯à¤¨": 1855,
      "Ġà¤¦à¤°à¤¬à¤¨": 1856,
      "à¤µà¤ķà¤ªà¤®": 1857,
      "Ġà¤Ĺà¤£à¤¨": 1858,
      "Ġà¤Ĺà¤¦": 1859,
      "Ġà¤µà¤ľ": 1860,
      "Ġà¤¬à¤¦": 1861,
      "à¤¶à¤ķà¤ķ": 1862,
      "à¤ķà¤¡": 1863,
      "Ġà¤Ĩà¤ĩà¤¸": 1864,
      "Ġà¤¹à¤¡": 1865,
      "Ġà¤®à¤¤à¤Ĺà¤£à¤¨": 1866,
      "à¤Łà¤µà¤°": 1867,
      "à¤ķà¤¤à¤®": 1868,
      "Ġà¤µà¤¢": 1869,
      "Ġà¤Ĩà¤īà¤Ł": 1870,
      "à¤Ĺà¤®à¤ķ": 1871,
      "à¤ªà¤¸à¤®": 1872,
      "Ġà¥¬à¥¬": 1873,
      "à¤ĩà¤°à¤¹à¤¨": 1874,
      "à¤ľà¤¤à¤¨": 1875,
      "Ġà¤°à¤¹à¤¸": 1876,
      "à¥Ńà¥©": 1877,
      "à¤¯à¤ķà¤®": 1878,
      "à¤¹à¤£": 1879,
      "à¤¦à¤°à¤²": 1880,
      "à¤¡à¤¯à¤¨": 1881,
      "Ġà¤¸à¤Ĺ": 1882,
      "à¤µà¤ķà¤ªà¤ķ": 1883,
      "Ġà¤¦à¤¹": 1884,
      "Ġà¤ħà¤Ľ": 1885,
      "Ġà¤ıà¤°": 1886,
      "à¤Łà¤¸à¤®": 1887,
      "Ġà¤ľà¤Ĺà¤¤": 1888,
      "Ġà¤²à¤®à¤ľ": 1889,
      "à¤ĺà¤®": 1890,
      "Ġà¤¶à¤²": 1891,
      "à¤°à¤§à¤¨": 1892,
      "Ġà¤Ĺà¤ľà¤²": 1893,
      "à¤¯à¤Łà¤ķà¤²": 1894,
      "à¤¼": 1895,
      "Ġà¤®à¤¨à¤ªà¤°": 1896,
      "Ġà¤¨à¤µà¤°": 1897,
      "Ġà¤²à¤¨": 1898,
      "à¤īà¤ľ": 1899,
      "à¤®à¤Ĺà¤°": 1900,
      "Ġà¥¯à¥«": 1901,
      "à¤¨à¤µà¤ħà¤§": 1902,
      "Ġà¥¨à¥¦à¥§à¥ª": 1903,
      "Ġà¤ĩà¤ŀ": 1904,
      "Ġà¤ıà¤Ł": 1905,
      "Ġà¤¦à¤µ": 1906,
      "Ġà¥«à¥¯": 1907,
      "Ġà¤¹à¤Ļà¤ķà¤Ļ": 1908,
      "à¤¹à¤°à¤£à¤ķ": 1909,
      "Ġà¤ķà¤°à¤£": 1910,
      "à¤Ĺà¤µ": 1911,
      "Ġà¥Ńà¥ª": 1912,
      "Ġà¤ħà¤¯": 1913,
      "Ġà¤Ĩà¤µà¤¦": 1914,
      "à¤°à¤Ĺà¤ŀ": 1915,
      "Ġà¤ĩà¤Ł": 1916,
      "à¤°à¤¸à¤°": 1917,
      "à¤°à¤¹à¤µ": 1918,
      "à¥§à¥®": 1919,
      "à¤²à¤µà¤¸": 1920,
      "Ġà¥«à¥¦à¥¦": 1921,
      "à¤¶à¤¤à¤ķ": 1922,
      "à¤²à¤Ļ": 1923,
      "à¤¸à¤ķà¤²": 1924,
      "Ġà¥Ńà¥¬": 1925,
      "à¤°à¤¸à¤°à¤ķ": 1926,
      "à¥ģà¥į": 1927,
      "Ġà¤¦à¤®à¤ķ": 1928,
      "à¤¶à¤¦": 1929,
      "à¤·à¤Ĺà¤°": 1930,
      "à¤¯à¤ķà¤²": 1931,
      "à¤¹à¤ķà¤²": 1932,
      "Ġà¤īà¤¦à¤¯à¤ª": 1933,
      "à¤·à¤¦à¤ķ": 1934,
      "Ġà¥¬à¥Ń": 1935,
      "Ġà¤īà¤ªà¤ķ": 1936,
      "à¤¦à¤¸": 1937,
      "à¤ħà¤Ń": 1938,
      "Ġà¥¬à¥§": 1939,
      "à¤īà¤Ľà¤¨": 1940,
      "Ġà¤ħà¤²à¤ªà¤¤": 1941,
      "à¤¶à¤ª": 1942,
      "Ġà¤¨à¤µà¤¨": 1943,
      "Ġà¤Ĳà¤¨à¤ķ": 1944,
      "à¤ĩà¤¨à¤ķ": 1945,
      "Ġà¥¨à¥¦à¥Ńà¥§": 1946,
      "Ġà¤ĩà¤£": 1947,
      "Ġà¤µà¤¸à¤¨": 1948,
      "à¤ļà¤¯à¤ªà¤¤": 1949,
      "Ġà¤¶à¤¹à¤°à¤®": 1950,
      "à¤¥à¤¸": 1951,
      "Ġà¤ıà¤ķà¤ħà¤°": 1952,
      "Ġà¤ľà¤Ļ": 1953,
      "à¤¶à¤ķà¤¹à¤°": 1954,
      "Ġà¥¬à¥®": 1955,
      "à¤µà¤¤à¤ķ": 1956,
      "Ġà¤ħà¤£": 1957,
      "Ġà¥Ńà¥®": 1958,
      "Ġà¤ľà¤¨à¤ļ": 1959,
      "à¤ıà¤ľ": 1960,
      "Ġà¤¡à¤°à¤²": 1961,
      "Ġà¤ľà¤¯": 1962,
      "à¤¯à¤¤à¤¯": 1963,
      "Ġà¤¹à¤²à¤®": 1964,
      "à¤·à¤¯à¤¹à¤°": 1965,
      "Ġà¤¸à¤¬à¤Ńà¤¨": 1966,
      "Ġà¤ķà¤¦": 1967,
      "à¥«à¥¦": 1968,
      "à¤°à¤Ĺà¤¨": 1969,
      "à¤ĸà¤²à¤¢": 1970,
      "Ġà¤ĺà¤²": 1971,
      "Ġà¤ľà¤¨à¤µà¤°": 1972,
      "Ġà¥Ńà¥©": 1973,
      "à¤Ĺà¤łà¤¨à¤²": 1974,
      "Ġà¤ķà¤·": 1975,
      "Ġà¤ĺà¤°à¤ªà¤°": 1976,
      "à¤ķà¤¨à¤ķ": 1977,
      "à¤®à¤¤à¤ķ": 1978,
      "à¤µà¤¸à¤¨": 1979,
      "Ġà¤Ĩà¤°à¤ķ": 1980,
      "Ġà¤ļà¤Ł": 1981,
      "à¤°à¤¹à¤ķ": 1982,
      "à¤£à¤¬": 1983,
      "Ġà¤ıà¤ķà¤¸": 1984,
      "à¤Ĺà¤®à¤¨à¤ķ": 1985,
      "Ġà¤¢à¤Ļ": 1986,
      "à¤¯à¤Ń": 1987,
      "à¤²à¤ķà¤¹à¤°": 1988,
      "à¤ķà¤¶": 1989,
      "Ġà¤¸à¤²à¤®": 1990,
      "Ġà¤Ĩà¤¬": 1991,
      "Ġà¤ªà¤ª": 1992,
      "Ġà¥Ńà¥Ń": 1993,
      "à¤¹à¤ķà¤¹à¤°": 1994,
      "à¤ķà¤¥": 1995,
      "à¤ķà¤Łà¤ķ": 1996,
      "Ġà¤ħà¤®à¤°": 1997,
      "à¤µà¤¨à¤¸": 1998,
      "Ġà¤Ŀà¤Ĺà¤¡": 1999,
      "Ġà¤¹à¤ķà¤ª": 2000,
      "Ġà¤¨à¤Ńà¤ıà¤ªà¤Ľ": 2001,
      "à¤¨à¤ħà¤ĺ": 2002,
      "Ġà¥¯à¥¯": 2003,
      "à¤¯à¤®à¤¹à¤°": 2004,
      "Ġà¥¨à¥¦à¥Ńà¥¦": 2005,
      "Ġà¤ªà¤¹à¤²à¤®": 2006,
      "à¤Īà¤ľ": 2007,
      "Ġà¤¡à¤¡": 2008,
      "à¤¦à¤£": 2009,
      "Ġà¤¥à¤ķ": 2010,
      "Ġà¤¨à¤Ńà¤¨": 2011,
      "à¤¨à¤ħà¤¨": 2012,
      "à¤°à¤ļà¤²": 2013,
      "Ġà¤¯à¤ľ": 2014,
      "Ġà¤ıà¤¯à¤°à¤²": 2015,
      "Ġà¤ħà¤µà¤²à¤®": 2016,
      "Ġà¤¬à¤¸à¤¨": 2017,
      "à¤īà¤¨à¤®": 2018,
      "à¤¸à¤µà¤®": 2019,
      "Ġà¤¨à¤Ľ": 2020,
      "Ġà¤²à¤£": 2021,
      "à¤¯à¤¯à¤¨à¤°à¤¤": 2022,
      "à¤ªà¤ªà¤Ľ": 2023,
      "Ġà¤Ĺà¤«": 2024,
      "à¤ĩà¤ı": 2025,
      "Ġà¤°à¤¦": 2026,
      "à¤Ĺà¤²à¤ķ": 2027,
      "à¤¦à¤ª": 2028,
      "Ġà¤ªà¤łà¤¨": 2029,
      "à¤ªà¤¯à¤²": 2030,
      "à¤°à¤¸à¤Ļ": 2031,
      "à¤Łà¤°à¤¹à¤°": 2032,
      "à¤°à¤®à¤¬": 2033,
      "Ġà¥®à¥®": 2034,
      "à¤®à¤¦à¤¤": 2035,
      "Ġà¤ħà¤ªà¤®": 2036,
      "Ġà¤ĸà¤ªà¤¤": 2037,
      "Ġà¤ħà¤ªà¤¹à¤°à¤£": 2038,
      "à¤¤à¤ķà¤²": 2039,
      "à¤°à¤£à¤¸à¤Ń": 2040,
      "à¤°à¤¨à¤Ĺà¤°": 2041,
      "Ġà¤Ĺà¤ļ": 2042,
      "à¥§à¥¬": 2043,
      "à¤¸à¤ķà¤ķ": 2044,
      "Ġà¤®à¤¨à¤²": 2045,
      "à¤¥à¤ª": 2046,
      "à¤Łà¤°à¤«": 2047,
      "Ġà¤¦à¤¶à¤®": 2048,
      "à¤Ĩà¤īà¤Ł": 2049,
      "à¤§à¤ª": 2050,
      "à¤īà¤¥": 2051,
      "Ġà¤ıà¤®à¤¬": 2052,
      "à¤ıà¤²à¤¸": 2053,
      "Ġà¤²à¤¤": 2054,
      "Ġà¥¯à¥®": 2055,
      "Ġà¤Ĩà¤Īà¤ª": 2056,
      "à¤Īà¤¬": 2057,
      "Ġà¤ĵà¤²à¤®": 2058,
      "à¤°à¤Ńà¤°": 2059,
      "à¤¨à¤ľà¤¨": 2060,
      "à¤¨à¤¬à¤¹": 2061,
      "Ġà¤ĵà¤ĸà¤²à¤¢": 2062,
      "à¤¦à¤Ń": 2063,
      "Ġà¤Ńà¤¬": 2064,
      "à¤·à¤£à¤²": 2065,
      "Ġà¤īà¤ªà¤¸à¤Ń": 2066,
      "à¤Īà¤°à¤¹": 2067,
      "à¤ķà¤®à¤ķ": 2068,
      "Ġà¥®à¥ª": 2069,
      "à¤Łà¤°à¤¬": 2070,
      "Ġà¤ıà¤Ńà¤°": 2071,
      "à¤¸à¤¤à¤®": 2072,
      "Ġà¤ľà¤¨à¤Ĩà¤¨": 2073,
      "Ġà¤ľà¤¨à¤¸à¤®": 2074,
      "ĠĠĠĠĠĠ": 2075,
      "à¤Łà¤²à¤ķ": 2076,
      "à¤Ĺà¤ª": 2077,
      "Ġà¤ħà¤¬à¤¸": 2078,
      "à¤ľà¤°à¤²": 2079,
      "Ġà¤Ķà¤ļ": 2080,
      "à¤ĺà¤Ł": 2081,
      "Ġà¤®à¤¹à¤¶": 2082,
      "Ġà¤®à¤Ĺà¤°à¤²": 2083,
      "Ġà¥¬à¥¯": 2084,
      "Ġà¤Ĩà¤ķà¤¸": 2085,
      "Ġà¤īà¤ªà¤®": 2086,
      "à¤°à¤Ļà¤ķ": 2087,
      "Ġà¥®à¥¨": 2088,
      "à¤ħà¤Ĺ": 2089,
      "Ġà¤īà¤ªà¤¸à¤®": 2090,
      "Ġà¤łà¤®": 2091,
      "Ġà¤ªà¤¸à¤²à¤®": 2092,
      "Ġà¤īà¤ªà¤µ": 2093,
      "Ġà¤Ķà¤¸à¤¤": 2094,
      "Ġà¥Ńà¥§": 2095,
      "à¤µà¤¨à¤¶": 2096,
      "à¤²à¤Ĺà¤¨": 2097,
      "Ġà¤ªà¤¬": 2098,
      "Ġà¥¨à¥¦à¥¦à¥Ń": 2099,
      "Ġà¤ľà¤¥": 2100,
      "Ġà¤Ĩà¤ľà¤¸à¤®": 2101,
      "Ġà¤ķà¤²à¤®": 2102,
      "à¤£à¤¯à¤²": 2103,
      "Ġà¤¦à¤¯": 2104,
      "Ġà¤Ĩà¤Īà¤¸": 2105,
      "Ġà¥¨à¥¦à¥§à¥©": 2106,
      "Ġà¤¯à¤®": 2107,
      "Ġà¤Ĩà¤ľà¤¦": 2108,
      "Ġà¤ªà¤Łà¤ķà¤ķ": 2109,
      "Ġà¤ĸà¤¬": 2110,
      "à¤²à¤Ĺà¤¤": 2111,
      "Ġà¤²à¤¸": 2112,
      "Ġà¥®à¥©": 2113,
      "Ġà¤¡à¤ķ": 2114,
      "à¤¯à¤²à¤ķ": 2115,
      "à¤¾à¤ĥ": 2116,
      "à¤ľà¤¯à¤ķ": 2117,
      "à¤µà¤ķà¤ķ": 2118,
      "à¤¨à¤¸à¤¹": 2119,
      "à¤ĩà¤¹à¤°": 2120,
      "à¤¤à¤¨à¤²": 2121,
      "Ġà¤¤à¤°à¤²": 2122,
      "à¤µà¤²à¤®": 2123,
      "Ġà¤Ĩà¤°à¤®": 2124,
      "à¤ĵà¤¬": 2125,
      "Ġà¤¹à¤¦à¤¸à¤®": 2126,
      "à¤¯à¤¯à¤¨à¤²": 2127,
      "à¤¦à¤µà¤ķ": 2128,
      "à¤ıà¤ļ": 2129,
      "à¤¯à¤¸à¤¹": 2130,
      "à¤¤à¤ķà¤®": 2131,
      "Ġà¤Ńà¤µà¤¨à¤ķ": 2132,
      "à¤¯à¤Łà¤ķà¤¹à¤°": 2133,
      "Ġà¤Ńà¤µà¤¨à¤®": 2134,
      "Ġà¤ıà¤¸à¤ıà¤²à¤¸": 2135,
      "à¤¹à¤²à¤ª": 2136,
      "Ġà¤ľà¤¬à¤ķ": 2137,
      "Ġà¤°à¤ķà¤®à¤ķ": 2138,
      "Ġà¤Ĩà¤¯à¤²": 2139,
      "à¤¹à¤µ": 2140,
      "à¤¶à¤Ńà¤°à¤ķ": 2141,
      "à¤Ĩà¤¤": 2142,
      "Ġà¥§à¥¯à¥¬": 2143,
      "ĠĠĠĠĠĠĠĠĠĠĠĠĠĠĠĠĠĠĠĠĠĠĠĠĠĠĠĠĠĠĠĠ": 2144,
      "à¤·à¤¯à¤µà¤¸": 2145,
      "à¤Łà¤¤": 2146,
      "Ġà¤®à¤ľà¤¬": 2147,
      "à¤²à¤Ł": 2148,
      "Ġà¥¨à¥¦à¥¬à¥ª": 2149,
      "à¤ıà¤¨à¤ı": 2150,
      "à¤£à¤¯à¤ķ": 2151,
      "Ġà¤Ĩà¤ªà¤¸à¤®": 2152,
      "à¥§à¥Ń": 2153,
      "Ġà¤Ńà¤Ĺà¤µà¤¤": 2154,
      "Ġà¤ªà¤®": 2155,
      "à¤«à¤°à¤ķ": 2156,
      "Ġà¤Ĳà¤¨à¤®": 2157,
      "Ġà¤²à¤¹à¤°": 2158,
      "à¤¤à¤Ĺà¤¤": 2159,
      "Ġà¤¨à¤Ĩà¤ıà¤ķ": 2160,
      "Ġà¤ļà¤ª": 2161,
      "à¤ļà¤¤": 2162,
      "à¤ķà¤°à¤²": 2163,
      "à¤ľà¤Ń": 2164,
      "Ġà¤¶à¤Ļ": 2165,
      "à¤¯à¤Ļ": 2166,
      "Ġà¤ĩà¤¶": 2167,
      "à¤°à¤µà¤Ł": 2168,
      "Ġà¤ľà¤²à¤¸": 2169,
      "à¤ĩà¤Łà¤®": 2170,
      "Ġà¥¨à¥¦à¥¬à¥®": 2171,
      "Ġà¤Ńà¤°à¤ªà¤°": 2172,
      "Ġà¤ľà¤®à¤°": 2173,
      "à¤ľà¤¦à¤°": 2174,
      "à¤Ľà¤¦": 2175,
      "Ġà¤¹à¤®à¤²": 2176,
      "à¥§à¥ª": 2177,
      "à¤¯à¤Łà¤¨à¤ķ": 2178,
      "à¤¨à¤Ľ": 2179,
      "à¤£à¤¹à¤°": 2180,
      "Ġà¤ķà¤¯": 2181,
      "Ġà¤Ĩà¤µà¤ķ": 2182,
      "Ġà¤¸à¤¡à¤ķà¤ĸà¤£": 2183,
      "à¤¨à¤Ĺà¤°à¤ķ": 2184,
      "à¤Ķà¤·à¤§": 2185,
      "à¤¦à¤¦": 2186,
      "à¤ķà¤Łà¤®": 2187,
      "à¤°à¤®à¤£à¤²": 2188,
      "Ġà¥¦à¥«": 2189,
      "Ġà¤ļà¤²à¤ĸ": 2190,
      "à¤¤à¤¹à¤¤": 2191,
      "Ġà¤ĸà¤Ĺ": 2192,
      "Ġà¤¸à¤¹à¤°à¤®": 2193,
      "à¤¤à¤°à¤¬": 2194,
      "à¤ĸà¤¸à¤®": 2195,
      "à¤¿à¤¾": 2196,
      "Ġà¤¡à¤²à¤°à¤ķ": 2197,
      "Ġà¥®à¥¬": 2198,
      "à¤ħà¤®": 2199,
      "Ġà¤²à¤ľ": 2200,
      "à¤ıà¤Ī": 2201,
      "Ġà¤®à¤®": 2202,
      "Ġà¤²à¤¹": 2203,
      "à¤°à¤£à¤¹à¤°": 2204,
      "Ġà¥¨à¥¦à¥§à¥¨": 2205,
      "Ġà¤ľà¤¨à¤®à¤¤": 2206,
      "à¤¬à¤ľà¤¨": 2207,
      "à¤ĵà¤²": 2208,
      "à¥įà¥į": 2209,
      "Ġà¤¬à¤¸à¤ª": 2210,
      "à¤ıà¤¸à¤®": 2211,
      "à¤Īà¤ľà¤¨": 2212,
      "Ġà¤ıà¤ķà¤ıà¤ķ": 2213,
      "Ġà¤Ĩà¤īà¤¦": 2214,
      "Ġà¤ĩà¤Ń": 2215,
      "à¤¤à¤°à¤µ": 2216,
      "à¤¹à¤ª": 2217,
      "Ġà¤¸à¤¤à¤°": 2218,
      "à¤ĩà¤²à¤®": 2219,
      "à¤¦à¤°à¤¤": 2220,
      "Ġà¤¸à¤¬à¤²": 2221,
      "à¤¹à¤¨à¤¤": 2222,
      "à¤Łà¤¨à¤ķ": 2223,
      "à¤¨à¤¯à¤¨": 2224,
      "à¤·à¤Ńà¤¨": 2225,
      "Ġà¤°à¤¬": 2226,
      "à¤¨à¤¶": 2227,
      "à¤¦à¤°à¤Ĺ": 2228,
      "à¤¤à¤°à¤Ĺà¤¤": 2229,
      "à¤¤à¤ķà¤¹à¤°": 2230,
      "à¤ķà¤¬à¤¹": 2231,
      "à¤Ĺà¤¬à¤¹": 2232,
      "à¤°à¤²à¤Ĺ": 2233,
      "à¤ķà¤¸à¤®": 2234,
      "à¤¤à¤°à¤°": 2235,
      "à¥įà¤¾": 2236,
      "à¤²à¤¡": 2237,
      "Ġà¤Ľà¤¤": 2238,
      "à¤Ĩà¤¬": 2239,
      "Ġà¤«à¤¡": 2240,
      "Ġà¤ľà¤¨à¤¸à¤Ļ": 2241,
      "Ġà¤īà¤ªà¤¦": 2242,
      "à¤Ĺà¤²à¤µ": 2243,
      "Ġà¤ªà¤¯": 2244,
      "à¤°à¤ķà¤²": 2245,
      "Ġà¤ıà¤¸à¤ıà¤¸à¤ª": 2246,
      "à¤ªà¤¨à¤²": 2247,
      "Ġà¤·à¤¡": 2248,
      "Ġà¤Ľà¤²à¤«à¤²à¤ķ": 2249,
      "Ġà¤®à¤¤à¤ªà¤¤": 2250,
      "Ġà¥Ńà¥¯": 2251,
      "Ġà¤®à¤¡": 2252,
      "à¤¶à¤¤à¤®": 2253,
      "à¤¸à¤¸à¤®": 2254,
      "Ġà¤łà¤ª": 2255,
      "Ġà¤ħà¤²à¤®": 2256,
      "à¤°à¤¤à¤°": 2257,
      "à¤ķà¤Ń": 2258,
      "Ġà¥¯à¥¨": 2259,
      "à¤ĵà¤ķ": 2260,
      "Ġà¤ĺà¤°à¤¹à¤°": 2261,
      "à¤¤à¤ķà¤°": 2262,
      "à¤¡à¤¦": 2263,
      "à¤¯à¤£à¤Ĺà¤¢": 2264,
      "Ġà¤ħà¤Ĺà¤¸": 2265,
      "à¤µà¤£": 2266,
      "Ġà¤¤à¤Ł": 2267,
      "Ġà¤°à¤¨à¤®": 2268,
      "à¤Ĩà¤¯": 2269,
      "Ġà¤¶à¤®": 2270,
      "Ġà¥¯à¥¬": 2271,
      "Ġà¥¨à¥¦à¥¬à¥©": 2272,
      "Ġà¥¯à¥ª": 2273,
      "à¤Ĩà¤Īà¤ľ": 2274,
      "à¤Īà¤°": 2275,
      "à¤ĩà¤¬à¤°": 2276,
      "Ġà¥¯à¥©": 2277,
      "à¤§à¤¹à¤°": 2278,
      "Ġà¤¨à¤Ńà¤ıà¤¸à¤®": 2279,
      "Ġà¥¨à¥¦à¥§à¥§": 2280,
      "à¤¯à¤¨à¤²": 2281,
      "à¤¶à¤¤à¤Ńà¤¨": 2282,
      "à¤ļà¤²à¤ķ": 2283,
      "Ġà¥¦à¥ª": 2284,
      "Ġà¤ķà¤¸à¤ķ": 2285,
      "à¤¯à¤¸à¤ħà¤ĺ": 2286,
      "à¤²à¤§": 2287,
      "Ġà¤ĺà¤°à¤¦": 2288,
      "à¤ĩà¤°à¤²": 2289,
      "à¤ľà¤Ĺà¤¢": 2290,
      "à¤ªà¤°à¤¬": 2291,
      "à¤ıà¤¸à¤¨": 2292,
      "Ġà¤¶à¤¹à¤°à¤ķ": 2293,
      "Ġà¤¨à¤Ĩà¤īà¤¨": 2294,
      "à¤¥à¤²à¤¬": 2295,
      "Ġà¤īà¤¬": 2296,
      "Ġà¤ıà¤¨à¤Ĩà¤°à¤ıà¤¨à¤ı": 2297,
      "Ġà¤¶à¤¶": 2298,
      "Ġà¤ĸà¤ª": 2299,
      "à¤¨à¤Ĺ": 2300,
      "Ġà¤ħà¤¨à¤®": 2301,
      "Ġà¤µà¤¨à¤¸": 2302,
      "à¤¡à¤¤": 2303,
      "Ġà¥¨à¥¦à¥§à¥¦": 2304,
      "à¤¤à¤ľà¤¨": 2305,
      "Ġà¤¶à¤°à¤¦": 2306,
      "à¤¡à¤²à¤®": 2307,
      "Ġà¤ĺà¤°à¤Ń": 2308,
      "à¥¨à¥¬": 2309,
      "Ġà¤¸à¤®à¤¯à¤¸": 2310,
      "à¤ªà¤ķà¤°": 2311,
      "à¤īà¤¤à¤²": 2312,
      "Ġà¤ªà¤łà¤¨à¤ª": 2313,
      "Ġà¤¨à¤¹à¤°": 2314,
      "à¤ªà¤°à¤ķ": 2315,
      "à¤Ńà¤ıà¤¨": 2316,
      "Ġà¥®à¥§": 2317,
      "à¤²à¤¶": 2318,
      "Ġà¤ıà¤ķà¤Ľ": 2319,
      "Ġà¤ħà¤µà¤¤à¤°à¤£": 2320,
      "à¤¹à¤¹à¤°": 2321,
      "à¤ĩà¤µ": 2322,
      "Ġà¤¬à¤Ŀ": 2323,
      "Ġà¤¯à¤ķ": 2324,
      "Ġà¤ĺà¤°à¤§": 2325,
      "Ġà¥¨à¥¦à¥¨à¥¦": 2326,
      "Ġà¤Ĺà¤Ńà¤°": 2327,
      "à¤¡à¤²à¤²": 2328,
      "à¤¸à¤Ł": 2329,
      "Ġà¥®à¥Ń": 2330,
      "à¤¯à¤£à¤ķ": 2331,
      "à¤²à¤¹": 2332,
      "à¤²à¤¯à¤¨": 2333,
      "Ġà¤ħà¤ł": 2334,
      "Ġà¤«à¤¨": 2335,
      "Ġà¤ħà¤«à¤°": 2336,
      "à¤ªà¤¡": 2337,
      "Ġà¤ķà¤£": 2338,
      "à¥¨à¥«": 2339,
      "Ġà¤ħà¤¸à¤¹à¤®à¤¤": 2340,
      "Ġà¤Ĩà¤ĩà¤¤à¤µ": 2341,
      "Ġà¥¦à¥¦à¥¦": 2342,
      "à¤¤à¤®à¤ķ": 2343,
      "à¤·à¤ª": 2344,
      "à¤¡à¤¨à¤ķ": 2345,
      "à¤°à¤£à¤¬": 2346,
      "Ġà¤®à¤Ŀ": 2347,
      "à¤¶à¤¤à¤¸à¤®": 2348,
      "à¤°à¤¹à¤®": 2349,
      "à¤Ńà¤¤": 2350,
      "Ġà¤ĵà¤Ńà¤°": 2351,
      "à¤²à¤²à¤Ĺ": 2352,
      "à¤®à¤ĺ": 2353,
      "Ġà¤¸à¤ĸ": 2354,
      "à¤¦à¤¶à¤¨": 2355,
      "à¤ıà¤Ľ": 2356,
      "Ġà¤Ĩà¤¸à¤¨": 2357,
      "à¤·à¤°à¤¤": 2358,
      "à¤Īà¤ª": 2359,
      "Ġà¥¨à¥¦à¥¬à¥¯": 2360,
      "Ġà¥®à¥¯": 2361,
      "à¤Łà¤¬à¤²à¤®": 2362,
      "à¤Ļà¤¦": 2363,
      "à¥§à¥©": 2364,
      "Ġà¤¡à¤®": 2365,
      "à¤¯à¤¨à¤ľà¤°": 2366,
      "à¤°à¤ķà¤°à¤£à¤®": 2367,
      "Ġà¤ĺà¤°à¤ĺà¤°à¤®": 2368,
      "à¤·à¤¯à¤¤": 2369,
      "Ġà¤«à¤°à¤ķà¤«à¤°à¤ķ": 2370,
      "Ġà¤ħà¤¨à¤¸à¤¨": 2371,
      "Ġà¤¸à¤®à¤¯à¤ªà¤Ľ": 2372,
      "Ġà¤¨à¤ľà¤°": 2373,
      "à¤°à¤¬à¤°": 2374,
      "Ġà¤°à¤ĺ": 2375,
      "Ġà¤Ĩà¤µà¤®": 2376,
      "à¤²à¤¯à¤¸": 2377,
      "Ġà¤¶à¤ªà¤¥": 2378,
      "à¤Ĺà¤łà¤¨à¤¹à¤°": 2379,
      "à¤°à¤®à¤£à¤¬": 2380,
      "Ġà¤ľà¤¸à¤®à¤§": 2381,
      "à¤²à¤ľ": 2382,
      "Ġà¤Łà¤¸": 2383,
      "Ġà¤Ńà¤ıà¤¤": 2384,
      "Ġà¤ĵà¤ªà¤¨": 2385,
      "Ġà¤¥à¤¨": 2386,
      "Ġà¤ħà¤¨à¤¨": 2387,
      "Ġà¤ĩà¤Ļ": 2388,
      "à¤«à¤¦": 2389,
      "Ġà¤Ĳà¤¨à¤²": 2390,
      "Ġà¤°à¤ľà¤¤": 2391,
      "Ġà¤«à¤ķ": 2392,
      "à¤ĸà¤Ńà¤¨": 2393,
      "à¤ķà¤°à¤ķ": 2394,
      "à¤¸à¤Ĺ": 2395,
      "à¤Īà¤¨à¤²": 2396,
      "Ġà¥¯à¥Ń": 2397,
      "Ġà¥¨à¥¦à¥¦à¥®": 2398,
      "Ġà¤Ńà¤ĩà¤°à¤¹à¤¨": 2399,
      "à¤¯à¤¬à¤¹": 2400,
      "à¤¥à¤¤": 2401,
      "à¤¹à¤ķà¤ķ": 2402,
      "Ġà¤īà¤§": 2403,
      "Ġà¥¯à¥§": 2404,
      "Ġà¤§à¤°à¤¹à¤°": 2405,
      "Ġà¤¸à¤®à¤¯à¤²": 2406,
      "à¤ķà¤ľ": 2407,
      "Ġà¤Ķà¤²": 2408,
      "Ġà¤īà¤ªà¤¸à¤ļ": 2409,
      "à¤¾à¤ģà¥Ī": 2410,
      "Ġà¤Ńà¤Īà¤¸à¤ķ": 2411,
      "à¤£à¤¯à¤®": 2412,
      "Ġà¤ķà¤¦à¤°": 2413,
      "à¤Ńà¤°à¤¤": 2414,
      "à¤ķà¤ħà¤¨": 2415,
      "à¤°à¤¸à¤ŀ": 2416,
      "Ġà¤ĵà¤Ĺà¤Ł": 2417,
      "Ġà¥¨à¥¦à¥Ńà¥ªà¥Ńà¥«": 2418,
      "Ġà¤°à¤ļ": 2419,
      "Ġà¥¨à¥¦à¥ªà¥¬": 2420,
      "à¤¥à¤²à¤Ĺà¤¤": 2421,
      "Ġà¤ľà¤¬à¤°à¤ľà¤¸": 2422,
      "à¤¹à¤ľ": 2423,
      "Ġà¤¡à¤¬": 2424,
      "Ġà¤¸à¤°à¤¹": 2425,
      "à¤¯à¤ķà¤µ": 2426,
      "à¤Ĺà¤¸à¤®": 2427,
      "Ġà¤µà¤ŀ": 2428,
      "Ġà¤ĩà¤ª": 2429,
      "Ġà¤¨à¤²à¤Ĺ": 2430,
      "à¤ıà¤®à¤Ī": 2431,
      "Ġà¤Ĩà¤Īà¤¤à¤¬": 2432,
      "Ġà¤Ĺà¤Ĺà¤¨": 2433,
      "Ġà¤Ĩà¤ªà¤°": 2434,
      "Ġà¤ħà¤µà¤¸à¤°à¤ķ": 2435,
      "Ġà¤ªà¤ĸ": 2436,
      "à¥Ńà¥¨": 2437,
      "à¤¾à¤Ĥà¥Ī": 2438,
      "Ġà¤Łà¤ª": 2439,
      "à¤Łà¤¨à¤Ĺà¤°à¤®": 2440,
      "à¤Ĺà¤ħà¤¨": 2441,
      "à¤¤à¤¯": 2442,
      "à¤°à¤«à¤²": 2443,
      "Ġà¤ªà¤¦à¤¯": 2444,
      "à¤°à¤®à¤¸": 2445,
      "à¤µà¤ķà¤¹à¤°": 2446,
      "à¤Ĺà¤°à¤£": 2447,
      "à¤¥à¤¹à¤°": 2448,
      "à¤¯à¤ªà¤¤": 2449,
      "à¤·à¤¯à¤Ĺà¤¤": 2450,
      "Ġà¤¸à¤¯à¤Ńà¤¨": 2451,
      "à¤ĩà¤Łà¤¹à¤°": 2452,
      "Ġà¤¨à¤¬à¤¢": 2453,
      "Ġà¤ĩà¤¨à¤°": 2454,
      "Ġà¤¸à¤¹à¤°à¤ķ": 2455,
      "Ġà¤®à¤¤à¤²": 2456,
      "Ġà¤īà¤Ĺ": 2457,
      "à¤¶à¤¨à¤¬": 2458,
      "Ġà¤²à¤Ń": 2459,
      "à¤µà¤°à¤£à¤ķ": 2460,
      "Ġà¤¨à¤Ł": 2461,
      "à¤§à¤¨à¤¬": 2462,
      "à¤¶à¤®à¤¨": 2463,
      "à¤ĸà¤ķà¤²": 2464,
      "Ġà¤Ĺà¤łà¤¨à¤ķ": 2465,
      "Ġà¤Īà¤²": 2466,
      "à¤ªà¤¸à¤ķ": 2467,
      "à¤Ŀà¤ķ": 2468,
      "à¤ĩà¤ıà¤¨": 2469,
      "Ġà¥§à¥«à¥¦": 2470,
      "Ġà¤¨à¤ļà¤²": 2471,
      "Ġà¤Ĩà¤Ĺà¤®à¤¨": 2472,
      "à¤²à¤¨à¤¬": 2473,
      "Ġà¤ĸà¤®": 2474,
      "Ġà¤¬à¤ŀ": 2475,
      "Ġà¤µà¤¨à¤ķ": 2476,
      "Ġà¤ħà¤¥": 2477,
      "à¥Ńà¥¦": 2478,
      "Ġà¥©à¥¦à¥¦": 2479,
      "Ġà¤®à¤¹à¤µà¤ª": 2480,
      "à¤Ńà¤ªà¤¤": 2481,
      "Ġà¤ªà¤°à¤¦": 2482,
      "à¤ĺà¤°à¤ķ": 2483,
      "Ġà¤®à¤Ĺ": 2484,
      "Ġà¤¦à¤®à¤¨": 2485,
      "à¤¤à¤µà¤¨à¤®": 2486,
      "à¤§à¤¸": 2487,
      "à¤¥à¤¶": 2488,
      "à¤ĸà¤¨à¤¨": 2489,
      "à¤¸à¤®à¤®": 2490,
      "Ġà¤Ĩà¤µà¤¤à¤ľ": 2491,
      "Ġà¤¦à¤¶à¤ķà¤®": 2492,
      "à¤¨à¤ªà¤°": 2493,
      "à¤¯à¤¦à¤²": 2494,
      "à¤¤à¤¹à¤Ł": 2495,
      "à¤¤à¤¬à¤¹": 2496,
      "ĠĠĠĠĠĠĠ": 2497,
      "Ġà¤Łà¤ķ": 2498,
      "à¤¤à¤¹à¤¤à¤ķ": 2499,
      "à¤Ńà¤²à¤ªà¤®": 2500,
      "Ġà¤Ĺà¤¢": 2501,
      "Ġà¤°à¤ŀ": 2502,
      "Ġà¤¬à¤¦à¤¨": 2503,
      "à¤ŀà¤ķ": 2504,
      "à¤ĩà¤¹": 2505,
      "à¤¯à¤¸à¤¤": 2506,
      "Ġà¤ļà¤¤": 2507,
      "à¤¨à¤²à¤Ĺ": 2508,
      "Ġà¥§à¥¯à¥«": 2509,
      "à¤²à¤¬à¤¨": 2510,
      "à¤Łà¤¯": 2511,
      "Ġà¤¤à¤¹à¤¬": 2512,
      "à¤ıà¤¤": 2513,
      "à¤Łà¤¦": 2514,
      "Ġà¤¸à¤¹à¤ľà¤¤": 2515,
      "à¤§à¤°à¤²": 2516,
      "Ġà¤ªà¤¡": 2517,
      "Ġà¤ªà¤¦à¤¬": 2518,
      "à¤¯à¤¸à¤®à¤§": 2519,
      "Ġà¤¨à¤¶": 2520,
      "Ġà¤Ĩà¤Ļ": 2521,
      "Ġà¥§à¥¯à¥ª": 2522,
      "Ġà¤Ĩà¤ľà¤Ń": 2523,
      "à¤Ŀà¤®": 2524,
      "Ġà¤¤à¤°à¤²à¤¤": 2525,
      "à¤ľà¤ķà¤ķ": 2526,
      "Ġà¤¯à¤¨": 2527,
      "Ġà¤²à¤ĸ": 2528,
      "à¤¤à¤°à¤£à¤®": 2529,
      "à¤¥à¤¬": 2530,
      "à¤¸à¤«": 2531,
      "Ġà¥¦à¥Ńà¥ª": 2532,
      "Ġà¤ĵà¤¬": 2533,
      "Ġà¤ıà¤ķà¤ľ": 2534,
      "Ġà¤ķà¤²à¤ķ": 2535,
      "Ġà¤¬à¤¸à¤®": 2536,
      "à¤īà¤¬": 2537,
      "Ġà¤²à¤¯": 2538,
      "Ġà¤¤à¤¹à¤¸à¤®": 2539,
      "à¤¤à¤Ńà¤°": 2540,
      "à¤ķà¤¤à¤°": 2541,
      "à¤Īà¤¡": 2542,
      "à¤µà¤ªà¤¶": 2543,
      "à¤¬à¤²à¤ķ": 2544,
      "à¤¤à¤°à¤ª": 2545,
      "à¤£à¤¯à¤¹à¤°": 2546,
      "à¤µà¤Ĺ": 2547,
      "à¥įà¥ĩ": 2548,
      "à¤Łà¤ķà¤ķ": 2549,
      "Ġà¤ĭà¤¤": 2550,
      "à¤²à¤¤à¤¬": 2551,
      "à¤¯à¤¦à¤²à¤²": 2552,
      "à¤¯à¤¯à¤¨à¤®": 2553,
      "à¤ļà¤ª": 2554,
      "Ġà¤ħà¤ĸà¤£": 2555,
      "Ġà¥¨à¥¦à¥§à¥¯": 2556,
      "à¤Ĺà¤²à¤²": 2557,
      "à¤Ľà¤¡": 2558,
      "à¤²à¤ķà¤£": 2559,
      "Ġà¤Ńà¤ıà¤Ľ": 2560,
      "à¤ĩà¤²à¤ķ": 2561,
      "Ġà¤¬à¤¬": 2562,
      "à¤ķà¤Ńà¤°": 2563,
      "Ġà¤īà¤¦à¤¯": 2564,
      "Ġà¥¨à¥¦à¥¦à¥¯": 2565,
      "à¤ĩà¤ļ": 2566,
      "Ġà¤Ńà¤ĩà¤¹": 2567,
      "à¤īà¤¡à¤ķ": 2568,
      "Ġà¤ıà¤Ń": 2569,
      "Ġà¤®à¤¨à¤Ĺ": 2570,
      "Ġà¤ĺà¤°à¤ľà¤Ĺ": 2571,
      "à¤°à¤µà¤¨": 2572,
      "Ġà¤ľà¤¸à¤¬": 2573,
      "Ġà¤Ĩà¤¤à¤Ļ": 2574,
      "à¤Łà¤¨à¤®": 2575,
      "Ġà¤ıà¤¯à¤°à¤ª": 2576,
      "Ġà¤ıà¤¬": 2577,
      "à¤°à¤«à¤²à¤®": 2578,
      "Ġà¤¸à¤¯à¤ªà¤¤": 2579,
      "à¤µà¤²à¤²": 2580,
      "à¤ļà¤µ": 2581,
      "à¤ªà¤¨à¤ªà¤¤": 2582,
      "à¤°à¤ľà¤¨à¤¨": 2583,
      "Ġà¥¨à¥¦à¥Ńà¥«à¥¦": 2584,
      "Ġà¤īà¤ªà¤²à¤ķ": 2585,
      "à¤¤à¤Ń": 2586,
      "à¤Ŀà¤Ł": 2587,
      "Ġà¤īà¤ªà¤²à¤µ": 2588,
      "à¤Īà¤ĵ": 2589,
      "à¤²à¤¬à¤®": 2590,
      "Ġà¤¨à¤®à¤¸": 2591,
      "à¤Ĺà¤®à¤¤": 2592,
      "à¤¡à¤¨à¤®": 2593,
      "Ġà¤ĵà¤¹": 2594,
      "Ġà¤¬à¤¦à¤°": 2595,
      "à¤¯à¤¸à¤ļ": 2596,
      "Ġà¤¦à¤¨": 2597,
      "Ġà¤Ĩà¤ıà¤¨": 2598,
      "Ġà¤¦à¤°à¤®": 2599,
      "Ġà¤®à¤¹à¤¤à¤²": 2600,
      "Ġà¤¬à¤¸à¤ķ": 2601,
      "Ġà¤®à¤¸à¤²": 2602,
      "à¤Łà¤ķà¤°": 2603,
      "à¤°à¤¸à¤ķ": 2604,
      "Ġà¤Īà¤®": 2605,
      "Ġà¤Ŀà¤°à¤¨": 2606,
      "à¤¾à¥į": 2607,
      "à¤¬à¤¢": 2608,
      "à¤Īà¤®à¤§": 2609,
      "Ġà¥¨à¥¦à¥¬à¥«": 2610,
      "à¤¯à¤°à¤§à¤¨": 2611,
      "à¤ķà¤ħà¤ª": 2612,
      "Ġà¤¸à¤¤à¤¹": 2613,
      "Ġà¤µà¤ļà¤¨": 2614,
      "à¥įà¥ģ": 2615,
      "à¤Łà¤ªà¤Ł": 2616,
      "à¤¨à¤°à¤®": 2617,
      "Ġà¤Łà¤¹à¤°": 2618,
      "à¤Īà¤ļ": 2619,
      "Ġà¤Īà¤¸": 2620,
      "à¤¦à¤¨à¤¹à¤°": 2621,
      "à¤°à¤ªà¤¸": 2622,
      "Ġà¤¬à¤²à¤°": 2623,
      "à¤²à¤¸à¤¹": 2624,
      "Ġà¤ıà¤ķà¤ķ": 2625,
      "à¤ĸà¤¸": 2626,
      "à¤¨à¤ĸ": 2627,
      "à¤īà¤¡à¤®": 2628,
      "à¤ļà¤¥à¤°": 2629,
      "à¤¸à¤²à¤®": 2630,
      "à¤Ĺà¤®à¤¨à¤®": 2631,
      "à¤Īà¤Ń": 2632,
      "à¤¤à¤µà¤Ł": 2633,
      "à¤°à¤®à¤§": 2634,
      "à¥¨à¥¦à¥Ńà¥«": 2635,
      "Ġà¤®à¤ĸ": 2636,
      "à¤Łà¤µà¤²à¤®": 2637,
      "Ġà¤¹à¤Ļà¤ķà¤Ļà¤®": 2638,
      "Ġà¤ħà¤¸à¤¹à¤ľ": 2639,
      "à¤Ńà¤¸": 2640,
      "à¤ĩà¤¨à¤¬": 2641,
      "à¤®à¤Ń": 2642,
      "à¤¯à¤¤à¤¨": 2643,
      "Ġà¤¸à¤¹à¤ķà¤°": 2644,
      "Ġà¤ĵà¤ª": 2645,
      "à¤ļà¤¥": 2646,
      "à¤ªà¤¤à¤ķ": 2647,
      "Ġà¥¨à¥¦à¥¦à¥¬": 2648,
      "à¥ī": 2649,
      "à¤Łà¤¨à¤Ĺà¤°à¤ķ": 2650,
      "à¤§à¤¨à¤¹à¤°": 2651,
      "à¤Ĩà¤ĩà¤ľ": 2652,
      "Ġà¤Ńà¤ľà¤¨": 2653,
      "à¤®à¤²à¤ķ": 2654,
      "Ġà¤²à¤°": 2655,
      "Ġà¤¦à¤¶à¤®à¤²à¤¬": 2656,
      "à¤µà¤°à¤¬": 2657,
      "à¤¯à¤¨à¤®": 2658,
      "Ġà¤Ĺà¤ľà¤²à¤ķ": 2659,
      "à¤¡à¤Ń": 2660,
      "à¤ªà¤µ": 2661,
      "à¤¡à¤ªà¤®": 2662,
      "Ġà¤¨à¤°à¤®": 2663,
      "à¤ĩà¤²à¤Ł": 2664,
      "à¤°à¤ħà¤¨": 2665,
      "Ġà¤ªà¤¥": 2666,
      "à¥Īà¥Ī": 2667,
      "Ġà¤¹à¤Ļà¤ķà¤Ļà¤ķ": 2668,
      "à¤¯à¤²à¤¯": 2669,
      "Ġà¤®à¤¤à¤²à¤¬": 2670,
      "Ġà¤¸à¤¡à¤ķà¤²": 2671,
      "à¤īà¤ļ": 2672,
      "Ġà¤¦à¤°à¤ĸ": 2673,
      "Ġà¤Ńà¤¡": 2674,
      "Ġà¤Ĩà¤¡à¤®": 2675,
      "à¤Ľà¤°": 2676,
      "Ġà¤¨à¤¬à¤¸": 2677,
      "à¤²à¤ªà¤Ľ": 2678,
      "Ġà¥¨à¥¦à¥Ńà¥«à¥Ńà¥¬": 2679,
      "à¤ķà¤°à¤®": 2680,
      "Ġà¤®à¤Ĺà¤°à¤ķ": 2681,
      "à¤·à¤Ńà¤°": 2682,
      "à¤®à¤ĸ": 2683,
      "Ġà¤ĵà¤¢": 2684,
      "à¤µà¤²à¤ķ": 2685,
      "à¤Ĥà¤Ĥ": 2686,
      "à¤¯à¤®à¤¶": 2687,
      "Ġà¤¸à¤ªà¤¥": 2688,
      "Ġà¤®à¤®à¤¤": 2689,
      "à¤°à¤¸à¤²": 2690,
      "Ġà¤¬à¤ĸà¤¤": 2691,
      "à¤¯à¤¸à¤¨": 2692,
      "Ġà¤ıà¤ķà¤ªà¤Ľ": 2693,
      "Ġà¥§à¥§à¥©": 2694,
      "Ġà¤«à¤²à¤¸": 2695,
      "Ġà¤®à¤¹à¤¨": 2696,
      "Ġà¤Ŀà¤²à¤¨": 2697,
      "à¤ħà¤¹": 2698,
      "Ġà¤īà¤Ľ": 2699,
      "à¤ĸà¤¨à¤ķ": 2700,
      "à¤Ĺà¤¬à¤¨": 2701,
      "Ġà¤°à¤¹à¤¦": 2702,
      "à¤°à¤ľà¤¸": 2703,
      "à¤¡à¤¸à¤®": 2704,
      "à¤¶à¤¯": 2705,
      "Ġà¤ĸà¤¤à¤°à¤¨": 2706,
      "à¤¬à¤¹à¤°": 2707,
      "à¤§à¤µà¤ķ": 2708,
      "Ġà¤®à¤Ł": 2709,
      "à¤¯à¤ķà¤¹à¤°": 2710,
      "Ġà¤Ĩà¤ĩà¤«": 2711,
      "Ġà¤Ĺà¤¤à¤µà¤°": 2712,
      "Ġà¤¦à¤¤": 2713,
      "à¤Ĥà¥Ī": 2714,
      "à¤¤à¤µà¤¨à¤²": 2715,
      "à¤Ĺà¤¨à¤®": 2716,
      "à¤ļà¤¹à¤°": 2717,
      "à¤ªà¤°à¤µ": 2718,
      "à¥¨à¥©": 2719,
      "Ġà¤Ńà¤°à¤ª": 2720,
      "à¤°à¤ĺ": 2721,
      "à¤ĩà¤ķà¤²à¤®": 2722,
      "Ġà¤ıà¤«à¤ıà¤®": 2723,
      "à¤®à¤«": 2724,
      "à¤¯à¤°à¤¬": 2725,
      "à¤łà¤ķà¤¬": 2726,
      "à¤ıà¤®à¤ıà¤¸": 2727,
      "Ġà¤Ĩà¤£à¤µ": 2728,
      "Ġà¤Ĳà¤¶": 2729,
      "Ġà¤ıà¤ķà¤°": 2730,
      "à¤ķà¤Ĺ": 2731,
      "Ġà¤ªà¤°à¤¨": 2732,
      "Ġà¤ľà¤¨à¤°à¤²": 2733,
      "Ġà¤¦à¤²à¤¬": 2734,
      "Ġà¤ľà¤¨à¤¨": 2735,
      "Ġà¥¨à¥¦à¥Ńà¥©à¥Ńà¥ª": 2736,
      "à¤¥à¤¨à¤®": 2737,
      "Ġà¤ıà¤ıà¤«": 2738,
      "Ġà¤¡à¤Łà¤ķà¤®": 2739,
      "Ġà¤ľà¤¨à¤¹": 2740,
      "à¤Ĺà¤Ń": 2741,
      "à¤ªà¤ĸ": 2742,
      "Ġà¤°à¤¨à¤²": 2743,
      "Ġà¤¦à¤¶à¤ķà¤¦": 2744,
      "à¤Łà¤µà¤²à¤ķ": 2745,
      "à¤ľà¤Ńà¤£": 2746,
      "Ġà¤¹à¤ķà¤ķ": 2747,
      "à¤ŀà¤¤": 2748,
      "Ġà¥§à¥¯à¥¯à¥¦": 2749,
      "à¤ıà¤Ł": 2750,
      "à¤¶à¤Ńà¤ķ": 2751,
      "à¤ģà¤Ĥ": 2752,
      "à¤ıà¤ľà¤¸": 2753,
      "Ġà¤Ŀà¤Ł": 2754,
      "Ġà¤¯à¤¸à¤µà¤°": 2755,
      "Ġà¤®à¤¨à¤¨": 2756,
      "à¤ľà¤¹": 2757,
      "Ġà¤Ĩà¤ľà¤¬": 2758,
      "Ġà¤¤à¤ªà¤¸": 2759,
      "à¤ķà¤°à¤¹à¤°": 2760,
      "à¤·à¤£à¤¹à¤°": 2761,
      "Ġà¤µà¤°à¤ªà¤°": 2762,
      "à¤¨à¤Ĺà¤°à¤²": 2763,
      "à¤Łà¤Ń": 2764,
      "à¤°à¤¸à¤¨": 2765,
      "à¤ıà¤¤à¤ķ": 2766,
      "Ġà¤¸à¤®à¤¯à¤ħà¤ĺ": 2767,
      "Ġà¤Ĩà¤ĩà¤¨": 2768,
      "Ġà¤īà¤·": 2769,
      "Ġà¤Ľà¤ª": 2770,
      "Ġà¤¸à¤¦à¤¨à¤®": 2771,
      "Ġà¤Ńà¤ıà¤¨à¤¨": 2772,
      "à¤¨à¤µà¤¤": 2773,
      "à¤Ļà¤Ł": 2774,
      "Ġà¤®à¤¤à¤Ń": 2775,
      "Ġà¤ľà¤Ĺà¤¦": 2776,
      "à¤°à¤¬à¤¦": 2777,
      "Ġà¤°à¤¥": 2778,
      "à¤ķà¤²à¤¨à¤ķ": 2779,
      "Ġà¤¯à¤¸à¤ªà¤Ľ": 2780,
      "Ġà¤°à¤Ĺà¤¤à¤ķ": 2781,
      "à¤Īà¤¸à¤ķ": 2782,
      "Ġà¤Ĩà¤Īà¤°à¤¹": 2783,
      "à¤ıà¤Īà¤ķ": 2784,
      "à¤¡à¤Ńà¤¨": 2785,
      "à¤·à¤¤à¤°": 2786,
      "à¤Ńà¤ªà¤¤à¤¨": 2787,
      "Ġà¤ħà¤ľà¤¯": 2788,
      "à¤īà¤ł": 2789,
      "Ġà¤ħà¤ªà¤µ": 2790,
      "à¤²à¤ĸà¤£": 2791,
      "à¤¯à¤¸à¤¤à¤°": 2792,
      "à¤Ĺà¤ļ": 2793,
      "Ġà¤¸à¤¦à¤¨": 2794,
      "Ġà¥ªà¥¦à¥¦": 2795,
      "Ġà¤¸à¤ľà¤Ĺ": 2796,
      "Ġà¥¨à¥¦à¥ªà¥®": 2797,
      "à¥¨à¥ª": 2798,
      "à¤ĸà¤¨à¤®": 2799,
      "Ġà¥¨à¥¦à¥¬à¥¬": 2800,
      "à¤ĸà¤°à¤®": 2801,
      "à¤ľà¤¨à¤¶": 2802,
      "à¤²à¤µà¤ķ": 2803,
      "à¤¸à¤¨à¤¬": 2804,
      "Ġà¤ľà¤¬à¤¸à¤®": 2805,
      "à¤¯à¤ļ": 2806,
      "Ġà¤ĩà¤®à¤°": 2807,
      "Ġà¤¦à¤°à¤ķ": 2808,
      "Ġà¤¡à¤¬à¤²": 2809,
      "Ġà¤ĵà¤Ľ": 2810,
      "Ġà¤Ĺà¤ĩà¤¸à¤ķ": 2811,
      "à¤Īà¤ķà¤²": 2812,
      "à¥¨à¥®": 2813,
      "Ġà¤®à¤¤à¤ķ": 2814,
      "Ġà¤°à¤¨à¤°": 2815,
      "Ġà¤°à¤®à¤£": 2816,
      "Ġà¤ħà¤Ĺà¤·": 2817,
      "à¥¦à¥Ńà¥«": 2818,
      "à¤°à¤®à¤ħà¤¨": 2819,
      "à¤·à¤¦à¤²": 2820,
      "à¤Ńà¤°à¤ķ": 2821,
      "à¥¨à¥¯": 2822,
      "Ġà¤Ŀà¤¡à¤ª": 2823,
      "à¤Ńà¤ļ": 2824,
      "Ġà¤ħà¤µà¤¤": 2825,
      "à¤µà¤¤à¤®": 2826,
      "Ġà¤Ĩà¤ĩà¤ªà¤°": 2827,
      "à¤ģà¥Ī": 2828,
      "à¤®à¤¥": 2829,
      "Ġà¤ıà¤ĺ": 2830,
      "à¤¤à¤¨à¤®": 2831,
      "à¤łà¤ķà¤¹à¤°": 2832,
      "à¤Łà¤°à¤ª": 2833,
      "à¤ľà¤ªà¤¤": 2834,
      "Ġà¤Ķà¤ľ": 2835,
      "à¤¥à¤²à¤¹à¤°": 2836,
      "Ġà¤ħà¤¸à¤«à¤²à¤¤": 2837,
      "à¤¯à¤ªà¤¶": 2838,
      "Ġà¤ĭà¤£à¤ķ": 2839,
      "à¤°à¤ķà¤®": 2840,
      "Ġà¤ħà¤²à¤®à¤²": 2841,
      "à¤ĩà¤Ļ": 2842,
      "à¤Ĥà¤ģ": 2843,
      "à¤¡à¤°à¤ķ": 2844,
      "Ġà¤¯à¤¶": 2845,
      "Ġà¤Ĺà¤¸": 2846,
      "Ġà¤ªà¤µà¤¨": 2847,
      "à¤¹à¤Ł": 2848,
      "à¤ļà¤µà¤Ł": 2849,
      "à¤Ńà¤¬": 2850,
      "à¤°à¤µà¤¹à¤¨": 2851,
      "à¤µà¤¸à¤¹": 2852,
      "à¤Łà¤¨à¤²": 2853,
      "Ġà¤§à¤®à¤²": 2854,
      "Ġà¤īà¤ªà¤²": 2855,
      "à¤ĸà¤¬à¤°": 2856,
      "à¤¨à¤¤à¤°": 2857,
      "Ġà¤¸à¤¹à¤ª": 2858,
      "Ġà¤¸à¤®à¤¤": 2859,
      "à¤¾à¥Īà¤ģ": 2860,
      "à¤ļà¤Ĺ": 2861,
      "Ġà¤¨à¤Ńà¤ĩ": 2862,
      "à¤¨à¤¨à¤Ĺà¤°": 2863,
      "à¤Łà¤ķà¤®": 2864,
      "à¤ıà¤²à¤ķ": 2865,
      "à¤Ńà¤ķà¤°": 2866,
      "Ġà¤¸à¤®à¤ķà¤ķ": 2867,
      "à¤ħà¤ķ": 2868,
      "à¥ªà¥¦": 2869,
      "à¤ļà¤¨à¤ªà¤Ľ": 2870,
      "à¥¨à¥§": 2871,
      "à¤¨à¤Ł": 2872,
      "à¤Łà¤°à¤Ł": 2873,
      "Ġà¤ĺà¤¨à¤¶": 2874,
      "à¤¦à¤ķà¤¤": 2875,
      "Ġà¤¤à¤²à¤ķ": 2876,
      "à¤ļà¤¨à¤¬": 2877,
      "Ġà¤ĵà¤¡": 2878,
      "à¤ķà¤Łà¤²": 2879,
      "à¤¶à¤°à¤£": 2880,
      "Ġà¤¸à¤¡à¤ķà¤¬": 2881,
      "à¤¡à¤¹": 2882,
      "Ġà¤ħà¤ªà¤¡": 2883,
      "à¤Łà¤²à¤²": 2884,
      "à¥Ńà¥§": 2885,
      "Ġà¤µà¤¨à¤®": 2886,
      "Ġà¤ıà¤¯à¤°à¤ķ": 2887,
      "Ġà¤ļà¤®à¤¤": 2888,
      "Ġà¤Ĺà¤¥": 2889,
      "à¤Ĺà¤¦à¤°": 2890,
      "à¤ıà¤¨à¤ķ": 2891,
      "à¤®à¤¤à¤²": 2892,
      "à¤µà¤°à¤¸": 2893,
      "Ġà¤¬à¤¹à¤°": 2894,
      "à¤Īà¤¯": 2895,
      "Ġà¤Ŀà¤®": 2896,
      "Ġà¤Ĩà¤īà¤Ľ": 2897,
      "Ġà¤¸à¤¯à¤ķ": 2898,
      "Ġà¤¨à¤Ĺà¤°à¤¸à¤Ń": 2899,
      "Ġà¤ķà¤Ńà¤°": 2900,
      "Ġà¤¤à¤µà¤°à¤²": 2901,
      "Ġà¤²à¤ļ": 2902,
      "Ġà¤¡à¤¨": 2903,
      "Ġà¤¥à¤ªà¤²": 2904,
      "à¤°à¤ķà¤°à¤£": 2905,
      "à¤²à¤µà¤²": 2906,
      "à¤¯à¤²à¤®": 2907,
      "à¤¯à¤Ńà¤¨": 2908,
      "Ġà¤ħà¤ªà¤²": 2909,
      "à¤°à¤Ĩà¤®": 2910,
      "à¤ĩà¤ıà¤ªà¤Ľ": 2911,
      "à¤²à¤°à¤ķ": 2912,
      "à¤²à¤ľà¤¸": 2913,
      "à¤Łà¤ļ": 2914,
      "à¥¨à¥¨": 2915,
      "à¤Ĩà¤ĩ": 2916,
      "à¥ªà¥«": 2917,
      "à¥ĩà¥ĩ": 2918,
      "à¤ĩà¤°à¤¸": 2919,
      "à¥ĭà¤ģ": 2920,
      "à¤°à¤ķà¤ķ": 2921,
      "à¤¯à¤®à¤¯": 2922,
      "Ġà¤¡à¤¢": 2923,
      "à¤¬à¤¡": 2924,
      "à¤°à¤ħ": 2925,
      "à¤¯à¤²à¤²": 2926,
      "Ġà¤¯à¤®à¤ª": 2927,
      "Ġà¤Ĩà¤ĩà¤¡": 2928,
      "à¤¸à¤¯": 2929,
      "à¤µà¤®à¤¨": 2930,
      "Ġà¤ħà¤®à¤²": 2931,
      "Ġà¤Ĩà¤µà¤¸": 2932,
      "Ġà¤²à¤¬": 2933,
      "à¤ĩà¤ªà¤²": 2934,
      "Ġà¤¯à¤¸à¤¸": 2935,
      "à¤¡à¤ķà¤ª": 2936,
      "Ġà¤Ĺà¤¡": 2937,
      "Ġà¤īà¤¦à¤ĺ": 2938,
      "à¤°à¤®à¤ľ": 2939,
      "à¤¯à¤ħà¤¨": 2940,
      "à¤ľà¤¸à¤®": 2941,
      "à¤ľà¤¨à¤¤": 2942,
      "à¤¯à¤¦à¤²à¤ķ": 2943,
      "à¤ĩà¤Ńà¤°": 2944,
      "à¤¯à¤¨à¤¹à¤°": 2945,
      "à¤·à¤£à¤¬": 2946,
      "à¤¤à¤ªà¤¤": 2947,
      "à¤¸à¤«à¤°": 2948,
      "à¤ıà¤¸à¤ķ": 2949,
      "Ġà¤Ĩà¤Īà¤ľ": 2950,
      "Ġà¤«à¤£": 2951,
      "à¤Ĭà¤¨": 2952,
      "à¤ĸà¤ķà¤ķ": 2953,
      "à¤¨à¤¬à¤®": 2954,
      "Ġà¥§à¥¯à¥¯à¥®": 2955,
      "à¤¶à¤®à¤¶": 2956,
      "à¤²à¤¬à¤°": 2957,
      "Ġà¤Ļ": 2958,
      "Ġà¤ķà¤°à¤¦": 2959,
      "Ġà¤Ĩà¤ļà¤°à¤£": 2960,
      "à¤¬à¤°à¤²": 2961,
      "Ġà¤¨à¤µà¤ľ": 2962,
      "Ġà¥¦à¥Ńà¥©": 2963,
      "à¤īà¤¸à¤®": 2964,
      "à¤Ĺà¤łà¤¨à¤®": 2965,
      "à¤¯à¤¸à¤µ": 2966,
      "Ġà¤Ĳà¤°": 2967,
      "Ġà¥¨à¥¦à¥«à¥®": 2968,
      "à¤°à¤ļà¤¢": 2969,
      "à¥¨à¥¦à¥¬": 2970,
      "Ġà¥¨à¥¦à¥¬à¥Ń": 2971,
      "à¤ĩà¤Ĺ": 2972,
      "à¤Ńà¤°à¤ª": 2973,
      "Ġà¥¨à¥¦à¥¦à¥ª": 2974,
      "à¥¨à¥Ń": 2975,
      "Ġà¤Ĩà¤ĩà¤ıà¤®à¤Ī": 2976,
      "Ġà¤ıà¤«à¤ı": 2977,
      "Ġà¤Īà¤¤": 2978,
      "à¤¦à¤²à¤²": 2979,
      "à¤¤à¤°à¤¸à¤®": 2980,
      "Ġà¤Ĩà¤ĩà¤ľ": 2981,
      "Ġà¤ľà¤ª": 2982,
      "Ġà¥¦à¥©": 2983,
      "Ġà¤ħà¤¹à¤®": 2984,
      "à¤¸à¤µà¤°": 2985,
      "à¤µà¤²à¤¨": 2986,
      "à¤ĩà¤Łà¤ķ": 2987,
      "Ġà¤īà¤ªà¤ľ": 2988,
      "à¤Łà¤ªà¤Ľ": 2989,
      "à¤§à¤°à¤ķ": 2990,
      "Ġà¤Ĺà¤Ļ": 2991,
      "Ġà¤ıà¤¸à¤ıà¤®à¤ıà¤¸": 2992,
      "à¤µà¤°à¤¹à¤°": 2993,
      "à¤µà¤¤à¤²": 2994,
      "à¤®à¤Ĺà¤°à¤²": 2995,
      "à¤²à¤¨à¤°à¤¤": 2996,
      "Ġà¥§à¥¯à¥«à¥¦": 2997,
      "à¤µà¤°à¤£à¤²": 2998,
      "Ġà¤°à¤ķà¤®à¤²": 2999,
      "à¤¬à¤²à¤®": 3000,
      "Ġà¤Łà¤®": 3001,
      "Ġà¤¬à¤²à¤ķ": 3002,
      "Ġà¤Ńà¤ĩà¤¦": 3003,
      "à¤¤à¤¹à¤¤à¤®": 3004,
      "à¤ªà¤°à¤¸": 3005,
      "Ġà¤Ĩà¤µà¤§": 3006,
      "à¤¨à¤ľà¤¸": 3007,
      "à¤Ļà¤ľ": 3008,
      "Ġà¤ĩà¤·": 3009,
      "à¤¯à¤°à¤¹à¤°": 3010,
      "à¤ļà¤¦": 3011,
      "Ġà¤¯à¤¸à¤ªà¤Łà¤ķà¤ķ": 3012,
      "Ġà¤¨à¤°à¤¹à¤¨": 3013,
      "Ġà¤¯à¤®à¤ªà¤ŀ": 3014,
      "Ġà¤¶à¤®à¤¶": 3015,
      "Ġà¥¦à¥¦": 3016,
      "à¤µà¤¯à¤ķ": 3017,
      "Ġà¤®à¤²à¤®": 3018,
      "Ġà¤Īà¤ª": 3019,
      "Ġà¤ħà¤ĸà¤¬": 3020,
      "à¤ıà¤²à¤Ĺà¤¤": 3021,
      "à¤Ĩà¤§": 3022,
      "Ġà¥¦à¥Ńà¥«": 3023,
      "à¤¹à¤ľà¤¨à¤ķ": 3024,
      "à¤¯à¤¸à¤¯à¤¤": 3025,
      "à¤·à¤ľà¤¨à¤ķ": 3026,
      "à¤ļà¤²à¤®": 3027,
      "à¤Łà¤²à¤¹à¤°": 3028,
      "Ġà¥Ĳ": 3029,
      "à¤·à¤µ": 3030,
      "à¤Ńà¤µà¤²": 3031,
      "à¥ģà¤¾": 3032,
      "à¤īà¤¹": 3033,
      "Ġà¤ıà¤¨à¤ľ": 3034,
      "à¥Ģà¥ĩ": 3035,
      "Ġà¥¦à¥Ńà¥¨": 3036,
      "à¤ªà¤ķà¤²": 3037,
      "à¤°à¤¬à¤²": 3038,
      "Ġà¥¨à¥«à¥¦": 3039,
      "à¤¥à¤ķà¤¤": 3040,
      "à¤ľà¤¨à¤Ńà¤¨": 3041,
      "à¤Łà¤°à¤¸à¤®": 3042,
      "à¤·à¤§à¤°": 3043,
      "à¤ıà¤Īà¤®": 3044,
      "Ġà¤¸à¤¹à¤¸": 3045,
      "à¤¸à¤°à¤²": 3046,
      "à¤¹à¤¯": 3047,
      "à¤łà¤¤": 3048,
      "à¤ħà¤¬": 3049,
      "à¤°à¤µà¤²": 3050,
      "Ġà¤¸à¤¦à¤Ń": 3051,
      "à¤¹à¤¤à¤ķ": 3052,
      "à¤¥à¤²à¤²": 3053,
      "Ġà¤¨à¤īà¤ł": 3054,
      "Ġà¤ıà¤¨à¤ı": 3055,
      "Ġà¤ħà¤¬à¤°": 3056,
      "Ġà¤¤à¤¹à¤¹à¤°": 3057,
      "à¤¹à¤²à¤ªà¤¹à¤²": 3058,
      "Ġà¤¸à¤¦à¤°": 3059,
      "à¤¦à¤ķà¤²": 3060,
      "Ġà¤ļà¤¹à¤²à¤ªà¤¹à¤²": 3061,
      "à¤¢à¤¤": 3062,
      "Ġà¤īà¤ªà¤§": 3063,
      "à¤Īà¤«": 3064,
      "à¤¡à¤¡": 3065,
      "à¤ĩà¤ķà¤°": 3066,
      "à¤Ļà¤¹à¤°": 3067,
      "Ġà¤īà¤ªà¤¦à¤«": 3068,
      "à¤µà¤ħà¤§": 3069,
      "Ġà¤Ĩà¤Ĺà¤¨": 3070,
      "Ġà¥¨à¥¦à¥¬à¥¨": 3071,
      "à¤¯à¤ľà¤¸": 3072,
      "à¤¬à¤°à¤£": 3073,
      "à¤ķà¤¨à¤®": 3074,
      "Ġà¤Ĩà¤¯à¤Ĩà¤°": 3075,
      "Ġà¤Ĩà¤ĩà¤²": 3076,
      "à¤¯à¤Ĺ": 3077,
      "Ġà¤Ľà¤Łà¤ªà¤Ł": 3078,
      "à¤łà¤¹à¤°": 3079,
      "à¤®à¤¸à¤¤": 3080,
      "à¤ķà¤°à¤¬": 3081,
      "Ġà¤ľà¤¨à¤Ĺà¤£à¤¨": 3082,
      "Ġà¤ªà¤¹à¤°": 3083,
      "Ġà¤ħà¤¶à¤ķ": 3084,
      "Ġà¤¦à¤²à¤®": 3085,
      "Ġà¤¬à¤¹à¤¨": 3086,
      "Ġà¤Ĩà¤®à¤°à¤£": 3087,
      "à¤¤à¤°à¤¹": 3088,
      "Ġà¤°à¤ķà¤®à¤®": 3089,
      "Ġà¥§à¥§à¥¦": 3090,
      "à¤ĩà¤ķà¤²à¤ķ": 3091,
      "à¤®à¤°à¤¤": 3092,
      "à¤ľà¤¨à¤¬": 3093,
      "Ġà¤·à¤¡à¤¯à¤¨": 3094,
      "Ġà¥¨à¥¦à¥¦à¥¦": 3095,
      "Ġà¤īà¤¨à¤®": 3096,
      "à¤¤à¤¹à¤Łà¤ķ": 3097,
      "à¤¯à¤¤à¤¬": 3098,
      "à¤¸à¤ŀ": 3099,
      "Ġà¤ĺà¤°à¤²": 3100,
      "à¤²à¤¤à¤°": 3101,
      "Ġà¤²à¤ĸà¤¨": 3102,
      "à¤¨à¤§": 3103,
      "à¤ŀà¤²": 3104,
      "à¤ıà¤¸à¤¬": 3105,
      "Ġà¤łà¤Ł": 3106,
      "Ġà¤¬à¤ĸ": 3107,
      "à¤¹à¤¨à¤ķ": 3108,
      "Ġà¤¯à¤®à¤°": 3109,
      "Ġà¤¶à¤¤à¤ª": 3110,
      "Ġà¤ĸà¤¡à¤ķ": 3111,
      "à¥¬à¥¦": 3112,
      "à¤¦à¤¦à¤°": 3113,
      "à¤Ĩà¤Īà¤¸": 3114,
      "à¤¸à¤¸à¤¹": 3115,
      "à¤¨à¤²à¤®": 3116,
      "à¤°à¤¹à¤²": 3117,
      "Ġà¤¨à¤µà¤²à¤ª": 3118,
      "à¤¨à¤ªà¤¤": 3119,
      "à¤²à¤Ńà¤°": 3120,
      "à¤¥à¤ķà¤¹à¤°": 3121,
      "à¤ĩà¤Łà¤²": 3122,
      "Ġà¤ľà¤¸à¤ħà¤¨": 3123,
      "à¤®à¤¶à¤°à¤£": 3124,
      "Ġà¤¤à¤²à¤®": 3125,
      "à¤¨à¤µà¤²": 3126,
      "Ġà¤ľà¤²à¤®": 3127,
      "Ġà¤Ĩà¤Ĺà¤ľà¤¨": 3128,
      "Ġà¤¸à¤¤à¤¹à¤®": 3129,
      "à¤ªà¤²à¤ķ": 3130,
      "à¤Ńà¤µà¤ķ": 3131,
      "Ġà¤ħà¤µà¤¸à¤°à¤¹à¤°": 3132,
      "Ġà¤¤à¤²à¤µ": 3133,
      "à¤ľà¤ķà¤¹à¤°": 3134,
      "Ġà¤ªà¤ķà¤¡": 3135,
      "Ġà¤ªà¤°à¤®à¤ª": 3136,
      "à¤¦à¤¹": 3137,
      "à¤¬à¤Īà¤®": 3138,
      "Ġà¤ıà¤ķà¤¤à¤°": 3139,
      "Ġà¤ķà¤ªà¤ķ": 3140,
      "à¤°à¤ªà¤¥": 3141,
      "Ġà¤¶à¤¹à¤°à¤¹à¤°": 3142,
      "à¤ļà¤¥à¤°à¤ķ": 3143,
      "Ġà¥¨à¥¦à¥«à¥¯": 3144,
      "à¤«à¤¸": 3145,
      "à¤Ĺà¤°à¤²": 3146,
      "à¤µà¤Ńà¤°à¤ķ": 3147,
      "Ġà¤«à¤Ł": 3148,
      "à¤ªà¤°à¤²": 3149,
      "à¤ľà¤®à¤£": 3150,
      "Ġà¤¦à¤¶à¤°à¤¥": 3151,
      "Ġà¤¸à¤¨à¤®": 3152,
      "à¤ªà¤Łà¤ª": 3153,
      "Ġà¤Ĺà¤¡à¤¬": 3154,
      "Ġà¤ľà¤Ĺà¤¤à¤®": 3155,
      "à¥¨à¥¦à¥Ńà¥©": 3156,
      "à¤ķà¤¸à¤¹": 3157,
      "Ġà¤°à¤£à¤µ": 3158,
      "Ġà¤¨à¤ľà¤°à¤®": 3159,
      "à¤¨à¤Ĺà¤°à¤®": 3160,
      "Ġà¤ħà¤¢": 3161,
      "Ġà¤µà¤°à¤ªà¤°à¤ķ": 3162,
      "Ġà¤¤à¤Łà¤¬à¤¨": 3163,
      "à¤ªà¤ķà¤ķ": 3164,
      "Ġà¤°à¤Ĺà¤¤à¤®": 3165,
      "à¤¬à¤¬": 3166,
      "à¤¥à¤¯": 3167,
      "Ġ+": 3168,
      "à¤ªà¤°à¤®": 3169,
      "Ġà¤¸à¤®à¤²": 3170,
      "à¤µà¤¨à¤¯": 3171,
      "Ġà¤ıà¤Ĺ": 3172,
      "à¤¨à¤¢": 3173,
      "Ġà¤¦à¤°à¤µ": 3174,
      "à¤ªà¤¢": 3175,
      "Ġà¤īà¤«": 3176,
      "Ġà¤ľà¤¯à¤ª": 3177,
      "à¤īà¤ªà¤°": 3178,
      "à¤ĵà¤®": 3179,
      "Ġà¤¸à¤¡à¤ķà¤¹à¤°": 3180,
      "Ġà¤Ĩà¤īà¤²": 3181,
      "à¤Ļà¤µ": 3182,
      "à¤ĵà¤Ł": 3183,
      "Ġà¤¹à¤ķà¤¹": 3184,
      "Ġà¥¨à¥¦à¥ªà¥Ń": 3185,
      "à¤ıà¤¬": 3186,
      "Ġà¤¬à¤¢à¤¨": 3187,
      "Ġà¤¨à¤ķà¤Ĩà¤īà¤Ł": 3188,
      "à¤ľà¤ķà¤®": 3189,
      "Ġà¤īà¤ªà¤ķà¤°à¤£à¤¹à¤°": 3190,
      "Ġà¤¥à¤®": 3191,
      "Ġà¤®à¤²à¤ķ": 3192,
      "Ġà¤®à¤¦à¤¤": 3193,
      "Ġà¤Ĺà¤°à¤ķ": 3194,
      "à¤¹à¤°à¤ķ": 3195,
      "Ġà¤łà¤¡": 3196,
      "à¤Ĺà¤¯": 3197,
      "Ġà¤¯à¤¸à¤¤à¤°": 3198,
      "Ġà¤®à¤¨à¤¹à¤°": 3199,
      "Ġà¤Īà¤ļ": 3200,
      "Ġà¤µà¤¯à¤¸": 3201,
      "Ġà¤¬à¤²à¤²": 3202,
      "Ġà¤ľà¤ĺà¤¨": 3203,
      "à¤Ĺà¤®à¤¨à¤²": 3204,
      "à¤«à¤¨": 3205,
      "à¤°à¤ļà¤²à¤¨à¤®": 3206,
      "à¤¡à¤°à¤®": 3207,
      "Ġà¤Ńà¤ıà¤¦": 3208,
      "à¤°à¤¸à¤¸": 3209,
      "à¤µà¤¨à¤Ńà¤°": 3210,
      "à¤ľà¤Ĺà¤ŀ": 3211,
      "à¤µà¤ªà¤Ľ": 3212,
      "à¥¦à¥¦à¥¦": 3213,
      "à¥®à¥¦": 3214,
      "Ġà¤Ĩà¤ĩà¤°à¤¹à¤¨": 3215,
      "Ġà¤Ŀà¤¸": 3216,
      "à¤§à¤¯": 3217,
      "Ġà¤Īà¤ķ": 3218,
      "à¤¬à¤§": 3219,
      "à¤ıà¤¸à¤ľ": 3220,
      "Ġà¤ĸà¤¬à¤°à¤¦": 3221,
      "à¤¶à¤ļà¤¨": 3222,
      "à¤Ĺà¤«": 3223,
      "Ġà¤¬à¤¹à¤¸à¤ķ": 3224,
      "Ġà¤°à¤ķà¤®à¤¬": 3225,
      "Ġà¥¨à¥¦à¥«à¥¨": 3226,
      "Ġà¤ĵà¤®à¤ª": 3227,
      "à¤¦à¤ķà¤¹à¤°": 3228,
      "à¥ĩà¤¾": 3229,
      "Ġà¤¹à¤ļ": 3230,
      "Ġà¤®à¤¹à¤µ": 3231,
      "Ġà¤Ĩà¤²à¤®": 3232,
      "à¤¦à¤²à¤ķ": 3233,
      "Ġà¤ľà¤Ĺà¤®": 3234,
      "à¤Ĺà¤ľà¤ªà¤¤": 3235,
      "à¤¯à¤ªà¤°": 3236,
      "à¥¨à¥¦à¥Ńà¥ª": 3237,
      "à¤¨à¤¯à¤®": 3238,
      "Ġà¤ªà¤¤à¤¨": 3239,
      "Ġà¥¨à¥¦à¥¬à¥§": 3240,
      "à¤¨à¤°à¤²": 3241,
      "à¤Ĩà¤Īà¤¬": 3242,
      "Ġà¤Ľà¤¦": 3243,
      "Ġà¤¨à¤Ĺà¤°à¤µ": 3244,
      "Ġà¥ģ": 3245,
      "à¤Łà¤¡": 3246,
      "Ġà¤Ĩà¤ľà¤ķà¤²": 3247,
      "à¤¤à¤ĸ": 3248,
      "à¤¯à¤ªà¤¹": 3249,
      "à¤¦à¤¶à¤®": 3250,
      "Ġà¥¨à¥¦à¥¦à¥«": 3251,
      "Ġà¤¹à¤¡à¤¤": 3252,
      "à¤¯à¤£à¤Ĺà¤¢à¤®": 3253,
      "Ġà¤ªà¤¦à¤ª": 3254,
      "Ġà¤ħà¤µà¤Ĺà¤¤": 3255,
      "à¤¨à¤ľà¤¨à¤ķ": 3256,
      "à¤¤à¤¨à¤ª": 3257,
      "Ġà¤¦à¤¶à¤ķà¤ķ": 3258,
      "Ġà¤°à¤ľà¤¨": 3259,
      "Ġà¤ıà¤ļà¤ķ": 3260,
      "à¤ħà¤«": 3261,
      "à¤Łà¤¸à¤²": 3262,
      "Ġà¤Ĩà¤ĩà¤Ł": 3263,
      "Ġà¤ªà¤¸à¤²à¤¹à¤°": 3264,
      "à¤Ĺà¤ªà¤¤": 3265,
      "Ġà¤¿": 3266,
      "à¤ļà¤°à¤£": 3267,
      "Ġà¤Ĳà¤ķ": 3268,
      "à¤¯à¤ľà¤¨à¤ķ": 3269,
      "Ġà¤ıà¤¸à¤Ī": 3270,
      "à¤²à¤¬à¤ļ": 3271,
      "à¤£à¤¯à¤¬": 3272,
      "Ġà¥¨à¥¦à¥¬à¥¦": 3273,
      "Ġà¤¨à¤°à¤¸": 3274,
      "à¤ķà¤Łà¤¤": 3275,
      "à¤®à¤Ĺà¤ł": 3276,
      "Ġà¤¤à¤¬à¤¸à¤®": 3277,
      "Ġà¥¨à¥¦à¥¦à¥©": 3278,
      "à¤ıà¤¶": 3279,
      "Ġà¤ļà¤£": 3280,
      "Ġà¤¸à¤¹à¤ļ": 3281,
      "à¤¯à¤¸à¤Ńà¤¨": 3282,
      "à¤¤à¤Ĺ": 3283,
      "à¤µà¤¨à¤¬": 3284,
      "à¤®à¤ľà¤¯à¤¨": 3285,
      "à¤ľà¤¬à¤¹": 3286,
      "à¤¦à¤¯à¤ĺ": 3287,
      "Ġà¥¨à¥¦à¥©à¥¦": 3288,
      "à¤¦à¤¬à¤¹": 3289,
      "à¤¾à¤¿": 3290,
      "à¤¡à¤°à¤²": 3291,
      "à¤²à¤¬à¤¸": 3292,
      "Ġà¤ķà¤¸à¤°à¤¤": 3293,
      "Ġà¤¸à¤ķà¤°": 3294,
      "à¤²à¤Ńà¤¨": 3295,
      "Ġà¥¨à¥¦à¥Ńà¥ªà¥¦à¥Ńà¥«": 3296,
      "Ġà¤¹à¤µà¤²": 3297,
      "à¤®à¤ķà¤°": 3298,
      "Ġà¤«à¤²à¤¦": 3299,
      "à¤¸à¤ľ": 3300,
      "à¤ıà¤Ľà¤¨": 3301,
      "à¤ªà¤¸à¤²": 3302,
      "à¤Ĺà¤ľà¤®": 3303,
      "Ġà¤Ľà¤¡": 3304,
      "Ġà¤ħà¤°à¤¨": 3305,
      "Ġà¤Ĺà¤¡à¤¬à¤¡": 3306,
      "à¤łà¤¶": 3307,
      "Ġà¥¨à¥¦à¥¦à¥¨": 3308,
      "Ġà¤®à¤¤à¤ª": 3309,
      "Ġà¤ĸà¤ļ": 3310,
      "Ġà¥¨à¥¦à¥¨à¥¨": 3311,
      "à¤°à¤®à¤¦": 3312,
      "à¤ĺà¤£": 3313,
      "à¤°à¤¸à¤°à¤¤": 3314,
      "à¤·à¤¨": 3315,
      "Ġà¤¤à¤¦": 3316,
      "Ġà¤Ĩà¤ıà¤®": 3317,
      "Ġà¤¬à¤¸à¤²": 3318,
      "Ġà¤Ĺà¤£à¤¤": 3319,
      "à¤Īà¤ªà¤Łà¤ķ": 3320,
      "à¤®à¤ķà¤¥": 3321,
      "Ġà¤ĺà¤°à¤§à¤¨": 3322,
      "à¤ķà¤ŀ": 3323,
      "à¤¡à¤ħà¤¨": 3324,
      "à¤²à¤«": 3325,
      "Ġà¤§à¤¨à¤¬à¤¹": 3326,
      "à¤¸à¤¡": 3327,
      "à¤¨à¤®à¤§": 3328,
      "à¤®à¤¥à¤²": 3329,
      "à¤ļà¤¤à¤®": 3330,
      "à¤ıà¤¸à¤¨à¤ķ": 3331,
      "à¤°à¤¡": 3332,
      "à¤¹à¤²à¤®": 3333,
      "Ġà¤ªà¤¦à¤¸": 3334,
      "à¤ķà¤®à¤ľ": 3335,
      "Ġà¤Ķà¤§": 3336,
      "Ġà¤ħà¤ªà¤¹à¤°à¤£à¤ķ": 3337,
      "Ġà¤ªà¤Łà¤ķà¤¸à¤®": 3338,
      "à¤ļà¤²à¤¨": 3339,
      "Ġà¤§à¤¨à¤®": 3340,
      "Ġà¥¨à¥¦à¥«à¥§": 3341,
      "Ġà¥¨à¥¦à¥«à¥¬": 3342,
      "à¤ķà¤²à¤®": 3343,
      "à¤¦à¤°à¤ķ": 3344,
      "à¤°à¤¤à¤¤": 3345,
      "Ġà¥¬à¥¦à¥¦": 3346,
      "Ġà¤¹à¤¨à¤¨": 3347,
      "à¤ľà¤¦à¤°à¤®": 3348,
      "à¤ķà¤Łà¤¤à¤®": 3349,
      "à¥¨à¥¦à¥§à¥®": 3350,
      "à¤¸à¤°à¤¬": 3351,
      "Ġà¤§à¤¨à¤°": 3352,
      "à¤¯à¤£à¤ª": 3353,
      "à¤Ĺà¤®à¤ŀ": 3354,
      "Ġà¤¯à¤°": 3355,
      "Ġà¤ļà¤ķà¤²": 3356,
      "Ġà¤ĺà¤Łà¤¸": 3357,
      "à¤µà¤ĺ": 3358,
      "Ġà¤¨à¤Ļ": 3359,
      "Ġà¤ħà¤¸à¤¹à¤¯": 3360,
      "Ġà¤¸à¤®à¤µ": 3361,
      "Ġà¤¡à¤£": 3362,
      "à¤°à¤µà¤ļà¤¨": 3363,
      "à¤ļà¤ķà¤ķ": 3364,
      "Ġà¤¦à¤²à¤¸": 3365,
      "Ġà¥§à¥¯à¥©": 3366,
      "Ġà¥§à¥¨à¥¦": 3367,
      "Ġà¥¨à¥¦à¥Ńà¥©à¥¦": 3368,
      "à¤ķà¤ľà¤¸": 3369,
      "Ġà¤ªà¤Ļ": 3370,
      "à¤¡à¤ľ": 3371,
      "Ġà¤¸à¤ĺà¤¨": 3372,
      "à¤Ĺà¤¹à¤¨": 3373,
      "à¤§à¤¨à¤Ĺà¤¢": 3374,
      "Ġà¥¨à¥¦à¥«à¥ª": 3375,
      "Ġà¤¬à¤¹à¤¸à¤®": 3376,
      "à¤ĩà¤¨à¤²à¤ķ": 3377,
      "à¤µà¤°à¤¤": 3378,
      "à¤²à¤¯à¤ħà¤¨": 3379,
      "Ġà¤Ĩà¤¶à¤Ļ": 3380,
      "Ġà¤ķà¤®à¤¸": 3381,
      "à¥Ģà¤ĥ": 3382,
      "Ġà¤¸à¤°à¤¦à¤°": 3383,
      "Ġà¤ħà¤¸à¤ķ": 3384,
      "à¤ļà¤°à¤ķ": 3385,
      "à¤īà¤¸à¤ķ": 3386,
      "Ġà¤ļà¤¹": 3387,
      "Ġà¤ħà¤¬à¤¸à¤°à¤®": 3388,
      "à¤¤à¤²à¤®": 3389,
      "à¤¶à¤²à¤¤": 3390,
      "Ġà¤²à¤µ": 3391,
      "Ġà¤²à¤Ĺà¤¨à¤¶": 3392,
      "Ġà¤ªà¤¹à¤²à¤ķ": 3393,
      "à¤¹à¤°à¤²": 3394,
      "à¤ľà¤¨à¤ķà¤ª": 3395,
      "Ġà¤®à¤ĸà¤®à¤²": 3396,
      "à¤²à¤ħà¤¨": 3397,
      "à¤ĩà¤¨à¤°": 3398,
      "à¤®à¤ķà¤°à¤£": 3399,
      "Ġà¤ıà¤ıà¤«à¤¸": 3400,
      "à¤¨à¤«": 3401,
      "à¤īà¤¨à¤¦": 3402,
      "à¤¤à¤¨à¤Ĺà¤°": 3403,
      "à¤¶à¤ķà¤®": 3404,
      "à¤ĸà¤ķà¤¹à¤°": 3405,
      "Ġà¤¸à¤¶": 3406,
      "Ġà¤Ľà¤Ł": 3407,
      "Ġà¥¨à¥¦à¥«à¥¦": 3408,
      "Ġà¤¨à¤Ĩà¤ī": 3409,
      "à¤²à¤°à¤®": 3410,
      "à¤¸à¤¸à¤²": 3411,
      "Ġà¤²à¤ł": 3412,
      "à¤Ĺà¤¨à¤ķ": 3413,
      "Ġà¥¨à¥¦à¥ªà¥¯": 3414,
      "à¤¬à¤¤à¤ķ": 3415,
      "à¤Īà¤ĺ": 3416,
      "Ġà¤Ńà¤ıà¤²à¤Ĺà¤¤": 3417,
      "Ġà¤ķà¤¥à¤¨": 3418,
      "à¤ķà¤²à¤ķ": 3419,
      "à¤īà¤¤à¤ķ": 3420,
      "Ġà¤ĸà¤¬à¤°à¤²": 3421,
      "à¤ħà¤²à¤Ĺ": 3422,
      "à¤¨à¤°à¤ķ": 3423,
      "à¤ªà¤ŀ": 3424,
      "à¤ªà¤²à¤²": 3425,
      "à¤ļà¤°à¤²": 3426,
      "à¤Ľà¤µ": 3427,
      "Ġà¤ıà¤ħ": 3428,
      "Ġà¤Ĺà¤°à¤Ĺà¤¹à¤¨": 3429,
      "Ġà¤Ĩà¤¯à¤°à¤²": 3430,
      "Ġà¤¹à¤Ļà¤ķà¤Ļà¤²": 3431,
      "à¥įà¥Ĥ": 3432,
      "à¤¹à¤£à¤ķ": 3433,
      "à¤¨à¤²à¤ķ": 3434,
      "à¤¯à¤¤à¤¥": 3435,
      "à¤Łà¤®à¤ķ": 3436,
      "à¤Ľà¤¤": 3437,
      "à¤ľà¤Ļ": 3438,
      "Ġà¤Ńà¤ıà¤ľà¤¸": 3439,
      "Ġà¤Ĩà¤ªà¤¤à¤ķ": 3440,
      "à¥ľ": 3441,
      "à¤ıà¤ħà¤¨": 3442,
      "à¤Ĺà¤²à¤¸": 3443,
      "à¤ķà¤«": 3444,
      "à¤¸à¤ªà¤Ľ": 3445,
      "à¤¦à¤ķà¤ķ": 3446,
      "à¤Łà¤¹": 3447,
      "à¤²à¤ķà¤®": 3448,
      "Ġà¤Ĩà¤¬à¤¶": 3449,
      "Ġà¤ªà¤Łà¤¨": 3450,
      "Ġà¤ıà¤ķà¤ļ": 3451,
      "Ġà¤¸à¤¨à¤°": 3452,
      "Ġà¤ªà¤°à¤¸": 3453,
      "à¤¸à¤®à¤¨": 3454,
      "Ġà¤¨à¤Ĺà¤°à¤®": 3455,
      "Ġà¤¨à¤Ńà¤ıà¤ªà¤¨": 3456,
      "à¤Ĺà¤¤à¤¦": 3457,
      "à¤®à¤Ĺà¤łà¤¬à¤¨": 3458,
      "à¤²à¤Ŀ": 3459,
      "Ġà¤®à¤¦à¤°": 3460,
      "à¤¯à¤¤à¤°": 3461,
      "à¤ıà¤ļà¤¡": 3462,
      "à¤ļà¤ľà¤¨": 3463,
      "Ġà¤ķà¤¹à¤²": 3464,
      "à¤Ŀà¤¬": 3465,
      "à¤²à¤¨à¤ª": 3466,
      "à¤¨à¤µà¤°": 3467,
      "à¤Ĺà¤¤à¤°": 3468,
      "Ġà¤¦à¤¯à¤¨": 3469,
      "Ġà¥®à¥¦à¥¦": 3470,
      "Ġà¤ħà¤²à¤Ĺà¤ħà¤²à¤Ĺ": 3471,
      "Ġà¤®à¤¨à¤®à¤¨": 3472,
      "Ġà¤«à¤¤": 3473,
      "à¤¸à¤®à¤¸": 3474,
      "à¤²à¤¨à¤ªà¤Ľ": 3475,
      "Ġà¤ıà¤ļà¤Ĩ": 3476,
      "à¤¤à¤¶": 3477,
      "Ġà¤ħà¤¨à¤Ĺ": 3478,
      "à¤µà¤¸à¤¤": 3479,
      "Ġà¤¦à¤®à¤ķà¤²": 3480,
      "Ġà¤¡à¤²à¤°à¤®": 3481,
      "à¤¡à¤¯": 3482,
      "à¤¯à¤¸à¤ª": 3483,
      "Ġà¤¸à¤®à¤¯à¤ħà¤¨": 3484,
      "Ġà¤Ĩà¤®à¤®": 3485,
      "à¤¯à¤®à¤¨à¤ķ": 3486,
      "Ġà¤ľà¤µà¤°": 3487,
      "Ġà¤¸à¤®à¤¯à¤Ń": 3488,
      "à¤£à¤Ĺ": 3489,
      "à¤¨à¤²à¤²": 3490,
      "Ġà¤ľà¤«à¤¤": 3491,
      "à¤ĩà¤ľà¤°": 3492,
      "Ġà¤ķà¤²à¤°": 3493,
      "Ġà¤ªà¤¦à¤¹à¤°": 3494,
      "Ġà¤ªà¤¥à¤°": 3495,
      "à¤ļà¤ķà¤¹à¤°": 3496,
      "à¤ıà¤®à¤ı": 3497,
      "à¤®à¤¸à¤®à¤°": 3498,
      "à¤°à¤¹à¤¦": 3499,
      "à¤Łà¤¸à¤¹": 3500,
      "à¤¯à¤¤à¤¸": 3501,
      "à¤łà¤®à¤£": 3502,
      "Ġà¤¦à¤¶à¤ķà¤ħà¤ĺ": 3503,
      "Ġà¤ĸà¤ľ": 3504,
      "Ġà¤Ńà¤¯à¤ķ": 3505,
      "à¤²à¤¯à¤¦": 3506,
      "Ġà¤®à¤¯": 3507,
      "Ġà¤ıà¤®à¤ı": 3508,
      "Ġà¥§à¥¯à¥Ń": 3509,
      "Ġà¤ľà¤²à¤ľà¤²": 3510,
      "à¤®à¤¨à¤ķ": 3511,
      "à¤¯à¤®à¤¸": 3512,
      "Ġà¤¬à¤¢à¤¦": 3513,
      "à¤¤à¤ľà¤¨à¤¹à¤°": 3514,
      "Ġà¥¨à¥¦à¥Ńà¥¨à¥Ńà¥©": 3515,
      "Ġà¤¡à¤¸": 3516,
      "à¥¨à¥¬à¥©": 3517,
      "Ġà¤ªà¤Ĺ": 3518,
      "à¤§à¤¨à¤¸": 3519,
      "à¤ĸà¤¡": 3520,
      "à¤łà¤¸": 3521,
      "à¤¸à¤°à¤¹": 3522,
      "Ġà¤°à¤£": 3523,
      "Ġà¤¬à¤Ĺà¤°": 3524,
      "à¤Łà¤¬à¤¨": 3525,
      "Ġà¤īà¤ªà¤¶": 3526,
      "Ġà¤ĵà¤ķ": 3527,
      "à¥©à¥«": 3528,
      "Ġà¤Ĩà¤ĩà¤¡à¤²": 3529,
      "Ġà¤Ľà¤²à¤«à¤²à¤ªà¤Ľ": 3530,
      "à¤·à¤¦à¤°": 3531,
      "à¤°à¤¬à¤¦à¤²": 3532,
      "Ġà¤¨à¤°à¤¬à¤¹": 3533,
      "Ġà¤ĸà¤µà¤°": 3534,
      "à¤Ļà¤²à¤Ĺ": 3535,
      "Ġà¤¨à¤Ńà¤ıà¤®": 3536,
      "à¤łà¤ķà¤ªà¤Ľ": 3537,
      "à¤ıà¤ª": 3538,
      "à¤·à¤¯à¤°": 3539,
      "Ġà¤ħà¤ªà¤¹à¤°": 3540,
      "ĠĠĠĠĠĠĠĠĠ": 3541,
      "à¤¸à¤°à¤¸": 3542,
      "à¤Ĩà¤ĩà¤¬": 3543,
      "Ġà¤¤à¤ķ": 3544,
      "Ġà¤¤à¤¦à¤°": 3545,
      "à¤Ńà¤°à¤®": 3546,
      "à¤¤à¤®à¤§": 3547,
      "Ġà¤Ĩà¤¶à¤¯": 3548,
      "à¤¤à¤ľà¤¨à¤ķ": 3549,
      "à¤ķà¤ªà¤¡": 3550,
      "Ġà¤Ĳà¤¨à¤ħà¤¨": 3551,
      "Ġà¤ıà¤¨à¤Ĩà¤°à¤ıà¤¨à¤ķ": 3552,
      "à¤£à¤ªà¤¨": 3553,
      "à¤ķà¤®à¤°": 3554,
      "Ġà¤®à¤¦à¤¨à¤ķ": 3555,
      "Ġà¤ıà¤ļà¤Ĩà¤ĩà¤Ń": 3556,
      "Ġà¤Ĺà¤ĩà¤¨": 3557,
      "à¤¬à¤Ńà¤¨": 3558,
      "à¤½": 3559,
      "à¥¯à¥¦": 3560,
      "à¤ĺà¤¬": 3561,
      "à¤²à¤ķà¤°": 3562,
      "à¤¶à¤¨à¤ªà¤Ľ": 3563,
      "à¤¯à¤µà¤¶": 3564,
      "Ġà¤¸à¤¯à¤®": 3565,
      "Ġà¤¨à¤µà¤¦": 3566,
      "à¤¡à¤§": 3567,
      "Ġà¤®à¤¹à¤Ļ": 3568,
      "Ġà¤°à¤¶": 3569,
      "à¤ĩà¤ĵ": 3570,
      "Ġà¤ªà¤°à¤¶": 3571,
      "à¤Ĺà¤µà¤¤": 3572,
      "Ġà¤¤à¤°à¤Ļ": 3573,
      "Ġà¤ľà¤®à¤ĺà¤Ł": 3574,
      "à¤¥à¤ķà¤°": 3575,
      "Ġà¤ıà¤ķà¤¥à¤°": 3576,
      "Ġà¤µà¤¯": 3577,
      "Ġà¤Ĩà¤ĩà¤¸à¤²": 3578,
      "Ġà¤ħà¤¸à¤®à¤Ŀà¤¦": 3579,
      "à¤ļà¤¯à¤ķ": 3580,
      "Ġà¤Ĩà¤ıà¤ªà¤¨": 3581,
      "Ġà¤ĩà¤¬": 3582,
      "à¤ĩà¤ķà¤²à¤²": 3583,
      "Ġà¤¨à¤¸à¤°": 3584,
      "Ġà¤ļà¤®à¤ķ": 3585,
      "à¤īà¤¹à¤°": 3586,
      "à¤Ĺà¤¤à¤²": 3587,
      "à¤Īà¤¨à¤²à¤®": 3588,
      "à¤²à¤¨à¤¸": 3589,
      "à¤²à¤ķà¤¬": 3590,
      "Ġà¤ķà¤Ļ": 3591,
      "Ġà¤¬à¤¦à¤®": 3592,
      "à¤Ńà¤¨à¤®": 3593,
      "à¤Ĺà¤ŀ": 3594,
      "Ġà¤ķà¤°à¤¬": 3595,
      "âĢ¯": 3596,
      "Ġà¤ļà¤°à¤£à¤¬": 3597,
      "à¤ħà¤µà¤¸": 3598,
      "à¤ªà¤ķà¤¹à¤°": 3599,
      "Ġà¤ªà¤¸à¤²à¤ķ": 3600,
      "Ġà¤ıà¤«à¤ª": 3601,
      "Ġà¤Ĩà¤·": 3602,
      "Ġà¤ħà¤µà¤¸à¤°à¤²": 3603,
      "Ġà¤¨à¤ªà¤ł": 3604,
      "à¤¨à¤¯à¤¤": 3605,
      "à¤µà¤¦à¤²": 3606,
      "Ġà¤¨à¤«à¤°": 3607,
      "à¤Ŀà¤²": 3608,
      "à¥¨à¥¦à¥¦": 3609,
      "Ġà¤ħà¤ªà¤¨à¤¤": 3610,
      "à¤°à¤Ľ": 3611,
      "à¤§à¤ªà¤Ľ": 3612,
      "Ġà¤īà¤ªà¤ķà¤°à¤£à¤ķ": 3613,
      "Ġà¥¨à¥¦à¥Ńà¥«à¥¦à¥Ńà¥¬": 3614,
      "à¤®à¤Ļ": 3615,
      "à¤ļà¤¶": 3616,
      "Ġà¥§à¥¯à¥¯à¥Ń": 3617,
      "à¤Łà¤Ł": 3618,
      "à¤Ńà¤Ł": 3619,
      "à¤°à¤¶à¤¨": 3620,
      "à¤¸à¤¦à¤¬": 3621,
      "Ġà¥§à¥¦à¥®": 3622,
      "à¤ıà¤«à¤ª": 3623,
      "à¤¤à¤ļà¤°": 3624,
      "Ġà¤ļà¤¸": 3625,
      "à¤ķà¤²à¤¨à¤®": 3626,
      "à¤¸à¤²à¤Ĺ": 3627,
      "Ġà¤Ńà¤µà¤¨à¤¹à¤°": 3628,
      "Ġà¤ıà¤ķà¤Ĩ": 3629,
      "Ġà¤Ŀà¤¡": 3630,
      "à¤°à¤¨à¤Ĺà¤°à¤®": 3631,
      "Ġà¤Ĩà¤īà¤ľ": 3632,
      "à¤¡à¤°à¤¸": 3633,
      "Ġà¤ĺà¤Łà¤ķ": 3634,
      "Ġà¤Ĩà¤ľà¤Ńà¤¨": 3635,
      "à¤ıà¤¸à¤¸": 3636,
      "Ġà¤ıà¤Ĩà¤Īà¤ľ": 3637,
      "Ġà¤ħà¤µà¤¹": 3638,
      "à¤·à¤¦à¤®": 3639,
      "Ġà¤¸à¤Łà¤¹": 3640,
      "Ġà¤ħà¤¨à¤¶à¤¨à¤°à¤¤": 3641,
      "à¤¥à¤Ĺà¤¨": 3642,
      "Ġà¥¨à¥¦à¥¦à¥§": 3643,
      "à¤¨à¤¯à¤ķ": 3644,
      "à¤°à¤¤à¤¤à¤°": 3645,
      "à¤Ļà¤¸à¤®": 3646,
      "Ġà¤µà¤°à¤¦": 3647,
      "à¤Īà¤µ": 3648,
      "Ġà¤ħà¤°à¤¬à¤ķ": 3649,
      "à¤²à¤Ĺà¤°": 3650,
      "à¤®à¤ªà¤¤": 3651,
      "à¤¦à¤²à¤¯": 3652,
      "Ġà¤ķà¤ªà¤®": 3653,
      "Ġà¤Ŀà¤ķ": 3654,
      "Ġà¤Ĺà¤łà¤µà¤¨": 3655,
      "à¤¹à¤¦à¤°à¤µ": 3656,
      "à¥īà¤Ĥ": 3657,
      "à¥Īà¥į": 3658,
      "Ġà¤Ĩà¤¯à¤ķ": 3659,
      "Ġà¤¨à¤¥": 3660,
      "Ġà¤¨à¤«": 3661,
      "Ġà¤ĩà¤¯": 3662,
      "à¤®à¤ŀ": 3663,
      "Ġà¤¹à¤Ļ": 3664,
      "Ġà¤ħà¤¬à¤¦": 3665,
      "à¤ķà¤°à¤£à¤¬": 3666,
      "à¤®à¤ħà¤¨": 3667,
      "Ġà¥¨à¥¦à¥¨à¥«": 3668,
      "à¤ĭ": 3669,
      "Ġà¥§à¥¨à¥«": 3670,
      "Ġà¥¨à¥¦à¥«à¥«": 3671,
      "Ġà¤Ĺà¤Īà¤°à¤¹": 3672,
      "Ġà¤¸à¤°à¤¦": 3673,
      "Ġà¤®à¤¹à¤²": 3674,
      "à¤°à¤µà¤£": 3675,
      "à¥©à¥§": 3676,
      "Ġà¤ĭà¤£à¤®": 3677,
      "Ġà¤°à¤Ļà¤ķ": 3678,
      "Ġà¤¸à¤ķà¤¸": 3679,
      "Ġà¤ķà¤²à¤ķà¤¤": 3680,
      "Ġà¤¾": 3681,
      "Ġà¤Ĩà¤¯à¤¸": 3682,
      "à¤ĩà¤ķà¤¨": 3683,
      "à¤¸à¤¨à¤¸": 3684,
      "à¤Īà¤Ĺ": 3685,
      "à¥Ĥà¥Ĥ": 3686,
      "à¤°à¤ķà¤°à¤£à¤ķ": 3687,
      "Ġà¤¨à¤ķà¤°": 3688,
      "à¤ķà¤²à¤Ĺ": 3689,
      "Ġà¥§à¥¬à¥¦": 3690,
      "à¤ŀà¤°": 3691,
      "Ġà¤ľà¤Ĺà¤¤à¤ķ": 3692,
      "Ġà¤¬à¤ľà¤Ĺ": 3693,
      "Ġà¤¨à¤¹à¤Ł": 3694,
      "Ġà¤ıà¤¨à¤ıà¤®à¤¬": 3695,
      "à¤®à¤°à¤ķ": 3696,
      "à¤Ĺà¤Łà¤¨": 3697,
      "ĠĠĠĠĠĠĠĠĠĠĠĠĠĠĠĠĠĠĠĠĠĠĠĠĠĠĠĠĠĠĠĠĠĠĠĠĠĠĠĠĠĠĠĠĠĠĠĠĠĠĠĠĠĠĠĠĠĠĠĠĠĠĠĠ": 3698,
      "à¤¦à¤ĺ": 3699,
      "à¤Ńà¤ı": 3700,
      "à¤°à¤°à¤¤": 3701,
      "à¤®à¤ķà¤¤": 3702,
      "Ġà¤Ŀà¤²à¤ķ": 3703,
      "Ġà¤¸à¤¯à¤¦": 3704,
      "à¤²à¤°à¤²": 3705,
      "Ġà¤¬à¤ļà¤¨": 3706,
      "Ġà¤ħà¤ķà¤¸": 3707,
      "Ġà¤²à¤¯à¤®": 3708,
      "à¤²à¤¯à¤¸à¤®": 3709,
      "Ġà¥Ńà¥¦à¥¦": 3710,
      "Ġà¤Ĩà¤¦à¤°à¤£": 3711,
      "Ġà¤Ĺà¤²à¤ķ": 3712,
      "à¤ľà¤¤à¤²": 3713,
      "Ġà¥§à¥®à¥¦": 3714,
      "Ġà¤ķà¤¶": 3715,
      "Ġà¤ĵà¤¶": 3716,
      "à¤ķà¤Ľ": 3717,
      "à¤ªà¤£à¤ķ": 3718,
      "à¤Ļà¤¯": 3719,
      "à¤¤à¤¨à¤¶": 3720,
      "à¤¯à¤²à¤Ĺ": 3721,
      "Ġà¤ĵà¤ł": 3722,
      "Ġà¤¨à¤ªà¤¢": 3723,
      "à¤Ĺà¤¬à¤£": 3724,
      "à¥įà¥Ģ": 3725,
      "à¤īà¤Ĺ": 3726,
      "à¤īà¤¸à¤²": 3727,
      "Ġà¤ıà¤¥": 3728,
      "Ġà¤ķà¤¦à¤®à¤²": 3729,
      "à¤¯à¤Ĺà¤¤": 3730,
      "à¤ĩà¤¡à¤ķ": 3731,
      "à¤Łà¤²à¤Ĺ": 3732,
      "Ġà¤ľà¤ķ": 3733,
      "Ġà¥§à¥¦à¥«": 3734,
      "à¤¯à¤¯à¤¨à¤ħà¤¨": 3735,
      "à¤²à¤¢": 3736,
      "Ġà¤Ĩà¤ķà¤²à¤¨": 3737,
      "à¤£à¤¸à¤®": 3738,
      "à¤¤à¤°à¤Ļ": 3739,
      "à¤ıà¤īà¤Ł": 3740,
      "à¤¸à¤µà¤²": 3741,
      "à¤¯à¤£à¤¹": 3742,
      "à¤§à¤°à¤£": 3743,
      "Ġà¤Ĩà¤ıà¤¸": 3744,
      "à¤Ļà¤ª": 3745,
      "Ġà¤Ĩà¤®à¤ľà¤¨à¤¤": 3746,
      "à¤°à¤Ł": 3747,
      "à¤¨à¤µà¤ķ": 3748,
      "à¤®à¤µà¤°": 3749,
      "à¤Ĺà¤¸à¤¹": 3750,
      "Ġà¤ļà¤¯à¤¨à¤ķ": 3751,
      "à¤²à¤¬à¤ľ": 3752,
      "à¤Łà¤Ńà¤¨": 3753,
      "à¤Ĩà¤Īà¤Ń": 3754,
      "à¤¶à¤¨à¤¹à¤°": 3755,
      "Ġà¤®à¤¤à¤ªà¤°": 3756,
      "Ġà¤ľà¤¨à¤ħà¤§": 3757,
      "Ġà¤ıà¤¨à¤Ĩà¤Īà¤¸": 3758,
      "à¤®à¤µà¤°à¤£": 3759,
      "à¤µà¤¶à¤ķ": 3760,
      "Ġà¤²à¤®à¤¹": 3761,
      "à¤Ļà¤Łà¤¨": 3762,
      "à¤łà¤°": 3763,
      "Ġà¤ħà¤¨à¤Ń": 3764,
      "à¤°à¤¨à¤®": 3765,
      "à¤§à¤¨à¤µ": 3766,
      "à¤ķà¤¡à¤Ń": 3767,
      "Ġà¤ķà¤°à¤®": 3768,
      "Ġà¤®à¤·": 3769,
      "à¤¯à¤¸à¤ħà¤¨": 3770,
      "à¤µà¤°à¤ª": 3771,
      "à¤¸à¤¸à¤ķ": 3772,
      "Ġà¤°à¤«": 3773,
      "à¤ĩà¤¸à¤®": 3774,
      "à¤Ĩà¤°à¤ķ": 3775,
      "à¤Łà¤«à¤°": 3776,
      "Ġà¤ıà¤¤": 3777,
      "Ġà¤µà¤ľà¤¨": 3778,
      "à¤¤à¤¸à¤¹": 3779,
      "Ġà¤ħà¤µà¤®": 3780,
      "à¤®à¤¤à¤¸à¤®": 3781,
      "à¤°à¤Ļà¤®": 3782,
      "à¤¯à¤¬à¤¦": 3783,
      "Ġà¤¬à¤®à¤ķ": 3784,
      "Ġà¥§à¥¯à¥¦": 3785,
      "Ġà¤ħà¤¨à¤ª": 3786,
      "à¤°à¤¤à¤µ": 3787,
      "à¤¤à¤®à¤¬": 3788,
      "Ġà¥§à¥§à¥«": 3789,
      "Ġà¤ıà¤ķà¤Ĩà¤ªà¤¸à¤®": 3790,
      "à¤ıà¤Ŀ": 3791,
      "à¤īà¤ĸ": 3792,
      "à¤īà¤¨à¤¸à¤®": 3793,
      "à¤¸à¤®à¤¯": 3794,
      "à¤ıà¤«à¤ķ": 3795,
      "à¤µà¤¸à¤²": 3796,
      "à¤°à¤ľà¤¹": 3797,
      "à¤µà¤Łà¤ķ": 3798,
      "à¤Ĩà¤ĩà¤¸": 3799,
      "à¤ıà¤®à¤¸": 3800,
      "à¤¬à¤¨à¤®": 3801,
      "Ġà¤Ŀà¤¡à¤ªà¤®": 3802,
      "à¥¬à¥¬": 3803,
      "Ġà¤¸à¤µà¤²": 3804,
      "à¤ľà¤¯à¤²": 3805,
      "Ġà¤ħà¤ķà¤²": 3806,
      "Ġà¤µà¤¨à¤²": 3807,
      "à¤¸à¤ĸ": 3808,
      "à¤ħà¤Ļ": 3809,
      "à¤ıà¤¸à¤Ł": 3810,
      "Ġà¤Ĩà¤ĺ": 3811,
      "Ġà¤ľà¤²à¤¬": 3812,
      "à¤ľà¤¨à¤¸": 3813,
      "Ġà¤¹à¤ķà¤¸à¤®": 3814,
      "à¤Łà¤ħà¤¨": 3815,
      "à¤§à¤¶": 3816,
      "à¤¯à¤¸à¤¸": 3817,
      "Ġà¥§à¥¦à¥¦à¥¦": 3818,
      "à¤ıà¤¨à¤ľ": 3819,
      "Ġà¤ĵà¤ĩà¤°": 3820,
      "Ġà¤ıà¤ķà¤¸à¤¯": 3821,
      "à¤ļà¤¸à¤®": 3822,
      "ĠĠĠĠĠĠĠĠĠĠ": 3823,
      "Ġà¤¤à¤¹à¤¸": 3824,
      "à¤ķà¤®à¤§": 3825,
      "Ġà¤Ĩà¤Īà¤¤à¤µ": 3826,
      "à¤¯à¤µà¤°": 3827,
      "à¤Īà¤¸à¤®": 3828,
      "à¤īà¤ªà¤¯": 3829,
      "Ġà¤ıà¤ļà¤Ĩà¤Īà¤Ń": 3830,
      "Ġà¤ªà¤°à¤ķ": 3831,
      "à¤¦à¤¯à¤ķ": 3832,
      "à¤¬à¤Īà¤ķ": 3833,
      "Ġà¤Ľà¤łà¤ķ": 3834,
      "Ġà¤Īà¤¯": 3835,
      "Ġà¤ħà¤²à¤®à¤²à¤®": 3836,
      "à¤¯à¤ĺ": 3837,
      "à¤¶à¤¸à¤®": 3838,
      "à¤®à¤¤à¤°": 3839,
      "à¤¤à¤°à¤¸": 3840,
      "à¤Łà¤ķà¤²": 3841,
      "à¤§à¤¨à¤ªà¤Ľ": 3842,
      "à¤¤à¤ªà¤Ľ": 3843,
      "Ġà¤¦à¤°à¤Ń": 3844,
      "à¤®à¤¨à¤Ĺà¤°": 3845,
      "à¤Ĺà¤£à¤®": 3846,
      "à¤ıà¤¨à¤²": 3847,
      "Ġà¤¹à¤¬": 3848,
      "à¤ļà¤²à¤²": 3849,
      "Ġà¤Ĩà¤ĩà¤¡à¤²à¤ķ": 3850,
      "à¤¦à¤°à¤®": 3851,
      "Ġà¤§à¤ª": 3852,
      "à¤²à¤¨à¤¹à¤°": 3853,
      "à¥įà¤¾à¤¾": 3854,
      "Ġà¤Ńà¤ĩà¤°": 3855,
      "à¤¶à¤ľ": 3856,
      "Ġà¤ķà¤¨à¤ķ": 3857,
      "à¤¶à¤ħà¤¨": 3858,
      "Ġà¥¦à¥®": 3859,
      "à¤īà¤ªà¤¡": 3860,
      "Ġà¤ħà¤¨à¤°": 3861,
      "Ġà¤Ĩà¤Īà¤Ł": 3862,
      "à¤ķà¤Ńà¤¨": 3863,
      "à¤°à¤ĸà¤°": 3864,
      "à¤ĩà¤ıà¤²": 3865,
      "Ġà¤«à¤°à¤µ": 3866,
      "Ġà¤ĵà¤Ńà¤°à¤ķ": 3867,
      "à¤¨à¤ļà¤°": 3868,
      "à¤ľà¤¡": 3869,
      "à¤īà¤¨à¤¸à¤ķ": 3870,
      "Ġà¤¯à¤¸à¤¸à¤®": 3871,
      "à¤¿à¥ĩ": 3872,
      "Ġà¤¸à¤®à¤·": 3873,
      "à¤¯à¤ķà¤°à¤£": 3874,
      "à¤®à¤¦à¤°": 3875,
      "à¤Ĺà¤§à¤¨": 3876,
      "Ġà¤¤à¤®à¤²": 3877,
      "Ġà¤Ĩà¤°à¤ľ": 3878,
      "à¤°à¤®à¤ª": 3879,
      "à¤°à¤¶à¤®à¤¶": 3880,
      "à¤£à¤¯à¤ħà¤¨": 3881,
      "à¤®à¤¨à¤²": 3882,
      "Ġà¤ħà¤¸à¤¤": 3883,
      "à¤¦à¤¨à¤ħà¤¨": 3884,
      "à¤Ľà¤¸": 3885,
      "Ġà¤ıà¤¯à¤°à¤¬": 3886,
      "à¤¯à¤²à¤¯à¤®": 3887,
      "à¤ªà¤¯à¤ķ": 3888,
      "à¤ľà¤°à¤®": 3889,
      "Ġà¤Ľà¤¬": 3890,
      "Ġà¤ªà¤Łà¤ķà¤¥": 3891,
      "Ġà¤¸à¤¦à¤¨à¤ķ": 3892,
      "Ġà¤¸à¤¤à¤¹à¤¬": 3893,
      "à¤ľà¤¯à¤¨": 3894,
      "à¤ªà¤ħà¤¨": 3895,
      "Ġà¤¦à¤Ļ": 3896,
      "Ġà¤ĸà¤ķ": 3897,
      "à¤Ļà¤ļ": 3898,
      "Ġà¤ĺà¤®à¤£": 3899,
      "à¤°à¤¹à¤¤": 3900,
      "Ġà¤Ĩà¤°à¤¤": 3901,
      "Ġà¤ıà¤¬à¤®": 3902,
      "à¤®à¤Ŀ": 3903,
      "Ġà¤¦à¤¸à¤®": 3904,
      "Ġà¤²à¤Ł": 3905,
      "Ġà¤¸à¤¬à¤¸": 3906,
      "Ġà¥§à¥¦à¥§": 3907,
      "Ġà¥¦à¥¯": 3908,
      "Ġà¤¸à¤®à¤¯à¤¸à¤®à¤¯à¤®": 3909,
      "Ġà¤ķà¤¸à¤®": 3910,
      "à¤Ĺà¤®à¤®": 3911,
      "à¤Ļà¤¤à¤°": 3912,
      "Ġà¥§à¥©à¥¦": 3913,
      "à¤īà¤Ń": 3914,
      "Ġà¤ıà¤¸à¤ıà¤¸à¤¬": 3915,
      "Ġà¤¯à¤¸à¤®à¤§": 3916,
      "Ġà¤®à¤łà¤®": 3917,
      "à¤ļà¤ĸ": 3918,
      "à¤ıà¤Īà¤²": 3919,
      "Ġà¤®à¤ķà¤°": 3920,
      "à¤§à¤¸à¤®": 3921,
      "Ġà¥§à¥¬à¥«": 3922,
      "Ġà¥¦à¥Ńà¥¦": 3923,
      "à¤ıà¤²à¤®": 3924,
      "à¤¸à¤¹à¤Ń": 3925,
      "Ġà¥¦à¥ªà¥¬": 3926,
      "à¤ĺà¤¦": 3927,
      "Ġà¥§à¥¯à¥¯à¥¯": 3928,
      "à¤µà¤¦à¤¨": 3929,
      "Ġà¤°à¤¡": 3930,
      "à¤ĩà¤¬à¤²": 3931,
      "Ġà¤Ĩà¤ĩà¤ķ": 3932,
      "Ġà¥¨à¥¦à¥«à¥Ń": 3933,
      "Ġà¥§à¥¯à¥¯à¥ª": 3934,
      "à¤¦à¤ķà¤°": 3935,
      "à¤łà¤¬": 3936,
      "Ġà¤ıà¤ķà¤ªà¤²": 3937,
      "à¤¯à¤ªà¤¦": 3938,
      "Ġà¤Ĺà¤Ľ": 3939,
      "à¥¬à¥¯": 3940,
      "Ġà¤Ĩà¤®à¤¸à¤ŀ": 3941,
      "à¤Ńà¤µà¤¹à¤°": 3942,
      "à¤¯à¤¡": 3943,
      "Ġà¤µà¤®": 3944,
      "à¤²à¤Ĺà¤¢": 3945,
      "à¤¦à¤¸à¤®": 3946,
      "à¤ıà¤¡": 3947,
      "Ġà¤Ńà¤Ļ": 3948,
      "à¤£à¤¦": 3949,
      "à¤ĩà¤Ĺà¤°": 3950,
      "Ġà¤ıà¤¯": 3951,
      "Ġà¤ıà¤²à¤ª": 3952,
      "à¤£à¤§": 3953,
      "à¤¨à¤²à¤¹à¤°": 3954,
      "à¤¤à¤¥": 3955,
      "à¤¤à¤¤à¤°": 3956,
      "à¤ģà¥ĩ": 3957,
      "à¤ĩà¤ıà¤®": 3958,
      "Ġà¤ĺà¤°à¤µ": 3959,
      "à¥¬à¥«": 3960,
      "Ġà¤ĭà¤ļ": 3961,
      "Ġà¤ľà¤¯à¤°": 3962,
      "à¤ĩà¤¨à¤¸": 3963,
      "à¤¯à¤Łà¤¨à¤®": 3964,
      "Ġà¤µà¤¹à¤¨": 3965,
      "Ġà¤Ĩà¤¡": 3966,
      "à¤¶à¤ªà¤Ľ": 3967,
      "Ġà¤Ĩà¤µà¤°à¤£à¤®": 3968,
      "à¤¹à¤°à¤£à¤¹à¤°": 3969,
      "Ġà¤ķà¤¦à¤®à¤ķ": 3970,
      "à¤ıà¤«à¤²": 3971,
      "à¤Ĩà¤Īà¤ª": 3972,
      "à¤¯à¤Łà¤¨à¤²": 3973,
      "Ġà¤Ľà¤°à¤Ľ": 3974,
      "à¤¬à¤¨à¤ķ": 3975,
      "à¤¤à¤¨à¤¸": 3976,
      "Ġà¤¨à¤Ĩà¤ıà¤ªà¤Ľ": 3977,
      "à¤¸à¤°à¤¤": 3978,
      "à¤¸à¤ªà¤°": 3979,
      "à¤¹à¤ªà¤Ľ": 3980,
      "à¤°à¤¬à¤ķ": 3981,
      "Ġà¤ıà¤¸à¤Īà¤Ī": 3982,
      "Ġà¤¨à¤µà¤¯": 3983,
      "Ġà¤¤à¤Łà¤¸": 3984,
      "Ġà¤¬à¤²à¤¤": 3985,
      "Ġà¤ħà¤¸à¤®à¤°": 3986,
      "Ġà¤¸à¤¹à¤¨à¤¶": 3987,
      "à¤ªà¤¬à¤¹": 3988,
      "à¤ľà¤«": 3989,
      "Ġà¤ıà¤ķà¤¨": 3990,
      "Ġà¤īà¤ªà¤Ĺ": 3991,
      "Ġà¤ħà¤ªà¤¹": 3992,
      "Ġà¤¨à¤Ĺà¤ıà¤ķ": 3993,
      "Ġà¤ĵà¤ªà¤¨à¤°": 3994,
      "à¤²à¤®à¤£": 3995,
      "Ġà¤ħà¤µà¤¸à¤°à¤µ": 3996,
      "à¤¨à¤¤à¤²": 3997,
      "à¥Įà¤¾": 3998,
      "à¤Łà¤¨à¤°": 3999,
      "Ġà¤ħà¤¬à¤§": 4000,
      "Ġà¥§à¥¯à¥¯à¥¬": 4001,
      "à¤¦à¤°à¤¬": 4002,
      "Ġà¤«à¤Ľ": 4003,
      "à¤Ĩà¤°à¤¸": 4004,
      "à¤Ĺà¤²à¤Ĺ": 4005,
      "Ġà¤Īà¤°": 4006,
      "à¤·à¤¶": 4007,
      "Ġà¤Ĩà¤¯à¤ķà¤°": 4008,
      "à¤¥à¤ķà¤²": 4009,
      "Ġà¤ļà¤¡": 4010,
      "Ġà¤ıà¤²à¤°": 4011,
      "à¤Ļà¤°": 4012,
      "à¤¦à¤²à¤®": 4013,
      "à¤Łà¤¨à¤Ĺà¤°à¤²": 4014,
      "à¤Ĺà¤ľà¤ķ": 4015,
      "Ġà¤¯à¤¸à¤Ńà¤¨": 4016,
      "à¤¯à¤®à¤£": 4017,
      "Ġà¤ĩà¤¥": 4018,
      "à¥ĭà¤ĥ": 4019,
      "à¤¤à¤Ĺà¤°": 4020,
      "Ġà¤ħà¤ªà¤¹à¤°à¤£à¤®": 4021,
      "à¤¸à¤°à¤£": 4022,
      "à¤ļà¤¨à¤¸à¤®": 4023,
      "Ġà¥ĩ": 4024,
      "à¤µà¤¤à¤°": 4025,
      "à¤ıà¤²à¤²": 4026,
      "Ġà¥¨à¥¦à¥Ńà¥©à¥¦à¥Ńà¥ª": 4027,
      "à¤Ľà¤ķ": 4028,
      "à¤ªà¤¨à¤¬": 4029,
      "Ġà¤Ĳà¤²": 4030,
      "à¤ķà¤£": 4031,
      "à¤§à¤µà¤ª": 4032,
      "Ġà¤¶à¤¸à¤¸": 4033,
      "à¤łà¤Ĺ": 4034,
      "à¤¸à¤®à¤µ": 4035,
      "Ġà¤ħà¤¸à¤ľ": 4036,
      "à¤Īà¤¬à¤°": 4037,
      "à¤°à¤ķà¤µ": 4038,
      "à¤Ĩà¤ķ": 4039,
      "à¤°à¤®à¤£à¤ªà¤Ľ": 4040,
      "à¤°à¤Ĺà¤¢": 4041,
      "Ġà¥¨à¥¨à¥¦": 4042,
      "Ġà¥§à¥¯à¥¯à¥©": 4043,
      "à¤Łà¤®à¤®": 4044,
      "Ġà¤¬à¤¬à¤Ī": 4045,
      "Ġà¤ķà¤®à¤²à¤ª": 4046,
      "Ġà¥§à¥¦à¥ª": 4047,
      "Ġà¤ľà¤²à¤ª": 4048,
      "Ġà¤ªà¤¹à¤²à¤ķà¤¦à¤®": 4049,
      "à¤¹à¤¸à¤®": 4050,
      "à¤īà¤¡à¤°": 4051,
      "à¤¯à¤®à¤µ": 4052,
      "à¤¤à¤¨à¤¹à¤°": 4053,
      "Ġà¤ĵà¤ĸà¤°": 4054,
      "Ġà¥¯à¥¦à¥¦": 4055,
      "Ġà¤¦à¤¸à¤®à¤²à¤µ": 4056,
      "à¤²à¤ħà¤§": 4057,
      "à¤£à¤ļà¤¨": 4058,
      "à¤ħà¤ªà¤°": 4059,
      "à¤²à¤¬à¤¹à¤°": 4060,
      "à¤¼à¤¾": 4061,
      "Ġà¤ĵà¤¨à¤¸à¤°": 4062,
      "Ġà¤ªà¤¦à¤Ń": 4063,
      "Ġà¤ıà¤®à¤¸": 4064,
      "à¤ıà¤Łà¤°": 4065,
      "à¤¶à¤¯à¤¯": 4066,
      "à¤Ńà¤ŀ": 4067,
      "Ġà¤ļà¤Ļ": 4068,
      "à¤Ĺà¤®à¤¸": 4069,
      "Ġà¤ªà¤Łà¤ķà¤®": 4070,
      "Ġà¤¦à¤Ĺ": 4071,
      "Ġà¤ĩà¤¡": 4072,
      "Ġà¤ĩà¤«": 4073,
      "Ġà¤Ńà¤ıà¤ħà¤¨": 4074,
      "à¤ıà¤¶à¤¨": 4075,
      "à¤§à¤ķà¤°": 4076,
      "à¤°à¤¦à¤¤": 4077,
      "à¤·à¤ķà¤¬": 4078,
      "à¤Ĩà¤¶": 4079,
      "Ġà¤Ķà¤¸à¤¤à¤®": 4080,
      "à¤²à¤°à¤¹": 4081,
      "à¤¸à¤ľà¤¸": 4082,
      "à¤ļà¤µà¤°": 4083,
      "Ġà¤ĩà¤Łà¤²": 4084,
      "Ġà¤ĭà¤£à¤ªà¤¤": 4085,
      "à¤ķà¤§": 4086,
      "à¤·à¤£à¤¸à¤®": 4087,
      "Ġà¤ıà¤¸à¤ĩ": 4088,
      "à¤ķà¤ļ": 4089,
      "à¤¸à¤Ńà¤¨": 4090,
      "à¤ĸà¤§à¤°": 4091,
      "Ġà¤¸à¤¨à¤¸à¤¨": 4092,
      "à¤¯à¤£à¤²": 4093,
      "Ġà¥¨à¥¦à¥¬à¥¨à¥¬à¥©": 4094,
      "à¤²à¤ł": 4095,
      "Ġà¤¨à¤¸à¤®": 4096,
      "Ġà¤¬à¤²à¤¬à¤¹": 4097,
      "à¤¯à¤¤à¤ª": 4098,
      "à¤ħà¤·": 4099,
      "Ġà¥¦à¥¨": 4100,
      "à¤·à¤¸à¤¹": 4101,
      "à¤ĸà¤°à¤ķ": 4102,
      "Ġà¤Ńà¤ıà¤¸à¤®": 4103,
      "Ġà¥¨à¥¦à¥«à¥©": 4104,
      "à¤·à¤§à¤ķ": 4105,
      "Ġà¤ľà¤¨à¤§à¤¨à¤ķ": 4106,
      "à¤ķà¤°à¤£à¤¸": 4107,
      "à¤«à¤Ł": 4108,
      "à¥Įà¤Ĥà¤ģ": 4109,
      "Ġà¤ľà¤Ĺà¤¨": 4110,
      "à¤¬à¤°à¤¬": 4111,
      "à¤īà¤¨à¤¬": 4112,
      "Ġà¤¨à¤°à¤¹à¤°": 4113,
      "Ġà¥§à¥¨à¥®": 4114,
      "à¤«à¤µ": 4115,
      "Ġà¤ĺà¤®": 4116,
      "Ġà¤Ĩà¤łà¤µà¤Ł": 4117,
      "Ġà¥§à¥¯à¥¯à¥«": 4118,
      "Ġà¤¨à¤Ĺà¤°à¤¬": 4119,
      "à¤ľà¤Ĺà¤¨": 4120,
      "Ġà¤ľà¤²à¤¯": 4121,
      "Ġà¤°à¤¹à¤ķ": 4122,
      "à¤°à¤Ńà¤ķ": 4123,
      "à¤ıà¤¸à¤ıà¤®": 4124,
      "à¤¦à¤ķà¤ª": 4125,
      "Ġà¤¤à¤µà¤°à¤¬": 4126,
      "à¤ľà¤¨à¤¹à¤°": 4127,
      "Ġà¤ľà¤¨à¤Ĺ": 4128,
      "Ġà¤ħà¤¸à¤°à¤²": 4129,
      "Ġà¤ħà¤¬à¤¸à¤°": 4130,
      "Ġà¤¨à¤Ĺà¤¦à¤¸à¤¹": 4131,
      "à¤¹à¤°à¤®": 4132,
      "Ġà¤§à¤µà¤²": 4133,
      "Ġà¤Ĩà¤Īà¤ıà¤®à¤Ī": 4134,
      "Ġà¤ķà¤¬à¤¡": 4135,
      "Ġà¤®à¤łà¤®à¤¨": 4136,
      "à¥įà¤¿": 4137,
      "à¤ıà¤®à¤ķ": 4138,
      "à¤¾à¤ģà¤Ĥ": 4139,
      "à¤µà¤¦à¤¹": 4140,
      "Ġà¤µà¤ļ": 4141,
      "à¤Ļà¤¤": 4142,
      "Ġà¤¨à¤Ĺà¤°à¤²": 4143,
      "à¥Īà¤ĥ": 4144,
      "Ġà¤Ĩà¤ĩà¤®": 4145,
      "à¥ħ": 4146,
      "à¥įà¤ĥ": 4147,
      "à¤Łà¤²à¤¬": 4148,
      "Ġà¤Ĩà¤ĩà¤°à¤¨": 4149,
      "à¤ĩà¤²à¤¹à¤°": 4150,
      "à¤¯à¤£à¤Ĺ": 4151,
      "Ġà¤¶à¤¸à¤ķ": 4152,
      "Ġà¤ĸà¤µ": 4153,
      "Ġà¤Łà¤²": 4154,
      "Ġà¤Īà¤ľ": 4155,
      "Ġà¥§à¥ªà¥¦": 4156,
      "à¤¸à¤¸à¤ı": 4157,
      "à¤¤à¤°à¤¤à¤°": 4158,
      "Ġà¤Ĺà¤ıà¤®": 4159,
      "à¤Łà¤ªà¤Łà¤ķ": 4160,
      "à¤°à¤µà¤¹": 4161,
      "à¤µà¤°à¤£à¤¹à¤°": 4162,
      "Ġà¥¨à¥¦à¥ªà¥«": 4163,
      "à¤°à¤¡à¤ķ": 4164,
      "à¤¤à¤«": 4165,
      "Ġà¤Łà¤¯": 4166,
      "Ġà¤ħà¤°à¤µ": 4167,
      "à¥©à¥©": 4168,
      "Ġà¤ĺà¤°à¤ª": 4169,
      "à¤°à¤ľà¤¹à¤°": 4170,
      "Ġà¤¨à¤ħ": 4171,
      "à¤¨à¤²à¤¬": 4172,
      "à¤¯à¤µà¤§": 4173,
      "Ġà¥¦à¥§": 4174,
      "Ġà¤Ĺà¤®à¤²": 4175,
      "à¤ļà¤ķà¤¨": 4176,
      "Ġà¤īà¤¸à¤®": 4177,
      "à¤®à¤²à¤²": 4178,
      "à¤¤à¤Ńà¤¨": 4179,
      "à¤¬à¤®à¤®": 4180,
      "à¤Īà¤¨à¤®": 4181,
      "à¤Ĺà¤«à¤Ĺ": 4182,
      "Ġà¤²à¤Ļ": 4183,
      "à¤¸à¤¶": 4184,
      "à¤ıà¤¸à¤²": 4185,
      "à¤¡à¤ªà¤¤": 4186,
      "Ġà¤ħà¤¹à¤®à¤¦": 4187,
      "Ġà¥§à¥§à¥©à¥¯": 4188,
      "Ġà¤®à¤ł": 4189,
      "Ġà¤Ľà¤®": 4190,
      "Ġà¤¸à¤®à¤Ŀ": 4191,
      "à¤ĩà¤µà¤Ł": 4192,
      "à¤²à¤®à¤²": 4193,
      "Ġà¤ĩà¤Ļà¤²": 4194,
      "à¤¶à¤¨à¤¸à¤®": 4195,
      "Ġà¤ķà¤łà¤ĺà¤°": 4196,
      "à¤°à¤µà¤¤": 4197,
      "Ġà¤Īà¤Ł": 4198,
      "ĠĠĠĠĠĠĠĠĠĠĠ": 4199,
      "à¤²à¤ĺ": 4200,
      "Ġà¤ħà¤ĸà¤¡": 4201,
      "à¤Łà¤ħà¤ª": 4202,
      "Ġà¤ķà¤Łà¤¹à¤°": 4203,
      "Ġà¤¦à¤®à¤ķà¤ķ": 4204,
      "à¤¬à¤ĸà¤¤": 4205,
      "à¤¡à¤Ĺ": 4206,
      "à¤¡à¤¨à¤¸": 4207,
      "Ġà¤¸à¤¹à¤ľà¤°": 4208,
      "à¤īà¤¦à¤²": 4209,
      "à¤Ļà¤¹": 4210,
      "Ġà¤ıà¤¨à¤ª": 4211,
      "Ġà¥§à¥©à¥¨": 4212,
      "à¤§à¤ķà¤ķ": 4213,
      "Ġà¤Ľà¤²à¤«à¤²à¤²": 4214,
      "Ġà¤¸à¤¹à¤ħà¤§": 4215,
      "Ġà¤ķà¤®à¤¸à¤²": 4216,
      "à¤Ńà¤ħà¤Ļ": 4217,
      "à¤ĸà¤²à¤¨": 4218,
      "à¤Łà¤°à¤Ńà¤¨": 4219,
      "Ġà¤Ĩà¤®à¤¸à¤Ń": 4220,
      "Ġà¤Ĩà¤¯à¤®": 4221,
      "à¤¸à¤Ĺà¤¢": 4222,
      "Ġà¤¤à¤µ": 4223,
      "à¤ĺà¤¨à¤ķ": 4224,
      "Ġà¤ļà¤²à¤¨à¤ļà¤²": 4225,
      "Ġà¥§à¥¯à¥®à¥¦": 4226,
      "à¤°à¤ªà¤¨": 4227,
      "à¤¸à¤¤à¤°": 4228,
      "à¤¥à¤¨à¤ķ": 4229,
      "à¤¤à¤²à¤Ĺ": 4230,
      "à¤ĵà¤°": 4231,
      "Ġà¤¹à¤²à¤ķ": 4232,
      "à¤Ńà¤ıà¤Ľ": 4233,
      "Ġà¤ĸà¤Ĺà¤°": 4234,
      "Ġà¤§à¤¡": 4235,
      "Ġà¤ħà¤°à¤¬à¤®": 4236,
      "à¥«à¥«": 4237,
      "à¤°à¤Ńà¤°à¤ķ": 4238,
      "Ġà¤®à¤²à¤ľà¤²": 4239,
      "Ġà¤Ńà¤ŀ": 4240,
      "à¤¬à¤Ĺà¤°": 4241,
      "Ġà¤ĺà¤ļ": 4242,
      "Ġà¥§à¥¦à¥¯": 4243,
      "Ġà¥§à¥¯à¥Ńà¥¦": 4244,
      "Ġà¤¸à¤°à¤¹à¤ķ": 4245,
      "à¥¬à¥Ń": 4246,
      "à¤Łà¤®à¤§": 4247,
      "à¤®à¤£à¤²": 4248,
      "Ġà¤¦à¤¶à¤ķà¤ªà¤Ľ": 4249,
      "Ġà¤°à¤¨à¤µ": 4250,
      "à¤ĩà¤ľà¤¨": 4251,
      "à¤¨à¤¬à¤¤": 4252,
      "à¤ļà¤²à¤ļ": 4253,
      "Ġà¤Ńà¤Łà¤®": 4254,
      "à¤§à¤ľà¤¨": 4255,
      "à¤Ńà¤²à¤ķ": 4256,
      "Ġà¤ħà¤¨à¤¶à¤¨à¤®": 4257,
      "Ġà¤«à¤Ĺà¤¤": 4258,
      "Ġà¤ľà¤µà¤°à¤ľà¤¸": 4259,
      "à¤°à¤ªà¤°": 4260,
      "Ġà¤¨à¤ľà¤¨": 4261,
      "à¤¯à¤²à¤¯à¤ķ": 4262,
      "à¥ªà¥®": 4263,
      "à¤¡à¤²à¤¹à¤°": 4264,
      "Ġà¤¸à¤¹à¤°à¤¹à¤°": 4265,
      "à¤¼à¥į": 4266,
      "à¤ľà¤ªà¤°": 4267,
      "Ġà¤ħà¤Łà¤²": 4268,
      "Ġà¤¹à¤ł": 4269,
      "à¤Ĩà¤¦": 4270,
      "à¤¨à¤¸à¤¹à¤¨": 4271,
      "à¤ĩà¤Łà¤°": 4272,
      "à¤·à¤£à¤ªà¤Ľ": 4273,
      "Ġà¤ªà¤¢à¤¨": 4274,
      "à¤£à¤¤à¤°": 4275,
      "Ġà¤ħà¤¨à¤µà¤°à¤¤": 4276,
      "Ġà¤ħà¤µà¤ľ": 4277,
      "à¤ķà¤ķà¤²": 4278,
      "Ġà¤ĸà¤¶": 4279,
      "à¤°à¤¹à¤£à¤ķ": 4280,
      "Ġà¥§à¥®à¥¯": 4281,
      "Ġà¤ªà¤¸à¤²à¤¬": 4282,
      "à¤¦à¤¨à¤¸": 4283,
      "à¤Ĩà¤°à¤Ĩà¤Ī": 4284,
      "à¤¨à¤¯à¤¨à¤®": 4285,
      "à¤¦à¤¯à¤®": 4286,
      "à¤Ĺà¤¨à¤²": 4287,
      "à¤ĩà¤²à¤¬": 4288,
      "à¤¸à¤¸à¤ıà¤ıà¤«à¤ª": 4289,
      "Ġà¤¶à¤¯": 4290,
      "à¤¡à¤ķà¤ªà¤ķ": 4291,
      "à¤®à¤²à¤Ł": 4292,
      "à¤ľà¤®à¤°": 4293,
      "Ġà¥¨à¥¦à¥¨à¥®": 4294,
      "Ġà¤ħà¤¥à¤ķ": 4295,
      "Ġà¤¯à¤®à¤¨": 4296,
      "à¤ªà¤°à¤¹": 4297,
      "à¤Ŀà¤¸à¤®": 4298,
      "à¤Ĩà¤ĩà¤ª": 4299,
      "à¤¸à¤¸à¤¸": 4300,
      "Ġà¤°à¤¹à¤°à¤²": 4301,
      "Ġà¤ķà¤Ľ": 4302,
      "à¤·à¤°à¤®": 4303,
      "Ġà¤Ĩà¤łà¤¬": 4304,
      "à¤īà¤ªà¤Ĺ": 4305,
      "à¥¨à¥¦à¥¬à¥©": 4306,
      "à¤°à¤¨à¤ķ": 4307,
      "à¤ľà¤¯à¤ª": 4308,
      "Ġà¤²à¤ª": 4309,
      "à¤°à¤ķà¤¹à¤°": 4310,
      "à¤µà¤¸à¤Ń": 4311,
      "à¤¯à¤®à¤§": 4312,
      "Ġà¤¸à¤¹à¤®à¤¹": 4313,
      "Ġà¤ıà¤¨à¤Ĩà¤°à¤ıà¤¨à¤ıà¤ķ": 4314,
      "Ġà¤¬à¤Łà¤¨": 4315,
      "Ġà¤¬à¤®à¤²": 4316,
      "à¤¬à¤®à¤ķ": 4317,
      "à¤ĩà¤¤à¤®": 4318,
      "Ġà¤ĩà¤¯à¤°": 4319,
      "à¤¶à¤¤à¤¬": 4320,
      "Ġà¤¸à¤¹à¤ľà¤ķà¤°": 4321,
      "Ġà¤¹à¤ķà¤²": 4322,
      "à¤¬à¤ªà¤¤": 4323,
      "à¤ĸà¤ª": 4324,
      "Ġà¤Ľà¤²à¤«à¤²à¤¬": 4325,
      "à¤²à¤Ĺà¤®": 4326,
      "à¤®à¤ªà¤Ľ": 4327,
      "à¤µà¤ħà¤¨": 4328,
      "à¤ĸà¤ļ": 4329,
      "Ġà¤ĸà¤¹à¤°": 4330,
      "à¥ªà¥¬": 4331,
      "Ġà¤¨à¤Ŀ": 4332,
      "à¤¶à¤¶à¤°à¤£": 4333,
      "à¤¾à¤ģà¤ģ": 4334,
      "Ġà¤°à¤¹à¤¨à¤¸à¤¹à¤¨": 4335,
      "Ġà¤ıà¤ķà¤ª": 4336,
      "à¤Ĩà¤Īà¤ķ": 4337,
      "à¤¦à¤¨à¤¬": 4338,
      "à¤Ńà¤°à¤Ļ": 4339,
      "Ġà¤ıà¤¸à¤Īà¤ĵ": 4340,
      "à¤ĸà¤ľ": 4341,
      "Ġà¤ªà¤°à¤µ": 4342,
      "à¤ĺà¤ļ": 4343,
      "à¥©à¥¨": 4344,
      "Ġà¥§à¥®à¥®": 4345,
      "à¤łà¤ª": 4346,
      "Ġà¤¸à¤ķà¤Ńà¤°": 4347,
      "à¤¤à¤°à¤¨": 4348,
      "à¤¬à¤°à¤¸à¤®": 4349,
      "Ġà¤¨à¤Ĩà¤ı": 4350,
      "Ġà¤ľà¤¨à¤¸à¤¹à¤Ń": 4351,
      "Ġà¤ķà¤®à¤²à¤°": 4352,
      "à¤Ĩà¤ľà¤ķ": 4353,
      "Ġà¤¦à¤®à¤ķà¤®": 4354,
      "Ġà¤®à¤Ļà¤ª": 4355,
      "à¤®à¤¤à¤®": 4356,
      "Ġà¤ķà¤°à¤²": 4357,
      "à¤§à¤¶à¤¤à¤ķ": 4358,
      "à¤¶à¤¬à¤¹": 4359,
      "à¤ļà¤¯à¤ķà¤°": 4360,
      "à¤¾à¤Ĥà¤ģ": 4361,
      "Ġà¤¨à¤µà¤®": 4362,
      "Ġà¤¨à¤µà¤ª": 4363,
      "Ġà¤ĩà¤Ĺ": 4364,
      "Ġà¤ıà¤¡à¤Ń": 4365,
      "à¤¹à¤¡": 4366,
      "à¤Īà¤ªà¤ķ": 4367,
      "à¤²à¤®à¤¨": 4368,
      "à¤Ŀà¤Ĺà¤¡": 4369,
      "à¤¤à¤¨à¤ªà¤Ľ": 4370,
      "Ġà¤ľà¤Ĺà¤¦à¤®": 4371,
      "à¤Ĳ": 4372,
      "à¤²à¤£": 4373,
      "Ġà¤¥à¤°à¤ķ": 4374,
      "à¤¸à¤¨à¤µ": 4375,
      "Ġà¤¦à¤ĸ": 4376,
      "à¤²à¤¬à¤¬": 4377,
      "à¤¹à¤®à¤¦": 4378,
      "à¤ıà¤¸à¤¨à¤²": 4379,
      "Ġà¤¤à¤¹à¤¸à¤¨": 4380,
      "à¤¤à¤ľà¤¨à¤²": 4381,
      "à¤¸à¤¡à¤ķ": 4382,
      "à¤µà¤¯à¤²": 4383,
      "Ġà¤ļà¤Łà¤ķ": 4384,
      "à¤ĩà¤¡à¤²": 4385,
      "Ġà¤ĺà¤°à¤¸à¤®": 4386,
      "à¤ªà¤ľ": 4387,
      "Ġà¤ĩà¤¦": 4388,
      "Ġà¤Ĺà¤¹à¤¤à¤°": 4389,
      "à¤¢à¤ķ": 4390,
      "à¤£à¤¤à¤¯": 4391,
      "à¤¤à¤ľà¤¸": 4392,
      "Ġà¤¦à¤°à¤°": 4393,
      "Ġà¤ıà¤®à¤¡": 4394,
      "à¤¯à¤Łà¤¨à¤®à¤¨": 4395,
      "Ġà¤°à¤ľà¤¸": 4396,
      "à¤°à¤®à¤¸à¤®": 4397,
      "Ġà¤ĵà¤ľ": 4398,
      "Ġà¤Ĩà¤īà¤¨à¤¸à¤ķ": 4399,
      "Ġà¥§à¥¯à¥¯à¥¨": 4400,
      "Ġà¤¤à¤¹à¤¸à¤¨à¤¹à¤¸": 4401,
      "à¤¡à¤¨à¤²": 4402,
      "à¤ħà¤¤": 4403,
      "à¤°à¤¨à¤Ĺà¤°à¤ķ": 4404,
      "Ġà¤ħà¤²à¤µ": 4405,
      "Ġà¥¨à¥¦à¥©à¥¬": 4406,
      "Ġà¤ıà¤ıà¤«à¤ª": 4407,
      "Ġà¤ħà¤¨à¤§": 4408,
      "à¤¯à¤®à¤¤": 4409,
      "à¤ŀà¤®": 4410,
      "à¤ªà¤²à¤Ł": 4411,
      "Ġà¥¨à¥¦à¥¨à¥§": 4412,
      "Ġà¤®à¤°à¤£": 4413,
      "Ġà¤ıà¤¡à¤®": 4414,
      "Ġà¤Ĩà¤ĩà¤ıà¤®": 4415,
      "Ġà¥§à¥§à¥§": 4416,
      "Ġà¤¹à¤ķà¤¦": 4417,
      "Ġà¤¸à¤®à¤¥à¤°": 4418,
      "Ġà¤Ĩà¤ĩà¤ıà¤¸": 4419,
      "à¤ªà¤°à¤¤": 4420,
      "à¥Įà¤Ĥà¤ĥ": 4421,
      "Ġà¤Ĩà¤ĩà¤¹": 4422,
      "à¤ķà¤¨à¤²": 4423,
      "à¤¯à¤¸à¤²à¤Ĺà¤¤": 4424,
      "Ġà¥§à¥¯à¥®à¥¬": 4425,
      "à¤ĩà¤¬à¤¹": 4426,
      "Ġà¤¬à¤«": 4427,
      "Ġà¤ıà¤ļà¤¡": 4428,
      "à¤®à¤¬à¤²": 4429,
      "à¤¡à¤ķà¤²": 4430,
      "Ġà¤¶à¤¤à¤ķ": 4431,
      "à¤¯à¤®à¤¦": 4432,
      "à¤§à¤¨à¤ª": 4433,
      "à¤²à¤¨à¤¸à¤®": 4434,
      "Ġà¤ľà¤¯à¤¨à¤Ĺà¤°": 4435,
      "à¤¤à¤ħà¤¨": 4436,
      "Ġà¤Ńà¤·": 4437,
      "Ġà¤¯à¤¸à¤µ": 4438,
      "à¤¸à¤¨à¤°": 4439,
      "à¤¨à¤µà¤ľ": 4440,
      "à¤¯à¤¯à¤¨à¤¬": 4441,
      "à¤ĩà¤¨à¤²à¤¸à¤®": 4442,
      "à¤¹à¤Ĺà¤¤": 4443,
      "Ġà¤®à¤¥": 4444,
      "à¤¬à¤¸à¤®": 4445,
      "à¤ĩà¤«à¤²": 4446,
      "Ġà¤ıà¤¥à¤²": 4447,
      "à¤łà¤¨à¤®": 4448,
      "à¤¨à¤ªà¤Łà¤ķ": 4449,
      "Ġà¤¦à¤¶à¤ķà¤¸à¤®": 4450,
      "à¤ĩà¤Ľ": 4451,
      "à¤®à¤Ńà¤¨": 4452,
      "à¤ıà¤¨à¤¸": 4453,
      "Ġà¤µà¤§": 4454,
      "à¤Ĩà¤²": 4455,
      "Ġà¤¶à¤µà¤²": 4456,
      "Ġà¤ľà¤¨à¤ªà¤ķ": 4457,
      "à¤¤à¤°à¤Ĺà¤¤à¤ķ": 4458,
      "à¤Ĩà¤¸": 4459,
      "à¤¸à¤¦à¤¸": 4460,
      "Ġà¤ıà¤²à¤ľ": 4461,
      "à¤ľà¤¤à¤ªà¤¤": 4462,
      "à¤®à¤¸à¤¹": 4463,
      "à¤¦à¤°à¤¹à¤°": 4464,
      "à¤£à¤¸à¤Ń": 4465,
      "à¤Ļà¤ĸ": 4466,
      "Ġà¤§à¤¨à¤²": 4467,
      "à¥¬à¥ª": 4468,
      "à¤®à¤Ĺà¤°à¤ķ": 4469,
      "à¤°à¤Ļà¤²": 4470,
      "à¤Ĺà¤¹": 4471,
      "Ġà¤¤à¤¦à¤¨": 4472,
      "à¤ĩà¤ľà¤ķ": 4473,
      "Ġà¤ķà¤®à¤ķ": 4474,
      "à¤®à¤²à¤Ĺ": 4475,
      "à¤µà¤°à¤£à¤ħà¤¨": 4476,
      "Ġà¤ľà¤Ĺà¤ľ": 4477,
      "Ġà¤Ńà¤Īà¤¨": 4478,
      "à¤®à¤¦à¤¨": 4479,
      "Ġà¤°à¤¹à¤¯": 4480,
      "à¤ĩà¤¨à¤ĸà¤¬": 4481,
      "Ġà¥§à¥¯à¥¯à¥§": 4482,
      "Ġà¤°à¤¤à¤¨": 4483,
      "Ġà¤ħà¤®à¤¨": 4484,
      "à¤Ńà¤²à¤®": 4485,
      "à¤°à¤£à¤µ": 4486,
      "Ġà¥§à¥¦à¥©": 4487,
      "à¤µà¤¤à¤¯": 4488,
      "Ġà¥¨à¥¦à¥ªà¥¦": 4489,
      "à¥įà¤ģ": 4490,
      "à¤¤à¤²à¤ķ": 4491,
      "à¤Ĺà¤Ļ": 4492,
      "Ġà¤Ĩà¤Ĺà¤®": 4493,
      "Ġà¤¦à¤®à¤¨à¤ķ": 4494,
      "Ġà¥¨à¥¦à¥©à¥©": 4495,
      "à¤Ĺà¤ıà¤ķ": 4496,
      "Ġà¤Ľà¤¤à¤®": 4497,
      "à¤Ńà¤¹à¤°": 4498,
      "Ġà¥¦à¥¬à¥©": 4499,
      "Ġà¥§à¥¯à¥¬à¥¦": 4500,
      "à¤ĩà¤¡à¤®": 4501,
      "Ġà¤¯à¤¸à¤ħà¤¨": 4502,
      "à¤¯à¤£à¤®": 4503,
      "Ġà¤¤à¤¹à¤®à¤§": 4504,
      "Ġà¤£": 4505,
      "Ġà¤Ĩà¤Ĭ": 4506,
      "à¤°à¤ķà¤°à¤£à¤²": 4507,
      "à¤°à¤®à¤°": 4508,
      "Ġà¥§à¥¦à¥¨": 4509,
      "Ġà¤«à¤¹à¤°": 4510,
      "à¤ªà¤ķà¤¤": 4511,
      "ĠĠĠĠĠĠĠĠĠĠĠĠ": 4512,
      "à¤¨à¤ªà¤¨": 4513,
      "Ġà¤ħà¤ķà¤°": 4514,
      "Ġà¤¥à¤µ": 4515,
      "Ġà¤ķà¤²à¤¶": 4516,
      "à¤°à¤ªà¤Ł": 4517,
      "Ġà¥©à¥«à¥¦": 4518,
      "à¤ķà¤ħ": 4519,
      "Ġà¤¨à¤ĩ": 4520,
      "Ġà¥§à¥§à¥®": 4521,
      "à¥¨à¥¦à¥Ńà¥¨": 4522,
      "Ġà¤Ńà¤ıà¤¯à¤¤": 4523,
      "à¤°à¤¦à¤®": 4524,
      "Ġà¤Ĩà¤ĩà¤ĵ": 4525,
      "à¤µà¤¯à¤¨à¤²": 4526,
      "Ġà¤Ĺà¤ľà¤²à¤®": 4527,
      "Ġà¤ıà¤«à¤¸": 4528,
      "à¤ķà¤Ńà¤°à¤ķ": 4529,
      "à¤¾à¥Ģ": 4530,
      "Ġà¤ıà¤Ĩà¤ĩà¤ľ": 4531,
      "à¤°à¤ļà¤¨à¤²": 4532,
      "Ġà¤Ńà¤ĩà¤¨à¤¸à¤ķ": 4533,
      "à¤·à¤ħà¤Ĺ": 4534,
      "à¤Ĺà¤¬à¤ľ": 4535,
      "Ġà¤¶à¤°à¤£à¤®": 4536,
      "Ġà¤¬à¤¸à¤¹à¤°": 4537,
      "à¤Ĩà¤Īà¤²": 4538,
      "Ġà¤¤à¤¹à¤¦": 4539,
      "Ġà¥§à¥¯à¥¬à¥¬": 4540,
      "à¤ķà¤¸à¤Ń": 4541,
      "à¤¯à¤°à¤¸": 4542,
      "Ġà¤Ķà¤°à¤¹": 4543,
      "Ġà¤¦à¤¶à¤ķà¤Ńà¤¨": 4544,
      "à¥įà¤Ĥ": 4545,
      "à¤¹à¤ķà¤®": 4546,
      "à¤¡à¤°à¤¹à¤°": 4547,
      "à¤Ľà¤²": 4548,
      "Ġà¤Łà¤¡": 4549,
      "à¤¿à¤Ĥà¤ģ": 4550,
      "à¤µà¤®à¤¹": 4551,
      "à¤®à¤ļà¤²": 4552,
      "Ġà¤ľà¤¨à¤ħà¤ª": 4553,
      "Ġà¥¨à¥ªà¥¦": 4554,
      "à¤ĩà¤µà¤°": 4555,
      "Ġà¤°à¤¹à¤²": 4556,
      "à¥«à¥©": 4557,
      "à¤¨à¤µà¤¶": 4558,
      "Ġà¤ľà¤®à¤ĺ": 4559,
      "Ġà¤Ĩà¤°à¤¸": 4560,
      "à¤ĩà¤£": 4561,
      "à¤±": 4562,
      "à¤ķà¤¦à¤°": 4563,
      "Ġà¤®à¤¶": 4564,
      "Ġà¤ħà¤ļà¤²": 4565,
      "à¤µà¤ķà¤¤": 4566,
      "ĠĠĠĠĠĠĠĠĠĠĠĠĠ": 4567,
      "Ġà¤Ĩà¤²à¤Ł": 4568,
      "Ġà¤¨à¤Łà¤Ĩà¤īà¤Ł": 4569,
      "à¤µà¤µà¤°": 4570,
      "Ġà¤¹à¤¯": 4571,
      "à¤Īà¤µà¤°": 4572,
      "Ġà¥į": 4573,
      "à¤¸à¤ĺ": 4574,
      "à¤µà¤ªà¤ķ": 4575,
      "à¤Ĺà¤ľà¤¸": 4576,
      "Ġà¤¬à¤¬à¤°à¤®": 4577,
      "à¤ĩà¤²à¤²": 4578,
      "Ġà¤¬à¤Ĺà¤°à¤®": 4579,
      "Ġà¤ľà¤¨à¤®à¤¤à¤ķ": 4580,
      "à¤ıà¤«à¤¸": 4581,
      "à¤Īà¤ľà¤¹": 4582,
      "Ġà¤¸à¤®à¤¯à¤Ńà¤¨": 4583,
      "Ġà¤ıà¤¨à¤Ĩà¤ĩà¤¸": 4584,
      "à¤°à¤«à¤²à¤ķ": 4585,
      "Ġà¤ķà¤ľ": 4586,
      "Ġà¤¨à¤Ĺà¤¨": 4587,
      "à¤£à¤ªà¤Ľ": 4588,
      "Ġà¤īà¤¥à¤²": 4589,
      "à¤°à¤¦à¤²": 4590,
      "Ġà¤ħà¤²à¤Ĩà¤īà¤Ł": 4591,
      "Ġà¤¹à¤ķà¤ħà¤§": 4592,
      "Ġà¤ľà¤Ĺà¤¤à¤²": 4593,
      "à¤°à¤£à¤¯": 4594,
      "à¤²à¤ķà¤¤": 4595,
      "à¤¨à¤Ľà¤¨": 4596,
      "à¤¯à¤ªà¤ķ": 4597,
      "Ġà¤¶à¤µà¤ķ": 4598,
      "Ġà¤®à¤¨à¤Ń": 4599,
      "à¤¶à¤¨à¤ħà¤¨": 4600,
      "Ġà¥§à¥§à¥ª": 4601,
      "Ġà¤Ĭà¤¸": 4602,
      "Ġà¤°à¤ĸ": 4603,
      "à¤ĺà¤¹à¤°": 4604,
      "Ġà¤ĵà¤®à¤¨": 4605,
      "à¤Ĩà¤°à¤ª": 4606,
      "à¤ľà¤¦à¤°à¤¬": 4607,
      "à¤®à¤°à¤®": 4608,
      "à¤Ľà¤®": 4609,
      "Ġà¤Ĩà¤µà¤°à¤£": 4610,
      "Ġà¤²à¤«": 4611,
      "Ġà¤ľà¤¨à¤¶": 4612,
      "à¤¹à¤²à¤¤": 4613,
      "Ġà¤¸à¤ªà¤°": 4614,
      "Ġà¤¤à¤°à¤ªà¤¨": 4615,
      "à¤ķà¤²à¤²": 4616,
      "Ġà¤Ķà¤ªà¤¨": 4617,
      "à¤Łà¤Ĩà¤īà¤Ł": 4618,
      "Ġà¤²à¤¥": 4619,
      "à¤·à¤£à¤¸": 4620,
      "à¤ıà¤¸à¤ı": 4621,
      "Ġà¥¨à¥¦à¥©à¥ª": 4622,
      "Ġà¤Ĩà¤Īà¤ķ": 4623,
      "Ġà¤¸à¤¬à¤ķ": 4624,
      "Ġà¤ľà¤¨à¤ķà¤²": 4625,
      "Ġà¤¡à¤Łà¤ķà¤®à¤ķ": 4626,
      "à¤Łà¤¸à¤ķ": 4627,
      "à¤£à¤ªà¤ķ": 4628,
      "Ġà¤Łà¤ķà¤°": 4629,
      "à¤ĩà¤¨à¤¹à¤°": 4630,
      "Ġà¤¸à¤®à¤¯à¤¯à¤¤": 4631,
      "Ġà¥¨à¥¦à¥©à¥«": 4632,
      "à¤ĩà¤¡à¤°": 4633,
      "Ġà¤ħà¤µà¤¤à¤°à¤£à¤ķ": 4634,
      "Ġà¤ĵà¤Ńà¤°à¤¸": 4635,
      "à¤¯à¤Łà¤°": 4636,
      "à¤ļà¤¡": 4637,
      "à¤łà¤¦": 4638,
      "à¤¯à¤®à¤ħà¤¨": 4639,
      "Ġà¤¸à¤¹à¤ħà¤¸": 4640,
      "à¤²à¤®à¤§": 4641,
      "à¤¤à¤¨à¤¬": 4642,
      "Ġà¤ĵà¤ĸ": 4643,
      "à¤ıà¤¨à¤ª": 4644,
      "Ġà¤¹à¤²à¤ļà¤²": 4645,
      "Ġà¤Ĩà¤ıà¤¨à¤¨": 4646,
      "à¤°à¤¨à¤²": 4647,
      "Ġà¤¨à¤®à¤¨": 4648,
      "à¤§à¤Ńà¤¤": 4649,
      "à¤ļà¤ķà¤®": 4650,
      "à¤īà¤ªà¤¤": 4651,
      "à¤¯à¤ķà¤¬": 4652,
      "Ġà¥¦à¥Ńà¥ªà¥Ńà¥«": 4653,
      "Ġà¤°à¤Ł": 4654,
      "à¤°à¤¸à¤®à¤ķ": 4655,
      "Ġà¥¦à¥Ńà¥§": 4656,
      "à¤²à¤¥": 4657,
      "à¤¦à¤¨à¤¨": 4658,
      "à¤ĩà¤®à¤¨": 4659,
      "Ġà¤ľà¤¨à¤ĺ": 4660,
      "à¤µà¤¨à¤ª": 4661,
      "Ġà¥¨à¥¦à¥Ńà¥§à¥Ńà¥¨": 4662,
      "à¤·à¤°à¤ķ": 4663,
      "à¤īà¤ªà¤®": 4664,
      "à¤°à¤£à¤¸à¤®": 4665,
      "à¤ªà¤°à¤Ń": 4666,
      "Ġà¤§à¤°à¤ªà¤ķ": 4667,
      "Ġà¤ľà¤²à¤¶": 4668,
      "Ġà¤¨à¤ªà¤¤": 4669,
      "à¤¯à¤¸à¤¦": 4670,
      "à¤¤à¤°à¤Ĩà¤§": 4671,
      "Ġà¤Ĩà¤Īà¤ıà¤¸": 4672,
      "à¤½à¤½": 4673,
      "à¤¯à¤¶à¤ķ": 4674,
      "Ġà¤²à¤ŀ": 4675,
      "à¤Īà¤ķà¤¨": 4676,
      "Ġà¤¸à¤¦à¤¨à¤²": 4677,
      "Ġà¤¦à¤²à¤Ĺà¤¤": 4678,
      "à¤ļà¤°à¤®": 4679,
      "Ġà¤µà¤¨à¤Ń": 4680,
      "à¤¤à¤µà¤¨à¤¬": 4681,
      "à¤¯à¤°à¤¬à¤ľ": 4682,
      "Ġà¤²à¤ļà¤ķà¤¤": 4683,
      "à¤Łà¤Ĺ": 4684,
      "à¤§à¤ĸ": 4685,
      "à¤¶à¤¨à¤¸": 4686,
      "Ġà¥¨à¥«à¥¬": 4687,
      "Ġà¤¨à¤¯à¤¨": 4688,
      "Ġà¤Ĩà¤ĩà¤ıà¤ķ": 4689,
      "à¤¢à¤²": 4690,
      "Ġà¤Ķà¤°": 4691,
      "Ġà¥§à¥®à¥«": 4692,
      "Ġà¥¨à¥¦à¥ªà¥¨": 4693,
      "à¤²à¤ļà¤¨": 4694,
      "à¤īà¤¦à¤Ľ": 4695,
      "Ġà¤°à¤¹à¤®": 4696,
      "à¥®à¥«": 4697,
      "Ġà¤¦à¤¶à¤Ĺà¤ľ": 4698,
      "Ġà¤Ńà¤ıà¤¨à¤Ńà¤ıà¤ķ": 4699,
      "à¤¨à¤µà¤®": 4700,
      "à¤®à¤Ł": 4701,
      "à¤¤à¤Ĺà¤¤à¤ķ": 4702,
      "Ġà¤¸à¤Ī": 4703,
      "Ġà¤ĸà¤²à¤²": 4704,
      "Ġà¤¯à¤¸à¤ªà¤²": 4705,
      "à¤Ĺà¤°à¤ª": 4706,
      "à¤Łà¤¬à¤ľ": 4707,
      "Ġà¤Ĺà¤«à¤Ĺ": 4708,
      "Ġà¤ıà¤¯à¤°à¤µ": 4709,
      "Ġà¤¦à¤²à¤¬à¤¹": 4710,
      "Ġà¤Ĩà¤Ł": 4711,
      "à¤£à¤µà¤¤": 4712,
      "à¤«à¤¹à¤°": 4713,
      "à¤Ĩà¤Ĺ": 4714,
      "Ġà¤°à¤Ĺà¤¤à¤²": 4715,
      "Ġà¥Ĥ": 4716,
      "Ġà¤°à¤£à¤¬à¤¹": 4717,
      "à¤¸à¤¨à¤¹à¤°": 4718,
      "à¥ªà¥¯": 4719,
      "à¤¼à¥Ģ": 4720,
      "à¤¶à¤µà¤ķ": 4721,
      "à¤¶à¤µà¤°": 4722,
      "Ġà¤ıà¤ķà¤®à¤¤": 4723,
      "à¤ļà¤¨à¤°": 4724,
      "ĠĠĠĠĠĠĠĠĠĠĠĠĠĠ": 4725,
      "Ġà¤ĭà¤Ĺ": 4726,
      "à¤ķà¤ł": 4727,
      "à¤ĸà¤Ń": 4728,
      "à¤ĩà¤®à¤°": 4729,
      "à¤«à¤²à¤ķ": 4730,
      "Ġà¤§à¤¨à¤§": 4731,
      "à¤§à¤ķà¤¹à¤°": 4732,
      "Ġà¥¦à¥¬à¥ª": 4733,
      "Ġà¥§à¥§à¥©à¥®": 4734,
      "Ġà¤®à¤Ľ": 4735,
      "à¤£à¤¸à¤¹": 4736,
      "à¤¤à¤®à¤¨": 4737,
      "Ġà¤ħà¤¬à¤²à¤®": 4738,
      "Ġà¤°à¤¨à¤°à¤ħà¤ª": 4739,
      "Ġà¤ľà¤ľ": 4740,
      "Ġà¤ħà¤¨à¤¶à¤¨à¤ķ": 4741,
      "à¤·à¤¦à¤¬": 4742,
      "Ġà¤ķà¤Łà¤µ": 4743,
      "Ġà¤¨à¤ľà¤°à¤ħà¤¨": 4744,
      "à¤ıà¤Łà¤°à¤®": 4745,
      "à¤°à¤ľà¤¨à¤²": 4746,
      "à¤¸à¤ļà¤¨": 4747,
      "à¤Ĺà¤Ĺ": 4748,
      "Ġà¤«à¤²à¤¤": 4749,
      "à¤¤à¤°à¤ªà¤¶": 4750,
      "Ġà¤ıà¤®à¤ĵ": 4751,
      "Ġà¥§à¥©à¥«": 4752,
      "Ġà¤¤à¤²à¤¬à¤Ńà¤¤": 4753,
      "Ġà¤ħà¤¨à¤¸à¤¨à¤°à¤¤": 4754,
      "Ġà¤īà¤¥à¤²à¤ª": 4755,
      "à¤ľà¤ľ": 4756,
      "à¤Ńà¤ıà¤ªà¤Ľ": 4757,
      "à¤ĩà¤ľà¤®": 4758,
      "Ġà¤«à¤ľ": 4759,
      "Ġà¤ıà¤ķà¤Ńà¤¨": 4760,
      "Ġà¤Łà¤¨à¤ķ": 4761,
      "Ġà¥§à¥«à¥¨à¥¦": 4762,
      "Ġà¤®à¤¹à¤²à¤ķ": 4763,
      "à¤¤à¤°à¤£à¤²": 4764,
      "Ġà¥§à¥¬à¥¯": 4765,
      "à¤ķà¤Łà¤¬": 4766,
      "Ġà¤Ĩà¤Īà¤¡": 4767,
      "Ġà¤¶à¤¹à¤°à¤²": 4768,
      "Ġà¤¡à¤Łà¤ķà¤®à¤²": 4769,
      "à¤Ĺà¤²à¤®à¤¯": 4770,
      "Ġà¤Ĩà¤¬à¤¸": 4771,
      "à¤Īà¤®à¤¤": 4772,
      "à¤ķà¤°à¤ª": 4773,
      "à¤ľà¤¸à¤°": 4774,
      "Ġà¥¨à¥¦à¥Ńà¥¨à¥¦à¥Ńà¥©": 4775,
      "à¤īà¤ªà¤ª": 4776,
      "à¤ĩà¤ķà¤®": 4777,
      "Ġà¤Ĩà¤ĩà¤Łà¤®": 4778,
      "Ġà¤ĸà¤¸à¤Ĩà¤°": 4779,
      "à¤¦à¤¤à¤²": 4780,
      "Ġà¤Ľà¤¨à¤ķ": 4781,
      "Ġà¤Ĩà¤²à¤¸": 4782,
      "Ġà¤īà¤ĺ": 4783,
      "à¤ĩà¤ªà¤Ľ": 4784,
      "à¥Ńà¥Ń": 4785,
      "à¥¬à¥®": 4786,
      "Ġà¥§à¥¦à¥§à¥«": 4787,
      "Ġà¤¹à¤²à¤¹à¤°": 4788,
      "à¤ıà¤«à¤ı": 4789,
      "Ġà¤ħà¤®à¤°à¤Ĺà¤¢": 4790,
      "à¤¯à¤ªà¤Ľ": 4791,
      "à¤Ļà¤¨": 4792,
      "Ġà¤«à¤·": 4793,
      "à¤ķà¤°à¤£à¤¸à¤®": 4794,
      "Ġà¤¦à¤®à¤¦": 4795,
      "à¤¡à¤¸à¤¹": 4796,
      "Ġà¤«à¤²à¤ķ": 4797,
      "Ġà¤§à¤ľ": 4798,
      "Ġà¤®à¤¨à¤¬à¤¹": 4799,
      "à¤¹à¤¸à¤ļ": 4800,
      "à¤¦à¤¯à¤²": 4801,
      "à¤¶à¤¸à¤¹": 4802,
      "Ġà¥§à¥¦à¥§à¥¨": 4803,
      "à¤·à¤¯à¤¬à¤¸": 4804,
      "Ġà¤Ĺà¤ľà¤¬à¤ķ": 4805,
      "à¤Łà¤Ńà¤Ł": 4806,
      "Ġà¤ľà¤²à¤®à¤Ĺ": 4807,
      "à¤¸à¤ıà¤®": 4808,
      "à¤ıà¤Ĺ": 4809,
      "à¤§à¤ķà¤²": 4810,
      "à¤·à¤£à¤µ": 4811,
      "Ġà¤ħà¤®à¤°à¤¸": 4812,
      "Ġà¤Ĩà¤ĩà¤°": 4813,
      "à¤Ķà¤·à¤§à¤ķ": 4814,
      "Ġà¥©à¥©à¥¦": 4815,
      "à¤ľà¤¬à¤ķ": 4816,
      "à¤¬à¤¤à¤®": 4817,
      "Ġà¤Ľà¤¹à¤°": 4818,
      "Ġà¤ļà¤¶": 4819,
      "Ġà¤Ĩà¤µà¤¤": 4820,
      "à¤°à¤ªà¤ŀ": 4821,
      "à¤ıà¤¸à¤ıà¤²": 4822,
      "Ġà¥§à¥Ńà¥«": 4823,
      "à¤Łà¤¬à¤²à¤²": 4824,
      "à¤Łà¤¬à¤²à¤°": 4825,
      "Ġà¤ĸà¤¬à¤°à¤¹à¤°": 4826,
      "à¤Ĺà¤¸à¤¬": 4827,
      "à¤°à¤°à¤¹": 4828,
      "à¥Īà¥ĩ": 4829,
      "Ġà¤¨à¤ĺà¤Ł": 4830,
      "Ġà¤¬à¤°à¤¦": 4831,
      "à¤¡à¤·": 4832,
      "à¤ĩà¤¨à¤Ń": 4833,
      "à¤Ĺà¤¤à¤¤à¤°": 4834,
      "Ġà¤Ĺà¤łà¤¨à¤®": 4835,
      "à¤ķà¤¨à¤ķà¤°": 4836,
      "à¤Ńà¤§": 4837,
      "à¤°à¤®à¤®à¤¨": 4838,
      "Ġà¤¶à¤¸": 4839,
      "à¤¤à¤®à¤¸": 4840,
      "à¤ĵà¤ª": 4841,
      "Ġà¥®à¥§à¥¦": 4842,
      "Ġà¤ħà¤²à¤°": 4843,
      "à¤Łà¤¨à¤Ĺà¤°à¤¸": 4844,
      "à¤µà¤ķà¤¸": 4845,
      "à¤¤à¤²à¤¹à¤°": 4846,
      "Ġà¥§à¥§à¥¯": 4847,
      "Ġà¤Ĩà¤Īà¤¸à¤ķ": 4848,
      "Ġà¤Ĩà¤ĵà¤¸": 4849,
      "à¤¡à¤°à¤ª": 4850,
      "à¤°à¤£à¤¤à¤¯": 4851,
      "Ġà¤ķà¤®à¤®": 4852,
      "à¤Ĺà¤Ńà¤¨": 4853,
      "Ġà¤¬à¤¸à¤¬": 4854,
      "Ġà¤ĵà¤¤": 4855,
      "à¥¬à¥©": 4856,
      "Ġà¤Ńà¤µà¤¨à¤²": 4857,
      "à¤¨à¤¯à¤¨à¤ķ": 4858,
      "à¥ĩà¤ĥ": 4859,
      "Ġà¤¨à¤°à¤ķ": 4860,
      "à¥Ĥà¤Ĥ": 4861,
      "Ġà¤Ĩà¤°à¤ıà¤¸": 4862,
      "Ġà¤ľà¤¯à¤¬à¤¹": 4863,
      "Ġà¤Ĺà¤§": 4864,
      "Ġà¤ħà¤µà¤¸à¤°à¤¬": 4865,
      "à¤·à¤¯à¤¬": 4866,
      "à¤¯à¤¯à¤¨à¤ªà¤Ľ": 4867,
      "ĠĠĠĠĠĠĠĠĠĠĠĠĠĠĠ": 4868,
      "à¤ķà¤Łà¤¸": 4869,
      "Ġà¥¨à¥¦à¥ªà¥©": 4870,
      "à¤²à¤Ĺà¤ķ": 4871,
      "à¤¬à¤ª": 4872,
      "Ġà¤Ľà¤µà¤Ł": 4873,
      "Ġà¤Ĩà¤¶à¤®": 4874,
      "Ġà¤Ńà¤°à¤ĸà¤°": 4875,
      "à¤¤à¤¸à¤Ļ": 4876,
      "à¤¤à¤¸à¤ŀ": 4877,
      "à¤ķà¤ĺ": 4878,
      "à¤§à¤ªà¤¤": 4879,
      "à¤²à¤¯à¤Ń": 4880,
      "Ġà¤¸à¤¤à¤¹à¤¦": 4881,
      "Ġà¤ıà¤¨à¤ıà¤¸": 4882,
      "à¤¯à¤¯à¤¨à¤¹à¤°": 4883,
      "Ġà¤ªà¤°à¤ķà¤®": 4884,
      "à¤¹à¤²à¤ķ": 4885,
      "à¤Łà¤°à¤¦": 4886,
      "à¤¶à¤Ļ": 4887,
      "Ġà¤®à¤¹à¤¤à¤ķ": 4888,
      "à¤¯à¤¨à¤°à¤¤": 4889,
      "Ġà¤¨à¤®à¤°": 4890,
      "à¤ļà¤ªà¤¦": 4891,
      "à¤°à¤¤à¤¬à¤¨": 4892,
      "Ġà¤Ķà¤·à¤¤": 4893,
      "à¤¯à¤Ĺà¤°": 4894,
      "à¤Ļà¤ķà¤¨": 4895,
      "Ġà¤Ĩà¤¯à¤µ": 4896,
      "à¥ªà¥Ń": 4897,
      "Ġà¥¦à¥¬à¥¯": 4898,
      "Ġà¥§à¥¯à¥®à¥¯": 4899,
      "à¤§à¤ļ": 4900,
      "à¤¸à¤ķà¤¸": 4901,
      "à¤¸à¤¨à¤ª": 4902,
      "à¤¤à¤¨à¤µ": 4903,
      "à¤¸à¤¨à¤²à¤ķ": 4904,
      "à¤¹à¤¨à¤²": 4905,
      "à¤ªà¤ļà¤¨": 4906,
      "Ġà¤Ĺà¤£à¤ķ": 4907,
      "à¤¤à¤°à¤ľ": 4908,
      "Ġà¤īà¤®à¤Ļ": 4909,
      "Ġà¤Ĩà¤Īà¤«": 4910,
      "à¤¨à¤Ĺà¤¢": 4911,
      "Ġà¤¤à¤¡": 4912,
      "Ġà¤ĸà¤°à¤¬": 4913,
      "à¤ľà¤¨à¤ľ": 4914,
      "Ġà¤ıà¤ķà¤µà¤°": 4915,
      "à¤ħà¤¦": 4916,
      "à¤¸à¤²à¤Ł": 4917,
      "Ġà¤ķà¤²à¤Ļ": 4918,
      "à¤ĩà¤°à¤¸à¤ķ": 4919,
      "Ġà¥ªà¥«à¥¦": 4920,
      "Ġà¤°à¤¯": 4921,
      "à¤¬à¤°à¤¦": 4922,
      "à¤§à¤Ń": 4923,
      "Ġà¤¤à¤Ĺ": 4924,
      "à¤¯à¤®à¤µà¤°": 4925,
      "Ġà¤Łà¤ļ": 4926,
      "Ġà¥¨à¥¦à¥Ńà¥¬": 4927,
      "Ġà¤¨à¤ľà¤°à¤²": 4928,
      "à¤¤à¤¹à¤Łà¤®": 4929,
      "Ġà¤¨à¤¹à¤°à¤®": 4930,
      "Ġà¤®à¤¤à¤²à¤µ": 4931,
      "à¤¿à¥Ģ": 4932,
      "à¤¤à¤²à¤¨": 4933,
      "Ġà¤®à¤¬": 4934,
      "Ġà¤®à¤¹à¤µà¤ķ": 4935,
      "à¤µà¤¨à¤°à¤ķ": 4936,
      "à¤¦à¤¨à¤ª": 4937,
      "à¥©à¥¯": 4938,
      "à¤ĵà¤¤": 4939,
      "Ġà¤ªà¤¦à¤ķà¤ķ": 4940,
      "Ġà¤ħà¤ªà¤Ń": 4941,
      "Ġà¤ŀ": 4942,
      "à¤ªà¤§": 4943,
      "à¤¬à¤ļ": 4944,
      "à¥©à¥®": 4945,
      "Ġà¤īà¤µ": 4946,
      "à¤ľà¤¨à¤°": 4947,
      "à¤¨à¤®à¤¸": 4948,
      "Ġà¤ıà¤ķà¤¡": 4949,
      "Ġà¤ľà¤¨à¤Ń": 4950,
      "Ġà¤²à¤Ĺà¤¨à¤ĸ": 4951,
      "Ġà¤Ŀà¤¯": 4952,
      "à¤ĩà¤²à¤Łà¤²": 4953,
      "Ġà¤§à¤¨à¤ľà¤¨à¤ķ": 4954,
      "à¤Ĩà¤Īà¤¡": 4955,
      "à¤ıà¤µ": 4956,
      "Ġà¤ıà¤ªà¤®": 4957,
      "à¥ĥà¥ĥ": 4958,
      "à¤¿à¤ģà¤Ĥ": 4959,
      "Ġà¤ıà¤®à¤ª": 4960,
      "Ġà¤µà¤ļà¤¤": 4961,
      "à¤ķà¤²à¤¬": 4962,
      "à¤®à¤ķà¤¹": 4963,
      "Ġà¤ĺà¤°à¤ĺà¤°": 4964,
      "à¤Ĺà¤®à¤§": 4965,
      "Ġà¤¨à¤¹à¤°à¤ķ": 4966,
      "Ġà¤ıà¤«à¤ıà¤®à¤ķ": 4967,
      "Ġà¤¹à¤°à¤£": 4968,
      "à¤¡à¤®à¤ķ": 4969,
      "Ġà¤¯à¤®à¤²": 4970,
      "à¤ľà¤¨à¤¸à¤¹": 4971,
      "à¤°à¤¹à¤¬": 4972,
      "à¤ļà¤²à¤°": 4973,
      "Ġà¤¸à¤°à¤¸à¤²": 4974,
      "Ġà¤µà¤·": 4975,
      "à¤µà¤¨à¤¦": 4976,
      "à¤ªà¤¸à¤Ļ": 4977,
      "Ġà¤¸à¤¶à¤°": 4978,
      "à¤·à¤¯à¤¸": 4979,
      "Ġà¤Ľà¤¹": 4980,
      "Ġà¤ľà¤¯à¤ķ": 4981,
      "à¥©à¥¬": 4982,
      "Ġà¥§à¥§à¥¬": 4983,
      "Ġà¤ľà¤¨à¤ĺà¤¨à¤¤": 4984,
      "à¤ķà¤Ļ": 4985,
      "Ġà¤¯à¤®à¤¦": 4986,
      "Ġà¤ĸà¤²à¤¬à¤²": 4987,
      "Ġà¥Ńà¥«à¥¦": 4988,
      "Ġà¤µà¤¶": 4989,
      "à¤¶à¤¯à¤®": 4990,
      "à¤£à¤¯à¤µ": 4991,
      "à¤Łà¤²à¤°": 4992,
      "à¤µà¤¥": 4993,
      "Ġà¤®à¤ľà¤¸": 4994,
      "Ġà¤ıà¤Ļ": 4995,
      "à¤ľà¤¦à¤°à¤ķ": 4996,
      "Ġà¥Ńà¥«à¥©": 4997,
      "à¤¡à¤¯à¤¨à¤®à¤¨": 4998,
      "à¤¯à¤ĸ": 4999,
      "à¤ľà¤²à¤Ĺ": 5000,
      "à¤ļà¤ķà¤²": 5001,
      "à¤ĺà¤°à¤¬": 5002,
      "Ġà¤®à¤¹à¤ķ": 5003,
      "à¤¯à¤¦à¤²à¤®": 5004,
      "Ġà¥©à¥¬à¥«": 5005,
      "à¤ļà¤ªà¤¦à¤¸": 5006,
      "à¤¨à¤¯à¤²": 5007,
      "à¤¯à¤ŀ": 5008,
      "Ġà¤µà¤Ĺ": 5009,
      "Ġà¤¦à¤§": 5010,
      "à¤ľà¤¨à¤ª": 5011,
      "Ġà¤ħà¤Ńà¤¦": 5012,
      "Ġà¤Ĩà¤īà¤Łà¤²": 5013,
      "Ġà¤¬à¤¥": 5014,
      "à¤¶à¤ľà¤ķ": 5015,
      "à¤Ńà¤µà¤®": 5016,
      "à¤°à¤£à¤¸": 5017,
      "à¤¨à¤¸à¤ªà¤Ł": 5018,
      "à¤¯à¤µà¤¦": 5019,
      "Ġà¤¤à¤²à¤¬à¤®": 5020,
      "à¤¸à¤¨à¤¸à¤®": 5021,
      "Ġà¥§à¥Ńà¥¦": 5022,
      "à¤¸à¤¨à¤²à¤²": 5023,
      "à¤¨à¤°à¤¸": 5024,
      "Ġà¤Ńà¤ĩà¤¯": 5025,
      "à¤®à¤¤à¤¬": 5026,
      "à¤ľà¤¸à¤¹": 5027,
      "Ġà¤¬à¤¹à¤¸à¤²": 5028,
      "Ġà¤¶à¤¹à¤°à¤¬": 5029,
      "à¤«à¤¸à¤²à¤ķ": 5030,
      "à¤¸à¤¨à¤®à¤¨": 5031,
      "à¤¸à¤ħà¤¨": 5032,
      "Ġà¤¬à¤¨à¤ķ": 5033,
      "à¤īà¤ľà¤°": 5034,
      "Ġà¤ĸà¤²à¤¨": 5035,
      "à¤ªà¤¨à¤¸à¤®": 5036,
      "à¥©à¥ª": 5037,
      "Ġà¤ıà¤¸à¤¡": 5038,
      "Ġà¤Ĭà¤¨": 5039,
      "à¤ĩà¤ľà¤¹": 5040,
      "Ġà¤ħà¤ªà¤¤": 5041,
      "Ġà¤¨à¤Ĺà¤°à¤Ń": 5042,
      "à¤¶à¤®à¤§": 5043,
      "Ġà¤Īà¤Ń": 5044,
      "à¤Łà¤µà¤²à¤²": 5045,
      "Ġà¤Ĺà¤ıà¤ªà¤¨": 5046,
      "à¤¿à¥ĭ": 5047,
      "à¤¯à¤²à¤¯à¤²": 5048,
      "à¤Īà¤¨à¤ķ": 5049,
      "à¤Łà¤µà¤²à¤¬": 5050,
      "à¤²à¤¯à¤¤": 5051,
      "Ġà¤¸à¤¹à¤µ": 5052,
      "Ġà¤ıà¤¨à¤Ł": 5053,
      "à¤¬à¤¦à¤¬": 5054,
      "Ġà¤ıà¤¨à¤Ĩà¤°à¤ıà¤¨à¤²": 5055,
      "à¤īà¤ªà¤®à¤¹": 5056,
      "à¤¥à¤°à¤ķ": 5057,
      "Ġà¤ıà¤ķà¤ªà¤ķ": 5058,
      "Ġà¥§à¥¦à¥¬": 5059,
      "à¤¡à¤²à¤¸": 5060,
      "Ġà¤¸à¤²à¤¹": 5061,
      "à¤®à¤¸à¤¨": 5062,
      "à¤ªà¤Ĺ": 5063,
      "à¤µà¤µà¤¤": 5064,
      "Ġà¤¦à¤¬à¤¦à¤¬": 5065,
      "Ġà¤ĸà¤¬à¤°à¤ķ": 5066,
      "Ġà¤ľà¤¨à¤°": 5067,
      "à¤Ŀà¤ªà¤ĸ": 5068,
      "Ġà¤Ńà¤ıà¤ªà¤¶": 5069,
      "Ġà¤Īà¤·": 5070,
      "à¤Ĺà¤łà¤¨à¤Ń": 5071,
      "Ġà¤ķà¤¦à¤®à¤¹à¤°": 5072,
      "Ġà¤Ĺà¤¢à¤µ": 5073,
      "à¤µà¤¬à¤¹": 5074,
      "Ġà¤Ĺà¤Ĺà¤¨à¤ķ": 5075,
      "Ġà¤¹à¤¸à¤¨": 5076,
      "à¤Īà¤²à¤Ĺ": 5077,
      "à¤Ĩà¤īà¤¨": 5078,
      "Ġà¤¨à¤µà¤Ĺà¤ł": 5079,
      "Ġà¤¸à¤¹à¤°à¤²": 5080,
      "Ġà¤ļà¤°à¤£à¤¬à¤¦": 5081,
      "à¤Łà¤Ĩà¤īà¤Łà¤®": 5082,
      "à¤¬à¤²à¤²": 5083,
      "à¤°à¤¹à¤¹à¤°": 5084,
      "à¤¤à¤°à¤¦à¤ķ": 5085,
      "Ġà¤ĩà¤µ": 5086,
      "Ġà¤ħà¤¸à¤°à¤ķ": 5087,
      "à¤®à¤¨à¤¸": 5088,
      "Ġà¤ĵà¤¹à¤¦": 5089,
      "Ġà¤Ńà¤¯à¤°à¤¹": 5090,
      "à¤¨à¤µà¤²à¤ªà¤°": 5091,
      "à¤ķà¤·": 5092,
      "à¤µà¤ķà¤®": 5093,
      "Ġà¤Ľà¤¸": 5094,
      "à¤¤à¤°à¤Ĺ": 5095,
      "à¤¤à¤°à¤ĺ": 5096,
      "à¤ķà¤°à¤¶": 5097,
      "à¤ķà¤°à¤£à¤ªà¤Ľ": 5098,
      "Ġà¥¨à¥¦à¥¨à¥ª": 5099,
      "Ġà¥¨à¥¦à¥©à¥¯": 5100,
      "à¤ķà¤Ĩà¤°": 5101,
      "à¤²à¤ļà¤ķ": 5102,
      "à¤¡à¤¶": 5103,
      "à¤ĩà¤Łà¤¨": 5104,
      "Ġà¤¸à¤¹à¤¦": 5105,
      "à¤¶à¤¨à¤°": 5106,
      "Ġà¤Ĩà¤łà¤°": 5107,
      "à¤ĩà¤¡à¤¬à¤¡": 5108,
      "Ġà¤¤à¤²à¤¬à¤ķ": 5109,
      "à¤¸à¤¬à¤°": 5110,
      "à¤¦à¤¤à¤°": 5111,
      "Ġà¤Ńà¤Ĺà¤¤": 5112,
      "à¤ľà¤°à¤Ń": 5113,
      "à¤¥à¤¸à¤®": 5114,
      "Ġà¤«à¤Ĺ": 5115,
      "Ġà¤§à¤°à¤¤": 5116,
      "Ġà¤¤à¤°à¤¬": 5117,
      "Ġà¥¦à¥¬à¥®": 5118,
      "Ġà¥¦à¥Ńà¥©à¥Ńà¥ª": 5119,
      "à¤ķà¤°à¤¦": 5120,
      "à¤®à¤ľà¤¸": 5121,
      "Ġà¤ħà¤²à¤ķ": 5122,
      "Ġà¤Ĩà¤¥": 5123,
      "Ġà¤ľà¤²à¤ķ": 5124,
      "à¤ĸà¤¨à¤²": 5125,
      "Ġà¤¡à¤Ĺ": 5126,
      "à¤ħà¤µà¤§": 5127,
      "à¥Ńà¥¯": 5128,
      "Ġà¤¦à¤²à¤Ń": 5129,
      "Ġà¤ıà¤®à¤ĵà¤¯": 5130,
      "Ġà¤Ńà¤ľ": 5131,
      "à¤¬à¤°à¤¬à¤¹": 5132,
      "Ġà¤ľà¤¨à¤¸à¤Ń": 5133,
      "à¤Ĩà¤ĩà¤¡": 5134,
      "Ġà¤ıà¤¯à¤°à¤¬à¤¸": 5135,
      "à¤°à¤Ĺà¤°": 5136,
      "à¤Łà¤ħ": 5137,
      "à¤ıà¤¦": 5138,
      "à¤ıà¤£": 5139,
      "à¤¸à¤®à¤²": 5140,
      "à¤Łà¤¨à¤¹": 5141,
      "Ġà¥§à¥§à¥¨": 5142,
      "Ġà¤Ĺà¤ľà¤²à¤¹à¤°": 5143,
      "à¤¿à¥ģ": 5144,
      "à¤¬à¤¶": 5145,
      "à¤¨à¤ķà¤²": 5146,
      "Ġà¤®à¤¹à¤®": 5147,
      "à¤ıà¤¨à¤¡": 5148,
      "Ġà¤¸à¤Łà¤°": 5149,
      "Ġà¤µà¤¨à¤¬": 5150,
      "à¤·à¤¤à¤µ": 5151,
      "à¤Īà¤°à¤¹à¤¨": 5152,
      "à¤®à¤ķà¤µ": 5153,
      "Ġà¤ĺà¤Łà¤¬à¤¢": 5154,
      "Ġà¤Īà¤Łà¤¹à¤°": 5155,
      "à¤ĺà¤¡": 5156,
      "Ġà¤ĺà¤°à¤¤": 5157,
      "Ġà¤¯à¤¸à¤Ń": 5158,
      "Ġà¤¸à¤¹à¤Ĩà¤¯": 5159,
      "Ġà¤ķà¤®à¤¨": 5160,
      "à¤®à¤¨à¤ª": 5161,
      "Ġà¤ĵà¤ĸà¤¤": 5162,
      "à¤Ĩà¤ī": 5163,
      "à¤µà¤¤à¤¸": 5164,
      "à¤°à¤ĸà¤ª": 5165,
      "à¤ķà¤ķà¤®": 5166,
      "à¤¦à¤µà¤¸": 5167,
      "à¤µà¤Łà¤²": 5168,
      "à¤Łà¤®à¤²": 5169,
      "à¤Łà¤ľà¤¸": 5170,
      "à¤¥à¤¹": 5171,
      "à¤°à¤µà¤¶": 5172,
      "Ġà¥¨à¥¦à¥©à¥®": 5173,
      "à¤ľà¤Ĺà¤¢à¤®": 5174,
      "à¤¯à¤ļà¤ķ": 5175,
      "Ġà¤Ĺà¤ıà¤¨": 5176,
      "à¤ıà¤®à¤²": 5177,
      "Ġà¤µà¤¨à¤µ": 5178,
      "Ġà¤ļà¤ŀ": 5179,
      "Ġà¤Ńà¤¨à¤¸": 5180,
      "à¤łà¤¯": 5181,
      "Ġà¤ħà¤¸à¤Ī": 5182,
      "à¤Ĺà¤¤à¤¯": 5183,
      "à¤¥à¤²à¤¸à¤®": 5184,
      "à¤ļà¤°à¤¹à¤°": 5185,
      "à¤Ńà¤°à¤£": 5186,
      "Ġà¤Ĺà¤£à¤ªà¤¤": 5187,
      "à¤Łà¤¨à¤Ĺà¤°à¤¬": 5188,
      "Ġà¤Ĩà¤Ĺà¤®à¤¨à¤¸": 5189,
      "à¤Ĺà¤°à¤£à¤ķ": 5190,
      "Ġà¤Ĩà¤Ĺà¤®à¤¨à¤²": 5191,
      "Ġà¤ķà¤®à¤¬": 5192,
      "à¤¯à¤¨à¤¬": 5193,
      "à¤·à¤£à¤¯": 5194,
      "Ġà¥¨à¥¦à¥ªà¥ª": 5195,
      "à¤µà¤£à¤ķ": 5196,
      "Ġà¤Ĺà¤ĩ": 5197,
      "à¤łà¤¨à¤ķ": 5198,
      "Ġà¤ħà¤¨à¤¸à¤¨à¤®": 5199,
      "à¥ªà¥ª": 5200,
      "à¤£à¤ªà¤¶": 5201,
      "Ġà¤°à¤¥à¤¯": 5202,
      "à¤¡à¤²à¤Ĺ": 5203,
      "Ġà¥§à¥¦à¥§à¥¦": 5204,
      "Ġà¤ħà¤¸à¤¹à¤ľà¤¤": 5205,
      "Ġà¥¨à¥¦à¥©à¥¨": 5206,
      "à¤®à¤Ńà¤ķ": 5207,
      "Ġà¤¨à¤ł": 5208,
      "Ġà¤ıà¤¨à¤¬": 5209,
      "à¤°à¤¸à¤¬": 5210,
      "à¤Ńà¤¨à¤°": 5211,
      "Ġà¤ªà¤¦à¤ļ": 5212,
      "à¤¦à¤®à¤ķ": 5213,
      "à¤ģà¤ģ": 5214,
      "Ġà¤Ĩà¤¯à¤¤": 5215,
      "Ġà¤ľà¤®à¤²": 5216,
      "à¤¡à¤²à¤¬": 5217,
      "à¤ĸà¤¸à¤¹": 5218,
      "à¤«à¤ķà¤¨": 5219,
      "Ġà¤Łà¤Ļ": 5220,
      "à¤ħà¤µ": 5221,
      "Ġà¤Ŀà¤®à¤ķ": 5222,
      "à¥«à¥¬": 5223,
      "à¤¨à¤¨à¤°à¤¸": 5224,
      "à¤Ĩà¤°à¤²": 5225,
      "Ġà¤ħà¤«à¤¸": 5226,
      "à¤¨à¤ĺ": 5227,
      "à¤ķà¤·à¤£": 5228,
      "à¤¯à¤·": 5229,
      "à¤¥à¤¸à¤ļ": 5230,
      "à¤Īà¤Łà¤®": 5231,
      "Ġà¤ĺà¤¸": 5232,
      "à¤ªà¤¨à¤¸": 5233,
      "Ġà¤īà¤ªà¤¬": 5234,
      "Ġà¤ħà¤¸à¤°à¤¬": 5235,
      "à¤Łà¤¨à¤¬": 5236,
      "à¤¯à¤²à¤¸": 5237,
      "Ġà¥§à¥¦à¥Ń": 5238,
      "Ġà¤ªà¤¦à¤²": 5239,
      "à¤¤à¤¨à¤Ĺà¤°à¤ª": 5240,
      "à¤¸à¤°à¤¹à¤°": 5241,
      "à¤Ńà¤µà¤¨": 5242,
      "Ġà¤®à¤¨à¤¤": 5243,
      "à¤ļà¤¨à¤ľ": 5244,
      "Ġà¤ıà¤®à¤Ł": 5245,
      "à¤µà¤°à¤£à¤®à¤¨": 5246,
      "à¤Ńà¤µà¤¬": 5247,
      "à¤¶à¤Ńà¤°à¤¬": 5248,
      "Ġà¤§à¤°à¤ªà¤ķà¤¡": 5249,
      "à¥Ĭ": 5250,
      "Ġà¤¸à¤µà¤¸": 5251,
      "à¤¹à¤ħà¤¨": 5252,
      "à¤ıà¤Ńà¤¨": 5253,
      "Ġà¤¹à¤°à¤ķ": 5254,
      "Ġà¤¹à¤¡à¤ª": 5255,
      "Ġà¤ıà¤Łà¤²": 5256,
      "à¤µà¤¸à¤ļ": 5257,
      "Ġà¤ķà¤°à¤¨": 5258,
      "Ġà¤Ĩà¤¶à¤¯à¤ķ": 5259,
      "Ġà¤Ĩà¤īà¤Ľà¤¨": 5260,
      "Ġà¥§à¥¯à¥®à¥ª": 5261,
      "à¤ķà¤Łà¤¨": 5262,
      "à¤ªà¤¸à¤¬": 5263,
      "Ġà¤Ńà¤°à¤ķ": 5264,
      "à¤·à¤Ĺ": 5265,
      "à¤·à¤°à¤²": 5266,
      "à¤°à¤¤à¤ª": 5267,
      "Ġà¤²à¤Ĺà¤¨": 5268,
      "Ġà¤¨à¤Ĺà¤°à¤ªà¤°": 5269,
      "Ġà¤ħà¤ªà¤¦à¤¸": 5270,
      "à¤ľà¤²à¤¸": 5271,
      "Ġà¥§à¥¨à¥§": 5272,
      "à¤¨à¤¸à¤ªà¤Łà¤²à¤®": 5273,
      "à¤¯à¤¯à¤ķ": 5274,
      "Ġà¤ħà¤¦à¤ķ": 5275,
      "à¤£à¤¯à¤¸": 5276,
      "à¤Ľà¤¯": 5277,
      "Ġà¤¬à¤¨à¤¸": 5278,
      "à¤ħà¤°à¤ķ": 5279,
      "Ġà¤ķà¤²à¤¸": 5280,
      "Ġà¤ªà¤¦à¤®à¤ª": 5281,
      "Ġà¤®à¤²à¤ĸ": 5282,
      "à¤ĩà¤Łà¤¬": 5283,
      "à¤¯à¤£à¤ĺ": 5284,
      "Ġà¥¨à¥Ńà¥«": 5285,
      "Ġà¤ļà¤°à¤£à¤ħà¤¨": 5286,
      "à¤¾à¥ģ": 5287,
      "à¤®à¤°à¤£à¤®": 5288,
      "à¤ĩà¤ªà¤ķ": 5289,
      "à¤łà¤¸à¤®": 5290,
      "à¥§à¥¦à¥¦": 5291,
      "Ġà¤ĺà¤°à¤Ĩ": 5292,
      "à¥¯à¥¯": 5293,
      "Ġà¥§à¥§à¥Ń": 5294,
      "Ġà¥¨à¥©à¥¦": 5295,
      "Ġà¤®à¤Ĺà¤°à¤¹à¤°": 5296,
      "à¤ķà¤¢": 5297,
      "à¤Īà¤Ńà¤¨": 5298,
      "à¤ĸà¤µ": 5299,
      "Ġà¤¤à¤°à¤ĸà¤°à¤®": 5300,
      "Ġà¤ĵà¤®à¤ķ": 5301,
      "à¤¹à¤¨à¤¤à¤ķ": 5302,
      "Ġà¤µà¤¨à¤ľ": 5303,
      "à¤¯à¤¯à¤Ń": 5304,
      "à¤²à¤ļà¤²à¤¨": 5305,
      "Ġà¥§à¥¯à¥®à¥¨": 5306,
      "Ġà¤ªà¤Ĺà¤°": 5307,
      "à¤¬à¤¦à¤¨": 5308,
      "Ġà¤¥à¤ªà¤ķ": 5309,
      "à¤ļà¤¨à¤¸": 5310,
      "Ġà¥¨à¥¦à¥Ńà¥ªà¥¦": 5311,
      "Ġà¤¨à¤Ĩà¤ĵà¤¸": 5312,
      "Ġà¤ªà¤Łà¤ķà¤ªà¤Łà¤ķà¤ķ": 5313,
      "à¤®à¤¯à¤ķ": 5314,
      "à¤ŀà¤¸": 5315,
      "à¥ªà¥¨": 5316,
      "Ġà¥§à¥¯à¥®à¥®": 5317,
      "à¤·à¤°à¤¹à¤°": 5318,
      "à¤ĩà¤ªà¤°": 5319,
      "à¤ĩà¤ķà¤ķ": 5320,
      "à¤Ļà¤¸à¤¹": 5321,
      "à¤Łà¤¨à¤¸": 5322,
      "à¤°à¤µà¤¸": 5323,
      "à¥ģà¥ĥ": 5324,
      "à¤µà¤Ī": 5325,
      "à¤¬à¤Ł": 5326,
      "Ġà¤¤à¤¡à¤ķ": 5327,
      "à¤ĩà¤Ńà¤¨": 5328,
      "Ġà¤¡à¤Ļ": 5329,
      "Ġà¤ķà¤²à¤¹": 5330,
      "à¤·à¤®à¤£": 5331,
      "Ġà¥§à¥«à¥«": 5332,
      "Ġà¥¨à¥¦à¥¨à¥¬": 5333,
      "Ġà¤ĵà¤Ńà¤°à¤Ł": 5334,
      "Ġà¤ıà¤ħà¤°à¤²": 5335,
      "Ġà¤Ŀà¤¡à¤ªà¤ķ": 5336,
      "à¤¦à¤®à¤¨": 5337,
      "à¤¯à¤¸à¤¨à¤ķ": 5338,
      "Ġà¤¸à¤¯à¤¸à¤®": 5339,
      "à¥¯à¥®": 5340,
      "Ġà¥¦à¥¬à¥«": 5341,
      "à¤ķà¤¯": 5342,
      "Ġà¤Ńà¤®": 5343,
      "à¤¥à¤ķà¤ķ": 5344,
      "à¤ļà¤Ńà¤¨": 5345,
      "à¤£à¤ľ": 5346,
      "à¤ĸà¤Ĺà¤ŀ": 5347,
      "Ġà¤§à¤¸": 5348,
      "Ġà¤ħà¤Ńà¤¯": 5349,
      "Ġà¤ļà¤²à¤¨à¤²": 5350,
      "Ġà¤ıà¤®à¤ıà¤¸": 5351,
      "à¤Ĺà¤łà¤¨à¤¬": 5352,
      "Ġà¤ķà¤ķà¤¨": 5353,
      "Ġà¤®à¤ª": 5354,
      "à¤ĩà¤¤à¤²": 5355,
      "à¥ªà¥§": 5356,
      "Ġà¤Ĳà¤¸": 5357,
      "Ġà¥§à¥¨à¥©": 5358,
      "Ġà¥§à¥©à¥¬": 5359,
      "à¤°à¤ł": 5360,
      "à¤ħà¤¨à¤²": 5361,
      "à¤°à¤ªà¤²": 5362,
      "Ġà¥¨à¥¦à¥©à¥Ń": 5363,
      "à¤Īà¤ĵà¤Ł": 5364,
      "à¤¬à¤Ĺ": 5365,
      "à¤¯à¤ķà¤¸": 5366,
      "Ġà¤Łà¤Ł": 5367,
      "Ġà¤¦à¤¶à¤ķà¤¯à¤¤": 5368,
      "à¤ıà¤«à¤ıà¤ķ": 5369,
      "Ġà¥§à¥¯à¥«à¥®": 5370,
      "ĉĠĠ": 5371,
      "à¤Łà¤ľà¤°à¤²": 5372,
      "à¤ıà¤¤à¤²": 5373,
      "Ġà¤ħà¤¨à¤ķ": 5374,
      "à¤¬à¤ĸ": 5375,
      "Ġà¤Łà¤£": 5376,
      "à¥Īà¤Ĥà¤ģ": 5377,
      "Ġà¤¬à¤²à¤¦": 5378,
      "à¤ıà¤¨à¤ıà¤¨": 5379,
      "Ġà¤ħà¤ķà¤¬à¤°": 5380,
      "Ġà¥¨à¥¦à¥©à¥§": 5381,
      "Ġà¤Ĩà¤²à¤®à¤²": 5382,
      "à¥Ŀ": 5383,
      "à¤¤à¤£": 5384,
      "à¤¯à¤µà¤¤": 5385,
      "à¤¹à¤²à¤Ĺ": 5386,
      "Ġà¤Ĺà¤µ": 5387,
      "Ġà¤Ĺà¤°à¤¯": 5388,
      "Ġà¤ıà¤²à¤¸": 5389,
      "Ġà¥©à¥¨à¥¦": 5390,
      "à¥Ńà¥®": 5391,
      "à¤¸à¤¦à¤µ": 5392,
      "à¤¶à¤¨à¤²à¤ķ": 5393,
      "Ġà¤Ĺà¤°à¤®": 5394,
      "à¤«à¤°à¤²": 5395,
      "Ġà¤®à¤¨à¤Ńà¤°": 5396,
      "à¤Ĩà¤°à¤Ł": 5397,
      "à¤Ĺà¤µà¤£": 5398,
      "Ġà¤¦à¤¶à¤°à¤¥à¤ļà¤¨": 5399,
      "à¤¿à¤¿": 5400,
      "à¤¦à¤¤à¤®": 5401,
      "à¤µà¤ļà¤¨": 5402,
      "à¤ıà¤ĩ": 5403,
      "Ġà¤ļà¤¤à¤°": 5404,
      "à¤¯à¤¸à¤¸à¤®": 5405,
      "à¤Łà¤ķà¤¹à¤°": 5406,
      "Ġà¤ĵà¤ķà¤²": 5407,
      "à¤ĵà¤¨": 5408,
      "à¤¹à¤¨à¤¬à¤¹": 5409,
      "à¤ıà¤¨à¤ıà¤¸": 5410,
      "Ġà¤ħà¤«à¤µ": 5411,
      "à¤Łà¤Ĺà¤¤": 5412,
      "à¤ľà¤ħà¤¨": 5413,
      "à¤¡à¤ªà¤ķ": 5414,
      "à¤£à¤Ńà¤ķ": 5415,
      "Ġà¤ĵà¤ĩà¤²": 5416,
      "Ġà¤ħà¤¬à¤²": 5417,
      "à¤µà¤¯à¤¨à¤¸": 5418,
      "à¤®à¤¡": 5419,
      "Ġà¤¨à¤¡à¤°": 5420,
      "à¤§à¤°à¤£à¤²": 5421,
      "à¤¶à¤¤à¤°": 5422,
      "à¤ĸà¤¬à¤¹": 5423,
      "à¤ĸà¤ªà¤¢": 5424,
      "à¤ªà¤¨à¤¹à¤°": 5425,
      "Ġà¤¡à¤ķà¤°": 5426,
      "à¤¯à¤¸à¤ŀ": 5427,
      "à¤¶à¤ķà¤¸": 5428,
      "à¥«à¥§": 5429,
      "Ġà¥§à¥¯à¥Ńà¥«": 5430,
      "Ġà¥§à¥¨à¥¯": 5431,
      "Ġà¤ıà¤¸à¤¬": 5432,
      "Ġà¥§à¥©à¥®": 5433,
      "à¤ĸà¤®à¤¯": 5434,
      "Ġà¥§à¥¯à¥¬à¥¨": 5435,
      "Ġà¤²à¤«à¤¡": 5436,
      "à¤¨à¤ĵà¤Ł": 5437,
      "Ġà¤¬à¤¹à¤ķ": 5438,
      "à¤¡à¤ªà¤Ľ": 5439,
      "Ġà¤Łà¤ªà¤°": 5440,
      "Ġà¤ªà¤¸à¤²à¤²": 5441,
      "à¤¤à¤Ľ": 5442,
      "Ġà¤¨à¤°à¤¦": 5443,
      "Ġà¤¸à¤®à¤¶": 5444,
      "à¤«à¤¸à¤²à¤®": 5445,
      "à¤£à¤¯à¤ª": 5446,
      "Ġà¤ıà¤ķà¤Ľà¤¤": 5447,
      "à¤¦à¤ªà¤Ľ": 5448,
      "à¤ıà¤¶à¤¨à¤ķ": 5449,
      "Ġà¤ľà¤¨à¤¬": 5450,
      "à¤µà¤°à¤¸à¤®": 5451,
      "à¤¯à¤°à¤¡": 5452,
      "Ġà¤¦à¤°à¤µà¤¨": 5453,
      "à¤ļà¤¸à¤¯": 5454,
      "à¤ĭà¤·": 5455,
      "à¤°à¤ľà¤²": 5456,
      "à¤®à¤ķà¤²": 5457,
      "à¤Īà¤¨à¤¨": 5458,
      "à¤¯à¤ķà¤Ĺ": 5459,
      "à¤µà¤°à¤°": 5460,
      "à¥¬à¥§": 5461,
      "à¤µà¤ľà¤¸": 5462,
      "Ġà¤ħà¤§à¤ķ": 5463,
      "à¤·à¤ķà¤¸": 5464,
      "à¤®à¤¨à¤°": 5465,
      "à¥Įà¤ģà¤Ĥ": 5466,
      "Ġà¤Ĩà¤ĩà¤¦": 5467,
      "Ġà¤¸à¤¡à¤ķà¤ª": 5468,
      "Ġà¤¨à¤Ĺà¤Ī": 5469,
      "Ġà¤ªà¤¥à¤®": 5470,
      "à¤¹à¤¬à¤°à¤®": 5471,
      "Ġà¤µà¤¹à¤¸": 5472,
      "à¤ħà¤¡": 5473,
      "Ġà¤¨à¤Ĺà¤°à¤¸": 5474,
      "à¤Ĩà¤ĩà¤ı": 5475,
      "Ġà¤Ĩà¤łà¤ľà¤¨": 5476,
      "Ġà¤ıà¤«à¤¡": 5477,
      "à¤²à¤ªà¤ķ": 5478,
      "à¤®à¤®à¤¨": 5479,
      "à¤¯à¤ªà¤¨": 5480,
      "à¤¦à¤¸à¤¤": 5481,
      "à¤µà¤ªà¤°": 5482,
      "Ġà¤¬à¤²à¤¬": 5483,
      "Ġà¤¸à¤®à¤ª": 5484,
      "à¤¸à¤ķà¤°": 5485,
      "à¤Ĩà¤µà¤¶": 5486,
      "Ġà¥§à¥¨à¥¦à¥¦": 5487,
      "Ġà¤Ńà¤µà¤¨à¤¬": 5488,
      "Ġà¥«à¥«à¥¦": 5489,
      "Ġà¥¦à¥¬à¥§": 5490,
      "à¤¥à¤ªà¤°à¤ķ": 5491,
      "Ġà¤¶à¤ªà¤¥à¤Ĺ": 5492,
      "à¤¨à¤¸à¤²": 5493,
      "Ġà¤°à¤¬à¤°": 5494,
      "Ġà¤ħà¤ľà¤®": 5495,
      "Ġà¤²à¤Ľ": 5496,
      "à¤ĺà¤·": 5497,
      "à¤²à¤ķà¤¸à¤¹": 5498,
      "Ġà¤ķà¤®à¤²à¤ķ": 5499,
      "à¤°à¤ªà¤¥à¤®": 5500,
      "à¤ĩà¤Ńà¤°à¤²": 5501,
      "Ġà¤īà¤ªà¤ķà¤°à¤£à¤®": 5502,
      "Ġà¥¦à¥ªà¥®": 5503,
      "à¤¤à¤¥à¤²": 5504,
      "à¤¹à¤ļ": 5505,
      "à¤µà¤ħà¤°": 5506,
      "à¤¬à¤ķà¤°": 5507,
      "à¤¡à¤ļ": 5508,
      "à¤Ńà¤ª": 5509,
      "Ġà¤¬à¤¸à¤¸": 5510,
      "à¤Łà¤¨à¤°à¤ķ": 5511,
      "à¤¬à¤²à¤Ł": 5512,
      "Ġà¥§à¥«à¥¦à¥¦": 5513,
      "à¤¤à¤¬à¤®": 5514,
      "Ġà¤¬à¤ļà¤¤à¤ķà¤°": 5515,
      "Ġà¥§à¥ªà¥«": 5516,
      "Ġà¥¨à¥¦à¥¨à¥©": 5517,
      "à¤¦à¤°à¤¬à¤ľ": 5518,
      "à¤¹à¤µà¤°à¤®": 5519,
      "Ġà¤Ľà¤¥à¤°": 5520,
      "à¤Īà¤°à¤²": 5521,
      "à¤ľà¤¨à¤¸à¤®": 5522,
      "Ġà¤ĵà¤¤à¤ª": 5523,
      "à¤¦à¤¨à¤¸à¤®": 5524,
      "Ġà¤¸à¤°à¤²à¤¤": 5525,
      "Ġà¥§à¥¯à¥ªà¥Ń": 5526,
      "à¤Īà¤µà¤¸": 5527,
      "à¤²à¤µà¤®": 5528,
      "Ġà¤ªà¤¥à¤ª": 5529,
      "à¤°à¤®à¤Ń": 5530,
      "Ġà¥§à¥¯à¥®à¥Ń": 5531,
      "à¤¸à¤¥": 5532,
      "à¤¸à¤²à¤ķ": 5533,
      "à¤µà¤°à¤¹": 5534,
      "Ġà¤Ľà¤Ľ": 5535,
      "à¤§à¤§à¤°": 5536,
      "à¤Ĩà¤°à¤®": 5537,
      "à¤¹à¤¤à¤®": 5538,
      "Ġà¤Ĩà¤µà¤°": 5539,
      "à¤²à¤¯à¤µ": 5540,
      "à¤¸à¤¨à¤¦": 5541,
      "Ġà¤ĵà¤¨": 5542,
      "à¤¸à¤¹à¤¯": 5543,
      "Ġà¤§à¤¨à¤¸à¤®": 5544,
      "Ġà¤ĸà¤Łà¤ªà¤Ł": 5545,
      "à¤°à¤²à¤ķ": 5546,
      "à¤¨à¤ħ": 5547,
      "à¤ªà¤ķà¤®": 5548,
      "à¤¡à¤¬à¤²": 5549,
      "à¤ĸà¤°à¤²": 5550,
      "à¤łà¤²à¤Ĺ": 5551,
      "à¥Įà¤Ĥà¤Ĥ": 5552,
      "Ġà¤Ĩà¤¶à¤¯à¤ªà¤¤": 5553,
      "à¥ŀ": 5554,
      "à¤°à¤ľà¤ķ": 5555,
      "à¤¨à¤¬à¤°": 5556,
      "Ġà¤Ĩà¤Ĺà¤®à¤¨à¤ķ": 5557,
      "à¤Ļà¤«": 5558,
      "à¥¦à¥Ńà¥¬": 5559,
      "à¤¯à¤¤à¤µ": 5560,
      "Ġà¤ĵà¤łà¤®": 5561,
      "Ġà¤Ĩà¤ĩà¤ıà¤¨à¤ľ": 5562,
      "à¤°à¤®à¤£à¤¹à¤°": 5563,
      "à¤°à¤ĸà¤¨": 5564,
      "Ġà¥©à¥¨à¥«": 5565,
      "à¤ĩà¤°à¤¨": 5566,
      "à¤ĩà¤¤à¤¬": 5567,
      "Ġà¤īà¤ªà¤ľà¤ķ": 5568,
      "à¤²à¤ľà¤¯": 5569,
      "à¤¸à¤ľà¤¨": 5570,
      "à¤ªà¤¸à¤¹": 5571,
      "à¤Łà¤ªà¤¤": 5572,
      "à¤¶à¤¯à¤ķ": 5573,
      "à¤¶à¤Ńà¤¨": 5574,
      "à¤Īà¤¤à¤°": 5575,
      "à¤«à¤°à¤®": 5576,
      "Ġà¤ıà¤²à¤¬": 5577,
      "Ġà¤ķà¤°à¤µ": 5578,
      "Ġà¤Ŀà¤ª": 5579,
      "Ġà¤¬à¤²à¤µ": 5580,
      "Ġà¥§à¥ªà¥®": 5581,
      "à¤Ĺà¤«à¤²": 5582,
      "à¤§à¤¦": 5583,
      "à¤Īà¤¹": 5584,
      "à¤ªà¤¨à¤¦": 5585,
      "à¤²à¤¯à¤ª": 5586,
      "à¥«à¥®": 5587,
      "à¤µà¤²à¤Ĺ": 5588,
      "à¤ıà¤¨à¤ıà¤ķ": 5589,
      "à¤ıà¤®à¤ľ": 5590,
      "Ġà¤¤à¤¹à¤Ĺà¤¤": 5591,
      "Ġà¤ľà¤¨à¤ķà¤°": 5592,
      "à¤ªà¤²à¤®": 5593,
      "à¤§à¤ķà¤®": 5594,
      "à¤°à¤®à¤¸à¤¹": 5595,
      "à¤¯à¤¨à¤¶": 5596,
      "à¤°à¤µà¤ª": 5597,
      "Ġà¥§à¥¨à¥¨": 5598,
      "Ġà¤µà¤«": 5599,
      "à¤°à¤®à¤¶à¤ķ": 5600,
      "Ġà¤Ĳà¤¨à¤¹à¤°": 5601,
      "Ġà¤ľà¤Ĺà¤¤à¤¬à¤¹": 5602,
      "à¤¥à¤¨à¤Ĺà¤°": 5603,
      "à¥«à¥ª": 5604,
      "à¤ķà¤°à¤Ń": 5605,
      "à¤ªà¤Łà¤ķà¤®": 5606,
      "Ġà¥©à¥¬à¥¦": 5607,
      "à¤°à¤Ĩ": 5608,
      "à¤®à¤£à¤ķ": 5609,
      "à¤·à¤ĺ": 5610,
      "Ġà¤Ĺà¤¤à¤¸": 5611,
      "à¤Ĺà¤®à¤Ĺ": 5612,
      "à¤£à¤¯à¤¸à¤®": 5613,
      "à¥įà¥Ī": 5614,
      "à¤®à¤¢": 5615,
      "Ġà¤Ľà¤ªà¤ķ": 5616,
      "Ġà¤ļà¤¯à¤¨à¤®": 5617,
      "à¤ĺà¤¸à¤¸": 5618,
      "à¤²à¤¨à¤ļ": 5619,
      "à¤®à¤¤à¤¦": 5620,
      "à¤®à¤®à¤§": 5621,
      "à¤ľà¤²à¤µ": 5622,
      "Ġà¥§à¥¨à¥¬": 5623,
      "à¤µà¤¯à¤®à¤¸": 5624,
      "Ġà¤¯à¤²": 5625,
      "Ġà¤ļà¤Łà¤ªà¤Ł": 5626,
      "Ġà¤§à¤®à¤¨": 5627,
      "Ġà¤ªà¤¤à¤ŀ": 5628,
      "Ġà¤°à¤ķà¤®à¤®à¤§": 5629,
      "Ġà¤Ĺà¤£à¤°": 5630,
      "Ġà¤¸à¤ľà¤Ĺà¤¤": 5631,
      "à¤®à¤ªà¤¶": 5632,
      "Ġà¤Ĩà¤ıà¤ľà¤¸": 5633,
      "Ġà¤¸à¤°à¤¸à¤°": 5634,
      "à¤§à¤ĺ": 5635,
      "Ġà¤¦à¤¹à¤¨": 5636,
      "à¤¢à¤Ĺ": 5637,
      "Ġà¤ľà¤¨à¤¸à¤°": 5638,
      "Ġà¤¸à¤¬à¤¥": 5639,
      "à¤Łà¤¨à¤°à¤¸": 5640,
      "Ġà¥§à¥¯à¥Ńà¥§": 5641,
      "ĠĠĠĠĠĠĠĠĠĠĠĠĠĠĠĠĠĠĠ": 5642,
      "à¥§à¥¦à¥Ńà¥¨": 5643,
      "Ġà¤ıà¤«à¤ıà¤®à¤²": 5644,
      "à¤ķà¤·à¤ķ": 5645,
      "à¤ıà¤®à¤¬": 5646,
      "Ġà¤®à¤¤à¤®": 5647,
      "Ġà¤¤à¤Ļ": 5648,
      "à¤£à¤²à¤Ĺ": 5649,
      "Ġà¤ıà¤ªà¤ķ": 5650,
      "à¤°à¤¹à¤¸à¤®": 5651,
      "Ġà¤ħà¤ªà¤ļ": 5652,
      "Ġà¥§à¥«à¥©": 5653,
      "Ġà¥¨à¥®à¥¦": 5654,
      "à¤¦à¤¶à¤¨à¤®": 5655,
      "à¤ıà¤Īà¤¸": 5656,
      "Ġà¤ľà¤ļ": 5657,
      "à¤ļà¤Ń": 5658,
      "Ġà¤ªà¤°à¤ľ": 5659,
      "à¤°à¤£à¤µà¤¶": 5660,
      "à¤ĵà¤ĸà¤²à¤¢": 5661,
      "Ġà¤ħà¤µà¤¯à¤µ": 5662,
      "Ġà¤Ĳà¤ļ": 5663,
      "à¥Ńà¥¬à¥®": 5664,
      "à¤°à¤ıà¤ķ": 5665,
      "à¤®à¤°à¤¸": 5666,
      "à¤®à¤®à¤¤": 5667,
      "à¤µà¤ıà¤®": 5668,
      "à¤µà¤¬à¤ľ": 5669,
      "Ġà¤Ńà¤¯à¤²": 5670,
      "à¤¶à¤¹": 5671,
      "à¤ĩà¤²à¤Ĺ": 5672,
      "Ġà¤ļà¤ĸ": 5673,
      "Ġà¤§à¤¤": 5674,
      "à¤µà¤°à¤µ": 5675,
      "Ġà¥§à¥Ńà¥®": 5676,
      "Ġà¥¨à¥¨à¥«": 5677,
      "Ġà¤Ńà¤°à¤¤à¤°": 5678,
      "Ġà¤¶à¤°à¤¦à¤ķ": 5679,
      "Ġà¤¨à¤ħà¤ªà¤¨": 5680,
      "à¤¯à¤¯à¤®": 5681,
      "à¤¬à¤¸à¤ķ": 5682,
      "à¤¨à¤ķà¤¤": 5683,
      "à¤Ļà¤Ń": 5684,
      "à¤¨à¤®à¤°": 5685,
      "à¤¤à¤°à¤µà¤¸": 5686,
      "à¤ķà¤²à¤¸": 5687,
      "à¤¶à¤¨à¤ª": 5688,
      "Ġà¥¨à¥¦à¥¨à¥Ń": 5689,
      "à¤¬à¤Īà¤¬": 5690,
      "à¤¦à¤¬à¤²": 5691,
      "à¤¡à¤¨à¤¬": 5692,
      "à¤īà¤¦à¤ķ": 5693,
      "Ġà¤ıà¤¸à¤ķ": 5694,
      "à¤Ļà¤ĸà¤²": 5695,
      "à¤·à¤£à¤ķà¤°": 5696,
      "à¤§à¤¨à¤¸à¤®": 5697,
      "à¥©à¥¦à¥Ńà¥ª": 5698,
      "Ġà¤ļà¤°à¤£à¤¹à¤°": 5699,
      "à¤ľà¤Ńà¤¤": 5700,
      "à¥Ľ": 5701,
      "à¤²à¤¸à¤ķ": 5702,
      "Ġà¤¸à¤¸à¤®": 5703,
      "Ġà¤¤à¤µà¤°à¤®": 5704,
      "à¤ļà¤²à¤¬": 5705,
      "à¤£à¤¨à¤Ĺà¤°": 5706,
      "Ġà¤īà¤łà¤¨": 5707,
      "à¤°à¤¤à¤²à¤Ĺ": 5708,
      "à¤ªà¤°à¤ľ": 5709,
      "Ġà¤¯à¤¸à¤¬à¤°": 5710,
      "Ġà¤īà¤ªà¤ķà¤ª": 5711,
      "à¤°à¤¦à¤ķ": 5712,
      "à¤ªà¤®à¤¤à¤®": 5713,
      "Ġà¤Ŀà¤²à¤ķà¤¹à¤°": 5714,
      "Ġà¤¸à¤®à¤¯à¤¬": 5715,
      "Ġà¤Ĩà¤īà¤¥": 5716,
      "à¤¯à¤£à¤¸": 5717,
      "à¤ĩà¤¨à¤²à¤¬": 5718,
      "Ġà¤ķà¤łà¤ª": 5719,
      "Ġà¥¦à¥«à¥®": 5720,
      "à¤®à¤Ľ": 5721,
      "Ġà¤®à¤Ńà¤¨": 5722,
      "Ġà¤¤à¤Łà¤®": 5723,
      "Ġà¤ªà¤°à¤ª": 5724,
      "à¤¸à¤ķà¤®": 5725,
      "Ġà¤®à¤¹à¤²à¤®": 5726,
      "à¤²à¤®à¤ľ": 5727,
      "Ġà¤¸à¤¯à¤µà¤Ł": 5728,
      "Ġà¥§à¥©à¥§": 5729,
      "à¤·à¤§à¤°à¤¹à¤°": 5730,
      "à¤Ĩà¤°à¤ıà¤¸": 5731,
      "Ġà¤Ĺà¤ľà¤²à¤²": 5732,
      "Ġà¥§à¥¯à¥®à¥«": 5733,
      "à¤¨à¤°à¤¤": 5734,
      "à¤²à¤ħà¤ĺ": 5735,
      "à¤¤à¤ªà¤°": 5736,
      "à¤¦à¤°à¤¹": 5737,
      "Ġà¤Ĺà¤ľà¤®": 5738,
      "Ġà¤¨à¤µà¤¸": 5739,
      "à¤§à¤Ńà¤°": 5740,
      "Ġà¤¤à¤®à¤¸": 5741,
      "à¥Ĥà¥į": 5742,
      "Ġà¤ĸà¤Ľ": 5743,
      "Ġà¤ıà¤Ĩà¤Ī": 5744,
      "à¤¨à¤®à¤Ĺà¤°": 5745,
      "Ġà¤¸à¤°à¤ª": 5746,
      "à¤ľà¤®à¤¸": 5747,
      "à¤£à¤¯à¤ªà¤Ľ": 5748,
      "Ġà¤¬à¤ļà¤¤à¤®": 5749,
      "Ġà¥¨à¥¦à¥¬à¥¨à¥¦à¥¬à¥©": 5750,
      "à¤²à¤¡à¤®à¤¨": 5751,
      "Ġà¤ıà¤¸à¤ĩà¤Ī": 5752,
      "à¤¹à¤£à¤®": 5753,
      "à¤Ĺà¤ĸ": 5754,
      "à¤Ĩà¤ł": 5755,
      "Ġà¤ıà¤®à¤Ĩà¤Ī": 5756,
      "Ġà¥§à¥¯à¥Ńà¥ª": 5757,
      "Ġà¤§à¤¨à¤ª": 5758,
      "Ġà¤ªà¤¦à¤®à¤¬à¤¹": 5759,
      "Ġà¥¦à¥¬à¥¨": 5760,
      "à¤¨à¤µà¤¸": 5761,
      "à¤¯à¤²à¤¬": 5762,
      "à¤µà¤Ļ": 5763,
      "Ġà¤Ńà¤°à¤¤à¤ķ": 5764,
      "Ġà¤¡à¤®à¤°": 5765,
      "Ġà¥¨à¥§à¥¦": 5766,
      "à¤µà¤¹à¤¨": 5767,
      "Ġà¤°à¤£à¤¬": 5768,
      "à¤Łà¤¤à¤°": 5769,
      "Ġà¤®à¤Ń": 5770,
      "Ġà¤¹à¤Łà¤²": 5771,
      "Ġà¤Ĩà¤ªà¤¨": 5772,
      "Ġà¤ıà¤ķà¤¦à¤²": 5773,
      "à¤¤à¤ķà¤¤": 5774,
      "Ġà¤Īà¤¬": 5775,
      "Ġà¥§à¥¬à¥§": 5776,
      "à¤Ĩà¤ĩà¤¤à¤¬": 5777,
      "à¤²à¤Ī": 5778,
      "à¤ªà¤¦à¤®": 5779,
      "Ġà¤²à¤ļà¤ķ": 5780,
      "à¤¡à¤¤à¤°": 5781,
      "Ġà¤Ńà¤¯à¤µ": 5782,
      "à¤µà¤°à¤£à¤¬": 5783,
      "à¥¨à¥¦à¥§à¥Ń": 5784,
      "à¤¸à¤§": 5785,
      "à¤ľà¤µà¤²": 5786,
      "Ġà¤µà¤¨à¤ª": 5787,
      "à¤«à¤²à¤®": 5788,
      "Ġà¤ıà¤ħà¤°": 5789,
      "Ġà¤¤à¤°à¤µ": 5790,
      "à¤¤à¤ķà¤¬": 5791,
      "à¤§à¤¨à¤Ĺà¤°": 5792,
      "à¤¯à¤¸à¤¬à¤ĸà¤¤": 5793,
      "à¤²à¤ĸà¤¬à¤°": 5794,
      "à¤²à¤°à¤¹à¤°": 5795,
      "à¤µà¤Ńà¤¨": 5796,
      "à¤ľà¤ķà¤°": 5797,
      "Ġà¤ıà¤ªà¤²": 5798,
      "à¥ĥà¥į": 5799,
      "Ġà¤ĺà¤¨à¤®": 5800,
      "à¤µà¤¨à¤°": 5801,
      "à¤·à¤£à¤ªà¤¤": 5802,
      "Ġà¥§à¥«à¥¬": 5803,
      "Ġà¤Ĩà¤ķà¤·": 5804,
      "Ġà¤ıà¤²à¤Īà¤¡": 5805,
      "ĠĠĠĠĠĠĠĠĠĠĠĠĠĠĠĠĠ": 5806,
      "à¥Īà¤¾": 5807,
      "Ġà¤¨à¤¤à¤®à¤¸": 5808,
      "à¤ıà¤ķà¤¤": 5809,
      "Ġà¤ľà¤¯à¤¶": 5810,
      "à¤°à¤£à¤ª": 5811,
      "Ġà¥¨à¥¦à¥®": 5812,
      "à¤Łà¤°à¤Ń": 5813,
      "Ġà¤ªà¤¦à¤µ": 5814,
      "Ġà¤Ĩà¤ĩà¤ķà¤¨": 5815,
      "Ġà¤¥à¤ªà¤ĺà¤Ł": 5816,
      "à¤ķà¤Łà¤¹à¤°": 5817,
      "Ġà¤ĭà¤£à¤¬": 5818,
      "Ġà¤Ĺà¤ĩà¤°à¤¹à¤¨": 5819,
      "à¤Īà¤¸à¤¯": 5820,
      "Ġà¤¹à¤¦à¤¬à¤¨": 5821,
      "à¤Ĺà¤Ńà¤Ļ": 5822,
      "à¤¨à¤Łà¤®": 5823,
      "Ġà¤°à¤¸à¤®": 5824,
      "à¤¶à¤¨à¤¦": 5825,
      "Ġà¤¬à¤²à¤ľà¤«": 5826,
      "à¤°à¤ªà¤¥à¤ķ": 5827,
      "Ġà¥§à¥«à¥®": 5828,
      "à¤Īà¤ķà¤²à¤®": 5829,
      "à¤īà¤¦à¤¯à¤ª": 5830,
      "Ġà¥§à¥©à¥ª": 5831,
      "à¤¸à¤¬à¤ķ": 5832,
      "Ġà¤¨à¤Ĩà¤ıà¤¸à¤®": 5833,
      "Ġà¥§à¥¯à¥Ńà¥®": 5834,
      "à¤®à¤²à¤®": 5835,
      "Ġà¤¹à¤Ĺ": 5836,
      "à¤Īà¤Łà¤¹à¤°": 5837,
      "Ġà¤®à¤¨à¤¬": 5838,
      "Ġà¤Ŀà¤Ŀà¤²": 5839,
      "à¤ĵà¤ıà¤¸": 5840,
      "Ġà¥§à¥«à¥§": 5841,
      "Ġà¤¤à¤¡à¤ķà¤Ń": 5842,
      "à¤°à¤ªà¤ķ": 5843,
      "à¤®à¤ł": 5844,
      "à¤·à¤ªà¤¹": 5845,
      "Ġà¤ħà¤¨à¤¸": 5846,
      "à¥«à¥¯": 5847,
      "à¤ķà¤Łà¤ª": 5848,
      "Ġà¥§à¥¯à¥®à¥§": 5849,
      "à¥Ńà¥©à¥Ńà¥ª": 5850,
      "Ġà¥¦à¥Ńà¥«à¥Ńà¥¬": 5851,
      "ĠĠĠĠĠĠĠĠĠĠĠĠĠĠĠĠĠĠĠĠĠĠĠĠĠĠĠĠĠĠĠĠĠĠĠĠĠĠĠĠĠĠĠĠĠĠĠĠĠĠĠĠĠĠĠĠĠĠĠĠĠĠĠĠĠĠĠĠĠĠĠĠĠĠĠĠĠĠĠĠĠĠĠĠĠĠĠĠĠĠĠĠĠĠĠĠĠĠĠĠĠĠĠĠĠĠĠĠĠĠĠĠĠĠĠĠĠĠĠĠĠĠĠĠĠĠĠĠ": 5852,
      "Ġà¤Ľà¤¯": 5853,
      "à¤«à¤¸à¤²": 5854,
      "Ġà¤¶à¤ª": 5855,
      "à¤łà¤¤à¤®": 5856,
      "Ġà¤«à¤°à¤®": 5857,
      "à¤ħà¤µà¤°": 5858,
      "à¥©à¥Ń": 5859,
      "Ġà¥§à¥¬à¥¬": 5860,
      "Ġà¤ľà¤¨à¤®à¤¤à¤²": 5861,
      "Ġà¤¹à¤Ļà¤ķà¤Ļà¤¸": 5862,
      "Ġà¤Łà¤¨à¤ķà¤ª": 5863,
      "à¤ķà¤°à¤¬à¤°": 5864,
      "à¤¦à¤¶à¤¨à¤ķ": 5865,
      "à¤Łà¤°à¤µ": 5866,
      "à¤ŀà¤¬à¤¹": 5867,
      "Ġà¤ĺà¤°à¤ľà¤®": 5868,
      "à¤¹à¤¨à¤ª": 5869,
      "à¤®à¤¬à¤¦": 5870,
      "Ġà¤Ĩà¤ıà¤Ľ": 5871,
      "Ġà¤®à¤¹à¤°à¤²": 5872,
      "Ġà¤·à¤·": 5873,
      "à¤Ĺà¤ļà¤²à¤¨": 5874,
      "à¤ķà¤°à¤¸": 5875,
      "à¤²à¤µà¤°": 5876,
      "Ġà¤¤à¤²à¤¤": 5877,
      "Ġà¤ļà¤ķà¤¨": 5878,
      "Ġà¤łà¤£": 5879,
      "à¤²à¤µà¤¹": 5880,
      "Ġà¥§à¥¬à¥®": 5881,
      "ĠĠĠĠĠĠĠĠĠĠĠĠĠĠĠĠĠĠ": 5882,
      "à¤µà¤¸à¤¹à¤®à¤¤": 5883,
      "à¤Ĺà¤ªà¤Ľ": 5884,
      "Ġà¤Ĩà¤¶à¤ķ": 5885,
      "Ġà¤§à¤¬": 5886,
      "à¤¹à¤ķà¤¸": 5887,
      "Ġà¤ħà¤ªà¤Ĺ": 5888,
      "à¤ĩà¤²à¤Łà¤ķ": 5889,
      "Ġà¤¨à¤µà¤īà¤¦": 5890,
      "Ġà¤¸à¤¹à¤°à¤¬": 5891,
      "à¤ªà¤²à¤Ĺ": 5892,
      "à¤ªà¤¦à¤ķ": 5893,
      "à¤£à¤ĸ": 5894,
      "Ġà¤ĺà¤¨à¤¤": 5895,
      "Ġà¤¹à¤°à¤«": 5896,
      "Ġà¤ıà¤®à¤ľ": 5897,
      "à¤¨à¤Ĺà¤°à¤¬": 5898,
      "Ġà¥¨à¥§à¥Ń": 5899,
      "à¤¶à¤¨à¤²à¤²": 5900,
      "Ġà¤ĸà¤²à¤Ļ": 5901,
      "à¤®à¤§à¤¨": 5902,
      "à¤¸à¤¤à¤ķ": 5903,
      "Ġà¤¸à¤¨à¤ķ": 5904,
      "à¤ªà¤Ń": 5905,
      "à¤µà¤ħà¤ĺ": 5906,
      "à¤·à¤¬à¤¹": 5907,
      "Ġà¤Ĩà¤Ĺà¤®à¤¨à¤®": 5908,
      "Ġà¤²à¤¹à¤²": 5909,
      "à¤°à¤®à¤ªà¤Ľ": 5910,
      "Ġà¤īà¤ªà¤ķà¤°à¤£à¤²": 5911,
      "à¤Ĩà¤¹": 5912,
      "à¤ĵà¤¹à¤°": 5913,
      "à¤°à¤ļà¤²à¤¨à¤²": 5914,
      "Ġà¤Īà¤ŀ": 5915,
      "à¤µà¤Ńà¤°à¤¬": 5916,
      "Ġà¤¹à¤Ļà¤ķà¤Ļà¤¬": 5917,
      "à¤¯à¤ľà¤¨à¤¬": 5918,
      "à¤ļà¤¥à¤°à¤®": 5919,
      "Ġà¤ģ": 5920,
      "Ġà¤Ĥ": 5921,
      "à¤¤à¤ĸà¤¤": 5922,
      "Ġà¤Ĺà¤ľà¤¬": 5923,
      "à¤ĩà¤¤à¤ķ": 5924,
      "à¤¨à¤®à¤²": 5925,
      "Ġà¤§à¤¨à¤µ": 5926,
      "Ġà¤®à¤¨à¤°": 5927,
      "à¥ªà¥©": 5928,
      "Ġà¤ĺà¤°à¤ĸà¤°": 5929,
      "à¤¹à¤¨à¤µ": 5930,
      "à¤®à¤¬à¤ľ": 5931,
      "Ġà¤Ĩà¤Īà¤ıà¤®": 5932,
      "Ġà¥§à¥¯à¥«à¥©": 5933,
      "Ġà¥§à¥¯à¥ªà¥®": 5934,
      "à¥ģà¥ģà¤ģ": 5935,
      "à¤ĩà¤®à¤®": 5936,
      "à¤°à¤¸à¤¯": 5937,
      "à¤ļà¤¨à¤¹à¤°": 5938,
      "Ġà¤¢à¤ķà¤®à¤ķ": 5939,
      "Ġà¤ħà¤Ĺà¤®": 5940,
      "Ġà¤®à¤¨à¤®à¤¸": 5941,
      "Ġà¤°à¤Ĺ": 5942,
      "à¤·à¤ļ": 5943,
      "à¤īà¤ªà¤ļ": 5944,
      "à¤ĩà¤ħà¤ķ": 5945,
      "Ġà¤ıà¤®à¤Ĩà¤°à¤ª": 5946,
      "à¤°à¤ľà¤¨à¤ķ": 5947,
      "à¤Łà¤°à¤¸à¤¹": 5948,
      "Ġà¥¨à¥¦à¥¨à¥¯": 5949,
      "à¤¨à¤¸à¤¨": 5950,
      "Ġà¤Ĩà¤¸à¤®": 5951,
      "Ġà¤ħà¤¨à¤µ": 5952,
      "à¤ķà¤®à¤¨": 5953,
      "à¤¸à¤¨à¤¹": 5954,
      "à¤¨à¤¨à¤¸à¤ķ": 5955,
      "Ġà¥¨à¥¦à¥Ńà¥¦à¥Ńà¥§": 5956,
      "à¤ľà¤Ĺà¤¢à¤ķ": 5957,
      "Ġà¤ķà¤µà¤°": 5958,
      "Ġà¤Ľà¤°à¤ªà¤¸": 5959,
      "Ġà¤Ĩà¤¹à¤¤": 5960,
      "Ġà¤ľà¤¯à¤¸": 5961,
      "à¤ļà¤¤à¤°": 5962,
      "à¤ĩà¤ĸ": 5963,
      "à¥¯à¥ª": 5964,
      "Ġà¤ıà¤ħà¤°à¤ª": 5965,
      "à¤²à¤¯à¤¸à¤¹": 5966,
      "Ġà¤ªà¤§": 5967,
      "à¤¦à¤īà¤¨": 5968,
      "Ġà¤¹à¤¬à¤²": 5969,
      "Ġà¤ľà¤ķà¤¡": 5970,
      "à¤ħà¤ĸ": 5971,
      "Ġà¤Ĩà¤īà¤¨à¤ķ": 5972,
      "Ġà¥¯à¥§à¥¦": 5973,
      "Ġà¤¦à¤²à¤¦à¤²à¤®": 5974,
      "Ġà¤°à¤ķà¤®à¤¸à¤¹": 5975,
      "Ġà¤®à¤¦à¤°à¤¸": 5976,
      "à¤µà¤ĸ": 5977,
      "à¤¶à¤²à¤ķ": 5978,
      "à¤Īà¤ĸ": 5979,
      "à¤¹à¤°à¤ª": 5980,
      "Ġà¤ĵà¤ıà¤¸": 5981,
      "Ġà¤¢à¤°": 5982,
      "Ġà¤ıà¤¸à¤¯": 5983,
      "Ġà¥§à¥Ńà¥©": 5984,
      "Ġà¤¤à¤²à¤¸à¤®": 5985,
      "Ġà¤Ĺà¤¨à¤°": 5986,
      "à¤Łà¤Ľ": 5987,
      "à¤Īà¤²à¤®": 5988,
      "à¤¡à¤Ł": 5989,
      "Ġà¤¬à¤¨à¤Ń": 5990,
      "Ġà¤ľà¤¨à¤¤à¤¨": 5991,
      "à¤²à¤ķà¤¸": 5992,
      "à¤ŀà¤¨": 5993,
      "à¤ªà¤®à¤¤à¤ķ": 5994,
      "à¤¸à¤¨à¤¸à¤¤": 5995,
      "à¥Įà¤ģà¤ĥ": 5996,
      "à¤°à¤ªà¤Łà¤ķ": 5997,
      "Ġà¥§à¥¨à¥Ń": 5998,
      "à¤µà¤ķà¤ªà¤¬": 5999,
      "Ġà¥¦à¥«à¥§": 6000,
      "à¤²à¤ªà¤®": 6001,
      "à¤ªà¤¸à¤¹à¤°": 6002,
      "à¤µà¤°à¤¦": 6003,
      "à¤Łà¤§": 6004,
      "à¤°à¤¹à¤¯": 6005,
      "Ġà¤Ĺà¤¤à¤¬à¤°": 6006,
      "à¤Ĩà¤ª": 6007,
      "à¤Ĩà¤¤à¤®": 6008,
      "à¤¦à¤°à¤ª": 6009,
      "Ġà¥§à¥¯à¥Ńà¥¬": 6010,
      "Ġà¥¨à¥Ńà¥¦": 6011,
      "Ġà¥¦à¥Ńà¥¬": 6012,
      "Ġà¤¹à¤¤à¤ķ": 6013,
      "à¤§à¤ľ": 6014,
      "à¤¥à¤Ńà¤¨": 6015,
      "à¤¶à¤¬à¤¨": 6016,
      "à¤¯à¤¸à¤ªà¤¶": 6017,
      "à¤Ŀà¤£": 6018,
      "à¤¨à¤¸à¤¯": 6019,
      "Ġà¥§à¥¬à¥¨": 6020,
      "à¤®à¤µà¤¤": 6021,
      "à¤Ĺà¤µà¤¨": 6022,
      "à¤ıà¤®à¤®": 6023,
      "à¤¬à¤¤à¤¬": 6024,
      "Ġà¤ľà¤²à¤¨": 6025,
      "Ġà¤¡à¤°à¤ķ": 6026,
      "à¤°à¤¸à¤µ": 6027,
      "Ġà¤ķà¤®à¤²à¤®à¤£": 6028,
      "Ġà¤ħà¤¸à¤°à¤¹à¤°": 6029,
      "Ġà¤Ńà¤ıà¤¬": 6030,
      "à¤²à¤¬à¤¦": 6031,
      "à¤«à¤²à¤¤": 6032,
      "Ġà¤ĸà¤ªà¤¤à¤ķ": 6033,
      "à¤ĺà¤Łà¤¨à¤ķ": 6034,
      "Ġà¥§à¥¯à¥ªà¥«": 6035,
      "Ġà¥¦à¥Ńà¥¨à¥Ńà¥©": 6036,
      "Ġà¤¬à¤¬à¤°à¤®à¤¹à¤²": 6037,
      "Ġà¤²à¤¹à¤²à¤¹": 6038,
      "à¤¿à¥ĥ": 6039,
      "à¤²à¤¸à¤²": 6040,
      "à¤®à¤ªà¤°": 6041,
      "à¤¦à¤ľ": 6042,
      "Ġà¤Ĺà¤¹à¤ķ": 6043,
      "à¤ıà¤Ń": 6044,
      "à¤¡à¤°à¤¬": 6045,
      "Ġà¤ıà¤ķà¤¹à¤ľ": 6046,
      "Ġà¤Ńà¤ıà¤Ŀ": 6047,
      "Ġà¤°à¤ķà¤®à¤¸à¤®": 6048,
      "Ġà¤¬à¤§à¤¶": 6049,
      "à¤°à¤ħà¤ĺ": 6050,
      "à¤¯à¤¶à¤¨": 6051,
      "à¤µà¤Łà¤®": 6052,
      "Ġà¤¨à¤¸à¤ļ": 6053,
      "Ġà¤Ńà¤¸": 6054,
      "à¤ľà¤®à¤ķ": 6055,
      "à¤§à¤Ĺà¤¯": 6056,
      "à¤°à¤¤à¤¨": 6057,
      "à¤ħà¤¶": 6058,
      "à¥«à¥Ń": 6059,
      "Ġà¤Ķà¤ķ": 6060,
      "à¤°à¤ļà¤²à¤¨à¤ķ": 6061,
      "à¤¡à¤®à¤Ľ": 6062,
      "à¤¡à¤°à¤Ĺ": 6063,
      "à¤µà¤¶à¤¤": 6064,
      "Ġà¤Ńà¤ľà¤¨à¤ķ": 6065,
      "à¤¡à¤ľà¤¸": 6066,
      "à¤Ļà¤¡": 6067,
      "à¤¤à¤²à¤¤": 6068,
      "Ġà¤¢à¤²à¤ķ": 6069,
      "à¤²à¤Ĺà¤¹à¤°": 6070,
      "à¤¹à¤¨à¤¤à¤²": 6071,
      "Ġà¥§à¥©à¥©": 6072,
      "Ġà¥ªà¥«à¥¬": 6073,
      "Ġà¤¡à¤²à¤°à¤¸à¤®": 6074,
      "à¤®à¤·": 6075,
      "à¤¸à¤ıà¤ķ": 6076,
      "à¤¹à¤Ĺ": 6077,
      "à¤ĺà¤¸à¤®": 6078,
      "Ġà¤¹à¤°à¤¸à¤®": 6079,
      "Ġà¤Īà¤Ļ": 6080,
      "Ġà¥§à¥ªà¥ª": 6081,
      "Ġà¤«à¤°à¤ķà¤®": 6082,
      "à¤Ĭà¤®": 6083,
      "à¤Ńà¤ªà¤¤à¤¨à¤ķ": 6084,
      "à¤®à¤¨à¤®": 6085,
      "Ġà¤¬à¤µ": 6086,
      "Ġà¤®à¤°à¤®": 6087,
      "à¤ĩà¤ħà¤¨": 6088,
      "Ġà¤ļà¤¹à¤²": 6089,
      "à¤¸à¤®à¤§": 6090,
      "à¤µà¤°à¤¨": 6091,
      "à¤Łà¤¨à¤°à¤²": 6092,
      "Ġà¤Ńà¤¯à¤Ń": 6093,
      "Ġà¤Ĩà¤¦à¤¤": 6094,
      "à¤Ĺà¤£à¤¤à¤¨": 6095,
      "à¤Ńà¤°à¤¤à¤ª": 6096,
      "à¥įà¥ĭ": 6097,
      "à¤®à¤¦à¤²": 6098,
      "à¤¸à¤ħà¤«": 6099,
      "à¤¹à¤¨à¤®": 6100,
      "Ġà¤¸à¤®à¤§": 6101,
      "à¤«à¤¯": 6102,
      "Ġà¤¯à¤¸à¤ĸ": 6103,
      "Ġà¤īà¤¨à¤¬": 6104,
      "Ġà¤¸à¤¡à¤ķà¤¸à¤®": 6105,
      "Ġà¥§à¥¯à¥§à¥¦": 6106,
      "Ġà¤Ĺà¤®à¤Ĺà¤¢": 6107,
      "à¤Ĩà¤Īà¤ı": 6108,
      "Ġà¤ľà¤¨à¤®à¤¤à¤¸": 6109,
      "Ġà¤ľà¤®à¤ĺà¤Łà¤®": 6110,
      "Ġà¤¸à¤¯à¤²": 6111,
      "Ġà¤¬à¤ķà¤°": 6112,
      "à¤ıà¤ļà¤ķ": 6113,
      "Ġà¤Ĩà¤°à¤¬": 6114,
      "à¤Īà¤¤à¤²": 6115,
      "à¤īà¤ªà¤¨": 6116,
      "Ġà¤¡à¤ļ": 6117,
      "à¤²à¤¨à¤¦": 6118,
      "à¤®à¤¨à¤Ĺà¤°à¤®": 6119,
      "à¥®à¥®": 6120,
      "Ġà¤¸à¤¤à¤ª": 6121,
      "à¤®à¤¸à¤Ļ": 6122,
      "à¤īà¤ªà¤Ń": 6123,
      "Ġà¤¨à¤ļà¤¢": 6124,
      "à¤ķà¤Ĺà¤¢": 6125,
      "à¤Łà¤īà¤ªà¤Ĺ": 6126,
      "Ġà¤¹à¤°à¤¦à¤®": 6127,
      "Ġà¤īà¤¸à¤¬": 6128,
      "à¤ĸà¤ªà¤¤": 6129,
      "à¤ĩà¤¤à¤°": 6130,
      "à¤¸à¤²à¤°": 6131,
      "à¥«à¥¨": 6132,
      "à¤¸à¤¦à¤¦": 6133,
      "à¤ļà¤²à¤¨à¤ķ": 6134,
      "Ġà¤ªà¤²à¤¹à¤°": 6135,
      "à¤Ĺà¤ªà¤ŀ": 6136,
      "à¤ĩà¤¨à¤ĸà¤¬à¤°à¤¸": 6137,
      "à¤¦à¤ļ": 6138,
      "Ġà¤¹à¤¦à¤®": 6139,
      "à¤¬à¤ĩ": 6140,
      "à¤·à¤ľà¤¸": 6141,
      "à¤ĺà¤¤": 6142,
      "Ġà¤¸à¤°à¤°": 6143,
      "Ġà¤ĵà¤ļ": 6144,
      "Ġà¤¸à¤¯à¤ľà¤¨": 6145,
      "Ġà¤ļà¤°à¤¨": 6146,
      "Ġà¤ħà¤ªà¤ļà¤²à¤¨": 6147,
      "Ġà¤ıà¤¨à¤ıà¤®": 6148,
      "à¤¸à¤¸à¤¹à¤°": 6149,
      "à¤¯à¤Łà¤¨à¤¸": 6150,
      "Ġà¤¨à¤Ńà¤ĩà¤ķà¤¨": 6151,
      "à¤®à¤ĺà¤°": 6152,
      "Ġà¤ĺà¤¤": 6153,
      "Ġà¤ħà¤°à¤¬à¤²": 6154,
      "à¤¶à¤ķà¤¦": 6155,
      "Ġà¤Ĩà¤°à¤ª": 6156,
      "à¤ıà¤¨à¤Ĩà¤°": 6157,
      "Ġà¤Ľà¤®à¤Ľà¤®": 6158,
      "à¤¸à¤°à¤Ń": 6159,
      "Ġà¤ªà¤ľ": 6160,
      "à¤¦à¤¯à¤¦": 6161,
      "Ġà¤Ĺà¤ıà¤¸": 6162,
      "Ġà¤®à¤Ĺà¤¨": 6163,
      "à¤£à¤Ń": 6164,
      "à¤ĩà¤®à¤²": 6165,
      "Ġà¤ħà¤¸à¤Ń": 6166,
      "à¤ļà¤¨à¤ħà¤ĺ": 6167,
      "à¤·à¤£à¤ħà¤¨": 6168,
      "Ġà¤ĺà¤°à¤Ńà¤¨": 6169,
      "Ġà¤Ĳà¤°à¤²": 6170,
      "Ġà¤īà¤¡à¤¡": 6171,
      "Ġà¥¦à¥«à¥¯": 6172,
      "à¤ķà¤µà¤°": 6173,
      "à¤¹à¤Ļà¤ķ": 6174,
      "Ġà¤°à¤®à¤¨": 6175,
      "Ġà¤ıà¤ķà¤¢": 6176,
      "Ġà¤¸à¤ķà¤²": 6177,
      "à¤²à¤¯à¤²à¤Ĺ": 6178,
      "Ġà¤¬à¤²à¤ª": 6179,
      "Ġà¤Ĩà¤ĩà¤¡à¤²à¤®": 6180,
      "Ġà¤ħà¤ªà¤ľà¤¸": 6181,
      "Ġà¥§à¥«à¥Ń": 6182,
      "Ġà¥§à¥¬à¥Ń": 6183,
      "à¤ĩà¤«à¤¸": 6184,
      "Ġà¥¦à¥Ńà¥ªà¥¦à¥Ńà¥«": 6185,
      "Ġà¤Ĺà¤ıà¤¨à¤¨": 6186,
      "à¤Ńà¤°à¤²": 6187,
      "à¤ĩà¤®à¤ķ": 6188,
      "Ġà¤ĸà¤¬à¤°à¤®": 6189,
      "Ġà¤īà¤¦à¤¯à¤°": 6190,
      "Ġà¤¸à¤¨à¤¸": 6191,
      "à¤§à¤¨à¤Ĺ": 6192,
      "Ġà¤ĺà¤°à¤Ĺ": 6193,
      "Ġà¤¤à¤ªà¤¶": 6194,
      "Ġà¤Ĩà¤®à¤ļ": 6195,
      "à¤ªà¤£à¤®": 6196,
      "à¤®à¤ªà¤¹": 6197,
      "Ġà¤¨à¤¬à¤¤": 6198,
      "Ġà¥¨à¥¦à¥ªà¥§": 6199,
      "à¥Ńà¥ªà¥Ńà¥«": 6200,
      "Ġà¥¦à¥«à¥¬": 6201,
      "Ġà¤²à¤ĸà¤¨à¤ī": 6202,
      "à¤¨à¤Ńà¤ıà¤ķ": 6203,
      "à¤ķà¤¸à¤ķ": 6204,
      "Ġà¤¸à¤ľà¤ķ": 6205,
      "Ġà¤¦à¤¸à¤ķ": 6206,
      "à¤ļà¤ĺà¤°à¤®": 6207,
      "Ġà¤ľà¤¨à¤ªà¤°": 6208,
      "Ġà¤®à¤¨à¤¶": 6209,
      "Ġà¤®à¤²à¤¦": 6210,
      "à¤°à¤ļà¤¨à¤ķ": 6211,
      "Ġà¥«à¥¦à¥¬à¥¦": 6212,
      "Ġà¤ıà¤²à¤ĩà¤¡": 6213,
      "Ġà¤ıà¤¨à¤Ĩà¤°à¤ıà¤¨à¤ıà¤²": 6214,
      "à¤¾à¥ĭ": 6215,
      "à¤¸à¤¢": 6216,
      "Ġà¤Ĺà¤«à¤®": 6217,
      "à¤¶à¤µà¤ª": 6218,
      "à¤ĩà¤ľà¤²": 6219,
      "Ġà¤ĸà¤°à¤¸": 6220,
      "Ġà¤Ńà¤ıà¤Ńà¤°à¤ķ": 6221,
      "à¤ķà¤¨à¤¹à¤°": 6222,
      "Ġà¥§à¥¯à¥Ńà¥¨": 6223,
      "à¤¨à¤Ĺà¤°à¤¸": 6224,
      "Ġà¥§à¥©à¥Ń": 6225,
      "Ġà¥§à¥ªà¥§à¥«": 6226,
      "Ġà¤Ĩà¤Īà¤ıà¤¨à¤ľ": 6227,
      "à¤¸à¤µà¤¹à¤°": 6228,
      "Ġà¤¡à¤²à¤°à¤Ńà¤¨": 6229,
      "Ġà¥§à¥¯à¥Ńà¥¯": 6230,
      "à¤¯à¤¬à¤°": 6231,
      "à¤¬à¤°à¤¸": 6232,
      "à¤¬à¤°à¤¹à¤°": 6233,
      "à¤¬à¤Ĺà¤°à¤®": 6234,
      "à¤¬à¤¤à¤¸": 6235,
      "à¤Īà¤ı": 6236,
      "à¤ĩà¤Ńà¤®": 6237,
      "Ġà¤ĸà¤¦": 6238,
      "à¤¸à¤®à¤°": 6239,
      "à¤²à¤®à¤ķ": 6240,
      "Ġà¤Ńà¤ıà¤Ľà¤¨": 6241,
      "à¤µà¤®à¤§": 6242,
      "à¥¯à¥§": 6243,
      "Ġà¤®à¤¤à¤¸à¤¹": 6244,
      "à¤ªà¤£à¤²": 6245,
      "Ġà¤¬à¤®à¤¬à¤¹": 6246,
      "Ġà¤Ĩà¤Ĩà¤«à¤¨": 6247,
      "Ġà¥§à¥¯à¥ªà¥¯": 6248,
      "à¤°à¤Ŀ": 6249,
      "à¤®à¤¬à¤°": 6250,
      "à¤ªà¤Łà¤¨": 6251,
      "Ġà¤¨à¤Ĩà¤Ī": 6252,
      "à¤¬à¤¨à¤²": 6253,
      "Ġà¤Ľà¤²à¤ķ": 6254,
      "à¤Īà¤²à¤ķ": 6255,
      "Ġà¤¸à¤®à¤¦": 6256,
      "à¤ĩà¤ªà¤®": 6257,
      "à¤²à¤®à¤¤": 6258,
      "à¤µà¤¨à¤µ": 6259,
      "à¤¤à¤¨à¤¹": 6260,
      "à¤ĵà¤Ńà¤°": 6261,
      "à¤µà¤ªà¤Ł": 6262,
      "Ġà¥¨à¥§à¥«": 6263,
      "à¤Ĭà¤¦": 6264,
      "Ġà¥¦à¥ªà¥Ń": 6265,
      "à¤²à¤Ĺà¤°à¤¹à¤°": 6266,
      "à¤¨à¤°à¤µà¤²": 6267,
      "à¤¹à¤¸à¤ķ": 6268,
      "à¤ľà¤¯à¤®": 6269,
      "Ġà¤µà¤·à¤°": 6270,
      "Ġà¤Ĩà¤łà¤®": 6271,
      "Ġà¤īà¤¤à¤°": 6272,
      "à¤°à¤®à¤¯": 6273,
      "Ġà¤¥à¤®à¤®": 6274,
      "à¤ĺà¤¬à¤¹": 6275,
      "Ġà¤°à¤¹à¤¨à¤ķ": 6276,
      "Ġà¤¯à¤¸à¤¦": 6277,
      "à¤ĵà¤¨à¤²": 6278,
      "Ġà¤ıà¤¸à¤ıà¤®": 6279,
      "Ġà¤¬à¤ļà¤¤à¤ķ": 6280,
      "Ġà¤°à¤®à¤Ŀà¤®": 6281,
      "à¤ķà¤¸à¤ª": 6282,
      "Ġà¤Ĩà¤ļà¤°à¤£à¤ķ": 6283,
      "Ġà¥§à¥¯à¥Ńà¥Ń": 6284,
      "à¥ĭà¥į": 6285,
      "à¤īà¤ŀ": 6286,
      "Ġà¤¸à¤®à¤ļ": 6287,
      "à¤¤à¤¨à¤§": 6288,
      "Ġà¤Ĩà¤Īà¤ıà¤²": 6289,
      "Ġà¤¨à¤Ĩà¤¤": 6290,
      "à¤µà¤¯à¤®à¤²": 6291,
      "à¤¼à¤¿": 6292,
      "à¤°à¤ħà¤°": 6293,
      "à¤ľà¤Ńà¤¨": 6294,
      "à¤¬à¤°à¤¤": 6295,
      "à¤²à¤®à¤®": 6296,
      "à¤¶à¤ķà¤¬": 6297,
      "à¤®à¤®à¤£": 6298,
      "Ġà¤ıà¤®à¤ıà¤®": 6299,
      "à¤²à¤¤à¤¸à¤®": 6300,
      "Ġà¥§à¥¬à¥©": 6301,
      "Ġà¥§à¥Ńà¥¨": 6302,
      "Ġà¤Ĩà¤ıà¤¦": 6303,
      "Ġà¥§à¥¯à¥®à¥©": 6304,
      "à¤§à¤¨à¤¸à¤¹": 6305,
      "à¤¡à¤ķà¤°": 6306,
      "Ġà¤Ĩà¤¯à¤¶": 6307,
      "à¤¸à¤²à¤§": 6308,
      "à¤·à¤£à¤Ńà¤°à¤®": 6309,
      "Ġà¥§à¥¨à¥ª": 6310,
      "Ġà¤Ĩà¤łà¤µ": 6311,
      "Ġà¥Ńà¥ªà¥ª": 6312,
      "à¤ķà¤¥à¤°": 6313,
      "Ġà¤ªà¤¥à¤²": 6314,
      "à¤¹à¤¤à¤°": 6315,
      "à¤Łà¤ĸ": 6316,
      "Ġà¤¦à¤ĸà¤²": 6317,
      "à¤ĩà¤¸à¤°": 6318,
      "à¥Įà¥Īà¤Ĥ": 6319,
      "à¤Ļà¤ľà¤¸": 6320,
      "Ġà¥§à¥¯à¥©à¥¦": 6321,
      "Ġà¤¨à¤Ńà¤ĩà¤¸à¤ķ": 6322,
      "Ġà¤Īà¤£": 6323,
      "à¤Łà¤°à¤ķà¤¨": 6324,
      "Ġà¥¦à¥¬à¥¬": 6325,
      "à¤Ķà¤·à¤§à¤¸à¤¹": 6326,
      "Ġà¤Ĩà¤°à¤ıà¤¸à¤Ĩà¤Ī": 6327,
      "à¤¨à¤¬à¤¨": 6328,
      "Ġà¤ªà¤µà¤¨à¤ķ": 6329,
      "Ġà¤ķà¤ªà¤¨": 6330,
      "à¤ļà¤¯à¤¨": 6331,
      "à¤Ńà¤£": 6332,
      "Ġà¤¶à¤µà¤¯": 6333,
      "Ġà¤ĸà¤Łà¤¨": 6334,
      "à¤ŀà¤¬": 6335,
      "Ġà¥«à¥§à¥¦": 6336,
      "Ġà¤Ĩà¤®à¤°": 6337,
      "Ġà¥¨à¥¦à¥Ńà¥¨à¥¦": 6338,
      "Ġà¥¨à¥§à¥®": 6339,
      "Ġà¥¬à¥«à¥¦": 6340,
      "Ġà¤ħà¤µà¤¶à¤°à¤®": 6341,
      "Ġà¤¸à¤Ĺà¤°": 6342,
      "à¤µà¤īà¤ª": 6343,
      "Ġà¤ķà¤ļà¤¨à¤ķ": 6344,
      "à¤¡à¤ķà¤ķ": 6345,
      "Ġà¤ħà¤§à¤°": 6346,
      "Ġà¤®à¤¨à¤ª": 6347,
      "Ġà¤¸à¤¦à¤¶": 6348,
      "à¤ľà¤Ĺà¤¦": 6349,
      "à¤²à¤¯à¤®à¤§": 6350,
      "Ġà¥§à¥¬à¥ª": 6351,
      "Ġà¤¨à¤Ĩà¤īà¤²": 6352,
      "à¤ĩà¤¬à¤²à¤®": 6353,
      "à¤ķà¤ħà¤ªà¤ķ": 6354,
      "à¤¹à¤¨à¤¸": 6355,
      "Ġà¤¹à¤¦à¤ķ": 6356,
      "à¤¬à¤ľà¤¸": 6357,
      "à¤Īà¤Łà¤²": 6358,
      "Ġà¤¸à¤®à¤¬à¤¨": 6359,
      "Ġà¤ıà¤®à¤ķ": 6360,
      "Ġà¤ªà¤°à¤²": 6361,
      "Ġà¤ıà¤ķà¤ĸ": 6362,
      "à¤°à¤¦à¤¶": 6363,
      "Ġà¤¸à¤¯à¤°": 6364,
      "à¤ķà¤¨à¤¬": 6365,
      "Ġà¤ıà¤¸à¤ıà¤¸": 6366,
      "Ġà¥«à¥¦à¥«à¥¦": 6367,
      "à¤°à¤¥à¤®à¤¤": 6368,
      "à¤ĩà¤ªà¤¬": 6369,
      "Ġà¥¯à¥¯à¥¯": 6370,
      "à¤¡à¤¹à¤²à¤®": 6371,
      "à¤Ĺà¤ı": 6372,
      "Ġà¤¨à¤°à¤¨": 6373,
      "Ġà¤¹à¤£": 6374,
      "à¤Īà¤¸à¤¹": 6375,
      "à¤£à¤ķà¤°": 6376,
      "à¤ľà¤¨à¤µ": 6377,
      "Ġà¤ıà¤ķà¤¬": 6378,
      "à¤µà¤ķà¤ªà¤²": 6379,
      "à¤ħà¤ļà¤²": 6380,
      "à¤°à¤¬à¤ľ": 6381,
      "Ġà¤ħà¤¬à¤¶": 6382,
      "Ġà¤ķà¤²à¤°à¤ķ": 6383,
      "Ġà¤¨à¤ľà¤°à¤¬à¤¨": 6384,
      "Ġà¥¨à¥«à¥©à¥¦": 6385,
      "Ġà¥©à¥¦à¥¦à¥¦": 6386,
      "Ġà¥§à¥©à¥¯": 6387,
      "Ġà¤Ĩà¤¸à¤¨à¤®": 6388,
      "Ġà¥¦à¥¬à¥¨à¥¬à¥©": 6389,
      "Ġà¥¯à¥®à¥«": 6390,
      "Ġà¤¯à¤®à¤¨à¤®": 6391,
      "à¤²à¤īà¤ªà¤°": 6392,
      "à¤¤à¤²à¤²": 6393,
      "à¤ľà¤²à¤ķ": 6394,
      "à¤Īà¤¬à¤¸": 6395,
      "à¤¡à¤µà¤¹à¤°": 6396,
      "à¤°à¤®à¤µ": 6397,
      "Ġà¤ĺà¤°à¤¸": 6398,
      "Ġà¤ĵà¤µ": 6399,
      "Ġà¤ķà¤¸à¤°à¤¤à¤®": 6400,
      "Ġà¤¹à¤°à¤ªà¤²": 6401,
      "Ġà¤Ĩà¤ĩà¤¤": 6402,
      "Ġà¤Ĩà¤ĩà¤¯": 6403,
      "Ġà¥§à¥¯à¥¨": 6404,
      "Ġà¤Ĩà¤¶à¤²": 6405,
      "à¥ĩà¤Ĥà¤ģ": 6406,
      "à¤Ĩà¤°à¤Ĩà¤°": 6407,
      "Ġà¤Ľà¤łà¤ªà¤°": 6408,
      "Ġà¤ħà¤ªà¤¹à¤°à¤£à¤ªà¤Ľ": 6409,
      "Ġà¥¦à¥«à¥ª": 6410,
      "à¤¤à¤²à¤¬": 6411,
      "à¤Ĺà¤Ĺà¤°": 6412,
      "à¤ĩà¤«à¤ķ": 6413,
      "Ġà¤ĸà¤°à¤ķ": 6414,
      "Ġà¤ħà¤¨à¤¸à¤¨à¤ķ": 6415,
      "Ġà¤ķà¤°à¤¸à¤®": 6416,
      "à¤ħà¤°à¤®": 6417,
      "à¤Ĺà¤¤à¤¬": 6418,
      "à¤¦à¤¨à¤¸à¤¹": 6419,
      "Ġà¤Ĩà¤Īà¤ªà¤°": 6420,
      "ĠĠĠĠĠĠĠĠĠĠĠĠĠĠĠĠĠĠĠĠ": 6421,
      "à¤Ńà¤Ĺà¤µà¤¤": 6422,
      "à¤Ńà¤²à¤ªà¤°": 6423,
      "Ġà¤¬à¤¥à¤¨": 6424,
      "Ġà¤®à¤ľà¤µ": 6425,
      "à¤§à¤Ĺ": 6426,
      "à¤Ńà¤Ī": 6427,
      "Ġà¤Ĩà¤ľà¤ªà¤¨": 6428,
      "à¤¡à¤®à¤§": 6429,
      "à¥Īà¤ģà¤Ĥ": 6430,
      "Ġà¤¨à¤¬à¤ľ": 6431,
      "Ġà¤¨à¤Ĺà¤¦à¤®": 6432,
      "Ġà¥¦à¥Ńà¥«à¥¦à¥Ńà¥¬": 6433,
      "Ġà¤¬à¤ª": 6434,
      "à¤ıà¤Ĩà¤°": 6435,
      "à¤ľà¤¤à¤ķ": 6436,
      "à¤ľà¤¸à¤²": 6437,
      "Ġà¤¹à¤ķà¤µ": 6438,
      "à¤ľà¤¨à¤¦": 6439,
      "à¤ľà¤¨à¤ªà¤Ľ": 6440,
      "à¤µà¤ķà¤¬": 6441,
      "Ġà¥§à¥®à¥§": 6442,
      "à¤¸à¤¬à¤®": 6443,
      "à¤ıà¤²à¤ıà¤¨": 6444,
      "à¤ĩà¤¬à¤²à¤ķ": 6445,
      "Ġà¥¦à¥¬à¥¦": 6446,
      "Ġà¤¯à¤®à¤¨à¤ķ": 6447,
      "Ġà¥¦à¥¦à¥Ń": 6448,
      "à¤°à¤¯à¤¸": 6449,
      "à¤¤à¤ĭà¤·": 6450,
      "à¤¸à¤¡à¤°": 6451,
      "à¤ªà¤ľà¤¸": 6452,
      "à¤µà¤£à¤²": 6453,
      "à¤§à¤µà¤²": 6454,
      "à¤°à¤£à¤¦": 6455,
      "à¤²à¤ķà¤¦": 6456,
      "à¤Ĩà¤ĵ": 6457,
      "à¤ĵà¤Ĩà¤°": 6458,
      "Ġà¥«à¥¦à¥¦à¥¦": 6459,
      "Ġà¥§à¥ªà¥¯": 6460,
      "Ġà¥§à¥Ńà¥¬": 6461,
      "à¤ĩà¤¨à¤ĸà¤¬à¤°à¤²": 6462,
      "Ġà¤¤à¤¡à¤ķà¤Ńà¤¡à¤ķ": 6463,
      "à¥įà¥Į": 6464,
      "à¤®à¤°à¤²": 6465,
      "à¤®à¤¹à¤²": 6466,
      "Ġà¤Ĺà¤ĩà¤¹": 6467,
      "Ġà¤¨à¤Ĺà¤£": 6468,
      "Ġà¤¯à¤²à¤®": 6469,
      "Ġà¤ĩà¤¨à¤²": 6470,
      "Ġà¤ļà¤²à¤ħà¤ļà¤²": 6471,
      "Ġà¤ķà¤²à¤µ": 6472,
      "à¤ĩà¤²à¤°": 6473,
      "à¤łà¤ķà¤¸": 6474,
      "à¤łà¤ķà¤¸à¤®": 6475,
      "Ġà¤ľà¤¨à¤¸à¤°à¤ķ": 6476,
      "Ġà¤ĭà¤£à¤¦": 6477,
      "Ġà¤ļà¤ķà¤ļà¤ķ": 6478,
      "Ġà¤¬à¤ļà¤¤à¤ªà¤¤": 6479,
      "Ġà¤²à¤¹à¤°à¤®": 6480,
      "Ġà¥¦à¥«à¥¨": 6481,
      "à¤Łà¤ľ": 6482,
      "Ġà¤¨à¤¥à¤ª": 6483,
      "à¤ıà¤ĩà¤ķ": 6484,
      "Ġà¤®à¤°à¤¹": 6485,
      "Ġà¤¹à¤¥": 6486,
      "à¤«à¤°à¤ª": 6487,
      "Ġà¤ªà¤°à¤¬": 6488,
      "Ġà¤«à¤¯": 6489,
      "à¤ĺà¤°à¤²": 6490,
      "à¤¯à¤¨à¤Ĺà¤°": 6491,
      "à¤Ĺà¤²à¤ª": 6492,
      "Ġà¤¬à¤°à¤«": 6493,
      "à¤¶à¤¨à¤¶": 6494,
      "Ġà¤īà¤łà¤¬à¤¸": 6495,
      "Ġà¥¦à¥¬à¥Ń": 6496,
      "à¤ķà¤¸à¤¨": 6497,
      "à¤¹à¤²à¤¯": 6498,
      "Ġà¤¨à¤Ńà¤°": 6499,
      "Ġà¤¬à¤¯à¤¸": 6500,
      "à¤ıà¤°à¤®": 6501,
      "à¤ıà¤¨à¤®": 6502,
      "Ġà¤¹à¤¬à¤ķ": 6503,
      "à¤°à¤£à¤¸à¤¹": 6504,
      "à¤°à¤¸à¤Ĺ": 6505,
      "à¤¨à¤¨à¤Ĺà¤°à¤®": 6506,
      "Ġà¤ĸà¤°à¤¨": 6507,
      "à¤µà¤°à¤£à¤¸à¤¹": 6508,
      "à¤¸à¤ł": 6509,
      "à¤ĸà¤µà¤°": 6510,
      "Ġà¤¯à¤®à¤¬à¤¹": 6511,
      "Ġà¤¸à¤®à¤¯à¤¤": 6512,
      "Ġà¤łà¤¨": 6513,
      "Ġà¥§à¥«à¥§à¥¬": 6514,
      "à¤¦à¤²à¤¹à¤°": 6515,
      "Ġà¥§à¥ªà¥§": 6516,
      "Ġà¥§à¥Ńà¥¯": 6517,
      "Ġà¤ľà¤¨à¤¸à¤¤": 6518,
      "Ġà¥§à¥¯à¥¬à¥Ń": 6519,
      "Ġà¥§à¥¯à¥¬à¥®": 6520,
      "Ġà¤°à¤ħ": 6521,
      "à¤ıà¤Łà¤°à¤ķ": 6522,
      "Ġà¤®à¤Ī": 6523,
      "Ġà¤µà¤¦à¤²": 6524,
      "à¤·à¤°à¤¶": 6525,
      "Ġà¤¤à¤ľà¤¬": 6526,
      "Ġà¤¶à¤¤à¤µ": 6527,
      "à¤¨à¤®à¤£": 6528,
      "à¤²à¤¨à¤¤": 6529,
      "Ġà¤Ńà¤°à¤¸à¤ķ": 6530,
      "Ġà¥§à¥¯à¥¨à¥¦": 6531,
      "Ġà¥¨à¥¬à¥¦": 6532,
      "Ġà¥¨à¥¬à¥«": 6533,
      "à¤°à¤¨à¤Ĺà¤°à¤¬": 6534,
      "Ġà¥§à¥¯à¥¬à¥«": 6535,
      "Ġà¤¬à¤£": 6536,
      "à¤ľà¤ľà¤¸": 6537,
      "à¤£à¤ķà¤²": 6538,
      "à¤ĩà¤ıà¤ªà¤¨": 6539,
      "à¤ĺà¤Ń": 6540,
      "à¤¦à¤¨à¤¹": 6541,
      "Ġà¥§à¥¯à¥Ńà¥©": 6542,
      "Ġà¤°à¤®à¤ľ": 6543,
      "Ġà¤Ĺà¤łà¤¨à¤ªà¤Ľ": 6544,
      "à¤Ĺà¤¸à¤Ļ": 6545,
      "Ġà¥«à¥§à¥¨": 6546,
      "Ġà¤°à¤¨à¤°à¤ħ": 6547,
      "Ġà¥Ģ": 6548,
      "à¤¸à¤ħà¤°": 6549,
      "à¤ªà¤¯à¤®": 6550,
      "à¤µà¤Īà¤®": 6551,
      "Ġà¤°à¤Ļà¤®": 6552,
      "à¤ľà¤¯à¤¸": 6553,
      "Ġà¤µà¤¦": 6554,
      "à¤¥à¤¨à¤²": 6555,
      "Ġà¤Ĩà¤ıà¤²à¤Ĺà¤¤": 6556,
      "à¤ĸà¤®à¤§": 6557,
      "Ġà¤ıà¤ŀ": 6558,
      "Ġà¤ıà¤ķà¤ł": 6559,
      "à¤¯à¤¤à¤µà¤¶": 6560,
      "à¤ķà¤®à¤®": 6561,
      "à¤ħà¤Ľ": 6562,
      "Ġà¤ħà¤ªà¤¶à¤¬": 6563,
      "Ġà¥§à¥®à¥¨": 6564,
      "Ġà¤ıà¤²à¤ı": 6565,
      "Ġà¥§à¥¯à¥«à¥¯": 6566,
      "Ġà¤ĺà¤Łà¤ķà¤¹à¤°": 6567,
      "à¤¨à¤°à¤¹à¤°": 6568,
      "à¤ķà¤¤à¤²": 6569,
      "à¤¹à¤°à¤¸": 6570,
      "à¤ĩà¤¸à¤²": 6571,
      "Ġà¤ļà¤ªà¤²": 6572,
      "Ġà¤ľà¤¨à¤Ĩà¤ķ": 6573,
      "Ġà¤ħà¤§à¤¬": 6574,
      "à¤Ĺà¤¤à¤Ńà¤¨": 6575,
      "à¤¤à¤®à¤¯": 6576,
      "Ġà¤Ĩà¤ĩà¤¬": 6577,
      "Ġà¥§à¥ªà¥©": 6578,
      "à¤Łà¤¤à¤¨": 6579,
      "à¤ľà¤¯à¤°": 6580,
      "à¤Īà¤¶": 6581,
      "à¤Īà¤Łà¤°": 6582,
      "Ġà¤ľà¤¨à¤īà¤¤": 6583,
      "Ġà¤ĩà¤¨à¤ķ": 6584,
      "Ġà¤ĵà¤¯": 6585,
      "à¤¡à¤ķà¤ªà¤®": 6586,
      "à¤Łà¤®à¤¬": 6587,
      "Ġà¤ıà¤¸à¤¸": 6588,
      "Ġà¤«à¤°à¤ķà¤ªà¤¨": 6589,
      "Ġà¤¸à¤ªà¤¥à¤Ĺ": 6590,
      "Ġà¤ıà¤¨à¤Ĩà¤°à¤Ł": 6591,
      "à¤®à¤°à¤£à¤¶à¤ķ": 6592,
      "Ġà¤ħà¤¹à¤®à¤¦à¤²": 6593,
      "à¤Łà¤Ńà¤°": 6594,
      "Ġà¤¹à¤²à¤¬": 6595,
      "à¤§à¤µà¤°": 6596,
      "à¤£à¤¯à¤¨": 6597,
      "Ġà¤«à¤®": 6598,
      "à¤ĺà¤°à¤¤": 6599,
      "Ġà¤Łà¤ªà¤ķ": 6600,
      "à¤ļà¤¨à¤ľà¤Ļ": 6601,
      "Ġà¥Ńà¥©à¥¦": 6602,
      "Ġà¥¨à¥¦à¥Ńà¥§à¥¦à¥Ńà¥¨": 6603,
      "Ġà¥§à¥«à¥§à¥«": 6604,
      "à¤¥à¤²à¤¤à¤°": 6605,
      "Ġà¤Ĩà¤ļà¤°à¤£à¤®": 6606,
      "à¤Ĩà¤Īà¤ıà¤¸": 6607,
      "Ġà¤ħà¤ľà¤¯à¤ķ": 6608,
      "à¥§à¥Ńà¥¨": 6609,
      "Ġà¤Ĩà¤ĩà¤ıà¤®à¤ĩ": 6610,
      "Ġà¤ħà¤Ĺà¤®à¤µà¤ķ": 6611,
      "à¤¾à¥ĥ": 6612,
      "à¤ķà¤Ĺà¤£": 6613,
      "à¤¦à¤¯à¤°": 6614,
      "à¤·à¤²à¤Ĺ": 6615,
      "à¤Ļà¤µà¤°à¤ķ": 6616,
      "Ġà¤ħà¤¹à¤Ļ": 6617,
      "Ġà¤ļà¤²à¤¨à¤ķ": 6618,
      "à¤¹à¤¨à¤°": 6619,
      "Ġà¤¸à¤¡à¤ķà¤¸": 6620,
      "Ġà¥§à¥«à¥¨": 6621,
      "à¤¨à¤ªà¤ŀ": 6622,
      "Ġà¥¬à¥¦à¥§": 6623,
      "Ġà¥«à¥«à¥«": 6624,
      "à¤ķà¤ªà¤Ľ": 6625,
      "à¥ģà¥Ĥ": 6626,
      "Ġà¤¸à¤°à¤®": 6627,
      "à¤Ĺà¤µà¤¶": 6628,
      "à¤¥à¤¦": 6629,
      "à¤ļà¤ķà¤¤": 6630,
      "Ġà¤¶à¤¶à¤ķ": 6631,
      "Ġà¤ıà¤ıà¤¨à¤ı": 6632,
      "à¤īà¤¨à¤¤": 6633,
      "à¤²à¤®à¤ĸ": 6634,
      "à¤¤à¤°à¤¯": 6635,
      "à¤¤à¤°à¤¸à¤°à¤ķ": 6636,
      "à¤¶à¤ķà¤°": 6637,
      "à¤®à¤ļà¤°": 6638,
      "Ġà¤¦à¤¶à¤µà¤Ł": 6639,
      "à¤°à¤ĸà¤£": 6640,
      "à¤¨à¤Ńà¤°à¤ķ": 6641,
      "Ġà¤¬à¤Ĺà¤²": 6642,
      "à¤·à¤ªà¤¨": 6643,
      "Ġà¤Ĩà¤¯à¤¤à¤¨": 6644,
      "à¤Ńà¤¡": 6645,
      "Ġà¤ĸà¤µà¤°à¤ķ": 6646,
      "Ġà¤ıà¤«à¤¬": 6647,
      "à¤łà¤¸à¤¹": 6648,
      "Ġà¤Ĩà¤°à¤Ĩà¤°": 6649,
      "à¤¨à¤Ĺà¤°à¤Ń": 6650,
      "à¤ıà¤®à¤¡à¤¬": 6651,
      "Ġà¥¨à¥§à¥¯": 6652,
      "à¤¨à¤¨à¤²": 6653,
      "à¤¹à¤Ń": 6654,
      "Ġà¤°à¤¥à¤ķ": 6655,
      "Ġà¤Ĩà¤Īà¤²": 6656,
      "Ġà¤ľà¤£": 6657,
      "à¥ģà¤ģà¤Ĥ": 6658,
      "à¤°à¤µà¤£à¤ķ": 6659,
      "Ġà¤¦à¤²à¤¸à¤®": 6660,
      "Ġà¤ıà¤¨à¤ıà¤«": 6661,
      "Ġà¥¨à¥¨à¥¨": 6662,
      "à¤Łà¤¬à¤²à¤¬": 6663,
      "à¤īà¤¸à¤«": 6664,
      "ĠĠĠĠĠĠĠĠĠĠĠĠĠĠĠĠĠĠĠĠĠ": 6665,
      "à¤ľà¤ªà¤Ľ": 6666,
      "à¤·à¤¤à¤®": 6667,
      "Ġà¤¥à¤¬": 6668,
      "à¤¸à¤®à¤¯à¤®": 6669,
      "à¤¨à¤®à¤ķ": 6670,
      "Ġà¤®à¤¹à¤Ĺ": 6671,
      "Ġà¤ľà¤¨à¤Ĺà¤£à¤¤à¤¨": 6672,
      "à¤°à¤¸à¤¤": 6673,
      "Ġà¤²à¤Ĺà¤ĩà¤¨": 6674,
      "à¤²à¤¨à¤Ĺà¤°": 6675,
      "à¤ĩà¤²à¤¨à¤®": 6676,
      "Ġà¤Ĺà¤łà¤¨à¤¸à¤®": 6677,
      "Ġà¤Ĩà¤Īà¤¡à¤²": 6678,
      "Ġà¥¨à¥Ńà¥ª": 6679,
      "Ġà¥Ńà¥ªà¥Ńà¥«": 6680,
      "Ġà¥¨à¥¦à¥¬à¥®à¥¬à¥¯": 6681,
      "Ġà¤Ĩà¤²à¤®à¤ķ": 6682,
      "à¥įà¥Ģà¥Ģ": 6683,
      "Ġà¤¸à¤¤à¤²": 6684,
      "à¤¹à¤ľà¤¸": 6685,
      "à¤Īà¤Łà¤ķ": 6686,
      "à¤Īà¤ªà¤²": 6687,
      "à¤ļà¤°à¤£à¤ķ": 6688,
      "à¤°à¤¤à¤¸à¤®": 6689,
      "Ġà¤«à¤Ļ": 6690,
      "à¤¸à¤ķà¤¬": 6691,
      "Ġà¤ıà¤ķà¤¸à¤°": 6692,
      "à¤°à¤¹à¤ª": 6693,
      "à¤¤à¤°à¤¹à¤°": 6694,
      "à¤Ŀà¤ª": 6695,
      "à¤°à¤¦à¤¹": 6696,
      "à¤ªà¤¤à¤®": 6697,
      "à¤·à¤ķà¤¸à¤®": 6698,
      "Ġà¤ĵà¤®à¤¬à¤¹": 6699,
      "à¤¥à¤²à¤¦": 6700,
      "Ġà¥§à¥®à¥¬": 6701,
      "Ġà¥¨à¥ªà¥§": 6702,
      "à¤¶à¤Ńà¤°à¤®": 6703,
      "à¤°à¤ĸà¤ķ": 6704,
      "à¤¤à¤ħà¤²": 6705,
      "Ġà¤ķà¤Łà¤ķ": 6706,
      "à¤Łà¤Ĺà¤¢": 6707,
      "Ġà¤¬à¤Ĺà¤¨": 6708,
      "Ġà¤ħà¤¥à¤°": 6709,
      "Ġà¤Ĩà¤Ļà¤¦": 6710,
      "Ġà¤Ĩà¤¦à¤¨à¤ª": 6711,
      "à¤Īà¤ıà¤¨": 6712,
      "à¤ĸà¤¨à¤µ": 6713,
      "à¤ĩà¤°à¤¸à¤²": 6714,
      "Ġà¤ıà¤ķà¤®à¤¹": 6715,
      "à¤ķà¤ķà¤¥": 6716,
      "Ġà¤¸à¤°à¤Ĺà¤°": 6717,
      "à¤®à¤¨à¤¦": 6718,
      "Ġà¤¹à¤°à¤°": 6719,
      "Ġà¤Ķà¤·à¤§à¤ķ": 6720,
      "à¥®à¥©": 6721,
      "à¤·à¤®à¤§": 6722,
      "à¤µà¤°à¤£à¤¸à¤®": 6723,
      "Ġà¤ĭà¤£à¤²": 6724,
      "à¥ģà¥ģà¥ģ": 6725,
      "Ġà¤īà¤ªà¤°à¤¥": 6726,
      "à¤§à¤¨à¤²à¤Ĺ": 6727,
      "Ġà¥§à¥¯à¥ªà¥¦": 6728,
      "Ġà¤¸à¤²à¤²": 6729,
      "à¤¹à¤ħà¤µà¤°": 6730,
      "Ġà¤°à¤¸à¤²": 6731,
      "à¤¥à¤¡": 6732,
      "Ġà¤¸à¤®à¤¤à¤²": 6733,
      "Ġà¤ıà¤ķà¤¹à¤ª": 6734,
      "à¤ĸà¤°à¤ļà¤¨": 6735,
      "à¥¯à¥«": 6736,
      "Ġà¤ıà¤®à¤µ": 6737,
      "à¤²à¤µà¤¹à¤°": 6738,
      "Ġà¤ķà¤²à¤®à¤ķ": 6739,
      "à¤¸à¤ı": 6740,
      "Ġà¤¸à¤°à¤¹à¤°": 6741,
      "à¤¦à¤ħà¤¨": 6742,
      "Ġà¤¨à¤°à¤ª": 6743,
      "à¤ıà¤Īà¤¬": 6744,
      "Ġà¤®à¤ĸà¤¨": 6745,
      "à¥Įà¥Ī": 6746,
      "Ġà¤ķà¤¸à¤ľ": 6747,
      "à¤°à¤Ńà¤²": 6748,
      "à¤Łà¤²à¤¸à¤®": 6749,
      "Ġà¤ªà¤¢à¤¦": 6750,
      "à¤¬à¤²à¤¤": 6751,
      "à¤°à¤ľà¤ª": 6752,
      "Ġà¥¨à¥«à¥¦à¥¦": 6753,
      "Ġà¥©à¥¦à¥¨": 6754,
      "à¤ķà¤Łà¤Ĺ": 6755,
      "à¥¨à¥¦à¥Ń": 6756,
      "Ġà¥¨à¥¯à¥®": 6757,
      "Ġà¤¤à¤²à¤¬à¤¬": 6758,
      "Ġà¥§à¥¯à¥¬à¥§": 6759,
      "Ġà¤ıà¤«à¤ıà¤®à¤®": 6760,
      "à¤ħà¤µà¤¸à¤°à¤®": 6761,
      "Ġà¤ıà¤¸à¤ĩà¤ĩ": 6762,
      "à¤¨à¤ı": 6763,
      "à¥ģà¥ĩ": 6764,
      "Ġà¥ŀ": 6765,
      "à¤·à¤ªà¤¤": 6766,
      "à¤¸à¤®à¤¸à¤ķ": 6767,
      "à¤ĩà¤¨à¤ĸà¤¬à¤°": 6768,
      "à¤·à¤ķà¤¦": 6769,
      "Ġà¥§à¥ªà¥¨": 6770,
      "à¤ľà¤¦à¤°à¤²": 6771,
      "à¤µà¤¯à¤¨à¤¬": 6772,
      "à¤ļà¤°à¤Ļ": 6773,
      "Ġà¤¨à¤²à¤¡": 6774,
      "Ġà¤¢à¤ķà¤¢à¤ķ": 6775,
      "Ġà¤ļà¤°à¤®à¤¸": 6776,
      "Ġà¤°à¤£à¤ľ": 6777,
      "à¤ķà¤¸à¤°": 6778,
      "à¤®à¤¸à¤ķ": 6779,
      "à¤¦à¤Ńà¤®": 6780,
      "Ġà¤¬à¤¨à¤®": 6781,
      "Ġà¤¬à¤°à¤¬": 6782,
      "à¤¬à¤¤à¤²": 6783,
      "à¤¡à¤ĸ": 6784,
      "Ġà¤ªà¤¹à¤²à¤²": 6785,
      "Ġà¤¬à¤¸à¤Ń": 6786,
      "à¤Łà¤®à¤¸": 6787,
      "Ġà¤ĺà¤°à¤Łà¤¹à¤°": 6788,
      "Ġà¤¦à¤¶à¤µà¤°": 6789,
      "Ġà¥§à¥®à¥©": 6790,
      "Ġà¥§à¥Ńà¥ª": 6791,
      "Ġà¤²à¤¹à¤¡": 6792,
      "Ġà¤²à¤Ńà¤¸": 6793,
      "Ġà¥§à¥¯à¥«à¥«": 6794,
      "Ġà¤Ŀà¤®à¤Ŀà¤®": 6795,
      "à¤¨à¤¥à¤²": 6796,
      "à¤¹à¤Łà¤®": 6797,
      "à¤¦à¤¸à¤¹": 6798,
      "à¤ľà¤²à¤®": 6799,
      "Ġà¤¹à¤°à¤¹": 6800,
      "à¤¸à¤®à¤¤": 6801,
      "à¤ĩà¤¨à¤¸à¤ķ": 6802,
      "à¤ħà¤«à¤®": 6803,
      "à¤°à¤µà¤®à¤¯": 6804,
      "Ġà¤¹à¤ľà¤°": 6805,
      "à¤¤à¤¨à¤¦": 6806,
      "Ġà¤ªà¤¤à¤¨à¤ķ": 6807,
      "à¤¶à¤¬à¤£": 6808,
      "Ġà¤ĵà¤®à¤¨à¤ķ": 6809,
      "Ġà¤¨à¤¯à¤¨à¤°": 6810,
      "à¤µà¤ªà¤¤": 6811,
      "Ġà¤¨à¤§": 6812,
      "Ġà¤¤à¤¬à¤²": 6813,
      "à¤ĺà¤²à¤Ĺ": 6814,
      "à¤®à¤¤à¤ª": 6815,
      "à¤µà¤²à¤ª": 6816,
      "Ġà¤Ĩà¤Ĺà¤¨à¤®": 6817,
      "à¤¯à¤ªà¤°à¤ķ": 6818,
      "Ġà¤µà¤¨à¤ľà¤Ļ": 6819,
      "à¤¸à¤µà¤Ł": 6820,
      "à¤¨à¤Ī": 6821,
      "à¤ķà¤¸à¤²": 6822,
      "à¤ķà¤ªà¤ķ": 6823,
      "à¤¤à¤µà¤²": 6824,
      "à¤¸à¤£": 6825,
      "à¤ıà¤ļà¤¸": 6826,
      "à¤§à¤¸à¤Ń": 6827,
      "à¤§à¤°à¤£à¤ķ": 6828,
      "à¤ĩà¤¶": 6829,
      "à¤¤à¤ķà¤¸à¤®": 6830,
      "à¤ķà¤°à¤°": 6831,
      "Ġà¤ħà¤®à¤°à¤ª": 6832,
      "à¤ķà¤°à¤£à¤¹à¤°": 6833,
      "à¤ıà¤¨à¤ıà¤®": 6834,
      "à¤Łà¤²à¤°à¤ķ": 6835,
      "à¤°à¤¨à¤ľ": 6836,
      "à¤¤à¤°à¤£à¤¸à¤®": 6837,
      "Ġà¤ħà¤¦à¤Ń": 6838,
      "Ġà¥§à¥®à¥§à¥¬": 6839,
      "à¤·à¤§à¤°à¤²": 6840,
      "Ġà¥§à¥Ńà¥Ń": 6841,
      "à¤®à¤£à¤¹à¤°": 6842,
      "Ġà¤ıà¤²à¤¡": 6843,
      "à¤ĩà¤ķà¤²à¤¬": 6844,
      "Ġà¥¦à¥Ńà¥©à¥¦à¥Ńà¥ª": 6845,
      "à¤²à¤µà¤¨": 6846,
      "à¤ıà¤ĩà¤®": 6847,
      "Ġà¤Ńà¤¡à¤ķ": 6848,
      "Ġà¤µà¤¶à¤®": 6849,
      "à¤¹à¤°à¤¬": 6850,
      "Ġà¤ĩà¤¤à¤°": 6851,
      "à¥¯à¥¬": 6852,
      "Ġà¤Ĩà¤ĩà¤ĵà¤¸": 6853,
      "Ġà¤°à¤®à¤Ŀ": 6854,
      "Ġà¤ıà¤ļà¤ª": 6855,
      "à¤°à¤ĵà¤Ł": 6856,
      "à¤¨à¤ľà¤°": 6857,
      "à¤ķà¤ªà¤¨": 6858,
      "à¤¯à¤°à¤µ": 6859,
      "à¤ıà¤¬à¤®": 6860,
      "à¤¶à¤¶": 6861,
      "à¤ķà¤ķà¤°": 6862,
      "à¤µà¤°à¤£à¤µ": 6863,
      "Ġà¤Ĺà¤£à¤²": 6864,
      "Ġà¤Ĩà¤Īà¤¬": 6865,
      "Ġà¥©à¥§à¥¦": 6866,
      "Ġà¤ªà¤ļà¤¹à¤¤": 6867,
      "à¤¯à¤ľà¤¨à¤¹à¤°": 6868,
      "à¤¯à¤£à¤Ĺà¤¢à¤¬": 6869,
      "à¤°à¤¡à¤®": 6870,
      "à¤°à¤ľà¤¨à¤®": 6871,
      "Ġà¤¨à¤ĺ": 6872,
      "Ġà¤ħà¤ªà¤ķ": 6873,
      "Ġà¤¹à¤«": 6874,
      "à¤¶à¤£": 6875,
      "Ġà¤¸à¤®à¤ªà¤¨": 6876,
      "à¤ĩà¤ıà¤«à¤ı": 6877,
      "à¤°à¤®à¤¬à¤¦": 6878,
      "à¤°à¤¤à¤ļ": 6879,
      "à¤ĺà¤¢": 6880,
      "à¤²à¤ķà¤¥": 6881,
      "à¤ªà¤®à¤¤": 6882,
      "à¤®à¤¨à¤¹à¤°": 6883,
      "à¤Ĩà¤ĩà¤Ł": 6884,
      "Ġà¤¹à¤°à¤«à¤¹à¤°": 6885,
      "Ġà¥§à¥¯à¥§à¥Ń": 6886,
      "Ġà¥§à¥§à¥¦à¥¦": 6887,
      "Ġà¤¨à¤Ńà¤¤": 6888,
      "à¤Ĺà¤łà¤¨à¤¸": 6889,
      "à¤Ĺà¤¬à¤¤": 6890,
      "Ġà¤¨à¤Ńà¤Īà¤ķà¤¨": 6891,
      "à¤¶à¤¹à¤°à¤®": 6892,
      "à¤¨à¤¤à¤ķ": 6893,
      "à¤¯à¤¦à¤ķ": 6894,
      "Ġà¤ķà¤£à¤¹à¤°": 6895,
      "Ġà¤Ńà¤°à¤¤à¤®": 6896,
      "à¤¬à¤µ": 6897,
      "Ġà¤īà¤Ł": 6898,
      "à¤ĸà¤¨à¤¬": 6899,
      "à¤¹à¤°à¤¹à¤°": 6900,
      "à¤¨à¤ķà¤ķ": 6901,
      "à¤Ŀà¤°": 6902,
      "à¤®à¤¤à¤¸à¤¹": 6903,
      "à¤Ĩà¤Īà¤®": 6904,
      "à¤¨à¤¸à¤ĸà¤£": 6905,
      "Ġà¤Ĩà¤ĩà¤ıà¤²": 6906,
      "Ġà¤¨à¤ľà¤°à¤¬": 6907,
      "Ġà¤Ĩà¤Īà¤¡à¤²à¤ķ": 6908,
      "Ġà¥¨à¥¯à¥«": 6909,
      "Ġà¥¨à¥¦à¥¬à¥¯à¥Ńà¥¦": 6910,
      "à¤¦à¤ķà¤ªà¤¦": 6911,
      "Ġà¤ĺà¤ļà¤ĺà¤ļ": 6912,
      "à¥°": 6913,
      "à¤¸à¤ªà¤¨": 6914,
      "Ġà¤Ĺà¤Ĺ": 6915,
      "à¤¬à¤Ŀ": 6916,
      "à¤·à¤¯à¤ª": 6917,
      "à¤§à¤ľà¤¸": 6918,
      "à¤¶à¤Ĺà¤°": 6919,
      "à¤Īà¤ªà¤Ľ": 6920,
      "à¤Īà¤Ńà¤°": 6921,
      "à¤Ńà¤ľ": 6922,
      "Ġà¤ıà¤Ĩà¤°": 6923,
      "à¤īà¤¨à¤¸": 6924,
      "Ġà¤ıà¤ķà¤ªà¤Łà¤ķà¤®": 6925,
      "à¤ķà¤®à¤£": 6926,
      "Ġà¤Ńà¤ıà¤¬à¤®": 6927,
      "Ġà¥©à¥Ńà¥«": 6928,
      "Ġà¤Ŀà¤ªà¤Ł": 6929,
      "à¤®à¤¨à¤µà¤®": 6930,
      "Ġà¤¸à¤¦à¤¨à¤¬": 6931,
      "Ġà¥¯à¥©à¥¦": 6932,
      "Ġà¤¸à¤¡à¤ķà¤¦": 6933,
      "Ġà¥©à¥¦à¥ªà¥¦": 6934,
      "à¤¹à¤¤à¤¸": 6935,
      "à¤ĸà¤ķà¤·": 6936,
      "Ġà¥ªà¥¦à¥«à¥¦": 6937,
      "Ġà¥¨à¥©à¥¨": 6938,
      "Ġà¤ĸà¤¬à¤°à¤ªà¤¤": 6939,
      "ĠĠĠĠĠĠĠĠĠĠĠĠĠĠĠĠĠĠĠĠĠĠ": 6940,
      "Ġà¤ıà¤ļà¤Ĩà¤°": 6941,
      "Ġà¤ıà¤¸à¤Īà¤Īà¤ķ": 6942,
      "Ġà¤¹à¤¤à¤ķà¤¡": 6943,
      "à¤¯à¤¬à¤²": 6944,
      "à¥ģà¤¿": 6945,
      "Ġà¤µà¤ļà¤¨à¤²": 6946,
      "à¤¬à¤ªà¤Ľ": 6947,
      "à¤¡à¤Ńà¤°": 6948,
      "à¤ĺà¤ľ": 6949,
      "à¤·à¤ķà¤¤": 6950,
      "à¤Ĺà¤®à¤¨à¤ķà¤°": 6951,
      "à¤ıà¤¨à¤ıà¤²": 6952,
      "Ġà¥¨à¥§à¥¬": 6953,
      "Ġà¤Ńà¤µà¤¨à¤Ń": 6954,
      "Ġà¤°à¤ľà¤¤à¤ª": 6955,
      "Ġà¥®à¥«à¥¦": 6956,
      "à¤ıà¤¨à¤ıà¤¨à¤²": 6957,
      "Ġà¥¦à¥«à¥«": 6958,
      "Ġà¤ķà¤ļà¤¨à¤ķà¤µà¤²": 6959,
      "à¤²à¤°à¤¸": 6960,
      "Ġà¤ķà¤°à¤£à¤²": 6961,
      "Ġà¤¤à¤£": 6962,
      "Ġà¤¦à¤ª": 6963,
      "Ġà¤ľà¤¦": 6964,
      "à¤ĸà¤ķà¤¸": 6965,
      "Ġà¤¶à¤µà¤¦": 6966,
      "Ġà¤ıà¤¨à¤ķ": 6967,
      "à¤¢à¤¦": 6968,
      "Ġà¤°à¤¹à¤¨à¤¸à¤¹": 6969,
      "à¤®à¤²à¤¤": 6970,
      "à¥¯à¥¨": 6971,
      "Ġà¤Ĳà¤ľ": 6972,
      "Ġà¥§à¥§à¥§à¥¨": 6973,
      "Ġà¤ıà¤¨à¤¡": 6974,
      "à¤¸à¤¹à¤°à¤ķ": 6975,
      "Ġà¤Ĩà¤Īà¤ĵ": 6976,
      "à¤¤à¤°à¤ķà¤²": 6977,
      "Ġà¤Ĩà¤¸à¤¯": 6978,
      "à¤£à¤ªà¤¦à¤ķ": 6979,
      "Ġà¤¡à¤²à¤°à¤²": 6980,
      "Ġà¤¦à¤®à¤ķà¤²à¤ķ": 6981,
      "Ġà¤¬à¤¬à¤°à¤®à¤¹à¤²à¤®": 6982,
      "à¥ĩà¥Ī": 6983,
      "à¤ªà¤Ńà¤¨": 6984,
      "Ġà¤¨à¤¢": 6985,
      "à¤ĩà¤¬à¤°à¤ķ": 6986,
      "Ġà¤Ĩà¤°à¤¨": 6987,
      "à¤ıà¤¨à¤Ł": 6988,
      "Ġà¤ıà¤¸à¤°": 6989,
      "Ġà¤§à¤¨à¤ªà¤¤": 6990,
      "Ġà¥§à¥¬à¥¦à¥¦": 6991,
      "Ġà¤īà¤¡à¤¨": 6992,
      "à¥¨à¥¦à¥Ńà¥§": 6993,
      "Ġà¤¸à¤¹à¤°à¤¬à¤ľ": 6994,
      "à¤Ĺà¤¸à¤Ĺ": 6995,
      "Ġà¥§à¥¯à¥«à¥ª": 6996,
      "à¤¨à¤°à¤¬": 6997,
      "à¤ķà¤ľà¤¨": 6998,
      "à¤®à¤¸à¤°": 6999,
      "à¤ľà¤²à¤²": 7000,
      "à¤¥à¤ħà¤¨": 7001,
      "à¤¶à¤Ĺ": 7002,
      "à¤¡à¤°à¤µ": 7003,
      "à¤ĸà¤²à¤Ĺ": 7004,
      "Ġà¤ĺà¤°à¤¤à¤°": 7005,
      "Ġà¤§à¤¨à¤¸": 7006,
      "à¤Ĺà¤°à¤¨": 7007,
      "à¤Ĺà¤°à¤¬": 7008,
      "Ġà¤ħà¤¸à¤Ļ": 7009,
      "à¤ļà¤¨à¤¤": 7010,
      "à¤¸à¤¨à¤ªà¤Ľ": 7011,
      "Ġà¤ľà¤¬à¤ľ": 7012,
      "à¥¨à¥¦à¥§à¥¬": 7013,
      "à¤®à¤£à¤ª": 7014,
      "Ġà¥®à¥®à¥¦": 7015,
      "Ġà¤Ĩà¤¸à¤¨à¤¬": 7016,
      "Ġà¤²à¤ĸà¤¨à¤īà¤®": 7017,
      "Ġà¤ĳ": 7018,
      "à¤¸à¤«à¤°à¤ķ": 7019,
      "Ġà¤°à¤¥à¤²": 7020,
      "Ġà¤¹à¤µà¤¨": 7021,
      "Ġà¤¹à¤ķà¤¹à¤°": 7022,
      "Ġà¤µà¤°à¤£": 7023,
      "à¤ĺà¤µ": 7024,
      "à¤¯à¤¸à¤¨à¤²": 7025,
      "à¤²à¤®à¤¸": 7026,
      "à¤¬à¤¨à¤¡": 7027,
      "à¤¤à¤¨à¤¸à¤®": 7028,
      "à¤Ĩà¤°à¤¬": 7029,
      "à¤¬à¤°à¤ª": 7030,
      "à¤ķà¤°à¤£à¤¤à¤°": 7031,
      "à¤²à¤Ĺà¤ĩà¤¨": 7032,
      "Ġà¤¬à¤²à¤Ńà¤¦": 7033,
      "Ġà¤®à¤¤à¤¬": 7034,
      "Ġà¤Ĳà¤¯": 7035,
      "Ġà¤¸à¤¡à¤ķà¤ħà¤¨": 7036,
      "Ġà¤ıà¤¸à¤ľ": 7037,
      "à¤·à¤¦à¤¹à¤°": 7038,
      "Ġà¤ıà¤¨à¤ĵà¤¸": 7039,
      "Ġà¤Ľà¤²à¤«à¤²à¤¹à¤°": 7040,
      "Ġà¥§à¥ªà¥¬": 7041,
      "Ġà¤Ĩà¤Īà¤ĵà¤¸": 7042,
      "Ġà¥¨à¥©à¥©": 7043,
      "Ġà¤¬à¤ķà¤ªà¤¤": 7044,
      "à¤Łà¤°à¤²à¤Ĺ": 7045,
      "Ġà¤µà¤¢à¤¨": 7046,
      "Ġà¤ľà¤¨à¤¸à¤®à¤°": 7047,
      "Ġà¤ħà¤µà¤¯à¤µà¤¹à¤°": 7048,
      "à¤®à¤¦à¤ķ": 7049,
      "à¤¤à¤ļà¤¨": 7050,
      "à¤¸à¤¹à¤ķ": 7051,
      "Ġà¤ķà¤Ń": 7052,
      "Ġà¤°à¤ļà¤¯": 7053,
      "Ġà¤ħà¤Ĺà¤°": 7054,
      "Ġà¤¤à¤Ľ": 7055,
      "à¤¥à¤²à¤Ĺ": 7056,
      "à¤¥à¤²à¤¸": 7057,
      "à¤ļà¤°à¤¨": 7058,
      "Ġà¤ľà¤¨à¤¹à¤°": 7059,
      "à¤°à¤²à¤¯": 7060,
      "à¤®à¤ķà¤¨": 7061,
      "Ġà¤īà¤¦à¤¯à¤²": 7062,
      "à¤§à¤¨à¤¦": 7063,
      "Ġà¤¦à¤²à¤µ": 7064,
      "à¤¨à¤µà¤¹": 7065,
      "à¤¨à¤µà¤¹à¤°": 7066,
      "Ġà¥¨à¥«à¥«": 7067,
      "à¤ªà¤Łà¤ķà¤ķ": 7068,
      "à¤ıà¤®à¤¡": 7069,
      "Ġà¤«à¤²à¤¹à¤°": 7070,
      "à¤ĸà¤¨à¤¨à¤ķ": 7071,
      "Ġà¤Ĩà¤īà¤Łà¤¸": 7072,
      "Ġà¤ĵà¤Ńà¤°à¤¡": 7073,
      "à¥ĩà¤¿": 7074,
      "à¤²à¤ĸà¤°": 7075,
      "Ġà¤¬à¤°à¤¹": 7076,
      "Ġà¤¹à¤²à¤²": 7077,
      "Ġà¤µà¤¨à¤¹à¤°": 7078,
      "à¤·à¤ľà¤¤": 7079,
      "à¤§à¤¶à¤®à¤¶": 7080,
      "Ġà¤¤à¤¬à¤®": 7081,
      "Ġà¤ľà¤¯à¤¦": 7082,
      "à¤Īà¤¸à¤°": 7083,
      "Ġà¤¸à¤®à¤¬": 7084,
      "Ġà¤ıà¤ļà¤¬": 7085,
      "à¤ħà¤ľ": 7086,
      "à¤¹à¤ķà¤µà¤°": 7087,
      "à¤ıà¤¸à¤ıà¤ķ": 7088,
      "à¥ģà¤Ĥà¤ģ": 7089,
      "à¤¯à¤Łà¤ķà¤¬": 7090,
      "Ġà¥¨à¥ªà¥«": 7091,
      "à¤¨à¤¦à¤¹": 7092,
      "Ġà¤ıà¤¨à¤Ĩà¤°à¤ıà¤¨à¤¹à¤°": 7093,
      "Ġà¤Ĩà¤ĩà¤¨à¤¸à¤ķ": 7094,
      "à¤¸à¤²à¤²": 7095,
      "Ġà¤Ńà¤°à¤£à¤ª": 7096,
      "Ġà¤Ľà¤°à¤ª": 7097,
      "à¤¡à¤°à¤¶": 7098,
      "à¤Ńà¤¹": 7099,
      "à¤ĸà¤¬à¤°à¤ķ": 7100,
      "à¤ĩà¤Ńà¤²": 7101,
      "à¤°à¤¤à¤¦": 7102,
      "à¤°à¤¹à¤¸à¤¨": 7103,
      "à¤Ĺà¤°à¤¸": 7104,
      "Ġà¤Ŀà¤²à¤®à¤²": 7105,
      "à¤²à¤¤à¤¹à¤°": 7106,
      "à¤ľà¤¨à¤ķà¤°": 7107,
      "à¤ĩà¤Ńà¤°à¤ķ": 7108,
      "Ġà¤ľà¤¯à¤¨à¤¨": 7109,
      "Ġà¥§à¥¯à¥¬à¥¯": 7110,
      "Ġà¤¸à¤ľà¤¨": 7111,
      "Ġà¤ķà¤µà¤¯": 7112,
      "Ġà¤¤à¤ķà¤¸": 7113,
      "à¤¶à¤²à¤Ĺ": 7114,
      "à¤Īà¤¨à¤¬": 7115,
      "à¤°à¤®à¤¤": 7116,
      "à¤Ļà¤Ľ": 7117,
      "à¥¦à¥¨": 7118,
      "Ġà¤¡à¤Ĺà¤®à¤Ĺ": 7119,
      "Ġà¥«à¥©à¥¦": 7120,
      "Ġà¤ħà¤®à¤°à¤ķ": 7121,
      "à¥®à¥§": 7122,
      "Ġà¤¸à¤Ļà¤ĸ": 7123,
      "Ġà¤Ńà¤°à¤¥": 7124,
      "Ġà¥§à¥¨à¥§à¥©": 7125,
      "à¤¸à¤¹à¤®à¤¤": 7126,
      "Ġà¤¨à¤ªà¤¸": 7127,
      "à¤ľà¤¦à¤£": 7128,
      "Ġà¤Ĩà¤Īà¤®": 7129,
      "Ġà¤®à¤¦à¤¨à¤²": 7130,
      "Ġà¤ħà¤ľà¤¯à¤®": 7131,
      "à¤¼à¥ĩ": 7132,
      "Ġà¤ªà¤²à¤²": 7133,
      "à¤¦à¤²à¤Ĺ": 7134,
      "Ġà¤ķà¤²à¤ķà¤²": 7135,
      "à¤Łà¤ĩà¤¨": 7136,
      "Ġà¤¨à¤¡": 7137,
      "Ġà¤Ľà¤¤à¤¬": 7138,
      "à¤¡à¤®à¤²": 7139,
      "à¤°à¤ķà¤°à¤£à¤¬": 7140,
      "à¤ĩà¤¨à¤«": 7141,
      "à¤Łà¤°à¤ªà¤¨": 7142,
      "Ġà¥ªà¥§à¥¦": 7143,
      "à¤¶à¤¨à¤µ": 7144,
      "à¥¯à¥©": 7145,
      "Ġà¤¸à¤¤à¤¹à¤ķ": 7146,
      "à¤Ĺà¤¬à¤®": 7147,
      "Ġà¥©à¥©à¥ª": 7148,
      "Ġà¤Ńà¤°à¤¤à¤¬à¤¹": 7149,
      "à¤ĩà¤¬à¤²à¤²": 7150,
      "Ġà¤®à¤ķà¤¹": 7151,
      "Ġà¤°à¤¹à¤°à¤ķ": 7152,
      "Ġà¥§à¥¯à¥¬à¥ª": 7153,
      "Ġà¥§à¥¯à¥«à¥Ń": 7154,
      "Ġà¥¨à¥¦à¥Ńà¥«à¥¦à¥©": 7155,
      "Ġà¥¦à¥©à¥¬": 7156,
      "Ġà¤ıà¤ħà¤°à¤ķ": 7157,
      "à¤¨à¤Ŀ": 7158,
      "à¤¦à¤Ńà¤¨": 7159,
      "à¤ľà¤¸à¤ķ": 7160,
      "Ġà¤ħà¤«à¤²": 7161,
      "à¤§à¤¡": 7162,
      "à¤ļà¤¸à¤¹": 7163,
      "à¤Ńà¤²à¤ª": 7164,
      "à¤µà¤¸à¤°": 7165,
      "à¤¤à¤°à¤Ĺà¤¯": 7166,
      "Ġà¤ĩà¤¦à¤ķ": 7167,
      "Ġà¤Ŀà¤µ": 7168,
      "à¤¨à¤¨à¤Ĺà¤°à¤ķ": 7169,
      "Ġà¤ħà¤®à¤°à¤¤": 7170,
      "Ġà¥®à¥©à¥¦": 7171,
      "Ġà¥§à¥¯à¥§": 7172,
      "Ġà¥§à¥«à¥ª": 7173,
      "Ġà¥§à¥«à¥¯": 7174,
      "Ġà¤ıà¤¸à¤ıà¤²": 7175,
      "à¤ĩà¤Łà¤¸": 7176,
      "Ġà¥¦à¥§à¥Ń": 7177,
      "à¤Ĭà¤°": 7178,
      "Ġà¤¨à¤Ĺà¤ı": 7179,
      "à¤ħà¤µà¤¸à¤°": 7180,
      "à¤®à¤µà¤¹": 7181,
      "à¤¦à¤ĸ": 7182,
      "à¤¦à¤ľà¤¸": 7183,
      "Ġà¤Ĩà¤Ļà¤¬": 7184,
      "à¤Īà¤ľà¤¸": 7185,
      "à¤ĸà¤¶": 7186,
      "à¤īà¤ªà¤ķ": 7187,
      "à¥ĥà¤¿": 7188,
      "Ġà¤ıà¤ķà¤¹": 7189,
      "à¤¤à¤°à¤īà¤¨": 7190,
      "à¤¯à¤¤à¤¹à¤ķ": 7191,
      "Ġà¤ķà¤®à¤²à¤²": 7192,
      "à¤µà¤ķà¤°à¤£": 7193,
      "Ġà¤¸à¤¨à¤«": 7194,
      "à¤¯à¤°à¤¸à¤®": 7195,
      "Ġà¤ªà¤¦à¤¬à¤¹": 7196,
      "Ġà¤Ľà¤²à¤«à¤²à¤¸à¤®": 7197,
      "Ġà¥§à¥Ńà¥§": 7198,
      "Ġà¤ıà¤«à¤Ł": 7199,
      "Ġà¤ľà¤¨à¤Ĺà¤£à¤¤": 7200,
      "à¤ķà¤«à¤°": 7201,
      "à¤¤à¤Ĺà¤¢": 7202,
      "à¤¦à¤°à¤µ": 7203,
      "à¤¥à¤ķà¤®": 7204,
      "Ġà¤²à¤Łà¤°à¤®": 7205,
      "Ġà¤ıà¤®à¤¨": 7206,
      "Ġà¤ľà¤¨à¤¸à¤®à¤ķ": 7207,
      "Ġà¤ľà¤¨à¤Ĩà¤¸": 7208,
      "à¤ļà¤¨à¤ħà¤¨": 7209,
      "Ġà¤Ĩà¤°à¤§à¤¨": 7210,
      "Ġà¤¹à¤°à¤ª": 7211,
      "à¤¸à¤¦à¤¸à¤®": 7212,
      "à¤¹à¤¨à¤Ĺà¤°": 7213,
      "Ġà¤Ĩà¤¦à¤®": 7214,
      "à¤ľà¤¯à¤ªà¤Ľ": 7215,
      "à¤¯à¤Łà¤ķà¤¸": 7216,
      "Ġà¥¨à¥¦à¥¬à¥Ńà¥¬à¥®": 7217,
      "Ġà¥¨à¥®à¥©": 7218,
      "Ġà¥¨à¥©à¥ª": 7219,
      "à¤Ķà¤ªà¤¨": 7220,
      "à¥¦à¥¦à¥Ńà¥§": 7221,
      "à¤¹à¤°à¤£à¤²": 7222,
      "à¤Ĭà¤ķ": 7223,
      "Ġà¥§à¥¯à¥ªà¥¨": 7224,
      "à¤¤à¤ĺ": 7225,
      "Ġà¤Ĺà¤°à¤°": 7226,
      "à¤ĩà¤«à¤®": 7227,
      "Ġà¤ĸà¤¤à¤®": 7228,
      "Ġà¤ıà¤¡à¤²": 7229,
      "à¤°à¤¤à¤µà¤°": 7230,
      "Ġà¤īà¤ªà¤®à¤¨": 7231,
      "Ġà¤ķà¤°à¤ª": 7232,
      "Ġà¤ĩà¤¹": 7233,
      "à¤µà¤ķà¤°à¤²": 7234,
      "à¤ħà¤Ŀ": 7235,
      "à¤Ĺà¤¤à¤°à¤¤": 7236,
      "à¤ķà¤ķà¤ķ": 7237,
      "Ġà¤ĸà¤°à¤ĸà¤ľ": 7238,
      "Ġà¤ħà¤Ŀà¤¸à¤®": 7239,
      "à¤¸à¤°à¤¸à¤®": 7240,
      "Ġà¤¦à¤¶à¤°": 7241,
      "à¤¯à¤¯à¤¨à¤¶": 7242,
      "Ġà¤ķà¤ªà¤Ł": 7243,
      "Ġà¤Ńà¤Īà¤¦": 7244,
      "à¤Łà¤°à¤®à¤§": 7245,
      "à¤¯à¤ľà¤¨à¤¸": 7246,
      "à¤¨à¤ħà¤Ĺ": 7247,
      "Ġà¤ķà¤ªà¤²": 7248,
      "à¤Ĺà¤Ľ": 7249,
      "à¤Ĺà¤ľà¤²": 7250,
      "à¤ļà¤ķà¤°": 7251,
      "à¤ļà¤ħà¤¨": 7252,
      "Ġà¤¥à¤¸": 7253,
      "Ġà¤ªà¤°à¤«": 7254,
      "à¤ŀà¤¸à¤¹": 7255,
      "à¤°à¤²à¤²": 7256,
      "Ġà¤²à¤Ĺà¤¨à¤Ĺ": 7257,
      "à¤ħà¤°à¤¬": 7258,
      "Ġà¤Ńà¤¯à¤Ļ": 7259,
      "Ġà¤ħà¤µà¤ļ": 7260,
      "à¤µà¤¤à¤¨à¤ķ": 7261,
      "Ġà¤Ĳà¤¨à¤¨": 7262,
      "Ġà¤ħà¤¦à¤®": 7263,
      "à¤·à¤¯à¤¸à¤®": 7264,
      "à¤ļà¤®à¤§": 7265,
      "Ġà¤°à¤¨à¤Ń": 7266,
      "Ġà¤Ĺà¤ıà¤Ľ": 7267,
      "Ġà¤ĵà¤Ńà¤°à¤²": 7268,
      "à¤µà¤Ĺà¤¤": 7269,
      "Ġà¤°à¤¸à¤ķ": 7270,
      "à¤¶à¤ªà¤¤": 7271,
      "à¤¶à¤ľà¤¸": 7272,
      "Ġà¤ľà¤¯à¤ľ": 7273,
      "à¤£à¤®à¤¨": 7274,
      "à¤īà¤ĺà¤°à¤®": 7275,
      "à¤ĩà¤ŀ": 7276,
      "à¤°à¤¹à¤£à¤®": 7277,
      "à¤ĩà¤¨à¤¸à¤®": 7278,
      "à¤°à¤µà¤¹à¤¨à¤ķ": 7279,
      "à¤¶à¤ķà¤¸à¤®": 7280,
      "Ġà¤īà¤¦à¤¯à¤®": 7281,
      "à¤Ĺà¤²à¤¤": 7282,
      "à¤¸à¤¦à¤Ń": 7283,
      "Ġà¤«à¤°à¤µà¤°": 7284,
      "Ġà¤¸à¤Ļà¤Ĺ": 7285,
      "Ġà¤¹à¤²à¤¸à¤®": 7286,
      "Ġà¥¨à¥¨à¥®": 7287,
      "Ġà¤²à¤¡à¤¨": 7288,
      "Ġà¤Ĺà¤¹à¤Ńà¤°": 7289,
      "à¤ªà¤Łà¤ªà¤ķ": 7290,
      "Ġà¤¬à¤¹à¤¸à¤ªà¤Ľ": 7291,
      "Ġà¥ªà¥©à¥«": 7292,
      "à¤īà¤¥à¤¹": 7293,
      "Ġà¤«à¤¨à¤«à¤¨": 7294,
      "à¤¹à¤¸à¤¹": 7295,
      "à¤ľà¤°à¤¹à¤°": 7296,
      "Ġà¤µà¤¡à¤²": 7297,
      "à¤īà¤¨à¤¤à¤°": 7298,
      "à¥¦à¥¬": 7299,
      "à¥¦à¥¯": 7300,
      "Ġà¤Łà¤¹à¤²": 7301,
      "à¤¾à¤Ĥà¤Ĥ": 7302,
      "Ġà¤Ŀà¤¸à¤Ļ": 7303,
      "à¥Īà¤Ĥà¤Ĥ": 7304,
      "Ġà¤ĵà¤Ĺ": 7305,
      "Ġà¤®à¤²à¤Ļ": 7306,
      "à¤ķà¤¨à¤¸à¤®": 7307,
      "Ġà¤§à¤¨à¤¤": 7308,
      "Ġà¤¡à¤²à¤°à¤¸": 7309,
      "Ġà¤¨à¤Ĺà¤¦à¤ķ": 7310,
      "Ġà¤ľà¤Ĺà¤¤à¤ª": 7311,
      "à¤²à¤Ľ": 7312,
      "à¤¸à¤µà¤¸": 7313,
      "Ġà¤ķà¤¹à¤°": 7314,
      "Ġà¤¬à¤ĺ": 7315,
      "Ġà¤¬à¤°à¤¬à¤°": 7316,
      "Ġà¤µà¤ļà¤¨à¤ķ": 7317,
      "à¤£à¤ĺ": 7318,
      "à¤ĸà¤¤à¤ķ": 7319,
      "Ġà¤ıà¤²à¤¨": 7320,
      "à¤Ļà¤ĺ": 7321,
      "Ġà¤Łà¤²à¤ķ": 7322,
      "à¤²à¤®à¤Ł": 7323,
      "à¤²à¤¯à¤Ĺà¤¤": 7324,
      "Ġà¤¨à¤Ĺà¤°à¤ªà¤²": 7325,
      "à¤µà¤ªà¤¦": 7326,
      "Ġà¤Ĺà¤£à¤®": 7327,
      "Ġà¤ĺà¤Łà¤¦": 7328,
      "Ġà¤Ĺà¤łà¤ľ": 7329,
      "Ġà¤ķà¤ķà¤¸à¤²": 7330,
      "Ġà¤¨à¤Ńà¤ıà¤¤": 7331,
      "Ġà¤¤à¤¬à¤°à¤²": 7332,
      "Ġà¥¦à¥Ńà¥§à¥Ńà¥¨": 7333,
      "Ġà¥¯à¥«à¥¦": 7334,
      "à¤°à¤Ĺà¤®à¤¨à¤ķ": 7335,
      "à¤¦à¤¶à¤ķ": 7336,
      "Ġà¤°à¤Ļà¤²": 7337,
      "Ġà¤¨à¤¬à¤°": 7338,
      "Ġà¤¬à¤Łà¤®": 7339,
      "à¤¶à¤²à¤²": 7340,
      "à¤Ńà¤ıà¤°": 7341,
      "à¤īà¤¸à¤¬": 7342,
      "à¤«à¤¸à¤®": 7343,
      "Ġà¤¬à¤¸à¤°": 7344,
      "Ġà¤ħà¤®à¤°à¤¬à¤¹": 7345,
      "Ġà¤ĩà¤¨à¤ª": 7346,
      "à¥¯à¥Ń": 7347,
      "à¤ĩà¤Łà¤¹": 7348,
      "à¤·à¤§à¤°à¤¤": 7349,
      "Ġà¤Ĺà¤łà¤¨à¤¸": 7350,
      "Ġà¤Ĩà¤¹à¤µ": 7351,
      "Ġà¤ĺà¤¨à¤ĺ": 7352,
      "à¤ªà¤Łà¤ªà¤®": 7353,
      "à¤¯à¤£à¤Ĺà¤¢à¤ķ": 7354,
      "Ġà¤ķà¤¦à¤°à¤ªà¤¤": 7355,
      "Ġà¤¬à¤ĸà¤¤à¤®": 7356,
      "Ġà¤Ŀà¤ķà¤Ŀà¤ķ": 7357,
      "à¤ķà¤ĸ": 7358,
      "à¤ķà¤¤à¤ķ": 7359,
      "à¤ķà¤¡à¤®": 7360,
      "à¤²à¤Ĺà¤²": 7361,
      "Ġà¤µà¤§à¤¶": 7362,
      "à¤·à¤ħà¤¨": 7363,
      "à¤¶à¤®à¤²": 7364,
      "Ġà¤ľà¤²à¤¸à¤®": 7365,
      "Ġà¤ľà¤¯à¤¸à¤µ": 7366,
      "à¤¡à¤Ľ": 7367,
      "à¤¡à¤¨à¤µ": 7368,
      "à¤°à¤®à¤¹": 7369,
      "Ġà¤ªà¤°à¤¸à¤®": 7370,
      "Ġà¤®à¤¨à¤¦": 7371,
      "Ġà¤ķà¤°à¤¹à¤°": 7372,
      "Ġà¤ªà¤ķà¤µ": 7373,
      "Ġà¤Ĩà¤ľà¤®": 7374,
      "Ġà¥ªà¥¦à¥¦à¥¦": 7375,
      "Ġà¥¨à¥®à¥«": 7376,
      "Ġà¤¶à¤¹à¤°à¤¬à¤ľ": 7377,
      "à¤Ĺà¤®à¤¨à¤¬": 7378,
      "à¤Ĩà¤Īà¤Ł": 7379,
      "ĠĠĠĠĠĠĠĠĠĠĠĠĠĠĠĠĠĠĠĠĠĠĠ": 7380,
      "Ġà¤Ĺà¤Īà¤¸à¤ķ": 7381,
      "Ġà¤ķà¤²à¤®à¤²": 7382,
      "à¤ıà¤¨à¤ıà¤ļà¤¸": 7383,
      "Ġà¥¦à¥«à¥Ń": 7384,
      "Ġà¥§à¥§à¥©à¥Ń": 7385,
      "Ġà¤ľà¤¯à¤¨à¤Ĺà¤°à¤ľà¤¨à¤ķà¤ª": 7386,
      "Ġà¤ľà¤¯à¤ľà¤¯à¤ķ": 7387,
      "Ġà¤ªà¤²à¤ķ": 7388,
      "Ġà¤¬à¤¶": 7389,
      "Ġà¤®à¤²à¤²": 7390,
      "à¤Īà¤¥à¤°": 7391,
      "Ġà¤īà¤§à¤®": 7392,
      "Ġà¤ļà¤¹à¤ķ": 7393,
      "Ġà¤ıà¤ķà¤¥": 7394,
      "à¤°à¤²à¤¯à¤ķ": 7395,
      "Ġà¤ĩà¤°à¤«": 7396,
      "Ġà¤ĺà¤°à¤ĸ": 7397,
      "Ġà¤ĺà¤°à¤¨à¤ľ": 7398,
      "Ġà¤Ĩà¤®à¤¹": 7399,
      "Ġà¤Ĺà¤¨à¤Ĺà¤¨": 7400,
      "à¤Ńà¤Ĺà¤µ": 7401,
      "Ġà¤ħà¤ľà¤¯à¤²": 7402,
      "Ġà¤Ĩà¤īà¤Łà¤¡": 7403,
      "Ġà¤ķà¤¦à¤®à¤¬": 7404,
      "à¤ªà¤¨à¤²à¤Ĺ": 7405,
      "Ġà¥§à¥¯à¥«à¥¬": 7406,
      "Ġà¤ħà¤¨à¤ķà¤¨": 7407,
      "à¤°à¤Ĩà¤²": 7408,
      "à¤²à¤·": 7409,
      "Ġà¤¸à¤ĸà¤°": 7410,
      "Ġà¤¸à¤īà¤²": 7411,
      "Ġà¤ķà¤ªà¤°": 7412,
      "Ġà¤°à¤°": 7413,
      "Ġà¤°à¤Ĺà¤¡": 7414,
      "à¤Łà¤ļà¤¨": 7415,
      "Ġà¤¨à¤ķà¤®": 7416,
      "à¤§à¤²à¤Ĺ": 7417,
      "Ġà¤Ĩà¤¶à¤¨": 7418,
      "Ġà¤ľà¤¯à¤®": 7419,
      "à¤Ľà¤¹": 7420,
      "à¤Ľà¤ª": 7421,
      "à¤°à¤®à¤ĸ": 7422,
      "Ġà¤¯à¤¸à¤ħà¤°": 7423,
      "à¤²à¤ķà¤ª": 7424,
      "Ġà¤ķà¤®à¤²à¤¸": 7425,
      "à¤µà¤°à¤Ń": 7426,
      "Ġà¤¬à¤ľà¤°": 7427,
      "Ġà¥¬à¥©à¥¦": 7428,
      "Ġà¤Ĩà¤®à¤¹à¤¡": 7429,
      "à¤ľà¤²à¤¸à¤®": 7430,
      "à¤¨à¤Ĺà¤°à¤µ": 7431,
      "à¤Ĺà¤²à¤¬à¤ľ": 7432,
      "Ġà¥¨à¥©à¥«": 7433,
      "à¤°à¤¸à¤®à¤£": 7434,
      "Ġà¥ªà¥ªà¥§": 7435,
      "Ġà¤ķà¤¦à¤®à¤®": 7436,
      "Ġà¤Ĩà¤Ļà¤Ľ": 7437,
      "Ġà¤ħà¤®à¤²à¤¦": 7438,
      "à¤¸à¤ıà¤¸": 7439,
      "à¤¸à¤°à¤¹à¤ķ": 7440,
      "à¤ªà¤²à¤¬": 7441,
      "Ġà¤°à¤«à¤¤": 7442,
      "Ġà¤Ĩà¤¸à¤ķ": 7443,
      "à¤ļà¤Ľ": 7444,
      "Ġà¤ħà¤¨à¤¶à¤¨à¤²": 7445,
      "Ġà¤§à¤Ļ": 7446,
      "Ġà¤§à¤¨à¤¨": 7447,
      "à¤°à¤¹à¤ªà¤Ľ": 7448,
      "Ġà¤ĩà¤ķà¤®à¤°": 7449,
      "à¥§à¥§à¥¦": 7450,
      "à¤Ĩà¤ļ": 7451,
      "Ġà¤¨à¤®à¤ľ": 7452,
      "à¤Łà¤²à¤°à¤²": 7453,
      "Ġà¤®à¤¤à¤ħà¤¨": 7454,
      "Ġà¤¨à¤¹à¤¸": 7455,
      "Ġà¤ıà¤¸à¤Ł": 7456,
      "à¤°à¤£à¤®à¤§": 7457,
      "Ġà¥¨à¥§à¥ª": 7458,
      "Ġà¥¨à¥¨à¥§": 7459,
      "Ġà¤ĸà¤¨à¤ľ": 7460,
      "Ġà¤ĸà¤¸à¤ĸà¤¸": 7461,
      "à¤µà¤°à¤²à¤Ĺ": 7462,
      "Ġà¤Ńà¤°à¤®à¤Ĺ": 7463,
      "à¥¨à¥¦à¥¬à¥®": 7464,
      "à¤¯à¤Ńà¤°": 7465,
      "Ġà¤¸à¤Ŀ": 7466,
      "à¤¹à¤¬à¤¹": 7467,
      "Ġà¤ķà¤Łà¤°": 7468,
      "Ġà¤¨à¤µà¤µ": 7469,
      "Ġà¤µà¤£": 7470,
      "à¤§à¤ľà¤¯à¤¨": 7471,
      "à¤¶à¤Ĺà¤¤": 7472,
      "Ġà¤ľà¤¶": 7473,
      "Ġà¤ľà¤Ĺà¤²": 7474,
      "à¤ļà¤Ļ": 7475,
      "à¤¹à¤°à¤£à¤®": 7476,
      "Ġà¤ĸà¤²à¤ķ": 7477,
      "Ġà¤ĺà¤°à¤¬à¤¹": 7478,
      "Ġà¤¸à¤¹à¤²": 7479,
      "à¤¤à¤ķà¤£": 7480,
      "Ġà¤ĵà¤Ńà¤²": 7481,
      "Ġà¤ħà¤µà¤¦": 7482,
      "Ġà¤ıà¤®à¤ıà¤²": 7483,
      "Ġà¤Ĳà¤¡": 7484,
      "Ġà¤Ńà¤ĩà¤°à¤¹à¤ķ": 7485,
      "Ġà¤Īà¤¦": 7486,
      "Ġà¤Īà¤µ": 7487,
      "Ġà¥§à¥ªà¥Ń": 7488,
      "Ġà¤¤à¤²à¤¦": 7489,
      "Ġà¤¬à¤Ĺà¤°à¤ķ": 7490,
      "Ġà¤¡à¤Łà¤ķà¤®à¤®": 7491,
      "à¤¸à¤¡à¤ķà¤®": 7492,
      "Ġà¤¨à¤ħà¤Ł": 7493,
      "à¥įà¤ģà¥ĩ": 7494,
      "à¤¹à¤Ńà¤¨": 7495,
      "Ġà¤ķà¤ļà¤ķ": 7496,
      "à¤¬à¤Ń": 7497,
      "Ġà¤¦à¤ľ": 7498,
      "à¤ĸà¤īà¤ªà¤ª": 7499,
      "Ġà¤ıà¤Ĩà¤°à¤Ł": 7500,
      "Ġà¤ªà¤°à¤¯": 7501,
      "à¤ĩà¤¨à¤¦": 7502,
      "à¤²à¤¨à¤Ń": 7503,
      "à¤Łà¤¨à¤ªà¤Ľ": 7504,
      "Ġà¤Ĩà¤°à¤Ł": 7505,
      "Ġà¥§à¥¦à¥§à¥§": 7506,
      "Ġà¤ªà¤¦à¤®à¤°": 7507,
      "Ġà¤¸à¤¤à¤¬": 7508,
      "Ġà¤°à¤¹à¤¨à¤¸à¤ķ": 7509,
      "Ġà¥©à¥¦à¥©à¥«": 7510,
      "Ġà¥§à¥®à¥ª": 7511,
      "Ġà¥§à¥®à¥¦à¥¦": 7512,
      "Ġà¤Ĩà¤Īà¤¨": 7513,
      "Ġà¥¨à¥¨à¥Ń": 7514,
      "Ġà¥¨à¥¯à¥¦": 7515,
      "à¤¤à¤¹à¤Łà¤²": 7516,
      "Ġà¥¦à¥¬à¥¨à¥¦à¥¬à¥©": 7517,
      "à¤¤à¤ķà¤®à¤§": 7518,
      "Ġà¤²à¤¹à¤¡à¤®": 7519,
      "Ġà¤Ľà¤°à¤ªà¤·": 7520,
      "à¤¦à¤Ļ": 7521,
      "à¤µà¤§à¤¨": 7522,
      "Ġà¤Ĺà¤±": 7523,
      "à¤ľà¤ĺ": 7524,
      "à¤¬à¤¸à¤²": 7525,
      "à¤·à¤Ŀ": 7526,
      "Ġà¤ľà¤«": 7527,
      "à¤ļà¤²à¤¸": 7528,
      "à¤ĸà¤Ĺà¤¨": 7529,
      "Ġà¤¥à¤®à¤¨": 7530,
      "à¤ªà¤°à¤¹à¤°": 7531,
      "à¤¨à¤®à¤¹": 7532,
      "Ġà¤ıà¤ķà¤¤à¤¨": 7533,
      "à¤®à¤¤à¤¸": 7534,
      "à¤Ĩà¤ı": 7535,
      "à¤°à¤¶à¤®": 7536,
      "Ġà¤¢à¤²à¤®": 7537,
      "Ġà¤ªà¤Łà¤ķà¤Ńà¤¨": 7538,
      "à¤¤à¤µà¤°à¤£": 7539,
      "à¤¤à¤°à¤£à¤¬": 7540,
      "Ġà¤ħà¤«à¤°à¤¹à¤°": 7541,
      "Ġà¥¨à¥«à¥¨à¥«": 7542,
      "à¤¦à¤®à¤¯": 7543,
      "à¤ıà¤®à¤ª": 7544,
      "Ġà¤¤à¤²à¤¤à¤²": 7545,
      "Ġà¥¨à¥¯à¥¬": 7546,
      "à¤Ĺà¤®à¤¨à¤ªà¤Ľ": 7547,
      "Ġà¥©à¥Ńà¥¦": 7548,
      "Ġà¤ıà¤®à¤ıà¤¡à¤¬": 7549,
      "à¤®à¤¨à¤Ĺà¤°à¤¸": 7550,
      "à¤°à¤¯à¤ķ": 7551,
      "à¤°à¤ħà¤¸": 7552,
      "à¤¤à¤¶à¤¤": 7553,
      "à¤¸à¤¯à¤®": 7554,
      "Ġà¤¸à¤²à¤¬à¤²": 7555,
      "à¤µà¤īà¤ªà¤ª": 7556,
      "Ġà¤Ĺà¤Ĺà¤¨à¤²": 7557,
      "à¤¬à¤ĩà¤®": 7558,
      "à¤§à¤¨à¤®à¤¨": 7559,
      "Ġà¤¦à¤¹à¤®": 7560,
      "à¤īà¤ªà¤Ľ": 7561,
      "Ġà¤ıà¤ıà¤¸": 7562,
      "à¤īà¤¨à¤ªà¤°": 7563,
      "Ġà¤¬à¤¨à¤¬": 7564,
      "Ġà¤§à¤°à¤®à¤ª": 7565,
      "à¤ªà¤¨à¤ªà¤Ľ": 7566,
      "Ġà¤ĩà¤²à¤®": 7567,
      "Ġà¥ªà¥©à¥¦": 7568,
      "à¤®à¤²à¤ª": 7569,
      "à¤ĵà¤¡": 7570,
      "à¥®à¥¯": 7571,
      "Ġà¥¯à¥¨à¥¦": 7572,
      "à¤°à¤®à¤£à¤¸": 7573,
      "à¤¦à¤²à¤¸": 7574,
      "Ġà¤Ĩà¤łà¤ªà¤¹à¤°": 7575,
      "à¤¸à¤µà¤¬": 7576,
      "Ġà¥©à¥§à¥«": 7577,
      "Ġà¥§à¥¯à¥¬à¥©": 7578,
      "Ġà¤Ĺà¤Ĺà¤¨à¤ļ": 7579,
      "Ġà¤µà¤ļà¤¨à¤¬à¤¦": 7580,
      "à¤ķà¤ħà¤ªà¤®": 7581,
      "Ġà¤ľà¤®à¤ĺà¤Łà¤ķ": 7582,
      "Ġà¤Ĩà¤®à¤¹à¤¡à¤¤": 7583,
      "à¤°à¤°à¤ķ": 7584,
      "à¤°à¤Ĺà¤®à¤¨": 7585,
      "à¤¨à¤¯à¤¬": 7586,
      "à¤¤à¤µà¤°": 7587,
      "Ġà¥ĥ": 7588,
      "à¤Łà¤Ļ": 7589,
      "Ġà¤®à¤°à¤ķ": 7590,
      "à¤·à¤ħà¤ª": 7591,
      "Ġà¤Ľà¤ļà¤²": 7592,
      "à¤Īà¤ıà¤«à¤ı": 7593,
      "à¤Ľà¤°à¤®": 7594,
      "à¤ĩà¤§": 7595,
      "à¤¯à¤ķà¤¸à¤®": 7596,
      "à¤Ļà¤®à¤¤": 7597,
      "à¤ªà¤°à¤°": 7598,
      "à¤ķà¤²à¤¨à¤²": 7599,
      "à¤·à¤£à¤¦": 7600,
      "à¤Ĩà¤ĩà¤ķ": 7601,
      "à¤¤à¤¬à¤¦": 7602,
      "à¤°à¤ľà¤Ļ": 7603,
      "Ġà¤ıà¤¨à¤Ĩà¤Īà¤¬": 7604,
      "à¤¯à¤Łà¤¨à¤¬": 7605,
      "Ġà¥¨à¥®à¥§": 7606,
      "Ġà¤¨à¤µà¤Ĺ": 7607,
      "Ġà¥¨à¥¬à¥¯": 7608,
      "à¤Łà¤¬à¤²à¤ª": 7609,
      "Ġà¤ĩà¤®à¤°à¤ľ": 7610,
      "Ġà¤ķà¤ļà¤¹à¤°": 7611,
      "à¤¼à¥ĭ": 7612,
      "à¤Īà¤¨à¤²à¤ķ": 7613,
      "Ġà¤°à¤£à¤Ń": 7614,
      "à¤ķà¤¨à¤¸": 7615,
      "à¤¸à¤ĸà¤°": 7616,
      "Ġà¤ķà¤¦à¤ķ": 7617,
      "à¤ıà¤¥": 7618,
      "Ġà¤ħà¤¡à¤ķ": 7619,
      "Ġà¤Ľà¤łà¤²": 7620,
      "à¤§à¤µà¤¨": 7621,
      "Ġà¤²à¤¦": 7622,
      "Ġà¤¸à¤®à¤Ń": 7623,
      "à¤ĩà¤ıà¤°": 7624,
      "à¤¯à¤ķà¤¦": 7625,
      "à¤Ļà¤ªà¤Ľ": 7626,
      "à¤ªà¤°à¤¯": 7627,
      "Ġà¤¸à¤¹à¤ĩà¤¨": 7628,
      "Ġà¤ķà¤®à¤²à¤¬à¤¹": 7629,
      "à¤µà¤°à¤«": 7630,
      "à¤ħà¤®à¤²": 7631,
      "à¤·à¤£à¤¸à¤¹": 7632,
      "à¥«à¥¦à¥¦": 7633,
      "à¥¬à¥¨": 7634,
      "à¤Ĺà¤®à¤¬": 7635,
      "Ġà¤¬à¤¹à¤¸à¤¹à¤°": 7636,
      "Ġà¤ħà¤ªà¤¸": 7637,
      "Ġà¤«à¤°à¤«": 7638,
      "à¤µà¤°à¤£à¤¸": 7639,
      "Ġà¤¨à¤ªà¤ļ": 7640,
      "Ġà¥¨à¥§à¥¨": 7641,
      "Ġà¤°à¤¹à¤°à¤®": 7642,
      "à¤Ńà¤ªà¤¤à¤¨à¤²": 7643,
      "Ġà¤¦à¤®à¤¨à¤¨": 7644,
      "à¤°à¤ĺà¤£": 7645,
      "à¤ħà¤«à¤Ĺ": 7646,
      "Ġà¤Ľà¤²à¤ķà¤ªà¤Ł": 7647,
      "à¤¨à¤µà¤¨": 7648,
      "à¤¸à¤¤à¤²": 7649,
      "à¤¦à¤¯à¤µ": 7650,
      "Ġà¤°à¤¤à¤¨à¤ª": 7651,
      "Ġà¤¬à¤ķà¤¸": 7652,
      "à¤ľà¤¤à¤°": 7653,
      "à¤ļà¤ļ": 7654,
      "à¤Ľà¤Ł": 7655,
      "à¤ĩà¤¬à¤ķ": 7656,
      "à¥¦à¥Ń": 7657,
      "Ġà¤ıà¤ķà¤²à¤ķ": 7658,
      "Ġà¤¸à¤¹à¤ħà¤Ń": 7659,
      "à¤¯à¤¤à¤¹à¤°": 7660,
      "à¤ªà¤®à¤§": 7661,
      "à¤·à¤ķà¤¶": 7662,
      "à¥®à¥¨": 7663,
      "Ġà¤¬à¤²à¤¶": 7664,
      "Ġà¤¹à¤¤à¤ªà¤¤": 7665,
      "à¤¯à¤Łà¤ķà¤®": 7666,
      "à¤ıà¤«à¤ıà¤²": 7667,
      "Ġà¤Ńà¤ĩà¤ķà¤¨": 7668,
      "à¤°à¤ľà¤¨à¤¸": 7669,
      "Ġà¤²à¤¨à¤Ł": 7670,
      "à¤°à¤¶à¤ķ": 7671,
      "à¤¤à¤¸à¤°": 7672,
      "Ġà¤®à¤²à¤¬": 7673,
      "à¤·à¤ļà¤¨": 7674,
      "Ġà¤ľà¤¨à¤²": 7675,
      "à¤£à¤¶à¤®à¤¶": 7676,
      "Ġà¤¤à¤°à¤¹à¤°": 7677,
      "Ġà¤ĩà¤¨à¤¸": 7678,
      "à¤¶à¤ķà¤¶": 7679,
      "Ġà¤Ĩà¤ĩà¤ıà¤¸à¤ķ": 7680,
      "Ġà¤¦à¤²à¤¦à¤²": 7681,
      "à¤ĩà¤²à¤Łà¤¹à¤°": 7682,
      "à¤¹à¤®à¤§": 7683,
      "Ġà¤ıà¤¨à¤ıà¤ļ": 7684,
      "Ġà¥¨à¥©à¥§": 7685,
      "Ġà¤ħà¤ĸà¤µ": 7686,
      "Ġà¤¤à¤®à¤ĺ": 7687,
      "à¤¨à¤Ńà¤°à¤®": 7688,
      "Ġà¤ĵà¤Ńà¤²à¤®": 7689,
      "Ġà¤ıà¤ķà¤ıà¤ķà¤µà¤Ł": 7690,
      "à¤°à¤¢": 7691,
      "à¤®à¤¶à¤®à¤¶": 7692,
      "Ġà¤¸à¤ĺà¤°": 7693,
      "Ġà¤°à¤¶à¤®": 7694,
      "Ġà¤°à¤¬à¤°à¤ķ": 7695,
      "Ġà¤¨à¤«à¤¸": 7696,
      "à¤ıà¤°à¤ķ": 7697,
      "Ġà¤Ńà¤¯à¤®": 7698,
      "Ġà¤Ńà¤Łà¤°": 7699,
      "Ġà¤Ľà¤ľà¤¨": 7700,
      "à¤§à¤Ļ": 7701,
      "Ġà¤²à¤ķà¤°": 7702,
      "à¤ļà¤Ł": 7703,
      "à¤ļà¤ªà¤Ľ": 7704,
      "à¤īà¤¨à¤Ń": 7705,
      "à¤°à¤¤à¤Ńà¤°": 7706,
      "à¤°à¤¤à¤ªà¤°à¤¸": 7707,
      "à¤Ļà¤¥": 7708,
      "Ġà¤ĺà¤¤à¤²": 7709,
      "Ġà¤ľà¤¨à¤ªà¤¦": 7710,
      "Ġà¤ķà¤®à¤²à¤µ": 7711,
      "Ġà¤łà¤Ĺà¤¹à¤°": 7712,
      "à¤µà¤¨à¤¬à¤¹": 7713,
      "à¤·à¤£à¤ª": 7714,
      "à¤°à¤§à¤°": 7715,
      "Ġà¤ªà¤ķà¤¡à¤®": 7716,
      "Ġà¤ĺà¤°à¤ĺà¤¡": 7717,
      "à¥®à¥ª": 7718,
      "Ġà¤ħà¤µà¤Ĺ": 7719,
      "Ġà¥«à¥¦à¥ª": 7720,
      "à¤µà¤¦à¤¤": 7721,
      "à¤ķà¤¸à¤¤": 7722,
      "à¤¤à¤°à¤®à¤¹": 7723,
      "à¤ĩà¤ķà¤²à¤¯": 7724,
      "Ġà¤ļà¤°à¤£à¤¸à¤®": 7725,
      "Ġà¤Ľà¤łà¤²à¤Ĺ": 7726,
      "Ġà¤ĸà¤¬à¤°à¤¬": 7727,
      "Ġà¤¶à¤°à¤¦à¤²": 7728,
      "Ġà¤²à¤ĸà¤¤à¤°": 7729,
      "Ġà¥§à¥¯à¥©à¥¯": 7730,
      "à¤¨à¤Ĺà¤łà¤¨": 7731,
      "à¤²à¤¸à¤°": 7732,
      "à¤ªà¤Łà¤®": 7733,
      "Ġà¤¬à¤°à¤ķ": 7734,
      "Ġà¤¬à¤°à¤®": 7735,
      "à¤ıà¤°à¤²": 7736,
      "Ġà¤®à¤µ": 7737,
      "Ġà¤µà¤¨à¤®à¤¨": 7738,
      "à¤£à¤Ńà¤¨": 7739,
      "à¤īà¤Łà¤ķ": 7740,
      "Ġà¤ıà¤ķà¤¤à¤²": 7741,
      "Ġà¤¯à¤¸à¤ħà¤Ĺ": 7742,
      "à¤Ŀà¤īà¤¨": 7743,
      "à¤Ŀà¤¨à¤²": 7744,
      "à¤Ŀà¤Łà¤¬": 7745,
      "Ġà¤¬à¤¢à¤µ": 7746,
      "Ġà¤łà¤¹à¤¯": 7747,
      "Ġà¤¸à¤®à¤¯à¤ħà¤Ĺ": 7748,
      "à¥®à¥¬": 7749,
      "Ġà¥¯à¥§à¥¨": 7750,
      "à¤°à¤ªà¤Ļ": 7751,
      "à¤²à¤¤à¤¸à¤®à¤ķ": 7752,
      "Ġà¤¹à¤¸à¤¨à¤²": 7753,
      "à¤¯à¤¯à¤¨à¤ħà¤§": 7754,
      "à¤ľà¤¯à¤¬": 7755,
      "Ġà¥¦à¥«à¥¦": 7756,
      "Ġà¤Ńà¤Īà¤°à¤¹à¤¨": 7757,
      "à¤ıà¤®à¤Ĩà¤°à¤²": 7758,
      "à¤ªà¤Łà¤¨à¤®": 7759,
      "à¤²à¤¨à¤²à¤Ĺ": 7760,
      "Ġà¤¬à¤¬à¤°à¤®à¤¹à¤²à¤¸": 7761,
      "à¤¹à¤£à¤²": 7762,
      "à¤µà¤ļà¤°": 7763,
      "Ġà¤Ĺà¤ĩà¤¯": 7764,
      "Ġà¤°à¤ħà¤ķ": 7765,
      "Ġà¤¬à¤¨à¤²": 7766,
      "à¤¥à¤ľ": 7767,
      "à¤¥à¤°à¤®": 7768,
      "à¤¶à¤¯à¤²": 7769,
      "Ġà¤ħà¤¨à¤ªà¤¢": 7770,
      "à¤¯à¤¤à¤¤": 7771,
      "à¤µà¤¨à¤ªà¤¦": 7772,
      "à¤ļà¤¨à¤µ": 7773,
      "à¤¤à¤®à¤°": 7774,
      "à¤Ĺà¤ķà¤µ": 7775,
      "Ġà¤¢à¤ķà¤¨": 7776,
      "Ġà¥¯à¥§à¥§": 7777,
      "à¤ķà¤ªà¤Łà¤ķ": 7778,
      "Ġà¤¦à¤²à¤ľ": 7779,
      "Ġà¤¦à¤²à¤¹à¤¨": 7780,
      "Ġà¥§à¥¨à¥§à¥«": 7781,
      "Ġà¤Īà¤Ļà¤²": 7782,
      "Ġà¤Īà¤Ĩà¤Īà¤ı": 7783,
      "à¤¯à¤£à¤¬à¤¹": 7784,
      "Ġà¤Ŀà¤¨à¤Ŀà¤¨": 7785,
      "Ġà¤ıà¤ªà¤¬": 7786,
      "Ġà¥©à¥®à¥¦": 7787,
      "Ġà¥¯à¥®à¥¦": 7788,
      "Ġà¤ľà¤ľà¤¸à¤²": 7789,
      "à¤¨à¤ħà¤Łà¤°": 7790,
      "Ġà¤ıà¤²à¤ıà¤²à¤¬": 7791,
      "à¤¾à¥ħ": 7792,
      "à¥ĭà¤¾": 7793,
      "Ġà¤¸à¤¸à¤ķ": 7794,
      "à¤¹à¤²à¤²": 7795,
      "à¤ªà¤ªà¤¤": 7796,
      "Ġà¤ķà¤¡à¤°": 7797,
      "Ġà¤Ĺà¤«à¤ķ": 7798,
      "à¤ıà¤¶à¤¨à¤²": 7799,
      "à¤Ńà¤°à¤¸": 7800,
      "à¤īà¤Łà¤°": 7801,
      "Ġà¤«à¤¸à¤²": 7802,
      "Ġà¤¸à¤¹à¤¸à¤®": 7803,
      "à¤®à¤ķà¤ķ": 7804,
      "à¤¦à¤¨à¤ªà¤¤": 7805,
      "à¤ķà¤¨à¤ªà¤Ľ": 7806,
      "Ġà¥¨à¥¬à¥ª": 7807,
      "Ġà¤¨à¤Ĺà¤ª": 7808,
      "à¤¯à¤«": 7809,
      "Ġà¤µà¤°à¤ķ": 7810,
      "à¤Īà¤ªà¤¨": 7811,
      "à¤ļà¤ĺà¤°": 7812,
      "à¤¡à¤µà¤ķ": 7813,
      "à¤¡à¤ĺà¤Ł": 7814,
      "à¤ĸà¤Ĺ": 7815,
      "à¤ĩà¤Ńà¤ķ": 7816,
      "à¤°à¤¤à¤Ń": 7817,
      "Ġà¤ĺà¤®à¤¨": 7818,
      "à¤²à¤ķà¤¨": 7819,
      "à¤°à¤¦à¤¶à¤¨": 7820,
      "à¤²à¤²à¤²": 7821,
      "à¤²à¤¨à¤ľ": 7822,
      "à¤Ĩà¤ĸ": 7823,
      "à¤Ĩà¤°à¤ľ": 7824,
      "à¤·à¤®à¤¯": 7825,
      "Ġà¤«à¤°à¤«à¤°": 7826,
      "à¤Īà¤ķà¤²à¤ķ": 7827,
      "à¤ıà¤®à¤Ł": 7828,
      "Ġà¤ıà¤ķà¤ªà¤Łà¤ķà¤ķ": 7829,
      "Ġà¥¯à¥©à¥Ń": 7830,
      "Ġà¥§à¥¯à¥«à¥§": 7831,
      "Ġà¤¸à¤¯à¤ķà¤¡": 7832,
      "à¤Łà¤ħà¤Ł": 7833,
      "à¤¨à¤¨à¤ķ": 7834,
      "à¤¨à¤Ĺà¤¨": 7835,
      "à¤¤à¤·": 7836,
      "à¤¤à¤Ĩà¤ł": 7837,
      "à¤¯à¤²à¤¯à¤¹à¤°": 7838,
      "à¤ªà¤¥à¤®": 7839,
      "à¤µà¤§à¤°": 7840,
      "Ġà¤°à¤Ľ": 7841,
      "Ġà¤®à¤°à¤£à¤ķ": 7842,
      "Ġà¤Ńà¤°à¤¤à¤²": 7843,
      "Ġà¤ħà¤ıà¤ķ": 7844,
      "à¤¡à¤µà¤²": 7845,
      "à¤ĸà¤¯": 7846,
      "à¤ĩà¤Ĩà¤ıà¤ķ": 7847,
      "à¤«à¤²à¤²": 7848,
      "Ġà¤¶à¤®à¤¸": 7849,
      "Ġà¤ĸà¤°à¤²": 7850,
      "Ġà¤ĸà¤²à¤ª": 7851,
      "Ġà¤«à¤²à¤²": 7852,
      "à¤ĺà¤°à¤¸": 7853,
      "à¤ħà¤®à¤°": 7854,
      "à¤ļà¤¨à¤¦": 7855,
      "à¤Ĺà¤²à¤Ń": 7856,
      "Ġà¤Ĩà¤ľà¤ªà¤°": 7857,
      "Ġà¤¬à¤²à¤°à¤²": 7858,
      "à¤¸à¤¹à¤ľ": 7859,
      "Ġà¥¨à¥¬à¥®": 7860,
      "à¤¸à¤¨à¤²à¤Ĺ": 7861,
      "à¤°à¤Ļà¤¬": 7862,
      "Ġà¤®à¤¦à¤¨à¤ª": 7863,
      "à¤ĩà¤ıà¤ħà¤¨": 7864,
      "à¤°à¤¨à¤Ĺà¤°à¤¸": 7865,
      "à¤¡à¤°à¤¸à¤Ł": 7866,
      "Ġà¤ķà¤¨à¤ķà¤®à¤£": 7867,
      "à¤°à¤°à¤£": 7868,
      "à¤¦à¤¯à¤¸": 7869,
      "à¤µà¤ľà¤ķ": 7870,
      "à¤µà¤Ńà¤ķ": 7871,
      "à¥Īà¥Īà¤Ĥ": 7872,
      "à¤Łà¤ľà¤¤": 7873,
      "Ġà¤¬à¤Łà¤°à¤«": 7874,
      "à¤ıà¤¹à¤°": 7875,
      "Ġà¤¤à¤¶": 7876,
      "à¤¶à¤°à¤®": 7877,
      "Ġà¤ľà¤¯à¤¬": 7878,
      "à¤īà¤¡à¤²": 7879,
      "à¤īà¤§à¤¨à¤ķ": 7880,
      "à¤ĩà¤¥": 7881,
      "Ġà¤ļà¤ļ": 7882,
      "Ġà¤¶à¤¦": 7883,
      "à¤¾à¤ģà¥Īà¤Ĥ": 7884,
      "à¤°à¤£à¤¬à¤¸": 7885,
      "à¤¸à¤ķà¤µà¤°": 7886,
      "à¤ªà¤¨à¤¹": 7887,
      "à¤ķà¤²à¤¹à¤°": 7888,
      "à¤łà¤®à¤¡": 7889,
      "à¤¯à¤²à¤¹à¤°": 7890,
      "à¤Ĩà¤¨à¤ķ": 7891,
      "à¤¤à¤²à¤¹à¤°à¤ķ": 7892,
      "à¤ĩà¤²à¤¸": 7893,
      "Ġà¥©à¥¦à¥«": 7894,
      "à¤°à¤¤à¤ķà¤¥": 7895,
      "Ġà¥§à¥®à¥Ń": 7896,
      "Ġà¤ľà¤²à¤ļà¤°": 7897,
      "Ġà¤¨à¤Ĩà¤ıà¤°": 7898,
      "Ġà¥¦à¥ªà¥¯": 7899,
      "Ġà¤Ĩà¤ĩà¤ĵà¤ıà¤®": 7900,
      "à¤¸à¤ıà¤ª": 7901,
      "Ġà¤¹à¤ķà¤¬": 7902,
      "Ġà¤Ĺà¤°à¤¨": 7903,
      "à¤Īà¤Ľ": 7904,
      "à¤Īà¤°à¤¸": 7905,
      "à¤¯à¤ķà¤¥": 7906,
      "Ġà¤ıà¤¨à¤²": 7907,
      "à¤¯à¤®à¤¨à¤®": 7908,
      "Ġà¤¡à¤¯": 7909,
      "Ġà¤¡à¤¨à¤ķ": 7910,
      "Ġà¤ĩà¤ĸ": 7911,
      "à¤¤à¤ķà¤¸": 7912,
      "à¤²à¤¨à¤µ": 7913,
      "Ġà¤ĵà¤łà¤ķ": 7914,
      "à¤ķà¤°à¤£à¤¦": 7915,
      "Ġà¤ıà¤®à¤«": 7916,
      "à¤µà¤¤à¤¬": 7917,
      "Ġà¤Ĳà¤¨à¤¬": 7918,
      "Ġà¤§à¤¨à¤ŀ": 7919,
      "à¤°à¤ľà¤¯à¤¨à¤Ĺà¤°": 7920,
      "Ġà¤Īà¤ľà¤°": 7921,
      "Ġà¥¨à¥ªà¥¯": 7922,
      "Ġà¤ľà¤¬à¤ľà¤ķ": 7923,
      "Ġà¤ľà¤¬à¤ľà¤¬": 7924,
      "à¤Ĺà¤¢à¤ķ": 7925,
      "ĠĠĠĠĠĠĠĠĠĠĠĠĠĠĠĠĠĠĠĠĠĠĠĠĠ": 7926,
      "à¤Łà¤µà¤²à¤¸": 7927,
      "Ġà¤°à¤¹à¤°à¤¹à¤°": 7928,
      "Ġà¥¯à¥®à¥ª": 7929,
      "Ġà¤ĸà¤µà¤°à¤¦": 7930,
      "à¤¦à¤²à¤¬": 7931,
      "à¤Łà¤®à¤¨": 7932,
      "Ġà¤Ńà¤¬à¤¨": 7933,
      "à¤·à¤°à¤¸": 7934,
      "à¤Ľà¤²à¤Ĺ": 7935,
      "à¤Ńà¤¶": 7936,
      "Ġà¤ĸà¤¸à¤¹à¤°": 7937,
      "Ġà¤®à¤¹à¤®à¤¦": 7938,
      "Ġà¤¸à¤ķà¤¨": 7939,
[...]
