{
  "version": "1.0",
  "truncation": null,
  "padding": null,
  "added_tokens": [
    {
      "id": 0,
      "content": "[PAD]",
      "single_word": false,
      "lstrip": false,
      "rstrip": false,
      "normalized": false,
      "special": true
    },
    {
      "id": 1,
      "content": "[UNK]",
      "single_word": false,
      "lstrip": false,
      "rstrip": false,
      "normalized": false,
      "special": true
    },
    {
      "id": 2,
      "content": "[CLS]",
      "single_word": false,
      "lstrip": false,
      "rstrip": false,
      "normalized": false,
      "special": true
    },
    {
      "id": 3,
      "content": "[SEP]",
      "single_word": false,
      "lstrip": false,
      "rstrip": false,
      "normalized": false,
      "special": true
    },
    {
      "id": 4,
      "content": "[MASK]",
      "single_word": false,
      "lstrip": false,
      "rstrip": false,
      "normalized": false,
      "special": true
    }
  ],
  "normalizer": {
    "type": "BertNormalizer",
    "clean_text": true,
    "handle_chinese_chars": true,
    "strip_accents": null,
    "lowercase": true
  },
  "pre_tokenizer": {
    "type": "BertPreTokenizer"
  },
  "post_processor": null,
  "decoder": {
    "type": "WordPiece",
    "prefix": "##",
    "cleanup": true
  },
  "model": {
    "type": "WordPiece",
    "unk_token": "[UNK]",
    "continuing_subword_prefix": "##",
    "max_input_chars_per_word": 100,
    "vocab": {
      "[PAD]": 0,
      "[UNK]": 1,
      "[CLS]": 2,
      "[SEP]": 3,
      "[MASK]": 4,
      "+": 5,
      "?": 6,
      "a": 7,
      "c": 8,
      "e": 9,
      "i": 10,
      "k": 11,
      "l": 12,
      "o": 13,
      "p": 14,
      "r": 15,
      "u": 16,
      "ः": 17,
      "ऄ": 18,
      "अ": 19,
      "आ": 20,
      "इ": 21,
      "ई": 22,
      "उ": 23,
      "ऊ": 24,
      "ऋ": 25,
      "ऌ": 26,
      "ऍ": 27,
      "ऎ": 28,
      "ए": 29,
      "ऐ": 30,
      "ऑ": 31,
      "ऒ": 32,
      "ओ": 33,
      "औ": 34,
      "क": 35,
      "ख": 36,
      "ग": 37,
      "घ": 38,
      "ङ": 39,
      "च": 40,
      "छ": 41,
      "ज": 42,
      "झ": 43,
      "ञ": 44,
      "ट": 45,
      "ठ": 46,
      "ड": 47,
      "ढ": 48,
      "ण": 49,
      "त": 50,
      "थ": 51,
      "द": 52,
      "ध": 53,
      "न": 54,
      "प": 55,
      "फ": 56,
      "ब": 57,
      "भ": 58,
      "म": 59,
      "य": 60,
      "र": 61,
      "ल": 62,
      "ळ": 63,
      "व": 64,
      "श": 65,
      "ष": 66,
      "स": 67,
      "ह": 68,
      "ऽ": 69,
      "ा": 70,
      "ि": 71,
      "ी": 72,
      "ॉ": 73,
      "ॊ": 74,
      "ॐ": 75,
      "ॠ": 76,
      "।": 77,
      "॥": 78,
      "०": 79,
      "१": 80,
      "२": 81,
      "३": 82,
      "४": 83,
      "५": 84,
      "६": 85,
      "७": 86,
      "८": 87,
      "९": 88,
      "॰": 89,
      "ॽ": 90,
      "##ल": 91,
      "##ि": 92,
      "##ख": 93,
      "##त": 94,
      "##a": 95,
      "##ज": 96,
      "##ी": 97,
      "##l": 98,
      "##क": 99,
      "##k": 100,
      "##य": 101,
      "##ञ": 102,
      "##न": 103,
      "##ह": 104,
      "##र": 105,
      "##e": 106,
      "##ा": 107,
      "##द": 108,
      "##इ": 109,
      "##u": 110,
      "##स": 111,
      "##म": 112,
      "##o": 113,
      "##i": 114,
      "##ग": 115,
      "##ड": 116,
      "##उ": 117,
      "##छ": 118,
      "##व": 119,
      "##ट": 120,
      "##प": 121,
      "##ध": 122,
      "##थ": 123,
      "##p": 124,
      "##फ": 125,
      "##भ": 126,
      "##ङ": 127,
      "##c": 128,
      "##ए": 129,
      "##च": 130,
      "##ण": 131,
      "##ब": 132,
      "##झ": 133,
      "##ई": 134,
      "##ढ": 135,
      "##घ": 136,
      "##r": 137,
      "##आ": 138,
      "##अ": 139,
      "##४": 140,
      "##९": 141,
      "##०": 142,
      "##श": 143,
      "##ष": 144,
      "##ठ": 145,
      "##३": 146,
      "##५": 147,
      "##२": 148,
      "##८": 149,
      "##ः": 150,
      "##६": 151,
      "##१": 152,
      "##ॊ": 153,
      "##ओ": 154,
      "##ऊ": 155,
      "##७": 156,
      "##ऋ": 157,
      "##औ": 158,
      "##ॉ": 159,
      "##ऐ": 160,
      "##ऽ": 161,
      "##ळ": 162,
      "##ऎ": 163,
      "##ऒ": 164,
      "##ॠ": 165,
      "##ऑ": 166,
      "##ॐ": 167,
      "##ऍ": 168,
      "##ॽ": 169,
      "##कo": 170,
      "##रa": 171,
      "##aर": 172,
      "##मा": 173,
      "##नa": 174,
      "##का": 175,
      "##aय": 176,
      "##लl": 177,
      "##नl": 178,
      "##ार": 179,
      "##ला": 180,
      "##ाल": 181,
      "पaर": 182,
      "##सa": 183,
      "##ान": 184,
      "##ति": 185,
      "##कa": 186,
      "##ता": 187,
      "##एकo": 188,
      "##ना": 189,
      "गर": 190,
      "वि": 191,
      "##नि": 192,
      "##हर": 193,
      "गरa": 194,
      "##तaर": 195,
      "##मa": 196,
      "##लाई": 197,
      "##यo": 198,
      "##lकo": 199,
      "का": 200,
      "##नu": 201,
      "##वा": 202,
      "##ाग": 203,
      "##िक": 204,
      "हu": 205,
      "##ित": 206,
      "##रा": 207,
      "रा": 208,
      "नि": 209,
      "##aया": 210,
      "नl": 211,
      "##री": 212,
      "##नaद": 213,
      "##पाल": 214,
      "##या": 215,
      "##था": 216,
      "##तa": 217,
      "##कaष": 218,
      "##लa": 219,
      "पनि": 220,
      "सा": 221,
      "सc": 222,
      "मा": 223,
      "सa": 224,
      "##lर": 225,
      "##हि": 226,
      "##बा": 227,
      "दि": 228,
      "##lश": 229,
      "##हरu": 230,
      "सम": 231,
      "##ाउ": 232,
      "##षa": 233,
      "##uर": 234,
      "लाग": 235,
      "नlपाल": 236,
      "##दk": 237,
      "##नी": 238,
      "##रaय": 239,
      "हo": 240,
      "##दा": 241,
      "##हा": 242,
      "##िका": 243,
      "##lका": 244,
      "थि": 245,
      "##नaछ": 246,
      "##सaत": 247,
      "##एका": 248,
      "##ाम": 249,
      "##रि": 250,
      "तaय": 251,
      "भएकo": 252,
      "##lख": 253,
      "##बाट": 254,
      "##पा": 255,
      "##दa": 256,
      "भनl": 257,
      "पा": 258,
      "समa": 259,
      "##कार": 260,
      "छनa": 261,
      "##वि": 262,
      "कl": 263,
      "रह": 264,
      "##षaट": 265,
      "##हरe": 266,
      "कारaय": 267,
      "निरa": 268,
      "गरि": 269,
      "कu": 270,
      "लागि": 271,
      "पu": 272,
      "##नaतaर": 273,
      "##lल": 274,
      "##कaर": 275,
      "##aन": 276,
      "##ही": 277,
      "##सा": 278,
      "##छि": 279,
      "##नaत": 280,
      "यस": 281,
      "##ीय": 282,
      "##लo": 283,
      "यo": 284,
      "गरlकo": 285,
      "गरaनl": 286,
      "गरaन": 287,
      "##रaष": 288,
      "एक": 289,
      "सu": 290,
      "बा": 291,
      "आफ": 292,
      "##ारी": 293,
      "##aच": 294,
      "##गा": 295,
      "##िय": 296,
      "##सaथा": 297,
      "अध": 298,
      "##दlश": 299,
      "पaरति": 300,
      "तथा": 301,
      "##lखि": 302,
      "वaय": 303,
      "##भा": 304,
      "##धान": 305,
      "सर": 306,
      "##टा": 307,
      "बि": 308,
      "##ीलl": 309,
      "राज": 310,
      "कa": 311,
      "##िन": 312,
      "##uप": 313,
      "कo": 314,
      "थियo": 315,
      "##iग": 316,
      "सह": 317,
      "उन": 318,
      "##यoग": 319,
      "##aरo": 320,
      "##णa": 321,
      "दu": 322,
      "##ीकo": 323,
      "##दaध": 324,
      "हuनl": 325,
      "##परa": 326,
      "##नaन": 327,
      "##पछि": 328,
      "##रह": 329,
      "अनu": 330,
      "मu": 331,
      "##pc": 332,
      "##कि": 333,
      "बता": 334,
      "##मaम": 335,
      "##रण": 336,
      "##एर": 337,
      "बढ": 338,
      "##भि": 339,
      "उप": 340,
      "##की": 341,
      "नk": 342,
      "##रaथ": 343,
      "सि": 344,
      "तर": 345,
      "##िलa": 346,
      "##ङa": 347,
      "##ाइ": 348,
      "कaष": 349,
      "तaयस": 350,
      "##णaड": 351,
      "##कaत": 352,
      "##ालय": 353,
      "##cग": 354,
      "##रo": 355,
      "##aव": 356,
      "##ली": 357,
      "##रaव": 358,
      "वरaष": 359,
      "##lत": 360,
      "##िस": 361,
      "वा": 362,
      "##षaटaर": 363,
      "##lस": 364,
      "##सaथ": 365,
      "##lट": 366,
      "अव": 367,
      "हाम": 368,
      "भनa": 369,
      "##बार": 370,
      "##ाउi": 371,
      "सरकार": 372,
      "काम": 373,
      "##िम": 374,
      "##नaदaर": 375,
      "##सiग": 376,
      "##कारी": 377,
      "##पa": 378,
      "सaथ": 379,
      "परि": 380,
      "थिए": 381,
      "##नमा": 382,
      "रहlकo": 383,
      "बना": 384,
      "##सार": 385,
      "##नaध": 386,
      "##गर": 387,
      "२०": 388,
      "##कaरम": 389,
      "##जार": 390,
      "##ठमा": 391,
      "##नuपरa": 392,
      "##हाi": 393,
      "##बk": 394,
      "##नaदा": 395,
      "##lतaर": 396,
      "विश": 397,
      "लि": 398,
      "##जना": 399,
      "##िया": 400,
      "समा": 401,
      "##पaर": 402,
      "##जा": 403,
      "काठमा": 404,
      "सl": 405,
      "जन": 406,
      "##टी": 407,
      "##डा": 408,
      "##तिक": 409,
      "रuप": 410,
      "##नuभ": 411,
      "##ारण": 412,
      "नlपाली": 413,
      "कaषlतaर": 414,
      "##iदk": 415,
      "ला": 416,
      "भए": 417,
      "##नकo": 418,
      "##मu": 419,
      "##दaय": 420,
      "##याi": 421,
      "सबk": 422,
      "वaयव": 423,
      "##ानी": 424,
      "##उनl": 425,
      "##हिलl": 426,
      "##ती": 427,
      "सo": 428,
      "##aनl": 429,
      "जना": 430,
      "पaरा": 431,
      "##uरu": 432,
      "गरlका": 433,
      "काठमाड": 434,
      "##kन": 435,
      "##सी": 436,
      "##कaषा": 437,
      "##हu": 438,
      "##मaप": 439,
      "पe": 440,
      "##दी": 441,
      "हuनaछ": 442,
      "##oल": 443,
      "मातaर": 444,
      "##oज": 445,
      "##lला": 446,
      "##माण": 447,
      "परa": 448,
      "जा": 449,
      "##उन": 450,
      "दlखि": 451,
      "भएका": 452,
      "##रaम": 453,
      "##कaति": 454,
      "##नaतaरी": 455,
      "भनaनl": 456,
      "आफaन": 457,
      "राषaटaर": 458,
      "##समaम": 459,
      "##ञaच": 460,
      "बu": 461,
      "उनी": 462,
      "मह": 463,
      "सaथान": 464,
      "##चार": 465,
      "बk": 466,
      "##िति": 467,
      "पारa": 468,
      "##सaता": 469,
      "कuरा": 470,
      "##नaय": 471,
      "##धaय": 472,
      "##डि": 473,
      "कारaयकaरम": 474,
      "उतa": 475,
      "गरिएकo": 476,
      "अधaय": 477,
      "दिन": 478,
      "##नk": 479,
      "##रaण": 480,
      "गरी": 481,
      "##aरा": 482,
      "##धि": 483,
      "##वार": 484,
      "छkन": 485,
      "##िलaला": 486,
      "##दि": 487,
      "##सि": 488,
      "##पालिका": 489,
      "महि": 490,
      "अरa": 491,
      "उनलl": 492,
      "##रमा": 493,
      "##बनaध": 494,
      "##छनa": 495,
      "हuन": 496,
      "राख": 497,
      "जिलaला": 498,
      "गरaदk": 499,
      "पर": 500,
      "##तaय": 501,
      "##सaतo": 502,
      "समय": 503,
      "मि": 504,
      "##lक": 505,
      "##सक": 506,
      "##लि": 507,
      "##मान": 508,
      "जान": 509,
      "ती": 510,
      "सकa": 511,
      "भार": 512,
      "था": 513,
      "##aरम": 514,
      "##कr": 515,
      "##भाव": 516,
      "कि": 517,
      "सaव": 518,
      "कम": 519,
      "##uट": 520,
      "##शा": 521,
      "पaरहर": 522,
      "##lद": 523,
      "##oक": 524,
      "आफaनo": 525,
      "##कास": 526,
      "##रहlकo": 527,
      "चा": 528,
      "गरl": 529,
      "हि": 530,
      "पuग": 531,
      "##ाउनl": 532,
      "##टक": 533,
      "##तaव": 534,
      "शि": 535,
      "जo": 536,
      "##रu": 537,
      "##kलl": 538,
      "भारत": 539,
      "##aयo": 540,
      "पहि": 541,
      "अहिलl": 542,
      "हजार": 543,
      "मान": 544,
      "##गत": 545,
      "##cक": 546,
      "##uक": 547,
      "##धार": 548,
      "दlश": 549,
      "कlही": 550,
      "##टर": 551,
      "निरaमाण": 552,
      "गत": 553,
      "विकास": 554,
      "##चि": 555,
      "##निक": 556,
      "काठमाडpc": 557,
      "##uन": 558,
      "अनaत": 559,
      "##गaर": 560,
      "लग": 561,
      "कारण": 562,
      "साथ": 563,
      "दuई": 564,
      "हा": 565,
      "आयo": 566,
      "##मनaतaरी": 567,
      "##दlखि": 568,
      "गा": 569,
      "##aञ": 570,
      "##ताकo": 571,
      "##lरk": 572,
      "शा": 573,
      "##ीमा": 574,
      "##हरuकo": 575,
      "##कk": 576,
      "##पe": 577,
      "##मuख": 578,
      "दा": 579,
      "यu": 580,
      "##iदा": 581,
      "रo": 582,
      "##pi": 583,
      "कuनk": 584,
      "अधaयकaष": 585,
      "हuनa": 586,
      "मo": 587,
      "##नuभयo": 588,
      "या": 589,
      "##रaफ": 590,
      "पaरदlश": 591,
      "##eल": 592,
      "##रaच": 593,
      "##जी": 594,
      "नगर": 595,
      "##पuर": 596,
      "##हरuलl": 597,
      "लगा": 598,
      "सaवा": 599,
      "धlरk": 600,
      "वaयवसaथा": 601,
      "##ाउन": 602,
      "अधिका": 603,
      "कlनaदaर": 604,
      "##डी": 605,
      "खा": 606,
      "शaर": 607,
      "##बी": 608,
      "आज": 609,
      "##बa": 610,
      "##eप": 611,
      "##नuपरaनl": 612,
      "##जन": 613,
      "##फल": 614,
      "##कu": 615,
      "##iच": 616,
      "ना": 617,
      "##ारा": 618,
      "##यत": 619,
      "राम": 620,
      "निरaवा": 621,
      "##दान": 622,
      "पo": 623,
      "##मaब": 624,
      "समlत": 625,
      "रuपमा": 626,
      "##खा": 627,
      "घर": 628,
      "सaथानीय": 629,
      "##टo": 630,
      "##वन": 631,
      "भा": 632,
      "पaरधान": 633,
      "##घि": 634,
      "##रaता": 635,
      "##ाली": 636,
      "##हित": 637,
      "##षaठ": 638,
      "##सaतk": 639,
      "##भनaदा": 640,
      "गu": 641,
      "सञaच": 642,
      "##lनa": 643,
      "लाख": 644,
      "नयाi": 645,
      "सकि": 646,
      "आव": 647,
      "भि": 648,
      "सद": 649,
      "##षय": 650,
      "##oर": 651,
      "##ङaग": 652,
      "विशaव": 653,
      "गाउi": 654,
      "##सaय": 655,
      "##यन": 656,
      "कारaयालय": 657,
      "##मि": 658,
      "##भाग": 659,
      "अवसaथा": 660,
      "निरaवाच": 661,
      "##यu": 662,
      "एउ": 663,
      "हामी": 664,
      "चि": 665,
      "जानकारी": 666,
      "दlख": 667,
      "##वास": 668,
      "##मk": 669,
      "बताउ": 670,
      "सय": 671,
      "बo": 672,
      "गरlर": 673,
      "##ीत": 674,
      "तaयo": 675,
      "##भिनaन": 676,
      "पaरमuख": 677,
      "##सaट": 678,
      "बताए": 679,
      "##इन": 680,
      "##थि": 681,
      "##पaत": 682,
      "महा": 683,
      "सcघ": 684,
      "##रकo": 685,
      "अनuसार": 686,
      "अस": 687,
      "विषय": 688,
      "##लमा": 689,
      "##मlर": 690,
      "##रaया": 691,
      "खu": 692,
      "##रिक": 693,
      "समिति": 694,
      "##aछ": 695,
      "समaबनaध": 696,
      "राजनी": 697,
      "महिला": 698,
      "##शaय": 699,
      "##ाना": 700,
      "सरकारलl": 701,
      "गरaनu": 702,
      "आएकo": 703,
      "##पी": 704,
      "कस": 705,
      "##lव": 706,
      "##नaदk": 707,
      "खlल": 708,
      "ति": 709,
      "पaरहरी": 710,
      "भइ": 711,
      "लaया": 712,
      "##जिक": 713,
      "पारaटी": 714,
      "सlवा": 715,
      "तय": 716,
      "##चaच": 717,
      "रeप": 718,
      "##धा": 719,
      "उहाi": 720,
      "##वाद": 721,
      "##नaति": 722,
      "##जaञ": 723,
      "##सaया": 724,
      "अब": 725,
      "भयo": 726,
      "मन": 727,
      "पहिलo": 728,
      "सामा": 729,
      "##दuर": 730,
      "##टa": 731,
      "नlता": 732,
      "छo": 733,
      "##राज": 734,
      "भe": 735,
      "कr": 736,
      "विभिनaन": 737,
      "##वादी": 738,
      "पछि": 739,
      "बढी": 740,
      "##मी": 741,
      "डा": 742,
      "##aयान": 743,
      "##रaक": 744,
      "रहlका": 745,
      "दल": 746,
      "##जि": 747,
      "नभ": 748,
      "रu": 749,
      "दo": 750,
      "बस": 751,
      "नाम": 752,
      "पार": 753,
      "सहयoग": 754,
      "##रaत": 755,
      "एउटा": 756,
      "बज": 757,
      "पतaर": 758,
      "##lन": 759,
      "##रaग": 760,
      "##यर": 761,
      "जी": 762,
      "राषaटaरिय": 763,
      "##चना": 764,
      "##धन": 765,
      "समसaया": 766,
      "##इएकo": 767,
      "##गa": 768,
      "हl": 769,
      "##हार": 770,
      "अप": 771,
      "##रaश": 772,
      "आयoजना": 773,
      "##टना": 774,
      "##नuपरaछ": 775,
      "##टि": 776,
      "विदaय": 777,
      "##हo": 778,
      "समaप": 779,
      "गo": 780,
      "##पाद": 781,
      "गरaदा": 782,
      "जि": 783,
      "पaरयoग": 784,
      "समाज": 785,
      "कमaप": 786,
      "##सन": 787,
      "१०": 788,
      "मl": 789,
      "##सम": 790,
      "##रaथिक": 791,
      "##विधान": 792,
      "सदसaय": 793,
      "##पeरaण": 794,
      "तपा": 795,
      "सञaचाल": 796,
      "##तaम": 797,
      "आरaथिक": 798,
      "##शaयक": 799,
      "आइ": 800,
      "वaयकaति": 801,
      "सcविधान": 802,
      "##िएकo": 803,
      "##हरuलाई": 804,
      "छा": 805,
      "अनaय": 806,
      "हuiदk": 807,
      "##हरeलl": 808,
      "##uल": 809,
      "सuरu": 810,
      "##हरeकo": 811,
      "सuर": 812,
      "##रहlका": 813,
      "निय": 814,
      "मनaतaर": 815,
      "##साय": 816,
      "##हादuर": 817,
      "वaया": 818,
      "शu": 819,
      "मuल": 820,
      "बाल": 821,
      "##तामा": 822,
      "##तaत": 823,
      "##oग": 824,
      "रeपमा": 825,
      "##पति": 826,
      "##डक": 827,
      "##rदaध": 828,
      "उकaत": 829,
      "चu": 830,
      "##मालl": 831,
      "सक": 832,
      "##ामा": 833,
      "भनaदk": 834,
      "पaरधानमनaतaरी": 835,
      "##नaस": 836,
      "##टन": 837,
      "##सc": 838,
      "असa": 839,
      "तीन": 840,
      "##षण": 841,
      "आफe": 842,
      "अनि": 843,
      "सcसaथा": 844,
      "##शaच": 845,
      "ठe": 846,
      "अभ": 847,
      "लlख": 848,
      "दिनl": 849,
      "##कaषण": 850,
      "बlला": 851,
      "##aरlस": 852,
      "##िर": 853,
      "##शत": 854,
      "नगरपालिका": 855,
      "भनlर": 856,
      "##ितa": 857,
      "##पत": 858,
      "आधार": 859,
      "उनकo": 860,
      "कaषlतaरमा": 861,
      "गतl": 862,
      "##aयu": 863,
      "##तनaतaर": 864,
      "##सo": 865,
      "##सaथaय": 866,
      "आवशaयक": 867,
      "##पना": 868,
      "भनaदा": 869,
      "बl": 870,
      "पaरतिशत": 871,
      "##दkन": 872,
      "##डa": 873,
      "अमlर": 874,
      "##पन": 875,
      "कमaपनी": 876,
      "##करण": 877,
      "##ठक": 878,
      "सडक": 879,
      "##सaथित": 880,
      "##रoड": 881,
      "##चा": 882,
      "बसa": 883,
      "समaम": 884,
      "पaरश": 885,
      "तपाई": 886,
      "बkcक": 887,
      "##तr": 888,
      "मuख": 889,
      "पaरव": 890,
      "कaरम": 891,
      "जस": 892,
      "सaथा": 893,
      "पoख": 894,
      "माग": 895,
      "निरaण": 896,
      "##ञa": 897,
      "##उi": 898,
      "रuपk": 899,
      "सe": 900,
      "नाग": 901,
      "##जu": 902,
      "कार": 903,
      "##lष": 904,
      "करoड": 905,
      "##यक": 906,
      "##सaतu": 907,
      "सारaव": 908,
      "सcग": 909,
      "##वी": 910,
      "नlपालकo": 911,
      "तह": 912,
      "##सकlकo": 913,
      "हाल": 914,
      "##पि": 915,
      "बनl": 916,
      "##lरo": 917,
      "२०७": 918,
      "मत": 919,
      "सaवासaथaय": 920,
      "##दaया": 921,
      "परaनl": 922,
      "##पतaर": 923,
      "##जनिक": 924,
      "##भितaर": 925,
      "##नaड": 926,
      "खoज": 927,
      "हoइन": 928,
      "##काल": 929,
      "##नuभएकo": 930,
      "##शी": 931,
      "बuझ": 932,
      "##सद": 933,
      "##लlकo": 934,
      "उतaपाद": 935,
      "बजार": 936,
      "पuन": 937,
      "हामaरo": 938,
      "##सकa": 939,
      "राजनीतिक": 940,
      "मeल": 941,
      "निरaणय": 942,
      "निरaवाचन": 943,
      "##lमा": 944,
      "निका": 945,
      "##lनaदaर": 946,
      "##कम": 947,
      "##बहादuर": 948,
      "##बीच": 949,
      "पeरaव": 950,
      "##uवा": 951,
      "परaय": 952,
      "##aरि": 953,
      "महिना": 954,
      "##यuकaत": 955,
      "कान": 956,
      "##रaड": 957,
      "सारaवजनिक": 958,
      "उलa": 959,
      "नागरिक": 960,
      "मuलuक": 961,
      "किन": 962,
      "बkठक": 963,
      "राजaय": 964,
      "##काश": 965,
      "##एपछि": 966,
      "##तaया": 967,
      "##हान": 968,
      "##rत": 969,
      "पढ": 970,
      "वk": 971,
      "बाi": 972,
      "रuपkयाi": 973,
      "##नaव": 974,
      "##धिक": 975,
      "दिएकo": 976,
      "चल": 977,
      "हuनu": 978,
      "##रaन": 979,
      "##ीन": 980,
      "##सकo": 981,
      "लoक": 982,
      "गीत": 983,
      "##रaनl": 984,
      "करaम": 985,
      "##खaया": 986,
      "निक": 987,
      "अनaतरa": 988,
      "##दाय": 989,
      "रि": 990,
      "डि": 991,
      "निरaदlश": 992,
      "##राषaटaर": 993,
      "##लlख": 994,
      "नlपालमा": 995,
      "यoजना": 996,
      "मlरo": 997,
      "मkलl": 998,
      "नlतr": 999,
      "भनि": 1000,
      "जनता": 1001,
      "##kc": 1002,
      "यसaतo": 1003,
      "अघि": 1004,
      "##कaरिया": 1005,
      "पaरापaत": 1006,
      "मनaतaरालय": 1007,
      "##वk": 1008,
      "अगा": 1009,
      "कति": 1010,
      "समaपनaन": 1011,
      "नग": 1012,
      "##चिव": 1013,
      "##पu": 1014,
      "शिकaषा": 1015,
      "घटना": 1016,
      "पटक": 1017,
      "##लकo": 1018,
      "##दछ": 1019,
      "भlट": 1020,
      "अभि": 1021,
      "नlतrतaव": 1022,
      "कारaयकaरममा": 1023,
      "माओ": 1024,
      "##ठन": 1025,
      "##नaछनa": 1026,
      "सभा": 1027,
      "दश": 1028,
      "पाइ": 1029,
      "##पaरति": 1030,
      "सहभाग": 1031,
      "##oट": 1032,
      "##कaषक": 1033,
      "रामaरo": 1034,
      "ठeलo": 1035,
      "पuर": 1036,
      "विदaया": 1037,
      "पकaष": 1038,
      "##रoध": 1039,
      "घo": 1040,
      "रl": 1041,
      "##चारी": 1042,
      "मuखaय": 1043,
      "##बu": 1044,
      "##पताल": 1045,
      "सफल": 1046,
      "वaयवसाय": 1047,
      "##lषaठ": 1048,
      "हामीलl": 1049,
      "चp": 1050,
      "असaपताल": 1051,
      "गाउiपालिका": 1052,
      "मानिस": 1053,
      "##अघि": 1054,
      "सरaव": 1055,
      "विशlष": 1056,
      "##rतaय": 1057,
      "उदaय": 1058,
      "पaरभाव": 1059,
      "##घा": 1060,
      "नी": 1061,
      "दिए": 1062,
      "विदlश": 1063,
      "##तaमक": 1064,
      "समaझ": 1065,
      "अधिकारी": 1066,
      "काठमाडpi": 1067,
      "लगानी": 1068,
      "थप": 1069,
      "अरaकo": 1070,
      "##फा": 1071,
      "सनa": 1072,
      "##राम": 1073,
      "##थaयo": 1074,
      "यहाi": 1075,
      "आएका": 1076,
      "खo": 1077,
      "पाiच": 1078,
      "##lज": 1079,
      "##वरण": 1080,
      "वडा": 1081,
      "##सaकr": 1082,
      "##lपछि": 1083,
      "##दo": 1084,
      "##बि": 1085,
      "##सहित": 1086,
      "##समा": 1087,
      "जनाएकo": 1088,
      "##पनि": 1089,
      "बार": 1090,
      "##षा": 1091,
      "समu": 1092,
      "##भर": 1093,
      "मातaरk": 1094,
      "वटा": 1095,
      "##eह": 1096,
      "करaमचारी": 1097,
      "##rदaधि": 1098,
      "##तaति": 1099,
      "##मति": 1100,
      "सामाजिक": 1101,
      "मध": 1102,
      "एमालl": 1103,
      "साथk": 1104,
      "यी": 1105,
      "##धaयl": 1106,
      "आग": 1107,
      "##नlछ": 1108,
      "चार": 1109,
      "अझ": 1110,
      "कaरममा": 1111,
      "##cगaरlस": 1112,
      "चाह": 1113,
      "विदaयालय": 1114,
      "बनाउन": 1115,
      "##मaभ": 1116,
      "लकaष": 1117,
      "लl": 1118,
      "१९": 1119,
      "##तमा": 1120,
      "सcर": 1121,
      "थापा": 1122,
      "परिवार": 1123,
      "लगायत": 1124,
      "##ङaक": 1125,
      "ठाउi": 1126,
      "##सu": 1127,
      "##हरuमा": 1128,
      "उठ": 1129,
      "##सiगk": 1130,
      "गरaछ": 1131,
      "फo": 1132,
      "भएर": 1133,
      "१५": 1134,
      "काcगaरlस": 1135,
      "लागlकo": 1136,
      "कrष": 1137,
      "##वaय": 1138,
      "##षaण": 1139,
      "##रaट": 1140,
      "##तaता": 1141,
      "रकम": 1142,
      "##धारण": 1143,
      "##रaथी": 1144,
      "छन": 1145,
      "##aनu": 1146,
      "पि": 1147,
      "सuरकaषा": 1148,
      "कaया": 1149,
      "उलaलlख": 1150,
      "##मार": 1151,
      "उतaपादन": 1152,
      "सकaछ": 1153,
      "अवस": 1154,
      "##कaस": 1155,
      "सञaचालन": 1156,
      "साम": 1157,
      "१२": 1158,
      "अरaथ": 1159,
      "##चितaर": 1160,
      "##नaदoल": 1161,
      "यuवा": 1162,
      "लाम": 1163,
      "अवसaथामा": 1164,
      "##aयe": 1165,
      "##ीर": 1166,
      "इनa": 1167,
      "गएकo": 1168,
      "##सaरo": 1169,
      "पaरतिनि": 1170,
      "साल": 1171,
      "##नाव": 1172,
      "##पर": 1173,
      "यसकo": 1174,
      "##टk": 1175,
      "##वlद": 1176,
      "##aरी": 1177,
      "शaरी": 1178,
      "##हरeलाई": 1179,
      "##ञaज": 1180,
      "##अनu": 1181,
      "##डियo": 1182,
      "मrतaय": 1183,
      "अमlरिका": 1184,
      "पk": 1185,
      "उपा": 1186,
      "शaरlषaठ": 1187,
      "कaर": 1188,
      "एव": 1189,
      "##दरaश": 1190,
      "११": 1191,
      "जl": 1192,
      "##बर": 1193,
      "हuiदा": 1194,
      "##लाइ": 1195,
      "विषयमा": 1196,
      "बनाउनl": 1197,
      "##धी": 1198,
      "##बारl": 1199,
      "वaयाप": 1200,
      "नहu": 1201,
      "नीति": 1202,
      "मनaतaरी": 1203,
      "आउनl": 1204,
      "हर": 1205,
      "मलाई": 1206,
      "##लaया": 1207,
      "परlकo": 1208,
      "हuनlछ": 1209,
      "##साद": 1210,
      "उपचार": 1211,
      "ता": 1212,
      "##लaला": 1213,
      "##नaनl": 1214,
      "##एन": 1215,
      "##aवास": 1216,
      "उदaयoग": 1217,
      "मp": 1218,
      "##समlत": 1219,
      "##गरी": 1220,
      "उपल": 1221,
      "ततa": 1222,
      "बी": 1223,
      "अगाडि": 1224,
      "##lड": 1225,
      "##सलl": 1226,
      "##मaबर": 1227,
      "##नाइ": 1228,
      "परिव": 1229,
      "##जक": 1230,
      "मrतaयu": 1231,
      "जारी": 1232,
      "पद": 1233,
      "जानl": 1234,
      "चलचितaर": 1235,
      "आनaदoल": 1236,
      "छि": 1237,
      "समeह": 1238,
      "पaरतियoग": 1239,
      "अन": 1240,
      "##राषaटaरिय": 1241,
      "##तकo": 1242,
      "उहाiलl": 1243,
      "##बल": 1244,
      "##ामी": 1245,
      "##सभा": 1246,
      "भारतीय": 1247,
      "##वारी": 1248,
      "खl": 1249,
      "जuन": 1250,
      "जित": 1251,
      "##रaमा": 1252,
      "##दार": 1253,
      "करि": 1254,
      "अद": 1255,
      "##तरaफ": 1256,
      "##पo": 1257,
      "तपाईc": 1258,
      "खरaच": 1259,
      "अभिय": 1260,
      "उतaत": 1261,
      "बनaद": 1262,
      "फिलa": 1263,
      "जीवन": 1264,
      "##ाएकo": 1265,
      "पaरकाश": 1266,
      "सकिनaछ": 1267,
      "जनa": 1268,
      "रoज": 1269,
      "गuरu": 1270,
      "अनuस": 1271,
      "##मित": 1272,
      "##टमा": 1273,
      "निकk": 1274,
      "सकaनl": 1275,
      "##oधन": 1276,
      "##ालa": 1277,
      "भाग": 1278,
      "##लaलo": 1279,
      "उदa": 1280,
      "##रuदaध": 1281,
      "दoसaरo": 1282,
      "##ीका": 1283,
      "##कल": 1284,
      "##रaफत": 1285,
      "आउ": 1286,
      "##चाल": 1287,
      "समयमा": 1288,
      "परी": 1289,
      "छल": 1290,
      "बाहि": 1291,
      "दuरa": 1292,
      "माओवादी": 1293,
      "##तिर": 1294,
      "घoषण": 1295,
      "साc": 1296,
      "आयoग": 1297,
      "यातaर": 1298,
      "##lम": 1299,
      "पp": 1300,
      "तयार": 1301,
      "##नaधान": 1302,
      "उचaच": 1303,
      "२०१": 1304,
      "##रaस": 1305,
      "शकaति": 1306,
      "##मन": 1307,
      "जoड": 1308,
      "कला": 1309,
      "भएकालl": 1310,
      "पaरहरीलl": 1311,
      "पoखरा": 1312,
      "##िता": 1313,
      "##गायत": 1314,
      "नaया": 1315,
      "अधिकार": 1316,
      "##चaछ": 1317,
      "भaरम": 1318,
      "##करaता": 1319,
      "छलफल": 1320,
      "अफ": 1321,
      "अधaययन": 1322,
      "##कaता": 1323,
      "##राई": 1324,
      "##lकी": 1325,
      "चरaच": 1326,
      "पतaरकार": 1327,
      "उपलबa": 1328,
      "##अनuसार": 1329,
      "घoषणा": 1330,
      "विक": 1331,
      "##वल": 1332,
      "किस": 1333,
      "##विधि": 1334,
      "##लग": 1335,
      "तयारी": 1336,
      "जसaतo": 1337,
      "##लब": 1338,
      "##माथि": 1339,
      "अनuसनaधान": 1340,
      "##गaरह": 1341,
      "पठ": 1342,
      "##aदk": 1343,
      "##हuनaछ": 1344,
      "बरaष": 1345,
      "दl": 1346,
      "भएपछि": 1347,
      "##झा": 1348,
      "##थl": 1349,
      "तaयसkलl": 1350,
      "फि": 1351,
      "सी": 1352,
      "पaरतaय": 1353,
      "फिलaम": 1354,
      "##यात": 1355,
      "भइरहlकo": 1356,
      "गaर": 1357,
      "गरaनuपरaनl": 1358,
      "छu": 1359,
      "५०": 1360,
      "भितaर": 1361,
      "##भव": 1362,
      "महान": 1363,
      "##छा": 1364,
      "##ालिका": 1365,
      "##हाल": 1366,
      "बताउनuभयo": 1367,
      "##नका": 1368,
      "कारaया": 1369,
      "सङa": 1370,
      "भu": 1371,
      "##aना": 1372,
      "पानी": 1373,
      "पी": 1374,
      "बजlट": 1375,
      "महतaव": 1376,
      "##डlल": 1377,
      "टaर": 1378,
      "आरo": 1379,
      "##कपा": 1380,
      "##नामा": 1381,
      "##टaट": 1382,
      "तaयहाi": 1383,
      "मeलaय": 1384,
      "पकaर": 1385,
      "विसaत": 1386,
      "हoला": 1387,
      "अदाल": 1388,
      "परिवरaत": 1389,
      "##सिक": 1390,
      "कrषि": 1391,
      "##तिमा": 1392,
      "##वाह": 1393,
      "टo": 1394,
      "लिएर": 1395,
      "##वर": 1396,
      "##तिहा": 1397,
      "एस": 1398,
      "##लaनl": 1399,
      "तaयही": 1400,
      "##ानo": 1401,
      "##धिका": 1402,
      "##रaवा": 1403,
      "##सaक": 1404,
      "विजaञ": 1405,
      "##मिक": 1406,
      "सरकारी": 1407,
      "यही": 1408,
      "यसk": 1409,
      "नlकपा": 1410,
      "पaरसaतu": 1411,
      "##lनaट": 1412,
      "##सl": 1413,
      "पaरकaरिया": 1414,
      "यoग": 1415,
      "कारaयानaव": 1416,
      "बसaनl": 1417,
      "२५": 1418,
      "राषaटaरपति": 1419,
      "लामo": 1420,
      "##ानकo": 1421,
      "##rह": 1422,
      "##cश": 1423,
      "विदaयारaथी": 1424,
      "पकaराउ": 1425,
      "##रक": 1426,
      "##तलl": 1427,
      "##सaताव": 1428,
      "##काली": 1429,
      "##षaटि": 1430,
      "सaथापना": 1431,
      "##जo": 1432,
      "भनlकo": 1433,
      "चीन": 1434,
      "##शu": 1435,
      "विभाग": 1436,
      "दlखिनaछ": 1437,
      "##लlर": 1438,
      "पaरदान": 1439,
      "जaञ": 1440,
      "बताएका": 1441,
      "हरlक": 1442,
      "रहl": 1443,
      "##हितaय": 1444,
      "##kनिक": 1445,
      "सबkभनaदा": 1446,
      "##सcग": 1447,
      "कसरी": 1448,
      "पaरच": 1449,
      "छuट": 1450,
      "भaरमण": 1451,
      "दिएका": 1452,
      "##lरि": 1453,
      "निर": 1454,
      "##मिका": 1455,
      "##लामा": 1456,
      "सचिव": 1457,
      "कर": 1458,
      "आधारमा": 1459,
      "##इनa": 1460,
      "सरकारकo": 1461,
      "##cह": 1462,
      "गरिनl": 1463,
      "३०": 1464,
      "दuवk": 1465,
      "आi": 1466,
      "अरaब": 1467,
      "बaया": 1468,
      "##रत": 1469,
      "निकाय": 1470,
      "##पटक": 1471,
      "##ाइन": 1472,
      "गp": 1473,
      "तaयसaतk": 1474,
      "अरu": 1475,
      "बाटo": 1476,
      "##यी": 1477,
      "##लu": 1478,
      "जu": 1479,
      "सनaद": 1480,
      "विज": 1481,
      "सeचना": 1482,
      "##दaदा": 1483,
      "एवc": 1484,
      "चuनाव": 1485,
      "तaयसकo": 1486,
      "थालl": 1487,
      "##पaरसाद": 1488,
      "पaरशा": 1489,
      "##मo": 1490,
      "पkसा": 1491,
      "उमaम": 1492,
      "##रaजा": 1493,
      "पuगlकo": 1494,
      "##करaष": 1495,
      "##नालl": 1496,
      "##aदा": 1497,
      "पाउनl": 1498,
      "##धaयकaष": 1499,
      "दकaष": 1500,
      "साहितaय": 1501,
      "नc": 1502,
      "##यास": 1503,
      "##ालि": 1504,
      "बारlमा": 1505,
      "सoच": 1506,
      "##नaतaरण": 1507,
      "समuदाय": 1508,
      "मानaछ": 1509,
      "आफaना": 1510,
      "पaरसaताव": 1511,
      "##वlश": 1512,
      "रoजग": 1513,
      "##लगायत": 1514,
      "शuरu": 1515,
      "चरण": 1516,
      "##समa": 1517,
      "अधिक": 1518,
      "##तिकo": 1519,
      "बनlकo": 1520,
      "अनaतरaराषaटaरिय": 1521,
      "थिएन": 1522,
      "##ककo": 1523,
      "गoल": 1524,
      "##नलl": 1525,
      "अभियान": 1526,
      "रoग": 1527,
      "दlव": 1528,
      "##तार": 1529,
      "##भe": 1530,
      "##यम": 1531,
      "##दर": 1532,
      "चला": 1533,
      "सहभागी": 1534,
      "पeरा": 1535,
      "##चित": 1536,
      "परaयटक": 1537,
      "धा": 1538,
      "##एस": 1539,
      "मuदaदा": 1540,
      "हuiदkन": 1541,
      "बaय": 1542,
      "यसaतk": 1543,
      "अति": 1544,
      "पeरaण": 1545,
      "राई": 1546,
      "सहमति": 1547,
      "नlपाललl": 1548,
      "समाचार": 1549,
      "थाहा": 1550,
      "##तaरी": 1551,
      "##मधaयl": 1552,
      "उनलाई": 1553,
      "##सaकार": 1554,
      "##ki": 1555,
      "करिब": 1556,
      "खlला": 1557,
      "पछिलaलo": 1558,
      "##उनu": 1559,
      "आमा": 1560,
      "१३": 1561,
      "यसलl": 1562,
      "बिक": 1563,
      "##तम": 1564,
      "यसaता": 1565,
      "सaट": 1566,
      "बिहान": 1567,
      "उपलबaध": 1568,
      "सaत": 1569,
      "सcघीय": 1570,
      "गण": 1571,
      "लिन": 1572,
      "समaझp": 1573,
      "सaप": 1574,
      "वaयवसaथापन": 1575,
      "मानव": 1576,
      "दर": 1577,
      "हतaया": 1578,
      "##ढी": 1579,
      "##ाउनu": 1580,
      "आफaनk": 1581,
      "शl": 1582,
      "##तo": 1583,
      "##िण": 1584,
      "दlखिएकo": 1585,
      "##रaति": 1586,
      "##ताका": 1587,
      "फuट": 1588,
      "##पकaष": 1589,
      "पारaट": 1590,
      "सaरo": 1591,
      "आरoप": 1592,
      "१४": 1593,
      "विशaवास": 1594,
      "तिम": 1595,
      "##दिन": 1596,
      "ओल": 1597,
      "परlका": 1598,
      "समaभाव": 1599,
      "अनaति": 1600,
      "१८": 1601,
      "##लaन": 1602,
      "##लaक": 1603,
      "##रिया": 1604,
      "अर": 1605,
      "##ालo": 1606,
      "पpडlल": 1607,
      "भeमिका": 1608,
      "भद": 1609,
      "अनaतिम": 1610,
      "आदि": 1611,
      "पaरशaन": 1612,
      "##पक": 1613,
      "##ाई": 1614,
      "##जित": 1615,
      "उमaमlद": 1616,
      "तo": 1617,
      "अझk": 1618,
      "सcसद": 1619,
      "दr": 1620,
      "परaछ": 1621,
      "हlरa": 1622,
      "नभएकo": 1623,
      "दlउ": 1624,
      "##उiदk": 1625,
      "नlपालका": 1626,
      "आगामी": 1627,
      "##रaजन": 1628,
      "यति": 1629,
      "कlनaदaरीय": 1630,
      "कk": 1631,
      "मk": 1632,
      "तaयसk": 1633,
      "##लव": 1634,
      "##ललl": 1635,
      "परिवरaतन": 1636,
      "१६": 1637,
      "पaरदरaश": 1638,
      "##वlदन": 1639,
      "##तरण": 1640,
      "हात": 1641,
      "पaरण": 1642,
      "शरaमा": 1643,
      "बाहिर": 1644,
      "##नaतर": 1645,
      "छoरा": 1646,
      "सामानaय": 1647,
      "##विधा": 1648,
      "सनaत": 1649,
      "वरaषकo": 1650,
      "नियनaतaरण": 1651,
      "भटaट": 1652,
      "##कमaप": 1653,
      "##नaट": 1654,
      "पuरaया": 1655,
      "##कमा": 1656,
      "##हरeमा": 1657,
      "खlलमा": 1658,
      "##ाकo": 1659,
      "दी": 1660,
      "विमान": 1661,
      "गuरuङ": 1662,
      "खानl": 1663,
      "सuन": 1664,
      "##iड": 1665,
      "डl": 1666,
      "पशaच": 1667,
      "सहित": 1668,
      "पaरlम": 1669,
      "शानaति": 1670,
      "नारा": 1671,
      "##तaतिक": 1672,
      "ताल": 1673,
      "नमaबर": 1674,
      "चाल": 1675,
      "सcखaया": 1676,
      "परaव": 1677,
      "##शaव": 1678,
      "##यण": 1679,
      "##दaवार": 1680,
      "##डित": 1681,
      "##लaप": 1682,
      "##परि": 1683,
      "##kर": 1684,
      "भई": 1685,
      "भिडियo": 1686,
      "लu": 1687,
      "पहिलl": 1688,
      "विदaयu": 1689,
      "##सकaनl": 1690,
      "मना": 1691,
      "##शील": 1692,
      "##aयuनि": 1693,
      "समaमlल": 1694,
      "कारa": 1695,
      "राजधान": 1696,
      "जिमaम": 1697,
      "##धaयम": 1698,
      "##विदaय": 1699,
      "##रuप": 1700,
      "##तावरण": 1701,
      "##कaका": 1702,
      "##करaम": 1703,
      "सात": 1704,
      "सcयo": 1705,
      "निमa": 1706,
      "चाहि": 1707,
      "टा": 1708,
      "##वासी": 1709,
      "##कालीन": 1710,
      "भणaड": 1711,
      "वaयापार": 1712,
      "नaयाय": 1713,
      "विसaतार": 1714,
      "##िकी": 1715,
      "##गaगा": 1716,
      "सcसaकr": 1717,
      "बाट": 1718,
      "धरaम": 1719,
      "##काम": 1720,
      "दकaषिण": 1721,
      "धaयान": 1722,
      "पaरसaतuत": 1723,
      "टि": 1724,
      "##रaज": 1725,
      "एन": 1726,
      "##तl": 1727,
      "##हन": 1728,
      "सoम": 1729,
      "कमaयuनि": 1730,
      "##cगल": 1731,
      "शk": 1732,
      "दe": 1733,
      "##बlला": 1734,
      "जनaम": 1735,
      "वातावरण": 1736,
      "##रीकo": 1737,
      "पदा": 1738,
      "बलि": 1739,
      "##वान": 1740,
      "गठन": 1741,
      "##पान": 1742,
      "##कaक": 1743,
      "सaथानमा": 1744,
      "##uरo": 1745,
      "बढlकo": 1746,
      "टu": 1747,
      "२१": 1748,
      "बहu": 1749,
      "##uरuष": 1750,
      "बजारमा": 1751,
      "##बदaध": 1752,
      "सuधार": 1753,
      "तरaफ": 1754,
      "##कaषित": 1755,
      "सcयuकaत": 1756,
      "सहज": 1757,
      "##साइ": 1758,
      "फरa": 1759,
      "##धu": 1760,
      "पaरवlश": 1761,
      "समaमान": 1762,
      "##cगा": 1763,
      "साi": 1764,
      "##हoसa": 1765,
      "मानaछl": 1766,
      "गति": 1767,
      "छkननa": 1768,
      "##ियन": 1769,
      "छpc": 1770,
      "दरaश": 1771,
      "जल": 1772,
      "याद": 1773,
      "गि": 1774,
      "घरमा": 1775,
      "##मaमा": 1776,
      "गuण": 1777,
      "शuकaर": 1778,
      "##दaधा": 1779,
      "##कuमार": 1780,
      "##घटना": 1781,
      "कaषम": 1782,
      "निरaदlशन": 1783,
      "जनताकo": 1784,
      "जसaता": 1785,
      "भाषा": 1786,
      "##शि": 1787,
      "##णि": 1788,
      "गrह": 1789,
      "दरaता": 1790,
      "##कl": 1791,
      "##किएकo": 1792,
      "##नाथ": 1793,
      "यसरी": 1794,
      "ठाउiमा": 1795,
      "##iदkन": 1796,
      "##पित": 1797,
      "टoली": 1798,
      "##लk": 1799,
      "आगaरह": 1800,
      "##दlव": 1801,
      "##तालl": 1802,
      "अपरा": 1803,
      "कवि": 1804,
      "##विक": 1805,
      "असार": 1806,
      "##उiछ": 1807,
      "##लाकo": 1808,
      "फरक": 1809,
      "साcसद": 1810,
      "गरaदछ": 1811,
      "तaयसपछि": 1812,
      "##सaथिति": 1813,
      "तaयति": 1814,
      "वितरण": 1815,
      "तथ": 1816,
      "##बaद": 1817,
      "भeकमaप": 1818,
      "उतaतर": 1819,
      "##सकlका": 1820,
      "पaरमाण": 1821,
      "हuनaछनa": 1822,
      "नजिक": 1823,
      "परaयटन": 1824,
      "पuरuष": 1825,
      "##कaरमण": 1826,
      "सuविधा": 1827,
      "गरिरहlकo": 1828,
      "कारaयानaवयन": 1829,
      "जगaगा": 1830,
      "थाल": 1831,
      "##सaतaर": 1832,
      "##दlशaय": 1833,
      "##हlक": 1834,
      "अनaतर": 1835,
      "सaवी": 1836,
      "भनाइ": 1837,
      "दuरaघटना": 1838,
      "तaरि": 1839,
      "##कrत": 1840,
      "समaझpता": 1841,
      "भk": 1842,
      "मनaद": 1843,
      "सीमा": 1844,
      "##कaटर": 1845,
      "झा": 1846,
      "तuल": 1847,
      "##ङकo": 1848,
      "दkनिक": 1849,
      "अरaथा": 1850,
      "खान": 1851,
      "बाiकी": 1852,
      "##ारि": 1853,
      "##aरk": 1854,
      "##पय": 1855,
      "##सcघ": 1856,
      "नaयe": 1857,
      "पaरयास": 1858,
      "कतिपय": 1859,
      "१७": 1860,
      "कारo": 1861,
      "आई": 1862,
      "बालब": 1863,
      "##lलि": 1864,
      "यसलाई": 1865,
      "बताउi": 1866,
      "जिलaलामा": 1867,
      "ततaकाल": 1868,
      "##जaय": 1869,
      "पaरतिनिध": 1870,
      "फlरि": 1871,
      "##aलl": 1872,
      "##lप": 1873,
      "##लाग": 1874,
      "विचार": 1875,
      "##रaभ": 1876,
      "अवसर": 1877,
      "शाखा": 1878,
      "जसaतk": 1879,
      "##कoट": 1880,
      "##एकी": 1881,
      "विरoध": 1882,
      "तिन": 1883,
      "शनि": 1884,
      "पराज": 1885,
      "सवारी": 1886,
      "भदp": 1887,
      "सcरकaषण": 1888,
      "##लिक": 1889,
      "सञaचार": 1890,
      "सcश": 1891,
      "नहuनl": 1892,
      "##नाकo": 1893,
      "कहिलl": 1894,
      "##दe": 1895,
      "##ढा": 1896,
      "जीव": 1897,
      "विगत": 1898,
      "आतaम": 1899,
      "कानuन": 1900,
      "उनका": 1901,
      "टoल": 1902,
      "भरa": 1903,
      "आम": 1904,
      "दाहाल": 1905,
      "बuध": 1906,
      "जब": 1907,
      "वaयकaत": 1908,
      "धन": 1909,
      "कrषaण": 1910,
      "कमा": 1911,
      "##यार": 1912,
      "पaरचणaड": 1913,
      "बीच": 1914,
      "ओली": 1915,
      "कायम": 1916,
      "आनaदoलन": 1917,
      "कथा": 1918,
      "२२": 1919,
      "##ीलाई": 1920,
      "लाई": 1921,
      "##दaवारा": 1922,
      "चिक": 1923,
      "लकaषaय": 1924,
      "जति": 1925,
      "रहनl": 1926,
      "##खu": 1927,
      "लo": 1928,
      "##समaबनaध": 1929,
      "कातaतिक": 1930,
      "चित": 1931,
      "अधिकrत": 1932,
      "चिनि": 1933,
      "सिcह": 1934,
      "तामा": 1935,
      "असoज": 1936,
      "नाममा": 1937,
      "लागaनl": 1938,
      "गरिरहlका": 1939,
      "कलाकार": 1940,
      "दlशकo": 1941,
      "गरaछनa": 1942,
      "मधaय": 1943,
      "समaभावना": 1944,
      "घu": 1945,
      "बालबालिका": 1946,
      "तlस": 1947,
      "##पकo": 1948,
      "घट": 1949,
      "##टल": 1950,
      "##िकlट": 1951,
      "चaया": 1952,
      "##निरa": 1953,
      "##सaती": 1954,
      "शuभ": 1955,
      "अमlरिकी": 1956,
      "भनaछनa": 1957,
      "गठ": 1958,
      "आइत": 1959,
      "शिकaषक": 1960,
      "खlत": 1961,
      "मaया": 1962,
      "##लaय": 1963,
      "##चालन": 1964,
      "चिकितa": 1965,
      "##चान": 1966,
      "सcयoजक": 1967,
      "##सका": 1968,
      "##सित": 1969,
      "२४": 1970,
      "##aवा": 1971,
      "गरlपछि": 1972,
      "##मनaतaर": 1973,
      "सकिनl": 1974,
      "##ाललl": 1975,
      "भणaडारी": 1976,
      "सकlकo": 1977,
      "यसमा": 1978,
      "दिनuभयo": 1979,
      "निजी": 1980,
      "उमaमlदवार": 1981,
      "##नaया": 1982,
      "##धl": 1983,
      "##कलl": 1984,
      "##नlट": 1985,
      "##मत": 1986,
      "##कारा": 1987,
      "##राब": 1988,
      "गरaनuभएकo": 1989,
      "##oलि": 1990,
      "विवाद": 1991,
      "लिनl": 1992,
      "पaरतियoगि": 1993,
      "निरनaतर": 1994,
      "यसअघि": 1995,
      "कaषlतaरकo": 1996,
      "ऐन": 1997,
      "सङaघ": 1998,
      "लगायतका": 1999,
      "भनaनuभयo": 2000,
      "वrदaधि": 2001,
      "उमlर": 2002,
      "##कारaय": 2003,
      "औष": 2004,
      "मcगल": 2005,
      "समaब": 2006,
      "तlसaरo": 2007,
      "##डान": 2008,
      "##हल": 2009,
      "फाइ": 2010,
      "एज": 2011,
      "बनaन": 2012,
      "विशaवक": 2013,
      "भp": 2014,
      "लिएकo": 2015,
      "##भu": 2016,
      "##शाख": 2017,
      "माथि": 2018,
      "राखaनl": 2019,
      "मधlश": 2020,
      "##पानी": 2021,
      "सरa": 2022,
      "गरिनaछ": 2023,
      "फk": 2024,
      "शaरम": 2025,
      "ढu": 2026,
      "##शaचित": 2027,
      "आश": 2028,
      "यादव": 2029,
      "##सaथल": 2030,
      "शबaद": 2031,
      "अनaतaय": 2032,
      "महतaवपeरaण": 2033,
      "कaलब": 2034,
      "लागaछ": 2035,
      "अभाव": 2036,
      "##रaद": 2037,
      "समaबनaधित": 2038,
      "गराउनl": 2039,
      "शuकaरबार": 2040,
      "कलl": 2041,
      "जसलl": 2042,
      "थालlकo": 2043,
      "##मl": 2044,
      "सoमबार": 2045,
      "##सचिव": 2046,
      "##lता": 2047,
      "पuरा": 2048,
      "आफu": 2049,
      "खlलाडी": 2050,
      "गरaनuपरaछ": 2051,
      "##मारaग": 2052,
      "बनाएकo": 2053,
      "हिमा": 2054,
      "पaरविधि": 2055,
      "टिम": 2056,
      "बजl": 2057,
      "##यoजना": 2058,
      "हlर": 2059,
      "##गरपालिका": 2060,
      "गkर": 2061,
      "##cका": 2062,
      "बuदaध": 2063,
      "##lवारी": 2064,
      "##मकo": 2065,
      "एका": 2066,
      "मिलa": 2067,
      "सoही": 2068,
      "साथी": 2069,
      "##नaतaरिक": 2070,
      "##ितaव": 2071,
      "दlशमा": 2072,
      "समaपeरaण": 2073,
      "पuनः": 2074,
      "##तk": 2075,
      "पaराथ": 2076,
      "४०": 2077,
      "इतिहा": 2078,
      "##णी": 2079,
      "२०६": 2080,
      "उदaदlशaय": 2081,
      "एकता": 2082,
      "रहlछ": 2083,
      "##गaरी": 2084,
      "सcरचना": 2085,
      "दिइ": 2086,
      "अवसरमा": 2087,
      "शरी": 2088,
      "सहकारी": 2089,
      "काiग": 2090,
      "##बाही": 2091,
      "##सव": 2092,
      "##ाउiदk": 2093,
      "सaरoत": 2094,
      "बच": 2095,
      "दिव": 2096,
      "##समaबनaधी": 2097,
      "सaवतनaतaर": 2098,
      "##वl": 2099,
      "पaराथमिक": 2100,
      "भारतकo": 2101,
      "उपभ": 2102,
      "टl": 2103,
      "राजनीति": 2104,
      "पr": 2105,
      "जिमaमlवारी": 2106,
      "ठा": 2107,
      "पaरकार": 2108,
      "राजा": 2109,
      "पaरतिसa": 2110,
      "##कारातaमक": 2111,
      "##रलl": 2112,
      "खरि": 2113,
      "कसk": 2114,
      "कoइ": 2115,
      "पeरaवा": 2116,
      "बuधबार": 2117,
      "##ीकरण": 2118,
      "२८": 2119,
      "फl": 2120,
      "भाव": 2121,
      "जlठ": 2122,
      "पuसaत": 2123,
      "##लित": 2124,
      "##षaटा": 2125,
      "काiगaरlस": 2126,
      "विवरण": 2127,
      "बिकaरी": 2128,
      "औc": 2129,
      "साइ": 2130,
      "बताउiछनa": 2131,
      "##oतa": 2132,
      "##धaया": 2133,
      "##रlल": 2134,
      "##शन": 2135,
      "आइतबार": 2136,
      "##िलaलo": 2137,
      "नदि": 2138,
      "आवशaयकता": 2139,
      "##cसा": 2140,
      "पaरशासन": 2141,
      "##आर": 2142,
      "##नaथaयo": 2143,
      "रoजगारी": 2144,
      "सामu": 2145,
      "वaयवसायी": 2146,
      "सaपषaट": 2147,
      "##लन": 2148,
      "कारoबार": 2149,
      "यp": 2150,
      "याता": 2151,
      "हसaता": 2152,
      "वन": 2153,
      "सcसार": 2154,
      "साउन": 2155,
      "खuला": 2156,
      "##चारaय": 2157,
      "##तaकार": 2158,
      "कaषति": 2159,
      "##lशaव": 2160,
      "बनाएर": 2161,
      "वरaग": 2162,
      "समाधान": 2163,
      "ओलीलl": 2164,
      "खडa": 2165,
      "पaरतिसaपरa": 2166,
      "##oरी": 2167,
      "२३": 2168,
      "पाएकo": 2169,
      "##नo": 2170,
      "सiग": 2171,
      "बाधaय": 2172,
      "गरा": 2173,
      "खरिद": 2174,
      "##तानaतaरिक": 2175,
      "गराउन": 2176,
      "भटaटराई": 2177,
      "##षदa": 2178,
      "##लगaन": 2179,
      "२७": 2180,
      "##टu": 2181,
      "##ालकo": 2182,
      "किसान": 2183,
      "##वाट": 2184,
      "##डo": 2185,
      "सिरa": 2186,
      "##सिया": 2187,
      "पaरतिनिधि": 2188,
      "किलo": 2189,
      "##ङमा": 2190,
      "अनaतरaगत": 2191,
      "##लर": 2192,
      "##ची": 2193,
      "२००": 2194,
      "अगaर": 2195,
      "##कaरिय": 2196,
      "कlहि": 2197,
      "कuल": 2198,
      "निरaदlशक": 2199,
      "पuगaनl": 2200,
      "कlपी": 2201,
      "यसका": 2202,
      "##लाल": 2203,
      "##डिया": 2204,
      "सuझा": 2205,
      "दaव": 2206,
      "वरि": 2207,
      "पeजा": 2208,
      "जिलaलाकo": 2209,
      "माधaयम": 2210,
      "गमaभ": 2211,
      "मानaय": 2212,
      "पaरतaयlक": 2213,
      "सuनि": 2214,
      "आउन": 2215,
      "दिनमा": 2216,
      "##धिकरण": 2217,
      "पहिचान": 2218,
      "##कrषaट": 2219,
      "मानि": 2220,
      "आफeलाई": 2221,
      "गमaभीर": 2222,
      "##एम": 2223,
      "मधlस": 2224,
      "शनिबार": 2225,
      "##षaय": 2226,
      "जनाकo": 2227,
      "नव": 2228,
      "घाइ": 2229,
      "भo": 2230,
      "अतaय": 2231,
      "अहिलlसमaम": 2232,
      "दlउवा": 2233,
      "दिनu": 2234,
      "भएन": 2235,
      "##लका": 2236,
      "##नaज": 2237,
      "यातaरा": 2238,
      "फरaक": 2239,
      "##चaचा": 2240,
      "सcशoधन": 2241,
      "पारaटीकo": 2242,
      "दाबी": 2243,
      "कमaपनीलl": 2244,
      "पlश": 2245,
      "विदlशी": 2246,
      "आठ": 2247,
      "भी": 2248,
      "छoरी": 2249,
      "पारि": 2250,
      "हरा": 2251,
      "राखaन": 2252,
      "पaरजा": 2253,
      "जaयान": 2254,
      "##ठा": 2255,
      "##दlशिक": 2256,
      "बला": 2257,
      "समितिलl": 2258,
      "चk": 2259,
      "सभापति": 2260,
      "२०७५": 2261,
      "आकरaष": 2262,
      "भनaन": 2263,
      "अरe": 2264,
      "उसलl": 2265,
      "सcलगaन": 2266,
      "तaयसaतo": 2267,
      "कानe": 2268,
      "पaराधिकरण": 2269,
      "पaरावि": 2270,
      "२९": 2271,
      "परिण": 2272,
      "खबर": 2273,
      "अघ": 2274,
      "कoइरा": 2275,
      "##lलl": 2276,
      "शहर": 2277,
      "भवन": 2278,
      "सcगीत": 2279,
      "##नaदu": 2280,
      "सcकल": 2281,
      "##यoजन": 2282,
      "##सिर": 2283,
      "##कrति": 2284,
      "##ागत": 2285,
      "गरaनuभयo": 2286,
      "परमaप": 2287,
      "राखlर": 2288,
      "वरaषीय": 2289,
      "##सदa": 2290,
      "सिरaजना": 2291,
      "##काl": 2292,
      "##चन": 2293,
      "यदि": 2294,
      "परीकaषा": 2295,
      "कलlज": 2296,
      "खास": 2297,
      "कसkलl": 2298,
      "ऋण": 2299,
      "दlखा": 2300,
      "विरा": 2301,
      "तaयसलाई": 2302,
      "बाबu": 2303,
      "ठeला": 2304,
      "##पद": 2305,
      "घा": 2306,
      "##lसमaम": 2307,
      "मc": 2308,
      "##थी": 2309,
      "##नaतरण": 2310,
      "ककaषा": 2311,
      "आजकo": 2312,
      "##सर": 2313,
      "अनuभव": 2314,
      "सजि": 2315,
      "बम": 2316,
      "कaषमता": 2317,
      "बह": 2318,
      "##फo": 2319,
      "पीडित": 2320,
      "२६": 2321,
      "पaरशि": 2322,
      "उपाधaयकaष": 2323,
      "##मातaर": 2324,
      "घणa": 2325,
      "सपना": 2326,
      "भaर": 2327,
      "फा": 2328,
      "निरaवाचनमा": 2329,
      "समनaव": 2330,
      "दuख": 2331,
      "चuन": 2332,
      "हट": 2333,
      "गaरा": 2334,
      "हामीलाई": 2335,
      "##लaदk": 2336,
      "भकaत": 2337,
      "माया": 2338,
      "हरि": 2339,
      "बसlकo": 2340,
      "##हरण": 2341,
      "पहा": 2342,
      "चरaचा": 2343,
      "मcगलबार": 2344,
      "अवधि": 2345,
      "वl": 2346,
      "##ारमा": 2347,
      "बिरा": 2348,
      "समितिकo": 2349,
      "भइसकlकo": 2350,
      "##धlयक": 2351,
      "पuरसaकार": 2352,
      "लk": 2353,
      "##विरuदaध": 2354,
      "विवाह": 2355,
      "बनaनl": 2356,
      "पशaचिम": 2357,
      "मनo": 2358,
      "##पमा": 2359,
      "##सaव": 2360,
      "##दl": 2361,
      "##नaदी": 2362,
      "समaबoधन": 2363,
      "##लaट": 2364,
      "वीर": 2365,
      "सानo": 2366,
      "राजधानी": 2367,
      "पuल": 2368,
      "##दaर": 2369,
      "मिति": 2370,
      "वरaषमा": 2371,
      "२०७४": 2372,
      "##णा": 2373,
      "##pती": 2374,
      "आiखा": 2375,
      "##गo": 2376,
      "आनaत": 2377,
      "##बाटk": 2378,
      "विधlयक": 2379,
      "पaरदरaशन": 2380,
      "अख": 2381,
      "आफeलl": 2382,
      "पaरणाली": 2383,
      "फu": 2384,
      "इनaटर": 2385,
      "पaराविधिक": 2386,
      "##लlका": 2387,
      "लागी": 2388,
      "##वसाय": 2389,
      "कaरिकlट": 2390,
      "सcसaकrति": 2391,
      "बनाइ": 2392,
      "##aयास": 2393,
      "पuगlका": 2394,
      "घाइतl": 2395,
      "सuनaद": 2396,
      "##रीय": 2397,
      "लागe": 2398,
      "##पeरaव": 2399,
      "सaथापित": 2400,
      "गाडी": 2401,
      "##डमा": 2402,
      "##रaमिक": 2403,
      "कारणलl": 2404,
      "##lलu": 2405,
      "नपा": 2406,
      "यuव": 2407,
      "छिनa": 2408,
      "समनaवय": 2409,
      "पaरतियoगिता": 2410,
      "जम": 2411,
      "वaयवहार": 2412,
      "एकk": 2413,
      "कoष": 2414,
      "नाका": 2415,
      "शlयर": 2416,
      "सकaदkन": 2417,
      "##हरuका": 2418,
      "##वटा": 2419,
      "पlट": 2420,
      "मिला": 2421,
      "##छu": 2422,
      "डo": 2423,
      "पaरतिषaठ": 2424,
      "##करaमी": 2425,
      "बkठकलl": 2426,
      "वितaत": 2427,
      "##रीमा": 2428,
      "यातायात": 2429,
      "##नlर": 2430,
      "सश": 2431,
      "भाइ": 2432,
      "सcक": 2433,
      "##मलl": 2434,
      "कaषlतaरका": 2435,
      "##२०": 2436,
      "उतaकrषaट": 2437,
      "##iजी": 2438,
      "##नuहuनaछ": 2439,
      "आनaतरिक": 2440,
      "करaण": 2441,
      "##मती": 2442,
      "##फa": 2443,
      "तामाङ": 2444,
      "छाड": 2445,
      "##मlनaट": 2446,
      "कuन": 2447,
      "##जoर": 2448,
      "बkcकलl": 2449,
      "पाइनaछ": 2450,
      "पeरaवाधार": 2451,
      "सcगठन": 2452,
      "माघ": 2453,
      "कoरिया": 2454,
      "##तालाई": 2455,
      "##साब": 2456,
      "सकaरिय": 2457,
      "##कaन": 2458,
      "सरaवo": 2459,
      "कारबाही": 2460,
      "##सीकo": 2461,
      "सालमा": 2462,
      "##चlत": 2463,
      "थापालl": 2464,
      "तaयसमा": 2465,
      "कaरा": 2466,
      "बिही": 2467,
      "टaरा": 2468,
      "##पaप": 2469,
      "##सिल": 2470,
      "##सaकrतिक": 2471,
      "मज": 2472,
      "सuझाव": 2473,
      "समaबनaधी": 2474,
      "##लालl": 2475,
      "महासcघ": 2476,
      "अधिकाcश": 2477,
      "##टl": 2478,
      "वासaत": 2479,
      "फuटबल": 2480,
      "##ानि": 2481,
      "##खर": 2482,
      "##कन": 2483,
      "##सलाई": 2484,
      "##सiगकo": 2485,
      "निषa": 2486,
      "##तियार": 2487,
      "अcक": 2488,
      "भनी": 2489,
      "चितवन": 2490,
      "गावि": 2491,
      "फlस": 2492,
      "बनa": 2493,
      "समितिका": 2494,
      "आयoजित": 2495,
      "सकlन": 2496,
      "अपराध": 2497,
      "##वाज": 2498,
      "##लaलाह": 2499,
      "जoख": 2500,
      "बkठकमा": 2501,
      "हuनuपरaछ": 2502,
      "##तीमा": 2503,
      "६०": 2504,
      "उनीहरe": 2505,
      "कoही": 2506,
      "तिहार": 2507,
      "##दu": 2508,
      "कारaयकaरमकo": 2509,
      "कारaयकरaता": 2510,
      "एकa": 2511,
      "उदा": 2512,
      "जरu": 2513,
      "##विदaयालय": 2514,
      "##वाल": 2515,
      "पaरभावित": 2516,
      "अनuग": 2517,
      "##सीलl": 2518,
      "नसकlकo": 2519,
      "आदlश": 2520,
      "##बाइ": 2521,
      "लागa": 2522,
      "मनaतaरालयलl": 2523,
      "यoगदान": 2524,
      "पकaषमा": 2525,
      "जरuरी": 2526,
      "##ागa": 2527,
      "##वाफ": 2528,
      "एउटk": 2529,
      "आप": 2530,
      "डu": 2531,
      "लकaषa": 2532,
      "यpन": 2533,
      "नp": 2534,
      "सuना": 2535,
      "##ानमा": 2536,
      "खाना": 2537,
      "अcग": 2538,
      "मारaफत": 2539,
      "##ारo": 2540,
      "##चारिक": 2541,
      "धारण": 2542,
      "लाइ": 2543,
      "भवि": 2544,
      "##तका": 2545,
      "सध": 2546,
      "अधि": 2547,
      "धारaमिक": 2548,
      "समaबनaधमा": 2549,
      "तहकo": 2550,
      "##लीमा": 2551,
      "सaथिति": 2552,
      "धu": 2553,
      "##पuग": 2554,
      "समरaथ": 2555,
      "##यpc": 2556,
      "बoक": 2557,
      "समrदaधि": 2558,
      "##दल": 2559,
      "##aरl": 2560,
      "वसaतu": 2561,
      "##दानी": 2562,
      "##rतaति": 2563,
      "पuया": 2564,
      "असर": 2565,
      "दrषaटि": 2566,
      "नारायण": 2567,
      "गठबनaध": 2568,
      "दlशका": 2569,
      "चिनियाi": 2570,
      "##लाका": 2571,
      "##धीश": 2572,
      "गरlकी": 2573,
      "तालिम": 2574,
      "##कuल": 2575,
      "फाग": 2576,
      "काममा": 2577,
      "चरणमा": 2578,
      "सहा": 2579,
      "कामदार": 2580,
      "##लत": 2581,
      "पराजित": 2582,
      "कमजoर": 2583,
      "नदी": 2584,
      "हuनuपरaनl": 2585,
      "गuना": 2586,
      "तथaया": 2587,
      "घणaटा": 2588,
      "खडaका": 2589,
      "##णिजaय": 2590,
      "रe": 2591,
      "पाल": 2592,
      "पaरतिसaपरaधा": 2593,
      "##नaछu": 2594,
      "रमा": 2595,
      "जापान": 2596,
      "कaरानaति": 2597,
      "शाह": 2598,
      "थिइनa": 2599,
      "##यता": 2600,
      "गpतम": 2601,
      "जoडि": 2602,
      "कसaतo": 2603,
      "##जaञान": 2604,
      "गuणसaत": 2605,
      "यe": 2606,
      "किसिम": 2607,
      "##रaतमान": 2608,
      "सहभागिता": 2609,
      "कमa": 2610,
      "##िनी": 2611,
      "##रeप": 2612,
      "जाग": 2613,
      "तहमा": 2614,
      "उसकo": 2615,
      "##निरaमाण": 2616,
      "सञaज": 2617,
      "##तीय": 2618,
      "साiझ": 2619,
      "##रीलl": 2620,
      "राखिएकo": 2621,
      "अल": 2622,
      "सतaय": 2623,
      "नियम": 2624,
      "##शa": 2625,
      "सरaवoचaच": 2626,
      "ची": 2627,
      "##घाटन": 2628,
      "##िट": 2629,
      "बaरा": 2630,
      "##तaरा": 2631,
      "हामaरा": 2632,
      "साह": 2633,
      "उपतaय": 2634,
      "निरaवाचित": 2635,
      "##ानu": 2636,
      "पuषa": 2637,
      "##सिय": 2638,
      "राखlकo": 2639,
      "आमa": 2640,
      "विशaवविदaयालय": 2641,
      "चpध": 2642,
      "शaरlषaठलl": 2643,
      "गरिएका": 2644,
      "ततaकालीन": 2645,
      "लaयाउन": 2646,
      "आशा": 2647,
      "शी": 2648,
      "जoखिम": 2649,
      "हui": 2650,
      "##सस": 2651,
      "भpतिक": 2652,
      "पस": 2653,
      "जवाफ": 2654,
      "सaथित": 2655,
      "बिहीबार": 2656,
      "बoरaड": 2657,
      "असaपतालमा": 2658,
      "नप": 2659,
      "पारaटीका": 2660,
      "सaया": 2661,
      "##िसक": 2662,
      "पaरचार": 2663,
      "मनaदिर": 2664,
      "अभिन": 2665,
      "सिफ": 2666,
      "उनीहरu": 2667,
      "##तः": 2668,
      "हक": 2669,
      "जनतालl": 2670,
      "कारaयकारी": 2671,
      "वाम": 2672,
      "##अनaत": 2673,
      "मतदान": 2674,
      "##लaयाणaड": 2675,
      "पaरतaयकaष": 2676,
      "##रीकaषक": 2677,
      "कठ": 2678,
      "##lली": 2679,
      "##कaषर": 2680,
      "कaरिया": 2681,
      "##पoरaट": 2682,
      "सuख": 2683,
      "##नaता": 2684,
      "बिरामी": 2685,
      "आए": 2686,
      "वितaतीय": 2687,
      "अरaका": 2688,
      "मlड": 2689,
      "लगाउनl": 2690,
      "##लaयk": 2691,
      "नर": 2692,
      "गरaयo": 2693,
      "##रaइ": 2694,
      "शo": 2695,
      "उदaध": 2696,
      "##याधीश": 2697,
      "##तिकk": 2698,
      "जमaमा": 2699,
      "##दaद": 2700,
      "चिकितaसक": 2701,
      "##पl": 2702,
      "माइ": 2703,
      "उपतaयका": 2704,
      "सlना": 2705,
      "##रका": 2706,
      "##दय": 2707,
      "गuमा": 2708,
      "पoखरlल": 2709,
      "##थo": 2710,
      "शिव": 2711,
      "सनaदरaभ": 2712,
      "पaया": 2713,
      "काग": 2714,
      "छuटa": 2715,
      "३१": 2716,
      "उपभo": 2717,
      "नसकaनl": 2718,
      "##रaख": 2719,
      "नब": 2720,
      "##रaगत": 2721,
      "सcकलन": 2722,
      "सलaलाह": 2723,
      "पाउi": 2724,
      "कप": 2725,
      "कानu": 2726,
      "पaरतिवlदन": 2727,
      "##नाई": 2728,
      "अरaथातa": 2729,
      "##हl": 2730,
      "तरaफबाट": 2731,
      "भविषaय": 2732,
      "गए": 2733,
      "##रaषिक": 2734,
      "बलातaकार": 2735,
      "##थम": 2736,
      "पaरकाशित": 2737,
      "तराई": 2738,
      "बराब": 2739,
      "वkशाख": 2740,
      "जहाi": 2741,
      "गएका": 2742,
      "अनl": 2743,
      "##जर": 2744,
      "##टकo": 2745,
      "फeल": 2746,
      "निमaति": 2747,
      "ढि": 2748,
      "##ानीकo": 2749,
      "##मारaफत": 2750,
      "विप": 2751,
      "##परaक": 2752,
      "रlल": 2753,
      "समावlश": 2754,
      "##ाइएकo": 2755,
      "##िएका": 2756,
      "##कaनl": 2757,
      "बल": 2758,
      "##साथ": 2759,
      "हlरaन": 2760,
      "जनक": 2761,
      "नियमित": 2762,
      "साउ": 2763,
      "##यिका": 2764,
      "##तह": 2765,
      "रन": 2766,
      "##ममा": 2767,
      "परीकaषण": 2768,
      "##साधारण": 2769,
      "##ामu": 2770,
      "आचारaय": 2771,
      "विरuदaध": 2772,
      "मलl": 2773,
      "सuनaदर": 2774,
      "दिइएकo": 2775,
      "##००": 2776,
      "गoर": 2777,
      "पa": 2778,
      "##अनaतरaगत": 2779,
      "##नlकo": 2780,
      "##नaतu": 2781,
      "##जसaता": 2782,
      "भग": 2783,
      "##टनगर": 2784,
      "राह": 2785,
      "##डl": 2786,
      "सकारातaमक": 2787,
      "##कला": 2788,
      "आयoजक": 2789,
      "बनlका": 2790,
      "साता": 2791,
      "दिएर": 2792,
      "सरकारलाई": 2793,
      "चनaदaर": 2794,
      "पaरभावकारी": 2795,
      "सहर": 2796,
      "##लaल": 2797,
      "पaरतिनिधिस": 2798,
      "एजlनa": 2799,
      "##ारमaभ": 2800,
      "##जaञा": 2801,
      "छिम": 2802,
      "अग": 2803,
      "##ितaत": 2804,
      "अनuमान": 2805,
      "लaयाएकo": 2806,
      "उहाiकo": 2807,
      "बaर": 2808,
      "##तaन": 2809,
      "##पशaच": 2810,
      "सतaता": 2811,
      "बढaनl": 2812,
      "कlसी": 2813,
      "हिजo": 2814,
      "##िनl": 2815,
      "##ःख": 2816,
      "बताइएकo": 2817,
      "बताउiदk": 2818,
      "गायक": 2819,
      "##दाता": 2820,
      "##धuनिक": 2821,
      "कमaयuनिषaट": 2822,
      "##uटa": 2823,
      "अनuगमन": 2824,
      "अहिलlकo": 2825,
      "##कaषिक": 2826,
      "गलत": 2827,
      "##कaय": 2828,
      "की": 2829,
      "बa": 2830,
      "##कuर": 2831,
      "बढि": 2832,
      "खन": 2833,
      "##रaचा": 2834,
      "फरaकि": 2835,
      "##लाइन": 2836,
      "सदर": 2837,
      "साना": 2838,
      "##आई": 2839,
      "##ञaचन": 2840,
      "सuरकaषित": 2841,
      "सaवागत": 2842,
      "साधन": 2843,
      "मिडिया": 2844,
      "कालo": 2845,
      "लिग": 2846,
      "फoर": 2847,
      "धारणा": 2848,
      "लaयाउनl": 2849,
      "गuनासo": 2850,
      "टoलीलl": 2851,
      "छpi": 2852,
      "##नीय": 2853,
      "रासस": 2854,
      "उनीहरuलl": 2855,
      "##जa": 2856,
      "##िकल": 2857,
      "लामा": 2858,
      "बद": 2859,
      "लाभ": 2860,
      "समaभव": 2861,
      "पहिरo": 2862,
      "विदaयuतa": 2863,
      "राति": 2864,
      "##दारी": 2865,
      "##विध": 2866,
      "कहि": 2867,
      "पaरवकaता": 2868,
      "##कaट": 2869,
      "दशम": 2870,
      "##पuरमा": 2871,
      "##भिजन": 2872,
      "जaञान": 2873,
      "बlच": 2874,
      "सञaचालनमा": 2875,
      "पuनरa": 2876,
      "भनिएकo": 2877,
      "मoबाइ": 2878,
      "##जसaतo": 2879,
      "गरियo": 2880,
      "##पaता": 2881,
      "##बuक": 2882,
      "थuप": 2883,
      "यuनि": 2884,
      "समाजमा": 2885,
      "परियoजना": 2886,
      "सcसaथ": 2887,
      "पaरतिनिधिसभा": 2888,
      "उपयoग": 2889,
      "गएर": 2890,
      "तसa": 2891,
      "पaरधानमनaतaर": 2892,
      "आवाज": 2893,
      "पाणaड": 2894,
      "औषधि": 2895,
      "##oजिम": 2896,
      "##iडा": 2897,
      "हk": 2898,
      "डाकaटर": 2899,
      "बlलायत": 2900,
      "आयoगलl": 2901,
      "थिएi": 2902,
      "जिलaलाका": 2903,
      "झणaड": 2904,
      "सcसदa": 2905,
      "##शकaति": 2906,
      "जग": 2907,
      "ठu": 2908,
      "गयo": 2909,
      "हuनuहuनaछ": 2910,
      "बनाउ": 2911,
      "##दायिक": 2912,
      "लoकतनaतaर": 2913,
      "कहाi": 2914,
      "##िमा": 2915,
      "नभए": 2916,
      "मानaयता": 2917,
      "शkकaषिक": 2918,
      "बढaदk": 2919,
      "सlयर": 2920,
      "दuःख": 2921,
      "टlलि": 2922,
      "सिका": 2923,
      "सहकारaय": 2924,
      "भl": 2925,
      "गaराह": 2926,
      "##कaषlप": 2927,
      "पaरग": 2928,
      "##lसन": 2929,
      "अपl": 2930,
      "निरaम": 2931,
      "फागuन": 2932,
      "खlती": 2933,
      "##oका": 2934,
      "मगर": 2935,
      "##समaमकo": 2936,
      "##मaबu": 2937,
      "फoन": 2938,
      "##रaखा": 2939,
      "नम": 2940,
      "मoड": 2941,
      "फिरaता": 2942,
      "सिदaधा": 2943,
      "भएपनि": 2944,
      "##कaकk": 2945,
      "##इi": 2946,
      "पाएका": 2947,
      "रcग": 2948,
      "समान": 2949,
      "नo": 2950,
      "##भार": 2951,
      "पदारaथ": 2952,
      "##किसaत": 2953,
      "दलित": 2954,
      "भaरषaटा": 2955,
      "वरिषaठ": 2956,
      "मिटर": 2957,
      "चuनpती": 2958,
      "सp": 2959,
      "बसlर": 2960,
      "मcसिर": 2961,
      "विकासका": 2962,
      "##पचारिक": 2963,
      "आकaरमण": 2964,
      "सबkकo": 2965,
      "पaरतियoगितामा": 2966,
      "बलियo": 2967,
      "परिणाम": 2968,
      "उदaघाटन": 2969,
      "पञaच": 2970,
      "हlरaदा": 2971,
      "पl": 2972,
      "आर": 2973,
      "मaय": 2974,
      "##पuरकo": 2975,
      "मधaयl": 2976,
      "छान": 2977,
      "तरिका": 2978,
      "समaपतaति": 2979,
      "झापा": 2980,
      "जाiदा": 2981,
      "साधारण": 2982,
      "##िमिर": 2983,
      "३५": 2984,
      "हoसa": 2985,
      "अम": 2986,
      "सबkलाई": 2987,
      "पाउन": 2988,
      "##किङ": 2989,
      "वkदlशिक": 2990,
      "खणaड": 2991,
      "लागlका": 2992,
      "शासन": 2993,
      "कल": 2994,
      "##फी": 2995,
      "##िल": 2996,
      "कuरामा": 2997,
      "##lलिया": 2998,
      "लoकतानaतaरिक": 2999,
      "अनuमति": 3000,
      "फoटo": 3001,
      "भर": 3002,
      "हिसाब": 3003,
      "थालlका": 3004,
      "##जकo": 3005,
      "पuषaप": 3006,
      "अधिकारीलl": 3007,
      "##दीकo": 3008,
      "दबा": 3009,
      "##कर": 3010,
      "##कलाई": 3011,
      "हिcसा": 3012,
      "पaरतिबदaध": 3013,
      "वारaता": 3014,
      "चरaचित": 3015,
      "अभिनय": 3016,
      "वरaषा": 3017,
      "छoड": 3018,
      "##कeल": 3019,
      "यथा": 3020,
      "पहल": 3021,
      "दाय": 3022,
      "##शuलaक": 3023,
      "हuनaथaयo": 3024,
      "हिमाल": 3025,
      "मoटर": 3026,
      "##यल": 3027,
      "वaयावसाय": 3028,
      "फाइदा": 3029,
      "##मaबा": 3030,
      "हित": 3031,
      "##बाहlक": 3032,
      "बचaचा": 3033,
      "##कारि": 3034,
      "##lदार": 3035,
      "सaवदlश": 3036,
      "लागaयo": 3037,
      "शीरaष": 3038,
      "पaरदlशसभा": 3039,
      "##ारिस": 3040,
      "उनीहरuकo": 3041,
      "शlर": 3042,
      "ढा": 3043,
      "मनaतaरि": 3044,
      "धर": 3045,
      "##खo": 3046,
      "सcचालन": 3047,
      "कारaयालयमा": 3048,
      "##lदlखि": 3049,
      "चढ": 3050,
      "अतaयनaत": 3051,
      "विराटनगर": 3052,
      "रण": 3053,
      "कारaयालयलl": 3054,
      "पuरानo": 3055,
      "समaपाद": 3056,
      "सरaवसाधारण": 3057,
      "नaय": 3058,
      "वरaतमान": 3059,
      "##पeरaति": 3060,
      "भनlका": 3061,
      "बहादuर": 3062,
      "##रामा": 3063,
      "उपभoकaता": 3064,
      "तरकारी": 3065,
      "##ङaगा": 3066,
      "##धानिक": 3067,
      "सaम": 3068,
      "पाए": 3069,
      "पाउ": 3070,
      "सदरमu": 3071,
      "नlतrतaवकo": 3072,
      "मuलuककo": 3073,
      "##भी": 3074,
      "फlसबuक": 3075,
      "##कामना": 3076,
      "कञaचन": 3077,
      "##रaब": 3078,
      "पaरथम": 3079,
      "सामगaरी": 3080,
      "सामuदायिक": 3081,
      "घिमिर": 3082,
      "मkदान": 3083,
      "##रaसि": 3084,
      "समaमlलन": 3085,
      "भएकoलl": 3086,
      "आयात": 3087,
      "बढाउन": 3088,
      "पाकिसaत": 3089,
      "##uकu": 3090,
      "विधि": 3091,
      "निरaमाणकo": 3092,
      "शuलaक": 3093,
      "नस": 3094,
      "##हरा": 3095,
      "पाठ": 3096,
      "मिस": 3097,
      "समlट": 3098,
      "सदरमuकाम": 3099,
      "यातaरu": 3100,
      "##तिहासिक": 3101,
      "नlतrतaवमा": 3102,
      "छनoट": 3103,
      "कतk": 3104,
      "सामान": 3105,
      "##हिनी": 3106,
      "कaयामaप": 3107,
      "चाड": 3108,
      "##परaनl": 3109,
      "बuट": 3110,
      "तिनी": 3111,
      "विकलaप": 3112,
      "पदाधिका": 3113,
      "सबkलl": 3114,
      "जuट": 3115,
      "##घाट": 3116,
      "सिफारिस": 3117,
      "उदाहरण": 3118,
      "बcग": 3119,
      "##कrतिक": 3120,
      "सcविधानसभा": 3121,
      "कविता": 3122,
      "गलa": 3123,
      "वाणिजaय": 3124,
      "पारित": 3125,
      "पारlकo": 3126,
      "##रoह": 3127,
      "अा": 3128,
      "##मिटर": 3129,
      "महानगरपालिका": 3130,
      "निशaचित": 3131,
      "आमaदानी": 3132,
      "मारaग": 3133,
      "##हीन": 3134,
      "##lशaवर": 3135,
      "सजा": 3136,
      "भaरषaटाचार": 3137,
      "आफkc": 3138,
      "दलका": 3139,
      "आएर": 3140,
      "##रuपमा": 3141,
      "आलo": 3142,
      "चासo": 3143,
      "सभ": 3144,
      "मानसिक": 3145,
      "##चaछा": 3146,
      "रlडियo": 3147,
      "कारaयरत": 3148,
      "यuरo": 3149,
      "पारaनl": 3150,
      "पrथ": 3151,
      "##दaरa": 3152,
      "##दन": 3153,
      "सचlत": 3154,
      "पaरसार": 3155,
      "##ीया": 3156,
      "फल": 3157,
      "##हoर": 3158,
      "गरaनका": 3159,
      "माल": 3160,
      "##िनa": 3161,
      "तaयसkगरी": 3162,
      "मuलuकमा": 3163,
      "##यकo": 3164,
      "##वाई": 3165,
      "एम": 3166,
      "##िङ": 3167,
      "परaदछ": 3168,
      "हासिल": 3169,
      "बाग": 3170,
      "राजaयकo": 3171,
      "हoटल": 3172,
      "ललित": 3173,
      "कमaपनीकo": 3174,
      "भारतलl": 3175,
      "##हारी": 3176,
      "##बीचकo": 3177,
      "सकaछनa": 3178,
      "यता": 3179,
      "##हण": 3180,
      "हkन": 3181,
      "चuना": 3182,
      "##वली": 3183,
      "दoष": 3184,
      "सcसदीय": 3185,
      "जaञा": 3186,
      "##चक": 3187,
      "पहu": 3188,
      "मlला": 3189,
      "गरिदि": 3190,
      "##गी": 3191,
      "##तaतk": 3192,
      "सार": 3193,
      "##राख": 3194,
      "नभई": 3195,
      "हlरaनl": 3196,
      "##राकo": 3197,
      "करaजा": 3198,
      "सनaदlश": 3199,
      "परaया": 3200,
      "महoतa": 3201,
      "उपसaथित": 3202,
      "वारaषिक": 3203,
      "##लाम": 3204,
      "##लादlश": 3205,
      "यuदaध": 3206,
      "जानu": 3207,
      "ऐतिहासिक": 3208,
      "##सला": 3209,
      "गाई": 3210,
      "दिiदk": 3211,
      "सaवय": 3212,
      "अपlकaषा": 3213,
      "उपयuकaत": 3214,
      "जlल": 3215,
      "##एल": 3216,
      "##पथ": 3217,
      "विकlट": 3218,
      "काठमाणaड": 3219,
      "कहिलaयk": 3220,
      "पaराय": 3221,
      "##कuद": 3222,
      "अनuरoध": 3223,
      "साcसaकrतिक": 3224,
      "तl": 3225,
      "सही": 3226,
      "अनuदान": 3227,
      "##नगर": 3228,
      "##गढी": 3229,
      "अघिलaलo": 3230,
      "रoजगार": 3231,
      "सनaदरaभमा": 3232,
      "बाहlक": 3233,
      "##कानी": 3234,
      "##ङका": 3235,
      "दoहo": 3236,
      "##हरeका": 3237,
      "##रीका": 3238,
      "गरaद": 3239,
      "लगाएर": 3240,
      "पpडlललl": 3241,
      "बढाउनl": 3242,
      "पaरlस": 3243,
      "विकासकo": 3244,
      "तaयसलl": 3245,
      "##जिनि": 3246,
      "पaराकrतिक": 3247,
      "मlगा": 3248,
      "राखa": 3249,
      "खlलकuद": 3250,
      "तaयसका": 3251,
      "मuखaयमनaतaरी": 3252,
      "पaरहरीकo": 3253,
      "लिएका": 3254,
      "नaयeन": 3255,
      "पaरारमaभ": 3256,
      "पuगaन": 3257,
      "लगाएकo": 3258,
      "मनaतaरिपरि": 3259,
      "##सuक": 3260,
      "कuमार": 3261,
      "पछा": 3262,
      "उपसaथिति": 3263,
      "डलर": 3264,
      "##ठo": 3265,
      "समrदaध": 3266,
      "लlखि": 3267,
      "##मिला": 3268,
      "जaया": 3269,
      "##ाउiछ": 3270,
      "बिसaत": 3271,
      "भतa": 3272,
      "गाi": 3273,
      "सञaजाल": 3274,
      "इतिहास": 3275,
      "विमानसaथल": 3276,
      "समगaर": 3277,
      "सरo": 3278,
      "कमaयuनिसaट": 3279,
      "४५": 3280,
      "##ीक": 3281,
      "तिमी": 3282,
      "फaरा": 3283,
      "चkत": 3284,
      "गज": 3285,
      "अभिनl": 3286,
      "साझा": 3287,
      "##परlकo": 3288,
      "बढa": 3289,
      "कारaकी": 3290,
      "##वाला": 3291,
      "पuसaतक": 3292,
      "##सe": 3293,
      "##lनaस": 3294,
      "अदालत": 3295,
      "##पण": 3296,
      "दशमलव": 3297,
      "##लaड": 3298,
      "##नaतवaय": 3299,
      "खि": 3300,
      "निरaधारण": 3301,
      "भनaछ": 3302,
      "टaया": 3303,
      "गतिविधि": 3304,
      "कडा": 3305,
      "##जaञानिक": 3306,
      "नगद": 3307,
      "##वाही": 3308,
      "##विदaयu": 3309,
      "लगाउन": 3310,
      "##रaपा": 3311,
      "##ारu": 3312,
      "पaरगति": 3313,
      "##रaका": 3314,
      "भनिनaछ": 3315,
      "##यनमा": 3316,
      "चिया": 3317,
      "कlनaदaरित": 3318,
      "सcघरaष": 3319,
      "अथ": 3320,
      "##चp": 3321,
      "नसकa": 3322,
      "भoज": 3323,
      "पारaन": 3324,
      "##भनl": 3325,
      "भनाई": 3326,
      "##रaनu": 3327,
      "मलlसिया": 3328,
      "##lकk": 3329,
      "##बिन": 3330,
      "निरaमाणका": 3331,
      "समaपरaक": 3332,
      "उनीहरeलl": 3333,
      "थuपaरk": 3334,
      "##मlल": 3335,
      "##वधान": 3336,
      "बग": 3337,
      "भावना": 3338,
      "चितaर": 3339,
      "##ियम": 3340,
      "७०": 3341,
      "##मारी": 3342,
      "भoलि": 3343,
      "##लगायतका": 3344,
      "##कoटा": 3345,
      "पहuiच": 3346,
      "पaरदlशकo": 3347,
      "##फाइ": 3348,
      "##समिति": 3349,
      "कारaतिक": 3350,
      "हाi": 3351,
      "अनa": 3352,
      "##पaरिय": 3353,
      "##शाली": 3354,
      "जनपaरति": 3355,
      "गाउiमा": 3356,
      "मlडिकल": 3357,
      "बनaदk": 3358,
      "नगरaनl": 3359,
      "सaथायी": 3360,
      "ढकाल": 3361,
      "आफk": 3362,
      "टीका": 3363,
      "भरaना": 3364,
      "##शaर": 3365,
      "महoतaसव": 3366,
      "जलविदaयu": 3367,
      "तaयसaता": 3368,
      "##बनaदी": 3369,
      "किलoमिटर": 3370,
      "तिर": 3371,
      "आधuनिक": 3372,
      "रoक": 3373,
      "विनि": 3374,
      "##uपयoग": 3375,
      "सफलता": 3376,
      "परिच": 3377,
      "गणतनaतaर": 3378,
      "वरaषदlखि": 3379,
      "उचित": 3380,
      "सिदaधानaत": 3381,
      "खत": 3382,
      "पaरo": 3383,
      "कuराकानी": 3384,
      "शव": 3385,
      "नति": 3386,
      "जनतालाई": 3387,
      "माथ": 3388,
      "##हui": 3389,
      "पतaरिका": 3390,
      "आउiछ": 3391,
      "२०५": 3392,
      "हालसमaम": 3393,
      "सoध": 3394,
      "मरaम": 3395,
      "सरoकार": 3396,
      "छिमlकी": 3397,
      "बoला": 3398,
      "दरaजन": 3399,
      "ऊरaजा": 3400,
      "अरaज": 3401,
      "भlला": 3402,
      "गoली": 3403,
      "३२": 3404,
      "सk": 3405,
      "समaव": 3406,
      "झu": 3407,
      "आयoजनामा": 3408,
      "बkङaक": 3409,
      "बkcककo": 3410,
      "##नlटमा": 3411,
      "८०": 3412,
      "गरaनlछ": 3413,
      "उनीहरeकo": 3414,
      "विजय": 3415,
      "##सकaछ": 3416,
      "करaणाली": 3417,
      "##तaती": 3418,
      "मoबाइल": 3419,
      "##फिक": 3420,
      "बp": 3421,
      "२०७३": 3422,
      "बढaन": 3423,
      "जनपaरतिनि": 3424,
      "अनaन": 3425,
      "##ङलl": 3426,
      "लड": 3427,
      "गराएकo": 3428,
      "##लिएकo": 3429,
      "लकaषaमी": 3430,
      "##षद": 3431,
      "तaयसo": 3432,
      "अलि": 3433,
      "एवमa": 3434,
      "##सकlपछि": 3435,
      "भाष": 3436,
      "अरaथतनaतaर": 3437,
      "##भरि": 3438,
      "काल": 3439,
      "आफनaत": 3440,
      "##सिcह": 3441,
      "विशaवकप": 3442,
      "मlल": 3443,
      "##दaरा": 3444,
      "##cगo": 3445,
      "वaयकaतिगत": 3446,
      "##कaरo": 3447,
      "डी": 3448,
      "##lशन": 3449,
      "##गञaज": 3450,
      "भeमि": 3451,
      "##बास": 3452,
      "उपम": 3453,
      "##रaमालl": 3454,
      "##aयाल": 3455,
      "##वात": 3456,
      "विजaञान": 3457,
      "कaषlतaरीय": 3458,
      "कaयानaस": 3459,
      "दशक": 3460,
      "दबाब": 3461,
      "##गu": 3462,
      "किश": 3463,
      "भरत": 3464,
      "नगरी": 3465,
      "कट": 3466,
      "पास": 3467,
      "##षaणu": 3468,
      "##oष": 3469,
      "विदaयारaथ": 3470,
      "नहuiदा": 3471,
      "पaरहार": 3472,
      "जoग": 3473,
      "##नaथ": 3474,
      "शuभकामना": 3475,
      "हिiड": 3476,
      "कमि": 3477,
      "पनaत": 3478,
      "कानeन": 3479,
      "महिलाकo": 3480,
      "उतaसा": 3481,
      "निसaक": 3482,
      "##भeत": 3483,
      "सडकमा": 3484,
      "झनa": 3485,
      "##टaटा": 3486,
      "विजयी": 3487,
      "सरकारका": 3488,
      "फlला": 3489,
      "##चर": 3490,
      "जमिन": 3491,
      "नlपाललाई": 3492,
      "##दम": 3493,
      "मिनlट": 3494,
      "फaरानaस": 3495,
      "आधारित": 3496,
      "विसc": 3497,
      "##aयता": 3498,
      "बसaन": 3499,
      "औपचारिक": 3500,
      "##गढ": 3501,
      "मoरaचा": 3502,
      "निग": 3503,
      "##बारी": 3504,
      "एजlनaसी": 3505,
      "महतa": 3506,
      "सिट": 3507,
      "##चनaदaर": 3508,
      "निज": 3509,
      "बoल": 3510,
      "##किनl": 3511,
      "दिनकo": 3512,
      "अवधिमा": 3513,
      "##ाउiदा": 3514,
      "##बo": 3515,
      "वaयवसaथाप": 3516,
      "##नaदaव": 3517,
      "उपाधि": 3518,
      "##नaधu": 3519,
      "ठl": 3520,
      "##तिका": 3521,
      "##शaवर": 3522,
      "##लमaब": 3523,
      "विविध": 3524,
      "नभएका": 3525,
      "गoरखा": 3526,
      "महlनaदaर": 3527,
      "##गaरा": 3528,
      "वरaषीया": 3529,
      "##वaर": 3530,
      "##ारायण": 3531,
      "अनलाइन": 3532,
      "दuबk": 3533,
      "रम": 3534,
      "परaयटकीय": 3535,
      "राजदe": 3536,
      "३३": 3537,
      "सजिलo": 3538,
      "पारaटीलl": 3539,
      "भनaनu": 3540,
      "मितaर": 3541,
      "भारतमा": 3542,
      "सशसaतaर": 3543,
      "##मeल": 3544,
      "उपपaर": 3545,
      "##सaटaर": 3546,
      "##ननa": 3547,
      "अनlक": 3548,
      "शaरीमती": 3549,
      "चuनावी": 3550,
      "##डिङ": 3551,
      "जय": 3552,
      "अरaथात": 3553,
      "सङaक": 3554,
      "##cकन": 3555,
      "दाजu": 3556,
      "विदaयालयमा": 3557,
      "वaयकaतिकo": 3558,
      "समaमlलनमा": 3559,
      "##वसaथा": 3560,
      "##शaरम": 3561,
      "सaथानिय": 3562,
      "मापद": 3563,
      "दस": 3564,
      "कमी": 3565,
      "ढcग": 3566,
      "शlरaपा": 3567,
      "मoर": 3568,
      "समारoह": 3569,
      "मिलlर": 3570,
      "पaरतिकaरिया": 3571,
      "##aरu": 3572,
      "##पनaन": 3573,
      "परमaपरा": 3574,
      "झणaडk": 3575,
      "##ठी": 3576,
      "आउi": 3577,
      "##ीकrत": 3578,
      "राहत": 3579,
      "वaयावसायिक": 3580,
      "सङaग": 3581,
      "##रaती": 3582,
      "पuस": 3583,
      "काठमाडpcमा": 3584,
      "##ढl": 3585,
      "नियनaतaरणमा": 3586,
      "महिनामा": 3587,
      "मापदणaड": 3588,
      "##रl": 3589,
      "अदालतलl": 3590,
      "बनाएका": 3591,
      "जसमा": 3592,
      "##जuरी": 3593,
      "टaरमaप": 3594,
      "महासचिव": 3595,
      "##शuप": 3596,
      "##कारण": 3597,
      "अभaयास": 3598,
      "किनभनl": 3599,
      "##uरe": 3600,
      "डिज": 3601,
      "आधा": 3602,
      "##पeरaवक": 3603,
      "भनिनa": 3604,
      "कoइराला": 3605,
      "मe": 3606,
      "##उiदा": 3607,
      "पहिला": 3608,
      "##दिनl": 3609,
      "पदाधिकारी": 3610,
      "खuसी": 3611,
      "भितa": 3612,
      "##आफ": 3613,
      "##रहl": 3614,
      "नगरपालिकाकo": 3615,
      "पaरतिबदaधता": 3616,
      "सब": 3617,
      "दिउi": 3618,
      "नाटक": 3619,
      "चलन": 3620,
      "माओवाद": 3621,
      "दिवस": 3622,
      "कानuनी": 3623,
      "##दlवी": 3624,
      "हसaतानaतरण": 3625,
      "टिक": 3626,
      "##एफ": 3627,
      "काट": 3628,
      "##सuकk": 3629,
      "लाल": 3630,
      "##ङक": 3631,
      "अवि": 3632,
      "कlनaदaरका": 3633,
      "नियuकaत": 3634,
      "फाइन": 3635,
      "बीमा": 3636,
      "उदaधार": 3637,
      "नतिजा": 3638,
      "##साई": 3639,
      "बिभिनaन": 3640,
      "##सङa": 3641,
      "बसlका": 3642,
      "##घu": 3643,
      "##ानका": 3644,
      "##lलिक": 3645,
      "मuकaत": 3646,
      "दp": 3647,
      "##मका": 3648,
      "##ियाi": 3649,
      "विषaट": 3650,
      "दuर": 3651,
      "विसaतrत": 3652,
      "##भl": 3653,
      "उपमहान": 3654,
      "अभिभाव": 3655,
      "अमlरिकाकo": 3656,
      "नaयu": 3657,
      "सaवीकार": 3658,
      "तu": 3659,
      "काउ": 3660,
      "##नaटर": 3661,
      "चरणकo": 3662,
      "##विनaद": 3663,
      "##वारaड": 3664,
      "हाइ": 3665,
      "अगाडी": 3666,
      "पशuप": 3667,
      "पीडा": 3668,
      "नआ": 3669,
      "विशaलl": 3670,
      "##तावास": 3671,
      "यसkगरी": 3672,
      "महाधि": 3673,
      "भuकaत": 3674,
      "जिमaमा": 3675,
      "##छी": 3676,
      "##चo": 3677,
      "दलकo": 3678,
      "##लक": 3679,
      "जानaछ": 3680,
      "##यमा": 3681,
      "अतaया": 3682,
      "##विन": 3683,
      "एश": 3684,
      "तuलनामा": 3685,
      "##लaली": 3686,
      "##भाविक": 3687,
      "सeरaय": 3688,
      "दिदी": 3689,
      "##छिनa": 3690,
      "चलि": 3691,
      "##pला": 3692,
      "एनआर": 3693,
      "पrथaव": 3694,
      "पuiजी": 3695,
      "##कaषlतaर": 3696,
      "करी": 3697,
      "७५": 3698,
      "चo": 3699,
      "बpदaध": 3700,
      "यदaय": 3701,
      "##धनकo": 3702,
      "उनि": 3703,
      "चिनaता": 3704,
      "##नaती": 3705,
      "परिचय": 3706,
      "गाविस": 3707,
      "##गoल": 3708,
      "उडान": 3709,
      "##रuवा": 3710,
      "समरaथन": 3711,
      "##डीकo": 3712,
      "बालिका": 3713,
      "मpलिक": 3714,
      "##णaडा": 3715,
      "##ानलl": 3716,
      "भाडा": 3717,
      "मlरा": 3718,
      "धारा": 3719,
      "राखlका": 3720,
      "पaरवrतaति": 3721,
      "तपाईcकo": 3722,
      "##हाज": 3723,
      "##७५": 3724,
      "बताएकo": 3725,
      "जसरी": 3726,
      "एयर": 3727,
      "तरaक": 3728,
      "वaयापारी": 3729,
      "##फाइन": 3730,
      "थoर": 3731,
      "राजमारaग": 3732,
      "सkनिक": 3733,
      "छिटo": 3734,
      "मuसa": 3735,
      "बिज": 3736,
      "रात": 3737,
      "चयन": 3738,
      "सuनu": 3739,
      "एकजना": 3740,
      "हार": 3741,
      "रगत": 3742,
      "सcघका": 3743,
      "गणlश": 3744,
      "धान": 3745,
      "##रaदk": 3746,
      "##िसo": 3747,
      "##हoस": 3748,
      "वासaतविक": 3749,
      "सcविधानकo": 3750,
      "हसaताकaषर": 3751,
      "जसकo": 3752,
      "तथaय": 3753,
      "##ङaगaर": 3754,
      "जनकपuर": 3755,
      "##यनaतaर": 3756,
      "आस": 3757,
      "गरिसकlकo": 3758,
      "##ञaचल": 3759,
      "##लaपना": 3760,
      "कारaयालयका": 3761,
      "सङaघीय": 3762,
      "शरीर": 3763,
      "##वत": 3764,
      "इज": 3765,
      "चीनकo": 3766,
      "##कaसी": 3767,
      "सजाय": 3768,
      "अथवा": 3769,
      "जनपaरतिनिधि": 3770,
      "हालk": 3771,
      "बाह": 3772,
      "बिषय": 3773,
      "जनाएका": 3774,
      "लिम": 3775,
      "##टिङ": 3776,
      "सपaत": 3777,
      "ठuलo": 3778,
      "राजी": 3779,
      "भकaतपuर": 3780,
      "कaय": 3781,
      "##नित": 3782,
      "परिसaथिति": 3783,
      "सcचाल": 3784,
      "विदlशमा": 3785,
      "जनालाई": 3786,
      "अपना": 3787,
      "विकासमा": 3788,
      "##भाइ": 3789,
      "निरaमाणमा": 3790,
      "##ियर": 3791,
      "जनजा": 3792,
      "##टाइ": 3793,
      "हसaत": 3794,
      "पaरदlशमा": 3795,
      "नlपालीकo": 3796,
      "एकaस": 3797,
      "##वारaय": 3798,
      "##लuङ": 3799,
      "वरaषअघि": 3800,
      "यिन": 3801,
      "सcसaथाकo": 3802,
      "चpथo": 3803,
      "मaयागa": 3804,
      "निरा": 3805,
      "बीचमा": 3806,
      "चlत": 3807,
      "पतaता": 3808,
      "अनिवारaय": 3809,
      "रकaत": 3810,
      "##रaताकo": 3811,
      "सहयoगमा": 3812,
      "##कrषaण": 3813,
      "महसu": 3814,
      "##aरoल": 3815,
      "परिषदa": 3816,
      "गाउ": 3817,
      "२०७२": 3818,
      "अषaटaर": 3819,
      "दlखिएका": 3820,
      "##हaरo": 3821,
      "शाही": 3822,
      "##सहितकo": 3823,
      "मानिनaछ": 3824,
      "२०४": 3825,
      "विभागलl": 3826,
      "अखa": 3827,
      "##वाइ": 3828,
      "हिसाबलl": 3829,
      "##वaयकaति": 3830,
      "##यद": 3831,
      "सcसaथालl": 3832,
      "परaयापaत": 3833,
      "हuनालl": 3834,
      "##lदन": 3835,
      "पaरणाल": 3836,
      "पuसaता": 3837,
      "मनaतaरालयका": 3838,
      "मिनlटमा": 3839,
      "कlनaदaरमा": 3840,
      "पuगlर": 3841,
      "गuलa": 3842,
      "सञaचालक": 3843,
      "साझ": 3844,
      "##लारaइ": 3845,
      "आलoचना": 3846,
      "मpका": 3847,
      "##खlल": 3848,
      "##लaपा": 3849,
      "पaरावधान": 3850,
      "कमल": 3851,
      "##कमल": 3852,
      "दिउiसo": 3853,
      "बराबरकo": 3854,
      "खस": 3855,
      "##राइ": 3856,
      "समuह": 3857,
      "आआफ": 3858,
      "दuरaघटनामा": 3859,
      "पशu": 3860,
      "खoजी": 3861,
      "बमoजिम": 3862,
      "बिच": 3863,
      "शरaमालl": 3864,
      "##ामuख": 3865,
      "##सिनaदा": 3866,
      "##जसaतk": 3867,
      "##ननaद": 3868,
      "भनaसार": 3869,
      "एसिया": 3870,
      "बuझaन": 3871,
      "लoकपaरिय": 3872,
      "थoरk": 3873,
      "राजनीतिमा": 3874,
      "रणनी": 3875,
      "अपaर": 3876,
      "मaयu": 3877,
      "तथaयाcक": 3878,
      "महाधिवlश": 3879,
      "##िटlड": 3880,
      "नजिकk": 3881,
      "बताउनu": 3882,
      "तलब": 3883,
      "छk": 3884,
      "कlसीलl": 3885,
      "तlल": 3886,
      "पदमा": 3887,
      "पaरजातनaतaर": 3888,
      "किरा": 3889,
      "सiगk": 3890,
      "##वमा": 3891,
      "##भितaरk": 3892,
      "नभएर": 3893,
      "भएमा": 3894,
      "##निया": 3895,
      "##नuभएका": 3896,
      "पaराथमिकता": 3897,
      "सaथल": 3898,
      "अनuहार": 3899,
      "विजaञपa": 3900,
      "हङक": 3901,
      "कoरि": 3902,
      "##नीकo": 3903,
      "मpसम": 3904,
      "नाच": 3905,
      "नaयायाधीश": 3906,
      "टaराफिक": 3907,
      "खानlपानी": 3908,
      "##गरमा": 3909,
      "राउ": 3910,
      "बसo": 3911,
      "धनaय": 3912,
      "पछाडि": 3913,
      "पातaर": 3914,
      "##जान": 3915,
      "उड": 3916,
      "पaरवाह": 3917,
      "चuनावमा": 3918,
      "##धिकार": 3919,
      "##इरहlकo": 3920,
      "परaन": 3921,
      "##मारaट": 3922,
      "भoट": 3923,
      "अपा": 3924,
      "##बl": 3925,
      "##शaवास": 3926,
      "##शासन": 3927,
      "नागरिकता": 3928,
      "##रaयo": 3929,
      "पaरतिपकaष": 3930,
      "बिदा": 3931,
      "##रaघ": 3932,
      "रकaषा": 3933,
      "##टीमा": 3934,
      "गराइ": 3935,
      "##aयuट": 3936,
      "बिका": 3937,
      "१९९": 3938,
      "सaवारaथ": 3939,
      "आउनu": 3940,
      "पaरकारकo": 3941,
      "इट": 3942,
      "पढaन": 3943,
      "पuषaपकमल": 3944,
      "दlखिनl": 3945,
      "यसo": 3946,
      "तल": 3947,
      "घरlलu": 3948,
      "शlरबहादuर": 3949,
      "अमlरिकामा": 3950,
      "पाइनl": 3951,
      "आवास": 3952,
      "आएपछि": 3953,
      "यuरoप": 3954,
      "मrत": 3955,
      "वaयवसaथित": 3956,
      "पaरसाद": 3957,
      "##कoण": 3958,
      "विना": 3959,
      "लागaन": 3960,
      "##कaषम": 3961,
      "तoकिएकo": 3962,
      "मlगावाट": 3963,
      "छl": 3964,
      "##सcखaया": 3965,
      "दlखaन": 3966,
      "निः": 3967,
      "पaरतियoगिताकo": 3968,
      "राणा": 3969,
      "##जसo": 3970,
      "राजaयलl": 3971,
      "खuशी": 3972,
      "##नaथl": 3973,
      "सcसaकार": 3974,
      "##भeति": 3975,
      "##सaटर": 3976,
      "महसuस": 3977,
      "##शाखा": 3978,
      "जनशकaति": 3979,
      "थu": 3980,
      "##णaडकी": 3981,
      "गरिरह": 3982,
      "सिनaधu": 3983,
      "कमaतीमा": 3984,
      "सीमित": 3985,
      "लिमिटlड": 3986,
      "जीवनमा": 3987,
      "९०": 3988,
      "##दaरaधन": 3989,
      "फर": 3990,
      "मार": 3991,
      "##हoला": 3992,
      "चaयामaप": 3993,
      "इचaछा": 3994,
      "##aयाउनl": 3995,
      "जाति": 3996,
      "##ियo": 3997,
      "कारaक": 3998,
      "साढl": 3999,
      "मनaतaरिपरिषदa": 4000,
      "मaयान": 4001,
      "पाइएकo": 4002,
      "##वkधानिक": 4003,
      "बिना": 4004,
      "गoविनaद": 4005,
      "उतaपनaन": 4006,
      "करीब": 4007,
      "दम": 4008,
      "##ाएका": 4009,
      "यसबाट": 4010,
      "बuटवल": 4011,
      "##िकार": 4012,
      "बाढी": 4013,
      "पaरसारण": 4014,
      "एनआरएन": 4015,
      "तaरिभu": 4016,
      "गरिनlछ": 4017,
      "सरस": 4018,
      "पaरकाशन": 4019,
      "टाइ": 4020,
      "##लागि": 4021,
      "##पशaचिम": 4022,
      "##cदk": 4023,
      "सlत": 4024,
      "##eट": 4025,
      "दिला": 4026,
      "##ितo": 4027,
      "##aयाम": 4028,
      "परिचालन": 4029,
      "लगाए": 4030,
      "रस": 4031,
      "परl": 4032,
      "खार": 4033,
      "काcगaरlसका": 4034,
      "चाहिi": 4035,
      "##यuदaध": 4036,
      "##जमा": 4037,
      "माधaयमबाट": 4038,
      "अच": 4039,
      "हरu": 4040,
      "बनि": 4041,
      "तoक": 4042,
      "##बaय": 4043,
      "कामकo": 4044,
      "मणaड": 4045,
      "दaवनaदaव": 4046,
      "परा": 4047,
      "उनीहरuलाई": 4048,
      "सeच": 4049,
      "हपaता": 4050,
      "बuढा": 4051,
      "सचिवालय": 4052,
      "दlखाएकo": 4053,
      "यादवलl": 4054,
      "सcगठ": 4055,
      "बरu": 4056,
      "महतaतaव": 4057,
      "##ताब": 4058,
      "उजuरी": 4059,
      "##चu": 4060,
      "##कट": 4061,
      "##दlख": 4062,
      "आह": 4063,
      "५५": 4064,
      "##जनक": 4065,
      "उदaदlशaयलl": 4066,
      "अपa": 4067,
      "गuरuङलl": 4068,
      "अधaया": 4069,
      "##जानl": 4070,
      "खlलaनl": 4071,
      "तसaक": 4072,
      "छानबिन": 4073,
      "भरि": 4074,
      "##खित": 4075,
      "मuटu": 4076,
      "मासu": 4077,
      "भणaडारीलl": 4078,
      "फoरम": 4079,
      "निरaवाचनकo": 4080,
      "जनसcखaया": 4081,
      "सिमा": 4082,
      "मनaदि": 4083,
      "बlलामा": 4084,
      "लlखक": 4085,
      "##रaकo": 4086,
      "बcगलादlश": 4087,
      "असफल": 4088,
      "आय": 4089,
      "भीम": 4090,
      "##बजार": 4091,
      "वkजaञानिक": 4092,
      "पaरशिकaषण": 4093,
      "पaरमाणपतaर": 4094,
      "निधन": 4095,
      "बाiच": 4096,
      "##लoकन": 4097,
      "##भlद": 4098,
      "समाजकo": 4099,
      "तaरिभuवन": 4100,
      "सवk": 4101,
      "##७४": 4102,
      "##षित": 4103,
      "चाहना": 4104,
      "औi": 4105,
      "कlवल": 4106,
      "एकीकrत": 4107,
      "भएकी": 4108,
      "लगातार": 4109,
      "अवारaड": 4110,
      "उपचारका": 4111,
      "आइपuग": 4112,
      "कारवाही": 4113,
      "जाiच": 4114,
      "कaयानaसर": 4115,
      "उतaर": 4116,
      "मानिसकo": 4117,
      "##ाउकo": 4118,
      "आयoजनाकo": 4119,
      "कतार": 4120,
      "बर": 4121,
      "##डर": 4122,
      "वaयकaतिलl": 4123,
      "रमाइ": 4124,
      "उसलाई": 4125,
      "सङaखaया": 4126,
      "सaकuल": 4127,
      "तीवaर": 4128,
      "##ानk": 4129,
      "माछा": 4130,
      "पuगa": 4131,
      "लगाइ": 4132,
      "##नlमा": 4133,
      "परaदkन": 4134,
      "दशkc": 4135,
      "दlवकoटा": 4136,
      "मuकaति": 4137,
      "किम": 4138,
      "दरaशक": 4139,
      "##दaव": 4140,
      "पaरचणaडलl": 4141,
      "पतaरकारि": 4142,
      "##िकo": 4143,
      "परराषaटaर": 4144,
      "अखaतियार": 4145,
      "##सlवा": 4146,
      "विमानसaथ": 4147,
      "##डकo": 4148,
      "गाहaरo": 4149,
      "पaरशिकaषक": 4150,
      "विपकaष": 4151,
      "दिनaछ": 4152,
      "##दaरo": 4153,
      "मlस": 4154,
      "बoकlर": 4155,
      "##वaया": 4156,
      "थालlपछि": 4157,
      "गीतमा": 4158,
      "महिनाकo": 4159,
      "मधlशी": 4160,
      "##ईन": 4161,
      "नमaब": 4162,
      "रचना": 4163,
      "सlवन": 4164,
      "यहाiका": 4165,
      "सहायक": 4166,
      "मoटरसाइ": 4167,
      "सरकारमा": 4168,
      "##तीकo": 4169,
      "२०१८": 4170,
      "##सaकी": 4171,
      "##ाएर": 4172,
      "##शlष": 4173,
      "सनaध": 4174,
      "##तu": 4175,
      "सकlका": 4176,
      "आननaद": 4177,
      "निरनaतरता": 4178,
      "##वरaष": 4179,
      "हuनसकaछ": 4180,
      "भoग": 4181,
      "##रaखlत": 4182,
      "बनाइएकo": 4183,
      "वaयापक": 4184,
      "##यpi": 4185,
      "##लaयानaड": 4186,
      "##जनaय": 4187,
      "रoकaन": 4188,
      "पaरतिनिधितaव": 4189,
      "नियu": 4190,
      "कारaयकaरमका": 4191,
      "सफा": 4192,
      "पuराना": 4193,
      "##ियाली": 4194,
      "एमालlका": 4195,
      "##ालका": 4196,
      "लकaषित": 4197,
      "चl": 4198,
      "जरaम": 4199,
      "रहlर": 4200,
      "मनाइ": 4201,
      "आत": 4202,
      "##सaकo": 4203,
      "निरaमा": 4204,
      "मlयर": 4205,
      "सcवkधानिक": 4206,
      "##िनaछ": 4207,
      "##मaस": 4208,
      "गरिब": 4209,
      "##टिल": 4210,
      "घरकo": 4211,
      "यuग": 4212,
      "समयदlखि": 4213,
      "कaरियाकला": 4214,
      "अतिथि": 4215,
      "पaला": 4216,
      "##कaरा": 4217,
      "माटo": 4218,
      "##uटaटा": 4219,
      "तार": 4220,
      "##किलo": 4221,
      "नामक": 4222,
      "बहस": 4223,
      "##वारaता": 4224,
      "सकिएकo": 4225,
      "लगानीकरaता": 4226,
      "ढcगलl": 4227,
      "नवल": 4228,
      "##टीका": 4229,
      "पारlर": 4230,
      "खादaय": 4231,
      "बारl": 4232,
      "गरaछu": 4233,
      "भuकaतानी": 4234,
      "लागu": 4235,
      "दाहाललl": 4236,
      "चरि": 4237,
      "मlट": 4238,
      "##सकl": 4239,
      "##नaदl": 4240,
      "नियuकaति": 4241,
      "बसaती": 4242,
      "सuरaखlत": 4243,
      "कसkलाई": 4244,
      "##बम": 4245,
      "निकट": 4246,
      "नगरपालिकालl": 4247,
      "निसa": 4248,
      "टाढा": 4249,
      "##हuनaथaयo": 4250,
      "उता": 4251,
      "काcगaरlसलl": 4252,
      "##pल": 4253,
      "हल": 4254,
      "नaयp": 4255,
      "असनaतu": 4256,
      "##लिङ": 4257,
      "बाबuराम": 4258,
      "हज": 4259,
      "निरaवाह": 4260,
      "##खणaड": 4261,
      "##टaया": 4262,
      "एकल": 4263,
      "हuदk": 4264,
      "मaयuजिक": 4265,
      "पतa": 4266,
      "बaयाज": 4267,
      "वaयसaत": 4268,
      "##तaवमा": 4269,
      "अगa": 4270,
      "चpधरी": 4271,
      "महिलालl": 4272,
      "गनaतवaय": 4273,
      "हoट": 4274,
      "हिनaदu": 4275,
      "##िसकlकo": 4276,
      "जuमa": 4277,
      "मञaच": 4278,
      "कारaयमा": 4279,
      "##सामा": 4280,
      "##सcसaथा": 4281,
      "बoलaदk": 4282,
      "काठमाणaडp": 4283,
      "विगतमा": 4284,
      "पuगl": 4285,
      "मातaरामा": 4286,
      "राखaनu": 4287,
      "यदaयपि": 4288,
      "##हरuसiग": 4289,
      "सr": 4290,
      "पानीकo": 4291,
      "टी": 4292,
      "उपमहानगरपालिका": 4293,
      "##वहार": 4294,
      "मधlसी": 4295,
      "महाशाखा": 4296,
      "बताउनuभएकo": 4297,
      "इनaटरनlट": 4298,
      "हिनaद": 4299,
      "परaयo": 4300,
      "##परा": 4301,
      "##oतaत": 4302,
      "दरबार": 4303,
      "लिइ": 4304,
      "हlरaनu": 4305,
      "भव": 4306,
      "परaदा": 4307,
      "हातमा": 4308,
      "नाफा": 4309,
      "जनaमि": 4310,
      "भaरमणमा": 4311,
      "कkला": 4312,
      "मeलaया": 4313,
      "सcकlत": 4314,
      "कuट": 4315,
      "रिपoरaट": 4316,
      "##रल": 4317,
      "रातo": 4318,
      "नगरपालिकाका": 4319,
      "कaरमश": 4320,
      "बlर": 4321,
      "यथारaथ": 4322,
      "तहका": 4323,
      "घuमa": 4324,
      "रिय": 4325,
      "समाजवादी": 4326,
      "नaयpपा": 4327,
      "साiच": 4328,
      "लामि": 4329,
      "सालकo": 4330,
      "दिशा": 4331,
      "अधaयकaषतामा": 4332,
      "##डीमा": 4333,
      "समuदायकo": 4334,
      "पढaनu": 4335,
      "##वनी": 4336,
      "जहाज": 4337,
      "##घर": 4338,
      "बासिनaदा": 4339,
      "##मावली": 4340,
      "बित": 4341,
      "##वीर": 4342,
      "दायितaव": 4343,
      "##rति": 4344,
      "एफ": 4345,
      "निःशuलaक": 4346,
      "##iस": 4347,
      "##नालa": 4348,
      "खासk": 4349,
      "उपाय": 4350,
      "##नkतिक": 4351,
      "मजदuर": 4352,
      "##शaरo": 4353,
      "काठमाडp": 4354,
      "डर": 4355,
      "खlलकo": 4356,
      "##ढu": 4357,
      "अवk": 4358,
      "कसkकo": 4359,
      "##भग": 4360,
      "दrषaटिकoण": 4361,
      "भरaखर": 4362,
      "##दaयoग": 4363,
      "राईलl": 4364,
      "##cगी": 4365,
      "कपडा": 4366,
      "समयमk": 4367,
      "कञaचनपuर": 4368,
      "राजपा": 4369,
      "वaयकaतिलाई": 4370,
      "##शाला": 4371,
      "रlगa": 4372,
      "फkसला": 4373,
      "३६": 4374,
      "लlखा": 4375,
      "अरaय": 4376,
      "##पaपणी": 4377,
      "##मय": 4378,
      "अदालतमा": 4379,
      "पाई": 4380,
      "गराएका": 4381,
      "वरaषसमaम": 4382,
      "##फaट": 4383,
      "##मaबिनी": 4384,
      "इनaजिनि": 4385,
      "बढaदo": 4386,
      "राजदeत": 4387,
      "पlटaरoल": 4388,
      "हlट": 4389,
      "दlउवालl": 4390,
      "##नuपा": 4391,
      "डlढ": 4392,
      "अषaटaरlलिया": 4393,
      "चालक": 4394,
      "गaराहक": 4395,
      "भाषामा": 4396,
      "पaरकारका": 4397,
      "##पतaरमा": 4398,
      "##हरuबाट": 4399,
      "साउदी": 4400,
      "खoजlकo": 4401,
      "तaयतिबlला": 4402,
      "विकaर": 4403,
      "जनालl": 4404,
      "##रaछ": 4405,
      "##नाका": 4406,
      "लागिएकo": 4407,
      "सcसaथागत": 4408,
      "खटि": 4409,
      "##कालमा": 4410,
      "गरaदछनa": 4411,
      "गतlदlखि": 4412,
      "##जl": 4413,
      "##रaदा": 4414,
      "##आइ": 4415,
      "##चl": 4416,
      "उनa": 4417,
      "##वादकo": 4418,
      "विदaयuत": 4419,
      "बताइनa": 4420,
      "लामिछा": 4421,
      "दlशभर": 4422,
      "पuनरaनिरaमाण": 4423,
      "सल": 4424,
      "##uपa": 4425,
      "विषaणu": 4426,
      "जातीय": 4427,
      "निम": 4428,
      "सlमि": 4429,
      "##िए": 4430,
      "विधान": 4431,
      "बनाई": 4432,
      "बिता": 4433,
      "##बaजा": 4434,
      "##धaयापक": 4435,
      "अकa": 4436,
      "##aनo": 4437,
      "##झदारी": 4438,
      "सaवयc": 4439,
      "पसल": 4440,
      "एनa": 4441,
      "राजसaव": 4442,
      "इनaड": 4443,
      "पाठक": 4444,
      "भारतका": 4445,
      "नारी": 4446,
      "गuणसaतर": 4447,
      "##lमी": 4448,
      "गठबनaधन": 4449,
      "टिकट": 4450,
      "रp": 4451,
      "वrदaध": 4452,
      "##ागर": 4453,
      "##गनaज": 4454,
      "##विर": 4455,
      "उपकरण": 4456,
      "समानuपा": 4457,
      "पहाडी": 4458,
      "##सaथान": 4459,
      "##बिर": 4460,
      "रहन": 4461,
      "खतरा": 4462,
      "दeध": 4463,
      "##नाम": 4464,
      "सaमारaट": 4465,
      "##डaनl": 4466,
      "##परी": 4467,
      "आदिवासी": 4468,
      "अलa": 4469,
      "चाiड": 4470,
      "छuटaटk": 4471,
      "##aयाउन": 4472,
      "भटaटराईलl": 4473,
      "##यनकo": 4474,
      "सuनस": 4475,
      "कoठ": 4476,
      "पaरदlशका": 4477,
      "नगरlकo": 4478,
      "एणaड": 4479,
      "सिक": 4480,
      "विशaलlषण": 4481,
      "बkc": 4482,
      "मी": 4483,
      "##पaलl": 4484,
      "दa": 4485,
      "##गण": 4486,
      "##नीमा": 4487,
      "पaरकr": 4488,
      "सuनिशaचित": 4489,
      "साथमा": 4490,
      "सरaवा": 4491,
      "बlलa": 4492,
      "##aलo": 4493,
      "##कaषी": 4494,
      "कlश": 4495,
      "गrहमनaतaरी": 4496,
      "##lवार": 4497,
      "दिनuपरaनl": 4498,
      "सuतa": 4499,
      "ठीक": 4500,
      "बlल": 4501,
      "##cकर": 4502,
      "##पात": 4503,
      "बनाउनu": 4504,
      "##जनकo": 4505,
      "नoट": 4506,
      "किसिमकo": 4507,
      "लuमaबिनी": 4508,
      "गpर": 4509,
      "##जuली": 4510,
      "आवlदन": 4511,
      "मतदाता": 4512,
      "मनमा": 4513,
      "छाप": 4514,
      "##रaचu": 4515,
      "पuषaटि": 4516,
      "छp": 4517,
      "मल": 4518,
      "निवास": 4519,
      "जलविदaयuतa": 4520,
      "घटनाकo": 4521,
      "विभा": 4522,
      "सcघकo": 4523,
      "##मल": 4524,
      "निरaमला": 4525,
      "समानuपातिक": 4526,
      "रlक": 4527,
      "गाउiपालिकाकo": 4528,
      "खारlज": 4529,
      "गराउ": 4530,
      "बनाए": 4531,
      "आफki": 4532,
      "शuरe": 4533,
      "अवधारण": 4534,
      "चिकितaसा": 4535,
      "ओलीकo": 4536,
      "सहयoगी": 4537,
      "##भकaत": 4538,
      "सिकa": 4539,
      "कितa": 4540,
      "डिस": 4541,
      "पaरlर": 4542,
      "रमlश": 4543,
      "##कlट": 4544,
      "औदaयoग": 4545,
      "सcसaथाका": 4546,
      "##फoन": 4547,
      "##हरी": 4548,
      "टाउकo": 4549,
      "नuवा": 4550,
      "छoटo": 4551,
      "महानि": 4552,
      "उभि": 4553,
      "सापकo": 4554,
      "पaरतिशतलl": 4555,
      "मkदानमा": 4556,
      "काठमाडpcकo": 4557,
      "नाय": 4558,
      "बालuवा": 4559,
      "पढाइ": 4560,
      "आगo": 4561,
      "सcकaरमण": 4562,
      "रuपियाi": 4563,
      "कानaति": 4564,
      "##लिज": 4565,
      "पठाउनl": 4566,
      "##नaनu": 4567,
      "##एक": 4568,
      "३४": 4569,
      "भागमा": 4570,
      "चlता": 4571,
      "##सaयp": 4572,
      "विभागका": 4573,
      "पराम": 4574,
      "सापकoटा": 4575,
      "##मीकo": 4576,
      "गायिका": 4577,
      "आयoगकo": 4578,
      "भaया": 4579,
      "दuरaगा": 4580,
      "६५": 4581,
      "पaरधानमनaतaरीकo": 4582,
      "हावा": 4583,
      "##ईकo": 4584,
      "कuराकo": 4585,
      "पञaचा": 4586,
      "निरaयात": 4587,
      "आधारभeत": 4588,
      "दरaशन": 4589,
      "समaमा": 4590,
      "फoहoर": 4591,
      "ठo": 4592,
      "सधkc": 4593,
      "गaया": 4594,
      "सकl": 4595,
      "चनaद": 4596,
      "कuकuर": 4597,
      "नसकaदा": 4598,
      "##रिङ": 4599,
      "##गaराही": 4600,
      "पaरषaट": 4601,
      "परम": 4602,
      "मनoर": 4603,
      "तरिकालl": 4604,
      "सतa": 4605,
      "पaरकrति": 4606,
      "अभिवaयकaति": 4607,
      "##बaर": 4608,
      "कuर": 4609,
      "पटकपटक": 4610,
      "लगाएका": 4611,
      "सन": 4612,
      "राजlनaदaर": 4613,
      "पaरशास": 4614,
      "यहाiकo": 4615,
      "##पaटर": 4616,
      "##नaटा": 4617,
      "विधा": 4618,
      "आपeरaति": 4619,
      "जoडिएकo": 4620,
      "##माओ": 4621,
      "##सaनl": 4622,
      "नदिनl": 4623,
      "डuब": 4624,
      "रमाइलo": 4625,
      "लगभग": 4626,
      "दीरaघ": 4627,
      "वरaषका": 4628,
      "गतlसमaम": 4629,
      "मoदी": 4630,
      "##नaदlही": 4631,
      "##चाइ": 4632,
      "धनaयवाद": 4633,
      "##सaतरीय": 4634,
      "ढoका": 4635,
      "##वदaध": 4636,
      "परaख": 4637,
      "महिलालाई": 4638,
      "बाहिरि": 4639,
      "दuरuपयoग": 4640,
      "मिशaर": 4641,
      "##लागa": 4642,
      "लागlर": 4643,
      "शाकaय": 4644,
      "खालकo": 4645,
      "भितaरaया": 4646,
      "##णaट": 4647,
      "राजीनामा": 4648,
      "वlब": 4649,
      "सcसa": 4650,
      "कaषlतaरलाई": 4651,
      "परामरaश": 4652,
      "##रहनl": 4653,
      "सहि": 4654,
      "हkसिय": 4655,
      "निषaकरaष": 4656,
      "पहाड": 4657,
      "दuइ": 4658,
      "कारaयानaवयनमा": 4659,
      "समितिमा": 4660,
      "चलाउन": 4661,
      "पaरतिवlद": 4662,
      "हतियार": 4663,
      "खoला": 4664,
      "नराम": 4665,
      "उपलबaधि": 4666,
      "आकाश": 4667,
      "खuटaटा": 4668,
      "कारaयालयकo": 4669,
      "बहuमत": 4670,
      "उमaमlदवारी": 4671,
      "जसलाई": 4672,
      "पuरaयाउनl": 4673,
      "##जत": 4674,
      "तनाव": 4675,
      "आनaदoलनमा": 4676,
      "##औc": 4677,
      "##उड": 4678,
      "##नaयास": 4679,
      "समrदaधिकo": 4680,
      "गित": 4681,
      "##सaति": 4682,
      "विनियoजन": 4683,
      "##ईमा": 4684,
      "घटनामा": 4685,
      "जoडaनl": 4686,
      "विजlता": 4687,
      "##कका": 4688,
      "##सल": 4689,
      "##दिएकo": 4690,
      "टlलिभिजन": 4691,
      "नरहlकo": 4692,
      "##lललl": 4693,
      "मनaतaरालयकo": 4694,
      "बाटoमा": 4695,
      "यहि": 4696,
      "सलaलाहकार": 4697,
      "ठlक": 4698,
      "फlरी": 4699,
      "धनी": 4700,
      "गीतकo": 4701,
      "मनाउनl": 4702,
      "##सlव": 4703,
      "दिलaली": 4704,
      "बkशाख": 4705,
      "उदय": 4706,
      "मदaद": 4707,
      "चlतावनी": 4708,
      "नरlनaदaर": 4709,
      "मसaयp": 4710,
      "रoप": 4711,
      "मामिला": 4712,
      "नागरिककo": 4713,
      "वरaषl": 4714,
      "तारि": 4715,
      "खuलaला": 4716,
      "गaरामी": 4717,
      "परमaपर": 4718,
      "##cख": 4719,
      "आउiदा": 4720,
      "दrशaय": 4721,
      "बिसaतार": 4722,
      "##उमा": 4723,
      "ठlकaका": 4724,
      "बuबा": 4725,
      "समाजका": 4726,
      "ललितपuर": 4727,
      "सaकu": 4728,
      "विशaवका": 4729,
      "हजuर": 4730,
      "टिपaपणी": 4731,
      "पaलl": 4732,
      "पaरबनaध": 4733,
      "##बाद": 4734,
      "कारaड": 4735,
      "सनaतान": 4736,
      "##बाबu": 4737,
      "गaरामीण": 4738,
      "पaरिय": 4739,
      "नaयpपानl": 4740,
      "##मuखी": 4741,
      "हवाई": 4742,
      "कठिन": 4743,
      "मसaयpदा": 4744,
      "##pट": 4745,
      "##बuझ": 4746,
      "##दkननa": 4747,
      "रापaर": 4748,
      "पशuपति": 4749,
      "एमालlलl": 4750,
      "दावी": 4751,
      "५१": 4752,
      "खlलaन": 4753,
      "दoशaरo": 4754,
      "आहaव": 4755,
      "बसoबास": 4756,
      "थालaयo": 4757,
      "गaरहण": 4758,
      "सगरमा": 4759,
      "रिस": 4760,
      "बuदaधि": 4761,
      "सभामuख": 4762,
      "अलग": 4763,
      "विव": 4764,
      "आकरaषण": 4765,
      "परिवारकo": 4766,
      "जटिल": 4767,
      "##रk": 4768,
      "रहनaछ": 4769,
      "##काउनl": 4770,
      "##ात": 4771,
      "तaर": 4772,
      "गरaभ": 4773,
      "बढाएकo": 4774,
      "##रिकaत": 4775,
      "भइरहlका": 4776,
      "##नuपरaदछ": 4777,
      "माथिलaलo": 4778,
      "शcका": 4779,
      "निवlदन": 4780,
      "लाइन": 4781,
      "चलlकo": 4782,
      "दlखlर": 4783,
      "बlलu": 4784,
      "छातaर": 4785,
      "औदaयoगिक": 4786,
      "अश": 4787,
      "कासaकी": 4788,
      "ठहर": 4789,
      "वr": 4790,
      "दeतावास": 4791,
      "##लिम": 4792,
      "पaरoतa": 4793,
      "सगरमाथा": 4794,
      "##ियत": 4795,
      "##नlनaदaर": 4796,
      "दlखी": 4797,
      "आरoपमा": 4798,
      "सaवर": 4799,
      "कनa": 4800,
      "कमजo": 4801,
      "परमaपरागत": 4802,
      "##थaय": 4803,
      "विशि": 4804,
      "रहaयo": 4805,
      "शारी": 4806,
      "##एi": 4807,
      "नrतaय": 4808,
      "चलa": 4809,
      "सlट": 4810,
      "यसपटक": 4811,
      "पaरारमaभिक": 4812,
      "कदम": 4813,
      "सaमरण": 4814,
      "हिनaदe": 4815,
      "कlनaदaरलl": 4816,
      "##तक": 4817,
      "काभ": 4818,
      "वरaषपछि": 4819,
      "अगuवा": 4820,
      "रापaरपा": 4821,
      "लामिछानl": 4822,
      "खनाल": 4823,
      "जनजाति": 4824,
      "चलाउनl": 4825,
      "##तaमा": 4826,
      "पoखरlललl": 4827,
      "पaरकaरियामा": 4828,
      "चoरी": 4829,
      "अतिरिकaत": 4830,
      "माध": 4831,
      "पuगaयo": 4832,
      "##वa": 4833,
      "विषयलाई": 4834,
      "पaरoतaसा": 4835,
      "असaति": 4836,
      "गoपाल": 4837,
      "विकसित": 4838,
      "सनaतoष": 4839,
      "सायद": 4840,
      "##हिता": 4841,
      "समaवनaध": 4842,
      "हuiदkछ": 4843,
      "##दeर": 4844,
      "##कaसन": 4845,
      "रuकu": 4846,
      "##पaरा": 4847,
      "शकaतिशाली": 4848,
      "पrषaठ": 4849,
      "मावि": 4850,
      "कaरo": 4851,
      "उम": 4852,
      "##शk": 4853,
      "नायिका": 4854,
      "पालa": 4855,
      "तk": 4856,
      "साहितaयकार": 4857,
      "##नaह": 4858,
      "इन": 4859,
      "चिसo": 4860,
      "##पलaट": 4861,
      "चीनलl": 4862,
      "##नीलl": 4863,
      "कuरालाई": 4864,
      "डिभिजन": 4865,
      "##वडा": 4866,
      "परिवारका": 4867,
      "##यलl": 4868,
      "सकaषम": 4869,
      "कlटा": 4870,
      "विजaञा": 4871,
      "##नaडk": 4872,
      "जागिर": 4873,
      "सञaचालित": 4874,
      "पeiजी": 4875,
      "पeरaवी": 4876,
      "करaमचारीकo": 4877,
      "चरितaर": 4878,
      "सिनlमा": 4879,
      "जिमaमlवार": 4880,
      "मoह": 4881,
      "पठाएकo": 4882,
      "तयारीमा": 4883,
      "खoटा": 4884,
      "##िनo": 4885,
      "दीपक": 4886,
      "चaयामaपियन": 4887,
      "४२": 4888,
      "हuनlछनa": 4889,
      "अभियानमा": 4890,
      "धaय": 4891,
      "##हरeसiग": 4892,
      "निव": 4893,
      "तीज": 4894,
      "##नaथी": 4895,
      "पaरधाननaया": 4896,
      "शारीरिक": 4897,
      "##सk": 4898,
      "उपरीकaषक": 4899,
      "विभlद": 4900,
      "समझदारी": 4901,
      "अनp": 4902,
      "जीवनकo": 4903,
      "##सिस": 4904,
      "किताब": 4905,
      "##कuरा": 4906,
      "सघ": 4907,
      "हाउ": 4908,
      "तपाईcलl": 4909,
      "कlनaदaरकo": 4910,
      "##पoख": 4911,
      "समeहलl": 4912,
      "भuट": 4913,
      "गरिनa": 4914,
      "पaरती": 4915,
      "जनाइएकo": 4916,
      "दlखियo": 4917,
      "मासिक": 4918,
      "समaपादन": 4919,
      "सlमिफाइन": 4920,
      "पlस": 4921,
      "खाली": 4922,
      "थालिएकo": 4923,
      "रlख": 4924,
      "उतaसाह": 4925,
      "##धk": 4926,
      "##नuपरaयo": 4927,
      "##लaयाण": 4928,
      "##एसपी": 4929,
      "##सीमा": 4930,
      "बoलa": 4931,
      "मिलaनl": 4932,
      "कलaपना": 4933,
      "बाढ": 4934,
      "अनaतराषaटaरिय": 4935,
      "मदन": 4936,
      "राना": 4937,
      "पuरaव": 4938,
      "##जनमा": 4939,
      "सदसaयीय": 4940,
      "##दr": 4941,
      "नlपालीलl": 4942,
      "सlनाकo": 4943,
      "अरaजuन": 4944,
      "##ालu": 4945,
      "##दीप": 4946,
      "##चाहि": 4947,
      "विहान": 4948,
      "फिलaममा": 4949,
      "चाम": 4950,
      "##चoक": 4951,
      "सcघलl": 4952,
      "खlलa": 4953,
      "हaया": 4954,
      "##धानमनaतaरी": 4955,
      "छoराछ": 4956,
      "लघu": 4957,
      "##मण": 4958,
      "##कaसा": 4959,
      "चालu": 4960,
      "चlक": 4961,
      "थाइ": 4962,
      "लaयाइ": 4963,
      "##भeमि": 4964,
      "झनaडk": 4965,
      "##बaबा": 4966,
      "बसaनlत": 4967,
      "ठlकlदार": 4968,
      "आयu": 4969,
      "चाi": 4970,
      "टlलिक": 4971,
      "अनaनपeरaण": 4972,
      "कारaकीलl": 4973,
      "चलचितaरमा": 4974,
      "अवरoध": 4975,
      "रिज": 4976,
      "आनaदoलनकo": 4977,
      "आकार": 4978,
      "एल": 4979,
      "कaयान": 4980,
      "अफिस": 4981,
      "पoखरामा": 4982,
      "२०१७": 4983,
      "पदaध": 4984,
      "##३०": 4985,
      "##ियाकo": 4986,
      "पaरकट": 4987,
      "##नीतिक": 4988,
      "भतaता": 4989,
      "पaरतिभा": 4990,
      "दिनसमaम": 4991,
      "##याली": 4992,
      "##aरिक": 4993,
      "नवलपरा": 4994,
      "इलाका": 4995,
      "अपaठ": 4996,
      "##काइ": 4997,
      "##रिव": 4998,
      "पाउनu": 4999,
      "छाया": 5000,
      "नlताहरu": 5001,
      "##१०": 5002,
      "##एमा": 5003,
      "कमaपaयuट": 5004,
      "सकaनu": 5005,
      "##पaनl": 5006,
      "बिगaर": 5007,
      "आकरaषक": 5008,
      "पaरधानमनaतaरीलl": 5009,
      "बरा": 5010,
      "मoहन": 5011,
      "बlलaज": 5012,
      "कपaत": 5013,
      "पaय": 5014,
      "नuवाकoट": 5015,
      "मक": 5016,
      "महानगर": 5017,
      "सcखaयामा": 5018,
      "उनीहरeलाई": 5019,
      "राजनkतिक": 5020,
      "नया": 5021,
      "##बहिनी": 5022,
      "खति": 5023,
      "गoरaखा": 5024,
      "हlरlर": 5025,
      "एकीकरण": 5026,
      "मरaमत": 5027,
      "##लिन": 5028,
      "##बनaद": 5029,
      "कaरानaतिकारी": 5030,
      "विदaरo": 5031,
      "##मuना": 5032,
      "दिई": 5033,
      "गरaनuहoसa": 5034,
      "जमा": 5035,
      "यतिबlला": 5036,
      "टlक": 5037,
      "गरिसकlका": 5038,
      "##वaयापी": 5039,
      "बिराम": 5040,
      "राखaदk": 5041,
      "##मeलक": 5042,
      "##शासaतaर": 5043,
      "किनकि": 5044,
      "बचत": 5045,
      "रlकरaड": 5046,
      "तसaबिर": 5047,
      "असह": 5048,
      "##उiछनa": 5049,
      "बाधaयता": 5050,
      "टिका": 5051,
      "शaरo": 5052,
      "३७": 5053,
      "##टार": 5054,
      "##वrदaधि": 5055,
      "##गार": 5056,
      "रoकि": 5057,
      "सडककo": 5058,
      "मuदaदामा": 5059,
      "##ङaगo": 5060,
      "वaयकaतितaव": 5061,
      "समी": 5062,
      "बाiड": 5063,
      "दlवी": 5064,
      "चर": 5065,
      "पaरवदaरaधन": 5066,
      "हलaला": 5067,
      "घिमिरl": 5068,
      "असaथा": 5069,
      "मलa": 5070,
      "##सिदaध": 5071,
      "सामना": 5072,
      "विशिषaट": 5073,
      "३८": 5074,
      "##गल": 5075,
      "सहभागि": 5076,
      "तिमaरo": 5077,
      "जडान": 5078,
      "तब": 5079,
      "तaयसरी": 5080,
      "नकारातaमक": 5081,
      "गहि": 5082,
      "सlवामा": 5083,
      "पाणaडl": 5084,
      "जcग": 5085,
      "अबकo": 5086,
      "जितlकo": 5087,
      "सaवसaथ": 5088,
      "सuरuवात": 5089,
      "मदि": 5090,
      "पaराधिकरणलl": 5091,
      "यuए": 5092,
      "शिकaषण": 5093,
      "इनaदaर": 5094,
      "चलaनl": 5095,
      "सlनaटर": 5096,
      "##नuभनaदा": 5097,
      "समयकo": 5098,
      "नवी": 5099,
      "परिवारलाई": 5100,
      "कaरियाकलाप": 5101,
      "##यान": 5102,
      "लaयाएर": 5103,
      "लिखित": 5104,
      "खतिवडा": 5105,
      "सनaतuल": 5106,
      "खणaडमा": 5107,
      "##सaवर": 5108,
      "आधिका": 5109,
      "निरaमाता": 5110,
      "रहनu": 5111,
      "सcसदमा": 5112,
      "बिजuली": 5113,
      "मoटरसाइकल": 5114,
      "हr": 5115,
      "##हीi": 5116,
      "##परaछ": 5117,
      "रहlकालl": 5118,
      "मaयागaदी": 5119,
      "पaरमाणित": 5120,
      "समaपदा": 5121,
      "शaरमिक": 5122,
      "माझ": 5123,
      "बाiध": 5124,
      "१००": 5125,
      "माधव": 5126,
      "शता": 5127,
      "धनगढी": 5128,
      "पuगaछ": 5129,
      "##पaरतिकo": 5130,
      "आहaवान": 5131,
      "सहितकo": 5132,
      "करaत": 5133,
      "लuट": 5134,
      "##pली": 5135,
      "नlपa": 5136,
      "कारaयसमिति": 5137,
      "##यoगaय": 5138,
      "धlर": 5139,
      "अधिवlश": 5140,
      "खuवा": 5141,
      "काcगaरlसकo": 5142,
      "चाप": 5143,
      "दललl": 5144,
      "नगरपालिकामा": 5145,
      "रuपा": 5146,
      "दीप": 5147,
      "घटlकo": 5148,
      "##लaस": 5149,
      "सकिनlछ": 5150,
      "##iu": 5151,
      "गoप": 5152,
      "खरaब": 5153,
      "दियo": 5154,
      "लिए": 5155,
      "##पuगa": 5156,
      "मदaदत": 5157,
      "सaवीकrत": 5158,
      "जaञानlनaदaर": 5159,
      "कlसीकo": 5160,
      "सcवाद": 5161,
      "##सaवा": 5162,
      "हसaतकaषlप": 5163,
      "##शल": 5164,
      "बaरि": 5165,
      "##वट": 5166,
      "##नlका": 5167,
      "सeची": 5168,
      "सिम": 5169,
      "##हिक": 5170,
      "##lदारी": 5171,
      "नaयeनतम": 5172,
      "सcविधानलl": 5173,
      "##िरहlकo": 5174,
      "सदa": 5175,
      "सaक": 5176,
      "एच": 5177,
      "पaरय": 5178,
      "नाइ": 5179,
      "सजिलk": 5180,
      "लागl": 5181,
      "काi": 5182,
      "सीप": 5183,
      "घाटा": 5184,
      "नलाग": 5185,
      "##िरहlका": 5186,
      "##दीलl": 5187,
      "शिकaषाकo": 5188,
      "शaरील": 5189,
      "अवधारणा": 5190,
      "कrति": 5191,
      "##cदा": 5192,
      "उतaतिकk": 5193,
      "चoक": 5194,
      "परिषद": 5195,
      "##जात": 5196,
      "गरaथl": 5197,
      "##लास": 5198,
      "दlशलाई": 5199,
      "##पीडित": 5200,
      "चकaर": 5201,
      "खाता": 5202,
      "रहि": 5203,
      "सcसaथापक": 5204,
      "विशlषजaञ": 5205,
      "सcयनaतaर": 5206,
      "तारा": 5207,
      "तथaयाङaक": 5208,
      "##ङaगल": 5209,
      "बनaयo": 5210,
      "खoजaनl": 5211,
      "शaरीमा": 5212,
      "##पिट": 5213,
      "##खlर": 5214,
      "सaथिर": 5215,
      "कoठा": 5216,
      "गलaती": 5217,
      "बlप": 5218,
      "आमाकo": 5219,
      "अवkध": 5220,
      "यuवती": 5221,
      "कारaयविधि": 5222,
      "भाउ": 5223,
      "##uरl": 5224,
      "अलिक": 5225,
      "धनu": 5226,
      "शe": 5227,
      "##टाएर": 5228,
      "कितaता": 5229,
      "##यती": 5230,
      "##दरबार": 5231,
      "सaथग": 5232,
      "##सिना": 5233,
      "थिएननa": 5234,
      "कसलl": 5235,
      "बढlर": 5236,
      "यuनियन": 5237,
      "पहिलoपटक": 5238,
      "नपाउनl": 5239,
      "##मणaड": 5240,
      "थपि": 5241,
      "जoश": 5242,
      "##याम": 5243,
      "पाकिसaतान": 5244,
      "##हालl": 5245,
      "##हa": 5246,
      "जनयuदaध": 5247,
      "##ञaजन": 5248,
      "सaटार": 5249,
      "पकaषलl": 5250,
      "अभिभावक": 5251,
      "मातr": 5252,
      "विच": 5253,
      "जात": 5254,
      "भगवान": 5255,
      "##करaषण": 5256,
      "##वानa": 5257,
      "नlपालबाट": 5258,
      "मaयाद": 5259,
      "पकaकk": 5260,
      "सcसaकरण": 5261,
      "०७": 5262,
      "पaरिम": 5263,
      "सlनालl": 5264,
      "ससaतo": 5265,
      "खडा": 5266,
      "##दायी": 5267,
      "मoडल": 5268,
      "धादि": 5269,
      "कपि": 5270,
      "बसaदk": 5271,
      "##kमा": 5272,
      "मातaरा": 5273,
      "शासक": 5274,
      "##कaषa": 5275,
      "मही": 5276,
      "जoशी": 5277,
      "दिनuभएकo": 5278,
      "माओवादीलl": 5279,
      "##वती": 5280,
      "##uकaत": 5281,
      "माधaय": 5282,
      "चरaचामा": 5283,
      "सaना": 5284,
      "रहlछनa": 5285,
      "##वतa": 5286,
      "तारिख": 5287,
      "##iदkछ": 5288,
      "नकaक": 5289,
      "अतaयधिक": 5290,
      "पaरयoगकरaता": 5291,
      "पaरधाननaयायाधीश": 5292,
      "काठ": 5293,
      "##lसी": 5294,
      "वी": 5295,
      "##ितaतिकk": 5296,
      "##रeपमा": 5297,
      "दाइ": 5298,
      "उपभoग": 5299,
      "##aनk": 5300,
      "कaषlतaरबाट": 5301,
      "जaयo": 5302,
      "तलaलo": 5303,
      "उमlरमा": 5304,
      "पaरालि": 5305,
      "विदaयालयकo": 5306,
      "##धारा": 5307,
      "भरतपuर": 5308,
      "मकवान": 5309,
      "समापaत": 5310,
      "धितo": 5311,
      "अवलoकन": 5312,
      "सlवाकo": 5313,
      "लडा": 5314,
      "बaयकaति": 5315,
      "सaतर": 5316,
      "लkजानl": 5317,
      "४१": 5318,
      "चpकी": 5319,
      "कkद": 5320,
      "बरa": 5321,
      "४८": 5322,
      "रिलिज": 5323,
      "यoगaय": 5324,
      "राखी": 5325,
      "पछ": 5326,
      "वासaतवमा": 5327,
      "नकaकली": 5328,
      "रuख": 5329,
      "सवाल": 5330,
      "मuदaरा": 5331,
      "अनaतरि": 5332,
      "##uञaज": 5333,
      "बaराजि": 5334,
      "पaरतिबनaध": 5335,
      "५६": 5336,
      "##जीकo": 5337,
      "अcश": 5338,
      "##भल": 5339,
      "##नस": 5340,
      "सaवतनaतaरता": 5341,
      "आकरaषित": 5342,
      "बरaद": 5343,
      "जानuप": 5344,
      "भlटघाट": 5345,
      "तिनk": 5346,
      "##lलकo": 5347,
      "उपहार": 5348,
      "आएकी": 5349,
      "जनaमा": 5350,
      "##मध": 5351,
      "सaवरuप": 5352,
      "नागरिकलाई": 5353,
      "छनpट": 5354,
      "दफा": 5355,
      "##शिल": 5356,
      "यuट": 5357,
      "##णaडित": 5358,
      "##हaर": 5359,
      "##षि": 5360,
      "रuपनaदlही": 5361,
      "रसuवा": 5362,
      "सcगaरह": 5363,
      "सi": 5364,
      "##उदk": 5365,
      "##कaसि": 5366,
      "##नoद": 5367,
      "भाषण": 5368,
      "##वित": 5369,
      "##सaफ": 5370,
      "मeलaयमा": 5371,
      "पaरविधिकo": 5372,
      "परिवारलl": 5373,
      "भिडियoमा": 5374,
      "पaरतिषaठान": 5375,
      "लागत": 5376,
      "कlनaदaरिय": 5377,
      "सरoकारवाला": 5378,
      "बहिनी": 5379,
      "दuरaग": 5380,
      "रuपkया": 5381,
      "४३": 5382,
      "समeहकo": 5383,
      "४४": 5384,
      "##घरमा": 5385,
      "सcचार": 5386,
      "बlपतaता": 5387,
      "##aयमा": 5388,
      "##कuमारी": 5389,
      "जuनसuकk": 5390,
      "##ानामा": 5391,
      "साहितaयिक": 5392,
      "##ाउनuपरaनl": 5393,
      "##लागी": 5394,
      "असaथायी": 5395,
      "तaयाग": 5396,
      "बनlर": 5397,
      "शaरlषaठकo": 5398,
      "शरीरमा": 5399,
      "लaयाइएकo": 5400,
      "आयoगका": 5401,
      "लlखिएकo": 5402,
      "##मला": 5403,
      "अभिनlतaरी": 5404,
      "##जय": 5405,
      "##हतaया": 5406,
      "##फl": 5407,
      "अरब": 5408,
      "खनाललl": 5409,
      "हuनसकaनl": 5410,
      "नlतालl": 5411,
      "अवरuदaध": 5412,
      "पoषaट": 5413,
      "##काउन": 5414,
      "किरण": 5415,
      "२०१६": 5416,
      "##खन": 5417,
      "हoम": 5418,
      "बkcकका": 5419,
      "गuणसaतरीय": 5420,
      "##lसiग": 5421,
      "##चीन": 5422,
      "##ाराम": 5423,
      "चलिरहlकo": 5424,
      "भिनaन": 5425,
      "##शaरमिक": 5426,
      "डिजाइन": 5427,
      "##बासी": 5428,
      "बuवा": 5429,
      "##वकo": 5430,
      "सिर": 5431,
      "##ालमा": 5432,
      "नपरaनl": 5433,
      "गाउiपालिकाका": 5434,
      "##तन": 5435,
      "##धीन": 5436,
      "असaवी": 5437,
      "मिल": 5438,
      "जoडी": 5439,
      "अदालतकo": 5440,
      "##सिए": 5441,
      "हuनaन": 5442,
      "##उनuपरaनl": 5443,
      "##oसa": 5444,
      "दk": 5445,
      "झर": 5446,
      "नषaट": 5447,
      "चितव": 5448,
      "थारu": 5449,
      "कrषक": 5450,
      "##दिए": 5451,
      "घटa": 5452,
      "उहाiलाई": 5453,
      "तoकlकo": 5454,
      "##uङ": 5455,
      "बन": 5456,
      "काउनa": 5457,
      "धaयाना": 5458,
      "आफuलl": 5459,
      "##वानी": 5460,
      "जनताका": 5461,
      "##निरaभर": 5462,
      "##यp": 5463,
      "महतaतaवपeरaण": 5464,
      "फलफ": 5465,
      "ओभ": 5466,
      "मारि": 5467,
      "##विहीन": 5468,
      "समaबनaधि": 5469,
      "शkली": 5470,
      "##डामा": 5471,
      "सeचीमा": 5472,
      "हp": 5473,
      "दिगo": 5474,
      "##िकरण": 5475,
      "गिरी": 5476,
      "यम": 5477,
      "सरuवा": 5478,
      "##वारिक": 5479,
      "##ङaगaरlस": 5480,
      "जk": 5481,
      "सcवlदन": 5482,
      "समसaयाकo": 5483,
      "विदaयuतीय": 5484,
      "##पaट": 5485,
      "परaवत": 5486,
      "५२": 5487,
      "नायक": 5488,
      "##थर": 5489,
      "मानिसलl": 5490,
      "बिकास": 5491,
      "फuटब": 5492,
      "विदaयारaथीलाई": 5493,
      "आख": 5494,
      "विशaवमा": 5495,
      "##आमा": 5496,
      "##तaतर": 5497,
      "बिशlष": 5498,
      "पछिलaला": 5499,
      "मानवीय": 5500,
      "कoइरालालl": 5501,
      "##सत": 5502,
      "शuकa": 5503,
      "##माया": 5504,
      "करaमचारीलाई": 5505,
      "##यरकo": 5506,
      "कमजoरी": 5507,
      "सcविधानमा": 5508,
      "##गमा": 5509,
      "छाडlर": 5510,
      "चलचितaरकo": 5511,
      "##सaटlक": 5512,
      "तपाइi": 5513,
      "एकपटक": 5514,
      "चितaत": 5515,
      "##टaटk": 5516,
      "कहिलlका": 5517,
      "महाधिवlशन": 5518,
      "सरaवाधिक": 5519,
      "पaरकरण": 5520,
      "हिi": 5521,
      "आधिकारिक": 5522,
      "वायu": 5523,
      "कeट": 5524,
      "पaरापa": 5525,
      "दशki": 5526,
      "हटाउन": 5527,
      "##पlकaष": 5528,
      "सभामा": 5529,
      "कaरमशः": 5530,
      "##cगa": 5531,
      "एकद": 5532,
      "पढaनl": 5533,
      "##कaरममा": 5534,
      "समयसमaम": 5535,
      "सामeह": 5536,
      "छoराछoरी": 5537,
      "##डीलl": 5538,
      "शaरl": 5539,
      "गजल": 5540,
      "तन": 5541,
      "##lc": 5542,
      "##डाकo": 5543,
      "पारिवारिक": 5544,
      "पaरायः": 5545,
      "##छन": 5546,
      "माधaयमिक": 5547,
      "लम": 5548,
      "##माओवादी": 5549,
      "##li": 5550,
      "##कलaप": 5551,
      "सcघीयता": 5552,
      "शरण": 5553,
      "गuलaमी": 5554,
      "बिहl": 5555,
      "यिनी": 5556,
      "भkरहlकo": 5557,
      "सामeहिक": 5558,
      "##रस": 5559,
      "##रaजी": 5560,
      "अधिकारकo": 5561,
      "मधu": 5562,
      "खिच": 5563,
      "जरिव": 5564,
      "पoसaट": 5565,
      "विजaञापन": 5566,
      "अभियoग": 5567,
      "मuलuकका": 5568,
      "अरaथमनaतaरी": 5569,
      "##रहiदा": 5570,
      "##रaप": 5571,
      "बिदlश": 5572,
      "ततaव": 5573,
      "नपuग": 5574,
      "सतaत": 5575,
      "##lनि": 5576,
      "खuलlकo": 5577,
      "पारaटीमा": 5578,
      "राजधानीमा": 5579,
      "##वरी": 5580,
      "अफग": 5581,
      "##सaसा": 5582,
      "##करaताकo": 5583,
      "##iट": 5584,
      "वर": 5585,
      "बागलuङ": 5586,
      "महiग": 5587,
      "निजाम": 5588,
      "पc": 5589,
      "##बaब": 5590,
      "थापाकo": 5591,
      "##फर": 5592,
      "लगाइएकo": 5593,
      "दlखाउन": 5594,
      "एनaड": 5595,
      "वlला": 5596,
      "भारतबाट": 5597,
      "##िलaली": 5598,
      "##माधaयम": 5599,
      "रणनीति": 5600,
      "गराई": 5601,
      "सaवरaग": 5602,
      "##वसaतu": 5603,
      "##काc": 5604,
      "निकuञaज": 5605,
      "किसिमका": 5606,
      "जिनaद": 5607,
      "##कaवा": 5608,
      "लिनu": 5609,
      "मसा": 5610,
      "अतaयनaतk": 5611,
      "खालका": 5612,
      "करaमचारीलl": 5613,
      "सaवचaछ": 5614,
      "नlताहरuलl": 5615,
      "बिदaय": 5616,
      "रहनlछ": 5617,
      "सuदeर": 5618,
      "३९": 5619,
      "दoल": 5620,
      "##लमaबन": 5621,
      "पaराथमिकतामा": 5622,
      "साiचaच": 5623,
      "##uली": 5624,
      "आइरहlकo": 5625,
      "कp": 5626,
      "##समaमका": 5627,
      "कारaयकaरमलाई": 5628,
      "##सङaघ": 5629,
      "##जाकo": 5630,
      "जरिवाना": 5631,
      "पeरk": 5632,
      "शिखर": 5633,
      "असaटaर": 5634,
      "गरpc": 5635,
      "अपहरण": 5636,
      "पuरaयाउन": 5637,
      "नियमावली": 5638,
      "भरaखरk": 5639,
      "सिरि": 5640,
      "तoड": 5641,
      "##कता": 5642,
      "##धर": 5643,
      "सaकeल": 5644,
      "उनaन": 5645,
      "बारा": 5646,
      "धaयानाकरaषण": 5647,
      "कानaछ": 5648,
      "फिलaमकo": 5649,
      "साझlदारी": 5650,
      "नमaबरकo": 5651,
      "पला": 5652,
      "सदaभाव": 5653,
      "सहसचिव": 5654,
      "काङaगaरlस": 5655,
      "कारaयपालिका": 5656,
      "मuसaता": 5657,
      "##पनaथी": 5658,
      "नkतिक": 5659,
      "गाउiपालिकामा": 5660,
      "हlरि": 5661,
      "विदaयारaथीकo": 5662,
      "##ियालl": 5663,
      "भइसकlका": 5664,
      "लlखlकo": 5665,
      "##lरा": 5666,
      "सaवीकrति": 5667,
      "नरामaरo": 5668,
      "दoषी": 5669,
      "कaरि": 5670,
      "##aचoक": 5671,
      "##जuङ": 5672,
      "##मीलl": 5673,
      "##लaका": 5674,
      "कारaयकाल": 5675,
      "##खaय": 5676,
      "दuईवटा": 5677,
      "खराब": 5678,
      "##lनaड": 5679,
      "बसि": 5680,
      "##भरी": 5681,
      "##चaया": 5682,
      "दlखिए": 5683,
      "सuरuमा": 5684,
      "गaराम": 5685,
      "महतo": 5686,
      "वस": 5687,
      "सuनaन": 5688,
      "अनuभeति": 5689,
      "नसकिनl": 5690,
      "मनaदिरमा": 5691,
      "चाहनaछ": 5692,
      "नमा": 5693,
      "दिनदlखि": 5694,
      "सlतo": 5695,
      "##७६": 5696,
      "पह": 5697,
      "##aरत": 5698,
      "##हरeबाट": 5699,
      "टucगo": 5700,
      "##एननa": 5701,
      "बrह": 5702,
      "रामaरा": 5703,
      "महानगरी": 5704,
      "धlरkलl": 5705,
      "एकदमk": 5706,
      "##पार": 5707,
      "उपपaरमuख": 5708,
      "पuगaदा": 5709,
      "##खoला": 5710,
      "अह": 5711,
      "तuलसी": 5712,
      "पारिशaरमिक": 5713,
      "भिड": 5714,
      "चालe": 5715,
      "##lनaटि": 5716,
      "##षाधaयकaष": 5717,
      "सकlननa": 5718,
      "धaव": 5719,
      "गcगा": 5720,
      "नlट": 5721,
      "सaवरaण": 5722,
      "ठाकuर": 5723,
      "इलाम": 5724,
      "पाठaय": 5725,
      "वरaषभितaर": 5726,
      "##aरlजी": 5727,
      "कालि": 5728,
      "छठ": 5729,
      "डaर": 5730,
      "२०२": 5731,
      "आशcका": 5732,
      "सuशासन": 5733,
      "मानिसहरu": 5734,
      "##धारित": 5735,
      "रनकo": 5736,
      "महानगरीय": 5737,
      "##रaपण": 5738,
      "लkजान": 5739,
      "कaवा": 5740,
      "##नायक": 5741,
      "सिदaध": 5742,
      "गिरि": 5743,
      "##एकालl": 5744,
      "##सcगk": 5745,
      "तपाईcलाई": 5746,
      "कuरo": 5747,
      "पaरतिवदaध": 5748,
      "कमaपनीका": 5749,
      "##रaदिक": 5750,
      "कानeनी": 5751,
      "##काकo": 5752,
      "कनaस": 5753,
      "तaयसकारण": 5754,
      "##नaधन": 5755,
      "बजlसमaम": 5756,
      "दरलl": 5757,
      "##cस": 5758,
      "अवसaथित": 5759,
      "चाहनaछu": 5760,
      "सिनaधuपाल": 5761,
      "गरaनlछनa": 5762,
      "##काएर": 5763,
      "कपaतान": 5764,
      "##यमित": 5765,
      "##दतaत": 5766,
      "सहायता": 5767,
      "असल": 5768,
      "पतaरकारिता": 5769,
      "आद": 5770,
      "##णaडकo": 5771,
      "चाहlकo": 5772,
      "सशकaत": 5773,
      "चाहनl": 5774,
      "मदिरा": 5775,
      "फाउ": 5776,
      "डिजि": 5777,
      "बढिरहlकo": 5778,
      "०६": 5779,
      "भानu": 5780,
      "##ाउiमा": 5781,
      "पदक": 5782,
      "रतaन": 5783,
      "तस": 5784,
      "आसपा": 5785,
      "पालaपा": 5786,
      "दoलखा": 5787,
      "पaरशसaत": 5788,
      "हारaदिक": 5789,
      "विवlक": 5790,
      "रानी": 5791,
      "निरीकaषक": 5792,
      "खडaकालl": 5793,
      "कानaतिपuर": 5794,
      "समीकaषा": 5795,
      "अलaप": 5796,
      "रoलaपा": 5797,
      "पालना": 5798,
      "बाम": 5799,
      "कoठामा": 5800,
      "काठमाडा": 5801,
      "##चाह": 5802,
      "##रaना": 5803,
      "निमaन": 5804,
      "मर": 5805,
      "दाङ": 5806,
      "धमa": 5807,
      "बाहu": 5808,
      "गaयास": 5809,
      "समारoहमा": 5810,
      "घनaटा": 5811,
      "##कaकी": 5812,
      "निकaषlप": 5813,
      "उहाiका": 5814,
      "पaरया": 5815,
      "##लीकo": 5816,
      "बताइ": 5817,
      "गरaनuहu": 5818,
      "##aछनa": 5819,
      "करaतवaय": 5820,
      "गuट": 5821,
      "पuनःनिरaमाण": 5822,
      "##सaथापित": 5823,
      "सरकारसiग": 5824,
      "##परिवार": 5825,
      "दिदीबहिनी": 5826,
      "##लट": 5827,
      "रlड": 5828,
      "खासगरी": 5829,
      "४६": 5830,
      "मानaनl": 5831,
      "सlवागaराही": 5832,
      "समाजलl": 5833,
      "पवि": 5834,
      "जनाए": 5835,
      "कमिटी": 5836,
      "राषaटaरकo": 5837,
      "शासaतaर": 5838,
      "काiगaरlसका": 5839,
      "भनaयo": 5840,
      "वaयाखaया": 5841,
      "##यoरaक": 5842,
      "लिई": 5843,
      "पaरयतaन": 5844,
      "सिनaधuपालaचoक": 5845,
      "बरaषकo": 5846,
      "##लlट": 5847,
      "दान": 5848,
      "इनaटरनl": 5849,
      "हकमा": 5850,
      "##रaमी": 5851,
      "गरlमा": 5852,
      "वार": 5853,
      "गराउनu": 5854,
      "उसaतk": 5855,
      "राती": 5856,
      "भlटिएकo": 5857,
      "कaयामaपस": 5858,
      "##धनमा": 5859,
      "कामना": 5860,
      "वडाधaयकaष": 5861,
      "आआफaनo": 5862,
      "रवि": 5863,
      "भविषaयमा": 5864,
      "शeनaय": 5865,
      "थान": 5866,
      "##सकaयo": 5867,
      "पaरशcसा": 5868,
      "रामचनaदaर": 5869,
      "गरaदkन": 5870,
      "असaपतालकo": 5871,
      "अपराधी": 5872,
      "चाहिनaछ": 5873,
      "पति": 5874,
      "पaरहरीका": 5875,
      "आदान": 5876,
      "लिमaबu": 5877,
      "सcसaथामा": 5878,
      "तपाईकo": 5879,
      "मातह": 5880,
      "छoडlर": 5881,
      "##खल": 5882,
      "बहि": 5883,
      "कuखu": 5884,
      "ढucग": 5885,
      "##गन": 5886,
      "सरल": 5887,
      "गpतमलl": 5888,
      "सिcहदरबार": 5889,
      "##aवाइ": 5890,
      "पaरणालीमा": 5891,
      "उद": 5892,
      "##साइट": 5893,
      "##काई": 5894,
      "##वकaता": 5895,
      "गरिए": 5896,
      "लाभा": 5897,
      "निरaणा": 5898,
      "छिटaटk": 5899,
      "५८": 5900,
      "ठिक": 5901,
      "##माल": 5902,
      "सaथानीयलl": 5903,
      "##पारaक": 5904,
      "भlटaन": 5905,
      "हङकङ": 5906,
      "##चाहिi": 5907,
      "##औi": 5908,
      "सिcहलl": 5909,
      "##सaन": 5910,
      "आफuलाई": 5911,
      "##हिनl": 5912,
      "करिव": 5913,
      "फa": 5914,
      "##lकालl": 5915,
      "नlकपाका": 5916,
      "नदीमा": 5917,
      "कलaयाण": 5918,
      "जगत": 5919,
      "बaयवसaथा": 5920,
      "लoड": 5921,
      "हuदा": 5922,
      "आतaमहतaया": 5923,
      "टa": 5924,
      "बसaत": 5925,
      "गरaनk": 5926,
      "##पलl": 5927,
      "सcगk": 5928,
      "सकaनuहuनaछ": 5929,
      "चिनaत": 5930,
      "निकायकo": 5931,
      "##पट": 5932,
      "##पaटl": 5933,
      "बालक": 5934,
      "चoट": 5935,
      "दlखाउनl": 5936,
      "पaरसaतuति": 5937,
      "चरaकo": 5938,
      "कामका": 5939,
      "विशाल": 5940,
      "दसkc": 5941,
      "तातo": 5942,
      "बाइ": 5943,
      "हिमाली": 5944,
      "गk": 5945,
      "पaरस": 5946,
      "कuराहरu": 5947,
      "पlशा": 5948,
      "सिल": 5949,
      "हिउi": 5950,
      "हद": 5951,
      "बनाउiदk": 5952,
      "##बिस": 5953,
      "सuपर": 5954,
      "भिसा": 5955,
      "चlतना": 5956,
      "पणaडित": 5957,
      "##aस": 5958,
      "##iदl": 5959,
      "अगaरता": 5960,
      "बिषयमा": 5961,
      "शuदaध": 5962,
      "##जीवन": 5963,
      "##साधन": 5964,
      "किशoर": 5965,
      "रuकuम": 5966,
      "सcवlदनशील": 5967,
      "समायoजन": 5968,
      "सaथगित": 5969,
      "मनaतaरालयमा": 5970,
      "सaवाभाविक": 5971,
      "बoलaन": 5972,
      "समaमानित": 5973,
      "निरaणायक": 5974,
      "##खाना": 5975,
      "गuपa": 5976,
      "तसरaथ": 5977,
      "मङa": 5978,
      "परिक": 5979,
      "##विका": 5980,
      "लlखlका": 5981,
      "पठाउन": 5982,
      "##पकaषीय": 5983,
      "दिनuपरaछ": 5984,
      "निरaवाचनका": 5985,
      "अcगaरlजी": 5986,
      "फaर": 5987,
      "##विदa": 5988,
      "पuलिस": 5989,
      "सत": 5990,
      "##ङaकन": 5991,
      "परिणत": 5992,
      "कaषlतaरफल": 5993,
      "तaयहाiकo": 5994,
      "##नlपाल": 5995,
      "पaरब": 5996,
      "##lती": 5997,
      "अभिनlता": 5998,
      "उतaतम": 5999,
      "समuदायका": 6000,
      "रoकिएकo": 6001,
      "शaरीमान": 6002,
      "भरमा": 6003,
      "##iचo": 6004,
      "एकताकo": 6005,
      "भeभाग": 6006,
      "##खत": 6007,
      "##सaपद": 6008,
      "##शlर": 6009,
      "कkलाली": 6010,
      "##षl": 6011,
      "वरaण": 6012,
      "##णaडर": 6013,
      "मलaल": 6014,
      "बानी": 6015,
      "करा": 6016,
      "८५": 6017,
      "सcघसcसaथा": 6018,
      "ढकाललl": 6019,
      "विमानसaथलमा": 6020,
      "सभाकo": 6021,
      "काली": 6022,
      "गणaडकी": 6023,
      "तuरu": 6024,
      "आतcक": 6025,
      "५३": 6026,
      "विष": 6027,
      "पaरजातानaतaरिक": 6028,
      "गएपछि": 6029,
      "##कlकo": 6030,
      "पaरहरीलाई": 6031,
      "##गoलिक": 6032,
      "रामaरk": 6033,
      "तaयसबlला": 6034,
      "गoक": 6035,
      "निवासी": 6036,
      "गाiउ": 6037,
      "बनाउiछ": 6038,
      "##सlन": 6039,
      "जaयoति": 6040,
      "उतaतरी": 6041,
      "साब": 6042,
      "लlखaन": 6043,
      "##लागaदo": 6044,
      "बिमा": 6045,
      "झo": 6046,
      "बoकlकo": 6047,
      "तपाईi": 6048,
      "बaयब": 6049,
      "##हaन": 6050,
      "पतaनी": 6051,
      "सuरकaषाकo": 6052,
      "हrदय": 6053,
      "इनaस": 6054,
      "गतिमा": 6055,
      "रoगकo": 6056,
      "गराए": 6057,
      "फाइनल": 6058,
      "नu": 6059,
      "##अधिकार": 6060,
      "विदaयारaथीलl": 6061,
      "बसaनlतलl": 6062,
      "बलिउड": 6063,
      "भवaय": 6064,
      "थियpc": 6065,
      "चाडपरa": 6066,
      "ठग": 6067,
      "अभावमा": 6068,
      "वटk": 6069,
      "दिनlश": 6070,
      "भारी": 6071,
      "रoमा": 6072,
      "##दकo": 6073,
      "नगरaन": 6074,
      "जाiदk": 6075,
      "तuरuनaत": 6076,
      "हिरा": 6077,
      "असaतितaव": 6078,
      "##जिङ": 6079,
      "भदaर": 6080,
      "दिवसकo": 6081,
      "सrजना": 6082,
      "बङaग": 6083,
      "भpगoलिक": 6084,
      "##किल": 6085,
      "दlखिन": 6086,
      "##नuकo": 6087,
      "तिहा": 6088,
      "पaरचलन": 6089,
      "मlसिन": 6090,
      "नाकाबनaदी": 6091,
      "बe": 6092,
      "##पालन": 6093,
      "चाहिनl": 6094,
      "##pज": 6095,
      "तिबaब": 6096,
      "सधki": 6097,
      "ओम": 6098,
      "घाम": 6099,
      "##ारकo": 6100,
      "मनाउन": 6101,
      "आकaरo": 6102,
      "जला": 6103,
      "##इनl": 6104,
      "कoषाधaयकaष": 6105,
      "सaरoतलl": 6106,
      "टन": 6107,
      "##टामा": 6108,
      "##तया": 6109,
      "साविक": 6110,
      "चpधरीलl": 6111,
      "##डaदk": 6112,
      "पaरदीप": 6113,
      "लागaदkन": 6114,
      "आचारaयलl": 6115,
      "अनuकeल": 6116,
      "छuटaया": 6117,
      "गkरआ": 6118,
      "पaरoतaसाहन": 6119,
      "##दायक": 6120,
      "एसियाली": 6121,
      "##मणि": 6122,
      "कaषण": 6123,
      "५४": 6124,
      "निजामती": 6125,
      "पaरसिदaध": 6126,
      "पात": 6127,
      "##चारaज": 6128,
      "##ीता": 6129,
      "विर": 6130,
      "अनuरuप": 6131,
      "शaरीमानa": 6132,
      "४९": 6133,
      "यuवराज": 6134,
      "अचमaम": 6135,
      "##सcर": 6136,
      "६४": 6137,
      "बoलaनl": 6138,
      "विदaयालयका": 6139,
      "पठाइ": 6140,
      "##uकी": 6141,
      "##िती": 6142,
      "सaटo": 6143,
      "सामागaरी": 6144,
      "एलa": 6145,
      "##aयpc": 6146,
      "कeल": 6147,
      "दिएपछि": 6148,
      "काराग": 6149,
      "आबदaध": 6150,
      "##रaफतa": 6151,
      "रoनालa": 6152,
      "फरा": 6153,
      "शाहलl": 6154,
      "रामबहादuर": 6155,
      "सaतरमा": 6156,
      "उठाउन": 6157,
      "कaषमताकo": 6158,
      "कमaपaयuटर": 6159,
      "एमालlकo": 6160,
      "अनaध": 6161,
      "जसका": 6162,
      "भीड": 6163,
      "##मuकaत": 6164,
      "पारदरaश": 6165,
      "मानिसलाई": 6166,
      "छलफलमा": 6167,
      "उठाउनl": 6168,
      "##aररी": 6169,
      "सिiच": 6170,
      "हिम": 6171,
      "##तaतिकk": 6172,
      "किशoरी": 6173,
      "आदरaश": 6174,
      "शp": 6175,
      "हतार": 6176,
      "बuझाइ": 6177,
      "टaरमaपलl": 6178,
      "दाi": 6179,
      "नlपालगञaज": 6180,
      "##किएका": 6181,
      "दaवारा": 6182,
      "नमuना": 6183,
      "रuपkयाiकo": 6184,
      "##भारत": 6185,
      "वaयवसaथापिका": 6186,
      "पaरभu": 6187,
      "##डिएकo": 6188,
      "उपाधaया": 6189,
      "##हकo": 6190,
      "##गc": 6191,
      "##११": 6192,
      "उपlनaदaर": 6193,
      "##कaकर": 6194,
      "अडान": 6195,
      "##भितaरकo": 6196,
      "तuलना": 6197,
      "विपकaषी": 6198,
      "##वrतaति": 6199,
      "##िसमaम": 6200,
      "भनaनlमा": 6201,
      "पारlका": 6202,
      "दाजuभाइ": 6203,
      "जaञापन": 6204,
      "पट": 6205,
      "##हिर": 6206,
      "पaरानaत": 6207,
      "तaयसबाट": 6208,
      "नबuझ": 6209,
      "गई": 6210,
      "भoक": 6211,
      "दिदk": 6212,
      "##लoड": 6213,
      "##विरoध": 6214,
      "##रaदlश": 6215,
      "कaलव": 6216,
      "रहlन": 6217,
      "##काउ": 6218,
      "राषaटaरसcघ": 6219,
      "तaयहाiका": 6220,
      "चाiडk": 6221,
      "##राय": 6222,
      "हारा": 6223,
      "भएकk": 6224,
      "उतaपादनमा": 6225,
      "६३": 6226,
      "##मितaव": 6227,
      "अनियमित": 6228,
      "निकायलl": 6229,
      "सuवlद": 6230,
      "##ाए": 6231,
      "इनaजिनियर": 6232,
      "उरaजा": 6233,
      "सuनकo": 6234,
      "##सaथापन": 6235,
      "##थu": 6236,
      "इतिहासमा": 6237,
      "सkनaय": 6238,
      "५७": 6239,
      "लगानीमा": 6240,
      "पaरशासक": 6241,
      "मoरङ": 6242,
      "रहर": 6243,
      "७२": 6244,
      "सlपaटl": 6245,
      "हoइननa": 6246,
      "अमर": 6247,
      "लागaदा": 6248,
      "##ानिसaत": 6249,
      "रहiदा": 6250,
      "सlनaट": 6251,
      "नागरिकलl": 6252,
      "आसaथा": 6253,
      "परिमा": 6254,
      "खlलlकo": 6255,
      "सcशo": 6256,
      "समाजवाद": 6257,
      "बlइ": 6258,
      "##ढucगा": 6259,
      "##कियo": 6260,
      "लaयाएका": 6261,
      "पaयाक": 6262,
      "कबaजा": 6263,
      "सामaरा": 6264,
      "मसानaत": 6265,
      "##वlदी": 6266,
      "अधिकारीकo": 6267,
      "छkनa": 6268,
      "आरaजन": 6269,
      "फाइनलमा": 6270,
      "##ईएकo": 6271,
      "राखl": 6272,
      "सारaक": 6273,
      "हoलानa": 6274,
      "ततaकालिन": 6275,
      "##भाष": 6276,
      "उचाइ": 6277,
      "##इरहlका": 6278,
      "पशaचात": 6279,
      "किसानलl": 6280,
      "##निकी": 6281,
      "##पaरl": 6282,
      "##मuनि": 6283,
      "समaमकo": 6284,
      "निषl": 6285,
      "##लoमा": 6286,
      "विशaवकo": 6287,
      "जनतामा": 6288,
      "पaरि": 6289,
      "राखि": 6290,
      "डाटा": 6291,
      "बिसaतrत": 6292,
      "हpc": 6293,
      "काय": 6294,
      "सहमत": 6295,
      "##ानीलl": 6296,
      "लगतaतk": 6297,
      "सcयoजकतaवमा": 6298,
      "नlपालीलाई": 6299,
      "चuकaता": 6300,
      "मनि": 6301,
      "वाइ": 6302,
      "सaवासaथaयमा": 6303,
      "पuयाउनl": 6304,
      "पaरिमियर": 6305,
      "हराएकo": 6306,
      "तरa": 6307,
      "बरि": 6308,
      "यसबारl": 6309,
      "बगा": 6310,
      "##जaयe": 6311,
      "एकातिर": 6312,
      "##भp": 6313,
      "बoलकo": 6314,
      "बाली": 6315,
      "निमा": 6316,
      "##lलमा": 6317,
      "परिचित": 6318,
      "##मर": 6319,
      "महoतaत": 6320,
      "नlताहरe": 6321,
      "एकaलk": 6322,
      "##कलaपिक": 6323,
      "सिमlनaट": 6324,
      "सरaवl": 6325,
      "##शालामा": 6326,
      "बजारकo": 6327,
      "वaयवसायीलl": 6328,
      "##सaथापना": 6329,
      "महरaजन": 6330,
      "##चaछlद": 6331,
      "##वण": 6332,
      "##नानaस": 6333,
      "विपरी": 6334,
      "हuनuहuनaथaयo": 6335,
      "दिइनl": 6336,
      "##शनल": 6337,
      "पारaदk": 6338,
      "असaपतालका": 6339,
      "मानिएकo": 6340,
      "गाली": 6341,
      "वaयापारिक": 6342,
      "अनaतरकaरिया": 6343,
      "निरaधारित": 6344,
      "शaरदaधा": 6345,
      "पuनरा": 6346,
      "गuणा": 6347,
      "##िसकlका": 6348,
      "##बaदी": 6349,
      "यातaरामा": 6350,
      "##यरमा": 6351,
      "##नलाई": 6352,
      "##नारायण": 6353,
      "वीरlनaदaर": 6354,
      "बkcकिङ": 6355,
      "दlशलl": 6356,
      "किरात": 6357,
      "सञaचारमाधaयम": 6358,
      "##ङaगलl": 6359,
      "भaरमणका": 6360,
      "उजaय": 6361,
      "##गणना": 6362,
      "सaवामितaव": 6363,
      "ताप": 6364,
      "आपaर": 6365,
      "शकaतिकo": 6366,
      "झनk": 6367,
      "##कसa": 6368,
      "२०३": 6369,
      "बराबर": 6370,
      "अनaतरिम": 6371,
      "दlउसी": 6372,
      "##फि": 6373,
      "##पaरसार": 6374,
      "असनaतuषaटि": 6375,
      "आफkलl": 6376,
      "पारी": 6377,
      "##सaतर": 6378,
      "##ालगायत": 6379,
      "नलि": 6380,
      "##सनकo": 6381,
      "##विशaवास": 6382,
      "##जनaतu": 6383,
      "अनाव": 6384,
      "४७": 6385,
      "हाराहारी": 6386,
      "मालिक": 6387,
      "सङaकलन": 6388,
      "अनशन": 6389,
      "अफगानिसaत": 6390,
      "##पaरद": 6391,
      "उपनaयास": 6392,
      "##टaटी": 6393,
      "तिनकo": 6394,
      "राजu": 6395,
      "सदा": 6396,
      "विशaवभर": 6397,
      "##मातaरk": 6398,
      "कaरियाशील": 6399,
      "फलफeल": 6400,
      "शिशu": 6401,
      "##lटि": 6402,
      "मuलuकी": 6403,
      "##डaनu": 6404,
      "सcकट": 6405,
      "सस": 6406,
      "##फाई": 6407,
      "धनuषा": 6408,
      "उपaर": 6409,
      "##वरलl": 6410,
      "रa": 6411,
      "सaटा": 6412,
      "##सaटि": 6413,
      "समeहका": 6414,
      "अफaर": 6415,
      "बिसaतारk": 6416,
      "सuनaत": 6417,
      "कथ": 6418,
      "सaमrति": 6419,
      "पaरतिवlदनमा": 6420,
      "##यातaरा": 6421,
      "खरी": 6422,
      "खk": 6423,
      "सuबaबा": 6424,
      "##भाषा": 6425,
      "मङaसिर": 6426,
      "मतदा": 6427,
      "अशoक": 6428,
      "भनaछिनa": 6429,
      "मरaया": 6430,
      "रoनालaडo": 6431,
      "खाएर": 6432,
      "सuवlदी": 6433,
      "मpन": 6434,
      "##सरमा": 6435,
      "नगरि": 6436,
      "उतaपादक": 6437,
      "असaथ": 6438,
      "जितaन": 6439,
      "##बमoजिम": 6440,
      "##मaबe": 6441,
      "##िसन": 6442,
      "तनहui": 6443,
      "##मkतaरी": 6444,
      "बrदaधि": 6445,
      "अकaटo": 6446,
      "##मaबार": 6447,
      "मkतaरी": 6448,
      "नायब": 6449,
      "शaयाम": 6450,
      "##थa": 6451,
      "गरlकालl": 6452,
      "गरaदkछ": 6453,
      "पलa": 6454,
      "##पuरaण": 6455,
      "##सिप": 6456,
      "परlर": 6457,
      "सuचना": 6458,
      "डट": 6459,
      "किनaन": 6460,
      "बाहaय": 6461,
      "बिरामीकo": 6462,
      "उजaयालo": 6463,
      "हuनuभएकo": 6464,
      "गाउiपालिकालl": 6465,
      "समeहमा": 6466,
      "आपसी": 6467,
      "दlखिनaछनa": 6468,
      "चिनी": 6469,
      "##रालl": 6470,
      "##ाउiछनa": 6471,
      "महारा": 6472,
      "उपतaयकामा": 6473,
      "भoगa": 6474,
      "मारa": 6475,
      "##घात": 6476,
      "##aयuब": 6477,
      "##अप": 6478,
      "##ञaचित": 6479,
      "##टaस": 6480,
      "शनिवार": 6481,
      "पaरशासनिक": 6482,
      "##गडा": 6483,
      "बास": 6484,
      "##हuiदk": 6485,
      "परaसा": 6486,
      "१९८": 6487,
      "मिलaदkन": 6488,
      "##१५": 6489,
      "##टlड": 6490,
      "##टाएकo": 6491,
      "##lसiगk": 6492,
      "##कालl": 6493,
      "रlमि": 6494,
      "शaरr": 6495,
      "कपाल": 6496,
      "६२": 6497,
      "##जीवी": 6498,
      "२०१५": 6499,
      "पशaचिमा": 6500,
      "बालबालिकालाई": 6501,
      "कlशव": 6502,
      "गkरआवास": 6503,
      "सcसारमा": 6504,
      "इcगa": 6505,
      "वता": 6506,
      "##गरि": 6507,
      "हजारpc": 6508,
      "विशlषता": 6509,
      "सनaतu": 6510,
      "बिरuवा": 6511,
      "विजaञपaतिमा": 6512,
      "चरम": 6513,
      "दkलl": 6514,
      "जितaनl": 6515,
      "##बापत": 6516,
      "अडa": 6517,
      "राइ": 6518,
      "परियार": 6519,
      "आगलागी": 6520,
      "##सरकारी": 6521,
      "दkलlख": 6522,
      "भlटि": 6523,
      "पवितaर": 6524,
      "##१९": 6525,
      "##रहlकी": 6526,
      "दीरaघकालीन": 6527,
      "फaया": 6528,
      "राजतनaतaर": 6529,
      "##ङaगी": 6530,
      "कता": 6531,
      "बराम": 6532,
      "##घन": 6533,
      "सaवदlशी": 6534,
      "आजk": 6535,
      "##aछu": 6536,
      "छवि": 6537,
      "##समaममा": 6538,
      "गरaनकo": 6539,
      "अकaष": 6540,
      "सoलu": 6541,
      "रuपkयाiमा": 6542,
      "धरान": 6543,
      "शcकर": 6544,
      "लामालl": 6545,
      "अनuप": 6546,
      "लlखaनl": 6547,
      "विकaरी": 6548,
      "##धाम": 6549,
      "असaटaरlलिया": 6550,
      "सटaटा": 6551,
      "यसपाल": 6552,
      "##गaरसaत": 6553,
      "तिहारकo": 6554,
      "करण": 6555,
      "परaनlछ": 6556,
      "ककaष": 6557,
      "गराइएकo": 6558,
      "##aवी": 6559,
      "रियल": 6560,
      "पaरतaया": 6561,
      "निकo": 6562,
      "खoजaन": 6563,
      "लगाउ": 6564,
      "हिc": 6565,
      "सuशील": 6566,
      "बाघ": 6567,
      "घरबाट": 6568,
      "सकिन": 6569,
      "सlकaस": 6570,
      "हuदkन": 6571,
      "##रात": 6572,
      "##रaनuपरaनl": 6573,
      "नlपालीहरuकo": 6574,
      "पoल": 6575,
      "##लlनaस": 6576,
      "गइरहlकo": 6577,
      "जापानी": 6578,
      "ओभरमा": 6579,
      "शानaत": 6580,
      "डिजिटल": 6581,
      "##७३": 6582,
      "पाणaडlलl": 6583,
      "बचaच": 6584,
      "##लस": 6585,
      "राजaयका": 6586,
      "अरuण": 6587,
      "सcसदaमा": 6588,
      "##गaराम": 6589,
      "भादaर": 6590,
      "##पaरकाश": 6591,
      "गाउiका": 6592,
      "##कीय": 6593,
      "पदaधति": 6594,
      "##सaकrत": 6595,
      "निमितaत": 6596,
      "विनoद": 6597,
      "मारaक": 6598,
      "उपचारकo": 6599,
      "एसपी": 6600,
      "अञaचल": 6601,
      "फuल": 6602,
      "विदा": 6603,
      "चaयान": 6604,
      "##सaतिषa": 6605,
      "##डaड": 6606,
      "रoजगारीकo": 6607,
      "बलमा": 6608,
      "विदaयमान": 6609,
      "फlर": 6610,
      "घिमिरlलl": 6611,
      "पारिएकo": 6612,
      "आतaमा": 6613,
      "नlटव": 6614,
      "अटo": 6615,
      "सतह": 6616,
      "नlताकo": 6617,
      "##सaवासaथaय": 6618,
      "##बादी": 6619,
      "सिiचाइ": 6620,
      "वाल": 6621,
      "अपरि": 6622,
      "##लगतaतk": 6623,
      "अनावशaयक": 6624,
      "पaरकo": 6625,
      "मङaगल": 6626,
      "उलaल": 6627,
      "रk": 6628,
      "थo": 6629,
      "##जलl": 6630,
      "पrथaवी": 6631,
      "आमालl": 6632,
      "डाइ": 6633,
      "लगlर": 6634,
      "गkरआवासीय": 6635,
      "निशuलaक": 6636,
      "६६": 6637,
      "##णaठ": 6638,
      "पaरचारपaरसार": 6639,
      "अरaजlनaटि": 6640,
      "खरlल": 6641,
      "##ातa": 6642,
      "पaरसaट": 6643,
      "सधk": 6644,
      "बढाइ": 6645,
      "##णaडमा": 6646,
      "दlखaदा": 6647,
      "अमlरिकालl": 6648,
      "समावlशी": 6649,
      "##धना": 6650,
      "धlरkजसo": 6651,
      "भाई": 6652,
      "अनaयo": 6653,
      "##किए": 6654,
      "रuचि": 6655,
      "बkत": 6656,
      "लगानीकo": 6657,
      "विपनaन": 6658,
      "सिटी": 6659,
      "##टाम": 6660,
      "कui": 6661,
      "पaराधaयापक": 6662,
      "गरaछpc": 6663,
      "बिसaतrतमा": 6664,
      "पाएपछि": 6665,
      "##शkली": 6666,
      "पारaटीलाई": 6667,
      "##यe": 6668,
      "भन": 6669,
      "पञaचायत": 6670,
      "भkरह": 6671,
      "मकवानपuर": 6672,
      "दlखिiदkन": 6673,
      "बिहानk": 6674,
      "रlखा": 6675,
      "पारl": 6676,
      "विकrति": 6677,
      "विरoधी": 6678,
      "गफ": 6679,
      "वu": 6680,
      "सuनuवाइ": 6681,
      "चमa": 6682,
      "बाबा": 6683,
      "समaझना": 6684,
      "##पाटी": 6685,
      "##पछिकo": 6686,
      "वडामा": 6687,
      "असaवीकार": 6688,
      "मuना": 6689,
      "वaयवसायिक": 6690,
      "नीतिगत": 6691,
      "##याl": 6692,
      "यसkबीच": 6693,
      "महासcघका": 6694,
      "कीरaति": 6695,
      "दoहoरo": 6696,
      "परिवरaतनकo": 6697,
      "परिवlश": 6698,
      "रpतह": 6699,
      "गaलo": 6700,
      "सaवभाव": 6701,
      "खादaया": 6702,
      "बuझaनl": 6703,
      "मानिनl": 6704,
      "##aयारo": 6705,
      "असaपताललl": 6706,
      "फिट": 6707,
      "बpदaधिक": 6708,
      "जoखिममा": 6709,
      "बालबालिकाकo": 6710,
      "हिड": 6711,
      "नपाएकo": 6712,
      "महiगo": 6713,
      "विपरीत": 6714,
      "##रaभिक": 6715,
      "पlटaरoलियम": 6716,
      "##वासaता": 6717,
      "सदuपयoग": 6718,
      "यिनk": 6719,
      "आउट": 6720,
      "जaव": 6721,
      "##रaदaध": 6722,
      "##फu": 6723,
      "विभाजन": 6724,
      "चामल": 6725,
      "बजlदlखि": 6726,
      "आतaमनिरaभर": 6727,
      "##ालयमा": 6728,
      "शaरा": 6729,
      "साइट": 6730,
      "उलaलlखaय": 6731,
      "ढिलo": 6732,
      "##कe": 6733,
      "सaयाङa": 6734,
      "आयuकaत": 6735,
      "ढिला": 6736,
      "पaरतिपकaषी": 6737,
      "कनaट": 6738,
      "##िनकo": 6739,
      "खानlकuरा": 6740,
      "भाषाकo": 6741,
      "भलि": 6742,
      "##सaतरमा": 6743,
      "सञaजालमा": 6744,
      "बिहि": 6745,
      "कारoवार": 6746,
      "##दaरिक": 6747,
      "##पoखरी": 6748,
      "शaरीलcका": 6749,
      "सuरlनaदaर": 6750,
      "खादaयानaन": 6751,
      "कlटी": 6752,
      "हिसaसा": 6753,
      "घाi": 6754,
      "##समकaष": 6755,
      "तामाङलl": 6756,
      "##कहाi": 6757,
      "भएसiगk": 6758,
      "एकlड": 6759,
      "बारaसि": 6760,
      "सदसaयकo": 6761,
      "मानिसहरe": 6762,
      "विसaतारk": 6763,
      "विशaवकपमा": 6764,
      "कaषतिपeरaति": 6765,
      "##नीकरण": 6766,
      "मिलन": 6767,
      "बlस": 6768,
      "लणaड": 6769,
      "सcसaकrतिकo": 6770,
      "##uरि": 6771,
      "लियo": 6772,
      "गहिरo": 6773,
      "##दaधारा": 6774,
      "##शo": 6775,
      "फरार": 6776,
      "लिइएकo": 6777,
      "फराकिलo": 6778,
      "गह": 6779,
      "सारा": 6780,
      "सिc": 6781,
      "जनआ": 6782,
      "##खaरा": 6783,
      "नरaस": 6784,
      "मानaन": 6785,
      "विकaरम": 6786,
      "पkदा": 6787,
      "हपa": 6788,
      "तपाईलl": 6789,
      "जिजaञा": 6790,
      "राय": 6791,
      "हlटpc": 6792,
      "हाफ": 6793,
      "बढaछ": 6794,
      "सuदr": 6795,
      "दिमा": 6796,
      "सaयाउ": 6797,
      "बारaसिलo": 6798,
      "##लाउनl": 6799,
      "विसaथापित": 6800,
      "सरसफाइ": 6801,
      "तसaकरी": 6802,
      "##बाह": 6803,
      "पaरतिवदaधता": 6804,
      "##चकo": 6805,
      "राषaटaरियसभा": 6806,
      "परaयटककo": 6807,
      "भaरमणकo": 6808,
      "सफaट": 6809,
      "बlलaजियम": 6810,
      "दायर": 6811,
      "नoभl": 6812,
      "##रालo": 6813,
      "आफनo": 6814,
      "राजlश": 6815,
      "लoभ": 6816,
      "बनaछ": 6817,
      "काभaर": 6818,
      "सिरहा": 6819,
      "असaथिर": 6820,
      "६१": 6821,
      "##टीकo": 6822,
      "५९": 6823,
      "##सनल": 6824,
      "##लaनu": 6825,
      "७४": 6826,
      "एसo": 6827,
      "##वरaग": 6828,
      "##वाली": 6829,
      "##नियाi": 6830,
      "चाहl": 6831,
      "औषधी": 6832,
      "पनaतकo": 6833,
      "##सcरचना": 6834,
      "अनaया": 6835,
      "##पानकo": 6836,
      "डल": 6837,
      "पeरaवपaर": 6838,
      "राजशaव": 6839,
      "तीनk": 6840,
      "९५": 6841,
      "लाइस": 6842,
      "सिलसि": 6843,
      "जoगाउन": 6844,
      "एशिया": 6845,
      "अनिल": 6846,
      "सनaधि": 6847,
      "२०१४": 6848,
      "##नaदरaय": 6849,
      "बजlटमा": 6850,
      "लिमaबe": 6851,
      "##दिनu": 6852,
      "रlगaमी": 6853,
      "कागज": 6854,
      "यoजनामा": 6855,
      "बuढ": 6856,
      "विपa": 6857,
      "हuनlमा": 6858,
      "##पaरदान": 6859,
      "पकaषकo": 6860,
      "बिल": 6861,
      "शkलीमा": 6862,
      "दuध": 6863,
      "कoरियाली": 6864,
      "गरिबी": 6865,
      "सङaगठन": 6866,
      "खरीद": 6867,
      "गpरव": 6868,
      "रङaग": 6869,
      "तaयहि": 6870,
      "बaलग": 6871,
      "पढaनuहoसa": 6872,
      "##इकo": 6873,
      "उज": 6874,
      "हतaय": 6875,
      "टaरlड": 6876,
      "बरामद": 6877,
      "##iगा": 6878,
      "गoपaय": 6879,
      "लuगा": 6880,
      "नराख": 6881,
      "लकaषण": 6882,
      "सारaवभp": 6883,
      "सoझ": 6884,
      "अभियuकaत": 6885,
      "##छo": 6886,
      "हlम": 6887,
      "##जरकo": 6888,
      "शिविर": 6889,
      "तसaवीर": 6890,
      "परिवारमा": 6891,
      "सरकारबाट": 6892,
      "मuलuकलाई": 6893,
      "लघuव": 6894,
      "##तीलl": 6895,
      "उका": 6896,
      "##धारी": 6897,
      "मनoज": 6898,
      "एजl": 6899,
      "खaयाल": 6900,
      "हuनk": 6901,
      "बoरaडलl": 6902,
      "शpच": 6903,
      "##ङaका": 6904,
      "पuगlपछि": 6905,
      "ताली": 6906,
      "##चaछuक": 6907,
      "##aरास": 6908,
      "##गम": 6909,
      "अनaरaत": 6910,
      "सानk": 6911,
      "भeमिकामा": 6912,
      "##नaयजनaतu": 6913,
      "५००": 6914,
      "गराएर": 6915,
      "बlनी": 6916,
      "मनoन": 6917,
      "रहसaय": 6918,
      "खoलaन": 6919,
      "##साल": 6920,
      "शताबaदी": 6921,
      "निगर": 6922,
      "सनaदी": 6923,
      "आकaरoश": 6924,
      "बारमaबार": 6925,
      "ठoस": 6926,
      "माइकaरo": 6927,
      "इमा": 6928,
      "जाडo": 6929,
      "निषlध": 6930,
      "२०७१": 6931,
      "##जuमा": 6932,
      "##aरिड": 6933,
      "रिहा": 6934,
      "जापानमा": 6935,
      "६७": 6936,
      "##नaतिक": 6937,
      "राईकo": 6938,
      "मuसaलिम": 6939,
      "कaरoएस": 6940,
      "##पlर": 6941,
      "लगायतकo": 6942,
      "पoखराकo": 6943,
      "वkकलaपिक": 6944,
      "शलaय": 6945,
      "७६": 6946,
      "##चpर": 6947,
      "परिसर": 6948,
      "कuरालl": 6949,
      "सरaवlकaषण": 6950,
      "धनकu": 6951,
      "उपचारमा": 6952,
      "दkनिकमा": 6953,
      "हoटलमा": 6954,
      "कारaययoजना": 6955,
      "बिदaया": 6956,
      "लापर": 6957,
      "##मिता": 6958,
      "समuदायलl": 6959,
      "##तaरu": 6960,
      "आनaदoलनका": 6961,
      "मसaतिषa": 6962,
      "सिसaट": 6963,
      "महाकाली": 6964,
      "डाiडा": 6965,
      "लa": 6966,
      "##१२": 6967,
      "##परित": 6968,
      "चuनp": 6969,
      "साग": 6970,
      "लगाई": 6971,
      "मारaच": 6972,
      "छाला": 6973,
      "विभागकo": 6974,
      "रeपा": 6975,
      "निगमलl": 6976,
      "बिनaदu": 6977,
      "पuनलl": 6978,
      "सaतरीय": 6979,
      "बसaनu": 6980,
      "##लय": 6981,
      "##खl": 6982,
      "बढuवा": 6983,
      "सकियo": 6984,
      "फkलिएकo": 6985,
      "नlपaसl": 6986,
      "मिलl": 6987,
      "ओटा": 6988,
      "##नासाथ": 6989,
      "##डaरo": 6990,
      "शिकaषामा": 6991,
      "रoजगारीका": 6992,
      "बlलuका": 6993,
      "नदिन": 6994,
      "पकaका": 6995,
      "##ाउमा": 6996,
      "निरी": 6997,
      "कारaयद": 6998,
      "लlखन": 6999,
      "ढuवानी": 7000,
      "सहयoगकo": 7001,
      "राजकuमार": 7002,
      "##lटर": 7003,
      "पaरशासनलl": 7004,
      "##दछनa": 7005,
      "सकिiदkन": 7006,
      "##भागaय": 7007,
      "बoनस": 7008,
      "नज": 7009,
      "काला": 7010,
      "एकअ": 7011,
      "लlखनाथ": 7012,
      "बरaखा": 7013,
      "पaरादlशिक": 7014,
      "मालa": 7015,
      "सcयoजन": 7016,
      "कामलाई": 7017,
      "##लिपि": 7018,
      "कारaयकaरमहरu": 7019,
      "समuदायमा": 7020,
      "गठित": 7021,
      "##तaरo": 7022,
      "पuरaयाएकo": 7023,
      "आपतaति": 7024,
      "अगaरसर": 7025,
      "६८": 7026,
      "##भावना": 7027,
      "महरा": 7028,
      "##बaलिक": 7029,
      "सaवीका": 7030,
      "आचार": 7031,
      "लनaड": 7032,
      "हतaयारा": 7033,
      "नवलपरासी": 7034,
      "बलa": 7035,
      "##शaरी": 7036,
      "नlतaर": 7037,
      "निगरानी": 7038,
      "मr": 7039,
      "ढucगा": 7040,
      "रामaररी": 7041,
      "कrषaणपaरसाद": 7042,
      "साई": 7043,
      "##चाप": 7044,
      "झन": 7045,
      "अलपतaर": 7046,
      "नमe": 7047,
      "पaरकrया": 7048,
      "७८": 7049,
      "##डाइ": 7050,
      "बनायo": 7051,
      "खoलामा": 7052,
      "चिन": 7053,
      "इर": 7054,
      "चिर": 7055,
      "##सतaता": 7056,
      "बaल": 7057,
      "सpनaदरaय": 7058,
      "बरaदिया": 7059,
      "जuलाई": 7060,
      "दलहरe": 7061,
      "##ाधीन": 7062,
      "##गाउi": 7063,
      "##रoग": 7064,
      "##चाई": 7065,
      "पिता": 7066,
      "अधिकतम": 7067,
      "जuमaला": 7068,
      "एकaका": 7069,
      "वaरत": 7070,
      "##गान": 7071,
      "मuलaय": 7072,
      "चkतaर": 7073,
      "भएकoमा": 7074,
      "भuमिका": 7075,
      "##रlड": 7076,
      "##छिन": 7077,
      "ली": 7078,
      "##टरमा": 7079,
      "नियमन": 7080,
      "##जaज": 7081,
      "पaरयoगमा": 7082,
      "मरि": 7083,
      "पaरसaतावित": 7084,
      "मानaछlकo": 7085,
      "जनमत": 7086,
      "बlरoज": 7087,
      "सaथितिमा": 7088,
      "खoलaनl": 7089,
      "##सकaदा": 7090,
      "सuनाए": 7091,
      "हiu": 7092,
      "दिiदा": 7093,
      "नमिलa": 7094,
      "आखिर": 7095,
      "कमaतिमा": 7096,
      "बसaतu": 7097,
      "##मaवर": 7098,
      "कuव": 7099,
      "तिरaन": 7100,
      "छायाcकन": 7101,
      "धितoपतaर": 7102,
      "लमa": 7103,
      "##षaकार": 7104,
      "##दियo": 7105,
      "सबभनaदा": 7106,
      "मeलaयाcकन": 7107,
      "गl": 7108,
      "आउiदo": 7109,
      "फpज": 7110,
      "अनaतaयमा": 7111,
      "दlखाएर": 7112,
      "सuदeरपशaचिम": 7113,
      "थिइन": 7114,
      "सिcगा": 7115,
      "पaरदरaशनमा": 7116,
      "दीपा": 7117,
      "आयoजकलl": 7118,
      "औषध": 7119,
      "महव": 7120,
      "पाइप": 7121,
      "तहलl": 7122,
      "गरaभव": 7123,
      "मlरी": 7124,
      "##डaय": 7125,
      "बिशaव": 7126,
      "परिचयपतaर": 7127,
      "बuiदl": 7128,
      "नामकo": 7129,
      "वaयहo": 7130,
      "नतaर": 7131,
      "रeपलl": 7132,
      "##षक": 7133,
      "अनuसारकo": 7134,
      "पारaक": 7135,
      "निकायमा": 7136,
      "हटाउनl": 7137,
      "फला": 7138,
      "##ालीकo": 7139,
      "बuझाएकo": 7140,
      "हलमा": 7141,
      "माला": 7142,
      "मिलाएर": 7143,
      "शिकaष": 7144,
      "खालa": 7145,
      "##जीलl": 7146,
      "अधaयकaषमा": 7147,
      "विरoधमा": 7148,
      "अखिल": 7149,
      "##रaदlशक": 7150,
      "गaय": 7151,
      "७३": 7152,
      "रoपनी": 7153,
      "##नियर": 7154,
      "हoस": 7155,
      "समापन": 7156,
      "नदीकo": 7157,
      "मकk": 7158,
      "लगाउनu": 7159,
      "पlन": 7160,
      "मिलlकo": 7161,
      "अङaक": 7162,
      "##िएर": 7163,
      "गkरसरकारी": 7164,
      "रoजगारीमा": 7165,
      "माओवादीकo": 7166,
      "वीरगञaज": 7167,
      "आफkcलl": 7168,
      "##मe": 7169,
      "पlर": 7170,
      "जरaमनी": 7171,
      "आइपuगa": 7172,
      "सcविधानसभाकo": 7173,
      "पाउiदा": 7174,
      "विपaलव": 7175,
      "छकaका": 7176,
      "मनaतवaय": 7177,
      "हकपaरद": 7178,
      "हuनaथl": 7179,
      "##जनी": 7180,
      "भनlपछि": 7181,
      "रuच": 7182,
      "परlपछि": 7183,
      "गरaनuहuनaछ": 7184,
      "कमaपनीलाई": 7185,
      "##बन": 7186,
      "आउiदk": 7187,
      "गaरuप": 7188,
      "##रहlछ": 7189,
      "नlपालमk": 7190,
      "##पावर": 7191,
      "शहरमा": 7192,
      "##lटिङ": 7193,
      "गoषaठ": 7194,
      "##खa": 7195,
      "घरपरिवार": 7196,
      "निमaतaया": 7197,
      "वान": 7198,
      "##रaकी": 7199,
      "##लभ": 7200,
      "रlलमारaग": 7201,
      "यuएई": 7202,
      "बलaल": 7203,
      "##आउ": 7204,
      "साइकल": 7205,
      "##डaदा": 7206,
      "आरoहण": 7207,
      "तमu": 7208,
      "चरा": 7209,
      "भनaनuहuनaछ": 7210,
      "बlलायती": 7211,
      "##वटk": 7212,
      "राजन": 7213,
      "सागर": 7214,
      "##lननa": 7215,
      "ओखल": 7216,
      "##५०": 7217,
      "##दश": 7218,
      "छापा": 7219,
      "अपाङaग": 7220,
      "नaयायिक": 7221,
      "##वlयर": 7222,
      "पoरaचu": 7223,
      "दrषaटिलl": 7224,
      "तpल": 7225,
      "भय": 7226,
      "२०७०": 7227,
      "##साम": 7228,
      "रuपलl": 7229,
      "मkन": 7230,
      "##सlवी": 7231,
      "##गाई": 7232,
      "##राषaटaरपति": 7233,
      "धe": 7234,
      "तालमlल": 7235,
      "सरसaव": 7236,
      "अभaया": 7237,
      "अलिकति": 7238,
      "आलu": 7239,
      "थालि": 7240,
      "##डाiडा": 7241,
      "दवा": 7242,
      "##रoप": 7243,
      "दaवि": 7244,
      "धo": 7245,
      "सकaदkननa": 7246,
      "थालa": 7247,
      "निकास": 7248,
      "##किन": 7249,
      "##लानa": 7250,
      "वनaयजनaतu": 7251,
      "दलहरu": 7252,
      "डिसl": 7253,
      "##भितaरका": 7254,
      "चलाएकo": 7255,
      "##षध": 7256,
      "टिमलl": 7257,
      "झि": 7258,
      "खसlकo": 7259,
      "दिप": 7260,
      "शरीरकo": 7261,
      "##एच": 7262,
      "गराउiदk": 7263,
      "७७": 7264,
      "बिरaस": 7265,
      "सकिनaन": 7266,
      "शरणा": 7267,
      "बaयकaत": 7268,
      "मधaयम": 7269,
      "##ञaचार": 7270,
      "निकालlकo": 7271,
      "##नaडर": 7272,
      "उनकी": 7273,
      "बिरoध": 7274,
      "##सaफoट": 7275,
      "##गणaडकी": 7276,
      "उतaपादित": 7277,
      "तिनका": 7278,
      "दpड": 7279,
      "##याकo": 7280,
      "आफa": 7281,
      "##सaथलमा": 7282,
      "निरaदlशिका": 7283,
      "रामaरoसiग": 7284,
      "भितaरी": 7285,
      "भkरहवा": 7286,
      "##तारी": 7287,
      "##हuनlछ": 7288,
      "तlश": 7289,
      "नदlख": 7290,
      "असनaतuषaट": 7291,
      "अभिवrदaधि": 7292,
      "छिन": 7293,
      "##हिन": 7294,
      "खoटाङ": 7295,
      "रoकa": 7296,
      "समaबनaधलाई": 7297,
      "पuरानk": 7298,
      "##मशlर": 7299,
      "सuनसरी": 7300,
      "गoरaख": 7301,
      "घoषित": 7302,
      "किनकी": 7303,
      "विषaटलl": 7304,
      "फरaम": 7305,
      "##कान": 7306,
      "##सaप": 7307,
      "बkcकमा": 7308,
      "##दित": 7309,
      "##लoक": 7310,
      "##मलाई": 7311,
      "वसनaत": 7312,
      "##वलl": 7313,
      "बतaती": 7314,
      "अभिलlख": 7315,
      "भईरहlकo": 7316,
      "पaराधिकरणका": 7317,
      "उतaसव": 7318,
      "पaरतिसaपरaधी": 7319,
      "दलाल": 7320,
      "##चरण": 7321,
      "नlताहरeलl": 7322,
      "मिलाउन": 7323,
      "साcगी": 7324,
      "दlखlकo": 7325,
      "मaयानl": 7326,
      "शuकaल": 7327,
      "रामl": 7328,
      "गरaनuकo": 7329,
      "तuला": 7330,
      "##दaधानaतिक": 7331,
      "महीना": 7332,
      "माकa": 7333,
      "आति": 7334,
      "जaय": 7335,
      "उनकk": 7336,
      "पछी": 7337,
      "रuट": 7338,
      "##बaबर": 7339,
      "##उनuपरaछ": 7340,
      "अना": 7341,
      "रlषaट": 7342,
      "गाउiलl": 7343,
      "कमaपनीमा": 7344,
      "उठlकo": 7345,
      "आदानपaरदान": 7346,
      "उरa": 7347,
      "कi": 7348,
      "पaरतिफल": 7349,
      "आवदaध": 7350,
      "तट": 7351,
      "सज": 7352,
      "राशि": 7353,
      "अनuसनaधानमा": 7354,
      "##नaदार": 7355,
      "ओभर": 7356,
      "##oमा": 7357,
      "खoजaदk": 7358,
      "कaयामl": 7359,
      "कuटपिट": 7360,
      "तlशaरo": 7361,
      "९९": 7362,
      "पकaषलाई": 7363,
      "जoडlर": 7364,
      "मानaछlलl": 7365,
      "कषaट": 7366,
      "अनuमo": 7367,
      "महिलाहरu": 7368,
      "बीउ": 7369,
      "##वरकo": 7370,
      "##सीसी": 7371,
      "बचाउन": 7372,
      "##दलीय": 7373,
      "उतaसाहित": 7374,
      "##छpc": 7375,
      "कuखuरा": 7376,
      "आराम": 7377,
      "##ck": 7378,
      "घरमk": 7379,
      "शिवि": 7380,
      "##लाही": 7381,
      "##ियल": 7382,
      "आया": 7383,
      "हनu": 7384,
      "पaरदe": 7385,
      "##ामनaतaरी": 7386,
      "मlहन": 7387,
      "यoगaयता": 7388,
      "गाइ": 7389,
      "##निज": 7390,
      "उनk": 7391,
      "महानिरीकaषक": 7392,
      "एमाओवादी": 7393,
      "नसक": 7394,
      "##णu": 7395,
      "हिरo": 7396,
      "##धाई": 7397,
      "गlट": 7398,
      "##निरaवा": 7399,
      "हkसियत": 7400,
      "रसिया": 7401,
      "वkदaय": 7402,
      "सभaय": 7403,
      "नभएकालl": 7404,
      "खlलaदk": 7405,
      "बजlटकo": 7406,
      "जoडिएका": 7407,
      "##उनuभयo": 7408,
      "##रहनaछ": 7409,
      "परिमारaजन": 7410,
      "साcगीतिक": 7411,
      "समaपादक": 7412,
      "असा": 7413,
      "उमaमl": 7414,
      "बाढीलl": 7415,
      "##जारी": 7416,
      "सतaतामा": 7417,
      "##दिभ": 7418,
      "जानकार": 7419,
      "एड": 7420,
      "पaरसcग": 7421,
      "विशaववaयापी": 7422,
      "बoट": 7423,
      "पतaरमा": 7424,
      "सlमिफाइनलमा": 7425,
      "##oनl": 7426,
      "कeटनीतिक": 7427,
      "उभ": 7428,
      "##औषध": 7429,
      "हरियo": 7430,
      "इसa": 7431,
      "हlलिक": 7432,
      "पायo": 7433,
      "उमा": 7434,
      "विन": 7435,
      "शलaयकaरिया": 7436,
      "एकअरaका": 7437,
      "बाखaरा": 7438,
      "राजनि": 7439,
      "बढaनu": 7440,
      "गरaनuका": 7441,
      "##नaजlल": 7442,
      "टaरानaस": 7443,
      "सरा": 7444,
      "##निङ": 7445,
      "पuरk": 7446,
      "##पaरमuख": 7447,
      "भागaय": 7448,
      "ठाi": 7449,
      "पaरशaनकo": 7450,
      "सaरoतका": 7451,
      "##नaच": 7452,
      "राजनीतिकo": 7453,
      "नभएपछि": 7454,
      "##तरaफकo": 7455,
      "अछ": 7456,
      "जलविदaयuत": 7457,
      "मeरaति": 7458,
      "बयान": 7459,
      "हuमa": 7460,
      "लoडसl": 7461,
      "##नालाई": 7462,
      "रही": 7463,
      "गरli": 7464,
      "पaरणालीकo": 7465,
      "##ारe": 7466,
      "सकlसमaम": 7467,
      "अरaयाल": 7468,
      "##cच": 7469,
      "हामीसiग": 7470,
      "वरिपरि": 7471,
      "सkदaधानaतिक": 7472,
      "पuजा": 7473,
      "तिवारी": 7474,
      "निवारण": 7475,
      "उसका": 7476,
      "पaरकoप": 7477,
      "हoईन": 7478,
      "बाधा": 7479,
      "मoदीलl": 7480,
      "भeकमaपलl": 7481,
      "हसa": 7482,
      "पuसaतकाल": 7483,
      "खoजaदा": 7484,
      "तरaजuमा": 7485,
      "रहiदk": 7486,
      "पlनa": 7487,
      "##aनuपरaनl": 7488,
      "अधिवlशन": 7489,
      "मoदीकo": 7490,
      "##लवसaतu": 7491,
      "भoली": 7492,
      "चितवनकo": 7493,
      "गoदा": 7494,
      "नमeना": 7495,
      "वaयवसायमा": 7496,
      "मpदaरिक": 7497,
      "सaर": 7498,
      "ईशaवर": 7499,
      "ठकaकर": 7500,
      "पावर": 7501,
      "टucग": 7502,
      "मनoरञaजन": 7503,
      "धमaकी": 7504,
      "खपत": 7505,
      "८८": 7506,
      "बिम": 7507,
      "सaथाय": 7508,
      "घuस": 7509,
      "पkदल": 7510,
      "##तिय": 7511,
      "जaञवाल": 7512,
      "अङaग": 7513,
      "##रहनu": 7514,
      "शरaत": 7515,
      "सaवि": 7516,
      "साiचaचk": 7517,
      "##टारमा": 7518,
      "जlषaठ": 7519,
      "जितlका": 7520,
      "घuमaन": 7521,
      "एनaफा": 7522,
      "बराबरी": 7523,
      "रामlछा": 7524,
      "मारaनl": 7525,
      "कuमारी": 7526,
      "इनaधन": 7527,
      "कारaयलाई": 7528,
      "##नीति": 7529,
      "कoट": 7530,
      "##गaग": 7531,
      "कागजात": 7532,
      "लoकतनaतaरकo": 7533,
      "परमlशaव": 7534,
      "धनकuटा": 7535,
      "कaषlतaरी": 7536,
      "नहuनu": 7537,
      "अवकाश": 7538,
      "पदारaथकo": 7539,
      "पaरlरणा": 7540,
      "निश": 7541,
      "जoशीलl": 7542,
      "##लlपछि": 7543,
      "निकालaन": 7544,
      "##ओसa": 7545,
      "गरaदछu": 7546,
      "चिना": 7547,
      "शानaतिपeरaण": 7548,
      "तिनलl": 7549,
      "इजला": 7550,
      "एप": 7551,
      "झkc": 7552,
      "कlजी": 7553,
      "पaरचलित": 7554,
      "आशaवास": 7555,
      "##ठa": 7556,
      "सlपaटlमaबर": 7557,
      "##पaती": 7558,
      "##१८": 7559,
      "तीनवटा": 7560,
      "भlटवारaता": 7561,
      "सरaलाही": 7562,
      "छातaरा": 7563,
      "फारaम": 7564,
      "रuपानaतरण": 7565,
      "गरlपनि": 7566,
      "चम": 7567,
      "फoहर": 7568,
      "तिमीलाई": 7569,
      "समसaयामा": 7570,
      "सaरoतकo": 7571,
      "कaलि": 7572,
      "लाखकo": 7573,
      "पठाइएकo": 7574,
      "खानu": 7575,
      "डoलaपा": 7576,
      "बाiडफा": 7577,
      "आशaच": 7578,
      "असaव": 7579,
      "रहlकी": 7580,
      "गणना": 7581,
      "##तlर": 7582,
      "दिपक": 7583,
      "पaरदरaशनी": 7584,
      "वaयवहारमा": 7585,
      "भoजपuर": 7586,
      "जuवा": 7587,
      "##जम": 7588,
      "कuरa": 7589,
      "तापaलl": 7590,
      "##वहारिक": 7591,
      "निरaभर": 7592,
      "अरaकk": 7593,
      "उतaपादनकo": 7594,
      "काफ": 7595,
      "बीचकo": 7596,
      "सuतaकl": 7597,
      "मिलaछ": 7598,
      "लाइसlनaस": 7599,
      "गरaभवती": 7600,
      "##सaतaरी": 7601,
      "विशlषगरी": 7602,
      "##गाह": 7603,
      "##बिधान": 7604,
      "जनआनaदoल": 7605,
      "अवशaय": 7606,
      "सuवlदीलl": 7607,
      "लिटर": 7608,
      "##lजमा": 7609,
      "उचaचसaतरीय": 7610,
      "ननaद": 7611,
      "तlज": 7612,
      "##पaन": 7613,
      "##िकrत": 7614,
      "बाकa": 7615,
      "पoखरी": 7616,
      "ओलीलाई": 7617,
      "पaरभा": 7618,
      "सहजk": 7619,
      "अरaथमा": 7620,
      "पनaछ": 7621,
      "##गaलk": 7622,
      "शरि": 7623,
      "##मuकaति": 7624,
      "ऋषि": 7625,
      "##ारuढ": 7626,
      "वaयवसaथापनमा": 7627,
      "##तaसव": 7628,
      "सcज": 7629,
      "दरबनaदी": 7630,
      "दणaड": 7631,
      "##हरि": 7632,
      "सaकaर": 7633,
      "##धक": 7634,
      "अपर": 7635,
      "मतगणना": 7636,
      "लागaनu": 7637,
      "##ञaजा": 7638,
      "##कालिन": 7639,
      "बaरo": 7640,
      "पढाई": 7641,
      "डाउन": 7642,
      "८४": 7643,
      "तaरिवि": 7644,
      "पaरियcका": 7645,
      "भkसकlकo": 7646,
      "लाखpc": 7647,
      "अधaययनरत": 7648,
      "##ालaनl": 7649,
      "जनाउiदk": 7650,
      "हाइडaरo": 7651,
      "फाई": 7652,
      "सतaतारuढ": 7653,
      "खतaरी": 7654,
      "यात": 7655,
      "##सय": 7656,
      "तीरaथ": 7657,
      "उडaड": 7658,
      "##तlकo": 7659,
      "पaरहरीमा": 7660,
      "महlश": 7661,
      "##सaटिक": 7662,
      "सङaघरaष": 7663,
      "##भिर": 7664,
      "##विराज": 7665,
      "##रaकि": 7666,
      "##ारl": 7667,
      "दिनका": 7668,
      "नlतrतaवलl": 7669,
      "एसएल": 7670,
      "इटहरी": 7671,
      "बडा": 7672,
      "तaयहाiबाट": 7673,
      "कlर": 7674,
      "बिगत": 7675,
      "विदaयादlवी": 7676,
      "राजधानीकo": 7677,
      "कामदारकo": 7678,
      "साधारणसभा": 7679,
      "नवराज": 7680,
      "##दlन": 7681,
      "सuरuङ": 7682,
      "विगतका": 7683,
      "जिस": 7684,
      "ठeल": 7685,
      "##टलl": 7686,
      "अनaयतaर": 7687,
      "सामगaर": 7688,
      "उदaयoगी": 7689,
      "पaरजaञा": 7690,
      "##uपaर": 7691,
      "रoचक": 7692,
      "सcगठित": 7693,
      "##बuल": 7694,
      "सaतरo": 7695,
      "नlवार": 7696,
      "टlकa": 7697,
      "बताउनuहuनaछ": 7698,
      "कारaयानaवयनकo": 7699,
      "कारaयानaवयनका": 7700,
      "खतिवडालl": 7701,
      "धादिङ": 7702,
      "शlख": 7703,
      "जापानकo": 7704,
      "सिलसिलामा": 7705,
      "##लिया": 7706,
      "##ागaर": 7707,
      "धमा": 7708,
      "किसaता": 7709,
      "सcसaथालाई": 7710,
      "काiगaरlसलl": 7711,
      "##हuनl": 7712,
      "भlष": 7713,
      "मuलuकलl": 7714,
      "दिशामा": 7715,
      "##तaरि": 7716,
      "थालनी": 7717,
      "##ताल": 7718,
      "ठगी": 7719,
      "विशaवकk": 7720,
      "##lजी": 7721,
      "अभियoगमा": 7722,
      "हासaय": 7723,
      "सaटक": 7724,
      "कमला": 7725,
      "##uरaण": 7726,
      "सदसaयमा": 7727,
      "शoषण": 7728,
      "##uस": 7729,
      "यसkलl": 7730,
      "सuरlश": 7731,
      "गuरuङकo": 7732,
      "नसकaनu": 7733,
      "बनaनu": 7734,
      "रिट": 7735,
      "##टनकo": 7736,
      "आपe": 7737,
      "##aयoर": 7738,
      "गमa": 7739,
      "धaरu": 7740,
      "दिनअघि": 7741,
      "दlखाइ": 7742,
      "गइ": 7743,
      "सcसदकo": 7744,
      "चuर": 7745,
      "सcहिता": 7746,
      "##रaतामo": 7747,
      "बधाई": 7748,
      "कमाएकo": 7749,
      "अपaठaयारo": 7750,
      "##eला": 7751,
      "करoडकo": 7752,
      "##lग": 7753,
      "शpचालय": 7754,
      "करकo": 7755,
      "लकaषaमण": 7756,
      "छlउ": 7757,
      "कपिलवसaतu": 7758,
      "पहलमा": 7759,
      "##कारकo": 7760,
      "सग": 7761,
      "सवार": 7762,
      "##बारlमा": 7763,
      "ओलमaप": 7764,
      "भlद": 7765,
      "कालoपतaर": 7766,
      "##ङaगl": 7767,
      "बाहिरी": 7768,
      "९८": 7769,
      "विशaवकपकo": 7770,
      "छानविन": 7771,
      "सcगठनकo": 7772,
      "##सaलl": 7773,
      "राजविराज": 7774,
      "जीत": 7775,
      "सuनaदा": 7776,
      "सuरe": 7777,
      "आशaचरaय": 7778,
      "औसत": 7779,
      "##भावी": 7780,
      "तापनि": 7781,
      "सीता": 7782,
      "नकaसा": 7783,
      "अनuवाद": 7784,
      "रकaसी": 7785,
      "जाजरकo": 7786,
      "##वu": 7787,
      "सaथानीयवासी": 7788,
      "हlकaटर": 7789,
      "जaयlषaठ": 7790,
      "नaयeनीकरण": 7791,
      "कानuनकo": 7792,
      "##पaस": 7793,
      "हालकo": 7794,
      "अचान": 7795,
      "आयoजनालl": 7796,
      "हuनuकo": 7797,
      "वlद": 7798,
      "अi": 7799,
      "आरaय": 7800,
      "६९": 7801,
      "##ितaय": 7802,
      "हाराहारीमा": 7803,
      "##सग": 7804,
      "##uलीकo": 7805,
      "धरaमा": 7806,
      "पaराधिकरणकo": 7807,
      "सरaत": 7808,
      "सcसaकrत": 7809,
      "सहuल": 7810,
      "रoकaनl": 7811,
      "बlवासaता": 7812,
      "विषा": 7813,
      "डाय": 7814,
      "समाजलाई": 7815,
      "सिजन": 7816,
      "लगाउiदk": 7817,
      "शीत": 7818,
      "छoरीकo": 7819,
      "फरaकनl": 7820,
      "##ङaख": 7821,
      "भटaटलl": 7822,
      "सcवतa": 7823,
      "सदसaयलl": 7824,
      "वीरगनaज": 7825,
      "महासङaघ": 7826,
      "सामlल": 7827,
      "टaरlल": 7828,
      "गरaनlलाई": 7829,
      "फuटबलकo": 7830,
      "समि": 7831,
      "पaराचीन": 7832,
      "उदlशaय": 7833,
      "##किम": 7834,
      "सामaराजaय": 7835,
      "सaवरeप": 7836,
      "गचaछ": 7837,
      "निशaच": 7838,
      "बसनaत": 7839,
      "२००७": 7840,
      "७१": 7841,
      "खानी": 7842,
      "आकसa": 7843,
      "##जका": 7844,
      "##टका": 7845,
      "##शaमा": 7846,
      "जkविक": 7847,
      "डिलaली": 7848,
      "##ञaजu": 7849,
      "##रन": 7850,
      "अरaकाl": 7851,
      "##lनaटमा": 7852,
      "सuधारका": 7853,
      "सaथायितaव": 7854,
      "सता": 7855,
      "ढिलाइ": 7856,
      "एभर": 7857,
      "बuझाउन": 7858,
      "अड": 7859,
      "गतlकo": 7860,
      "##डल": 7861,
      "##धनी": 7862,
      "गaलoबल": 7863,
      "दuब": 7864,
      "राषaटaरियता": 7865,
      "नाकाबनaद": 7866,
      "पालन": 7867,
      "अचानक": 7868,
      "नसकlका": 7869,
      "##रलाई": 7870,
      "अगaलo": 7871,
      "##टिस": 7872,
      "बिदaयालय": 7873,
      "##उप": 7874,
      "##बिना": 7875,
      "झणaडा": 7876,
      "मlलमa": 7877,
      "नच": 7878,
      "यजaञ": 7879,
      "पaरlमी": 7880,
      "अरaध": 7881,
      "घलl": 7882,
      "##बlर": 7883,
      "धuलo": 7884,
      "महानa": 7885,
      "चीनमा": 7886,
      "विषयकo": 7887,
      "सaतरoनaन": 7888,
      "खाइ": 7889,
      "सतaर": 7890,
      "पaरवासी": 7891,
      "चuनावकo": 7892,
      "जमी": 7893,
      "पठन": 7894,
      "##जिन": 7895,
      "पaरlरित": 7896,
      "उडaडयन": 7897,
      "८२": 7898,
      "शर": 7899,
      "पuरaण": 7900,
      "##ारoपण": 7901,
      "अनpठo": 7902,
      "८३": 7903,
      "##बकo": 7904,
      "समकaष": 7905,
      "##वासीलl": 7906,
      "##णaडी": 7907,
      "छातaरवrतaति": 7908,
      "चाइ": 7909,
      "##लीलl": 7910,
      "##यिक": 7911,
      "समaपuरaण": 7912,
      "टaरया": 7913,
      "फlसबuकमा": 7914,
      "सcचालनमा": 7915,
      "##cकी": 7916,
      "नदlखि": 7917,
      "सuरकaषाका": 7918,
      "पराजuली": 7919,
      "डरा": 7920,
      "##डoर": 7921,
      "सलaयान": 7922,
      "##तापeरaवक": 7923,
      "गरaछन": 7924,
      "समaमlलनकo": 7925,
      "यि": 7926,
      "##cदkन": 7927,
      "पानीमा": 7928,
      "नदिएकo": 7929,
      "खातामा": 7930,
      "आउiछनa": 7931,
      "भएi": 7932,
      "नवीन": 7933,
      "माओवादीका": 7934,
      "##मoहन": 7935,
      "परaवकo": 7936,
      "फस": 7937,
      "##सीय": 7938,
      "सcबिधान": 7939,
      "##lलo": 7940,
      "##uकमaप": 7941,
      "सयpc": 7942,
      "बlहo": 7943,
      "औचित": 7944,
      "खuद": 7945,
      "झापाकo": 7946,
      "महानिरaदlशक": 7947,
      "जथा": 7948,
      "नाघ": 7949,
      "लगायतलl": 7950,
      "अरaयाललl": 7951,
      "सहकारaयमा": 7952,
      "सवारीसाधन": 7953,
      "बनाउiदा": 7954,
      "उही": 7955,
      "भनिनl": 7956,
      "खट": 7957,
      "##अधaयकaष": 7958,
      "मचaच": 7959,
      "कlदार": 7960,
      "बrदaध": 7961,
      "##थान": 7962,
      "खlलाडीलl": 7963,
      "सuनl": 7964,
      "##लाइनaस": 7965,
      "टaरl": 7966,
      "##झkc": 7967,
      "##माथिकo": 7968,
      "लuक": 7969,
      "१९६": 7970,
      "##नाइटlड": 7971,
      "शिकार": 7972,
      "असu": 7973,
      "उहा": 7974,
      "निरaदlशनमा": 7975,
      "सरसफाई": 7976,
      "##ालीमा": 7977,
      "लागaथaयo": 7978,
      "शr": 7979,
      "पuयाउन": 7980,
      "माइती": 7981,
      "##िकन": 7982,
      "महास": 7983,
      "आकसaमिक": 7984,
      "##वशaयक": 7985,
      "##सaमा": 7986,
      "परिकaषण": 7987,
      "##दaवय": 7988,
      "ठuला": 7989,
      "##aरkमा": 7990,
      "कमाउनl": 7991,
      "दास": 7992,
      "चलaन": 7993,
      "उदaयमी": 7994,
      "पशaचिमी": 7995,
      "वामपनaथी": 7996,
      "पuरuषकo": 7997,
      "जसo": 7998,
      "सारaथ": 7999,
      "गरिनu": 8000,
      "इला": 8001,
      "##ik": 8002,
      "जता": 8003,
      "टaवी": 8004,
      "##नaदkन": 8005,
      "राखिएका": 8006,
      "##नालaड": 8007,
      "अनaयाय": 8008,
      "आयoजनाका": 8009,
      "हलaका": 8010,
      "नlटवरaक": 8011,
      "आफaनी": 8012,
      "##सामu": 8013,
      "अनaततः": 8014,
      "तपाईलाई": 8015,
      "कठि": 8016,
      "##वाकo": 8017,
      "##बाहिर": 8018,
      "उतार": 8019,
      "पदa": 8020,
      "नlपालकk": 8021,
      "फालa": 8022,
      "पaरसaथान": 8023,
      "कoश": 8024,
      "असuर": 8025,
      "ततaकालk": 8026,
      "वlबसाइट": 8027,
      "##aनuपरaछ": 8028,
      "नlपालीहरu": 8029,
      "भाडामा": 8030,
      "पaरथा": 8031,
      "समरaथक": 8032,
      "जनचlत": 8033,
      "धp": 8034,
      "रजि": 8035,
      "दिनभितaर": 8036,
      "अनaतरगत": 8037,
      "सलमान": 8038,
      "##जीकरण": 8039,
      "नामा": 8040,
      "##ताप": 8041,
      "खuलासा": 8042,
      "जगaगामा": 8043,
      "कारaयपालिकाकo": 8044,
      "##ीनारायण": 8045,
      "गरlकoमा": 8046,
      "##सaवरuप": 8047,
      "दारaचu": 8048,
      "अवसaथाकo": 8049,
      "सञaचालनका": 8050,
      "२०१३": 8051,
      "कारaयकo": 8052,
      "मनaतaरिपरिषद": 8053,
      "मनaदिरकo": 8054,
      "साधनकo": 8055,
      "##पल": 8056,
      "##वाङ": 8057,
      "##दरaशन": 8058,
      "बसाइ": 8059,
      "यuक": 8060,
      "परीकaषामा": 8061,
      "मlलमिला": 8062,
      "जवान": 8063,
      "##पछी": 8064,
      "कuरk": 8065,
      "कuशल": 8066,
      "जनसaवासaथaय": 8067,
      "रlसaट": 8068,
      "उदaयम": 8069,
      "खlलाडीकo": 8070,
      "सuतaकlरी": 8071,
      "बरिषaठ": 8072,
      "दिल": 8073,
      "थाइलaयाणaड": 8074,
      "गa": 8075,
      "##जालl": 8076,
      "पसलमा": 8077,
      "डoनालaड": 8078,
      "विमानसaथलकo": 8079,
      "भeगoल": 8080,
      "पoलि": 8081,
      "परaनlमा": 8082,
      "शाहीलl": 8083,
      "पaरयoजन": 8084,
      "##राग": 8085,
      "तरल": 8086,
      "अवलमaबन": 8087,
      "##लियo": 8088,
      "##कaया": 8089,
      "##सaपति": 8090,
      "जगaगाकo": 8091,
      "नoकaस": 8092,
      "मuमaब": 8093,
      "पuरसaकrत": 8094,
      "विजaञपaति": 8095,
      "दuरaगम": 8096,
      "##दलl": 8097,
      "बढा": 8098,
      "पाइiदkन": 8099,
      "अछाम": 8100,
      "गरaमी": 8101,
      "महिनादlखि": 8102,
      "पाहu": 8103,
      "भिटाम": 8104,
      "##uलl": 8105,
      "##गि": 8106,
      "उदaयoगमा": 8107,
      "ढाiच": 8108,
      "तkपनि": 8109,
      "हlलि": 8110,
      "उपयoगी": 8111,
      "जcगल": 8112,
      "##पाइ": 8113,
      "ढuकaक": 8114,
      "अनaयथा": 8115,
      "दमक": 8116,
      "जितa": 8117,
      "##राजaय": 8118,
      "##हालa": 8119,
      "##सतमा": 8120,
      "##रहित": 8121,
      "##वाहक": 8122,
      "०५": 8123,
      "##षaटिक": 8124,
      "अवतरण": 8125,
      "##lजसaतo": 8126,
      "##मधaय": 8127,
      "मधuमl": 8128,
      "विवादमा": 8129,
      "अफaरिका": 8130,
      "अनuमoदन": 8131,
      "मानlर": 8132,
      "तिहारमा": 8133,
      "##कवि": 8134,
      "##वधि": 8135,
      "बाहaर": 8136,
      "##सिएसन": 8137,
      "अकaटoबर": 8138,
      "सालदlखि": 8139,
      "हितमा": 8140,
      "##शरण": 8141,
      "औचितaय": 8142,
      "झगडा": 8143,
      "सदसaयहरu": 8144,
      "सuवास": 8145,
      "आयoगमा": 8146,
      "किसानलाई": 8147,
      "आशaवासन": 8148,
      "ऐनकo": 8149,
      "##परaधा": 8150,
      "साiसaकrतिक": 8151,
      "आब": 8152,
      "घoषणापतaर": 8153,
      "##भo": 8154,
      "सcसaथान": 8155,
      "नसकl": 8156,
      "सuमन": 8157,
      "समaममा": 8158,
      "शहरी": 8159,
      "बिहिबार": 8160,
      "##कlनaदaर": 8161,
      "समuदaर": 8162,
      "##आएकo": 8163,
      "नlपालगनaज": 8164,
      "भानuभकaत": 8165,
      "चिनaतन": 8166,
      "सeचनाकo": 8167,
      "फाइनानaस": 8168,
      "बनाउनuपरaनl": 8169,
      "इमान": 8170,
      "फार": 8171,
      "##रaवlद": 8172,
      "##ारामा": 8173,
      "गuज": 8174,
      "गाउiकo": 8175,
      "बaराजिल": 8176,
      "हlरaदk": 8177,
      "२०६४": 8178,
      "तालिका": 8179,
      "##यoजित": 8180,
      "##दिनaछ": 8181,
      "एमaबu": 8182,
      "##रe": 8183,
      "##बीचमा": 8184,
      "भलिबल": 8185,
      "छoराकo": 8186,
      "सहिद": 8187,
      "जaवा": 8188,
      "भावी": 8189,
      "##पिटल": 8190,
      "सकaनlछनa": 8191,
      "मालaदिभ": 8192,
      "##धमा": 8193,
      "२०६८": 8194,
      "आयल": 8195,
      "चuप": 8196,
      "काठमाडpiमा": 8197,
      "अभियानकo": 8198,
      "समaभावित": 8199,
      "हराउiदk": 8200,
      "चारk": 8201,
      "उपपaरधानमनaतaरी": 8202,
      "##oजl": 8203,
      "कारaयालयबाट": 8204,
      "गrहकारaय": 8205,
      "पpडlलकo": 8206,
      "विशaवकरaमा": 8207,
      "कc": 8208,
      "काठमाडpcका": 8209,
      "तaरkमा": 8210,
      "##यरिङ": 8211,
      "##iकी": 8212,
      "उठाएकo": 8213,
      "##तरaफी": 8214,
      "तaयहीi": 8215,
      "समuदायलाई": 8216,
      "यuनिभ": 8217,
      "आईत": 8218,
      "गिर": 8219,
      "##हuनaन": 8220,
      "सिधk": 8221,
      "मoरaच": 8222,
      "सपaतरी": 8223,
      "विदaरoह": 8224,
      "सoलuखu": 8225,
      "##पञaच": 8226,
      "##aयp": 8227,
      "##टlकo": 8228,
      "##cगl": 8229,
      "छिमlक": 8230,
      "हजारभनaदा": 8231,
      "बलातa": 8232,
      "शरणारaथी": 8233,
      "शही": 8234,
      "खर": 8235,
      "माई": 8236,
      "बिषaट": 8237,
      "फaरि": 8238,
      "रावल": 8239,
      "##भाई": 8240,
      "महामनaतaरी": 8241,
      "यuवालाई": 8242,
      "माउ": 8243,
      "##समaपरaक": 8244,
      "बoलाएर": 8245,
      "हlटpcडा": 8246,
      "खlर": 8247,
      "विसaफoट": 8248,
      "छuटaटा": 8249,
      "पrथaवीनारायण": 8250,
      "यuटaयuब": 8251,
      "नहoसa": 8252,
      "##सिएकo": 8253,
      "गरlन": 8254,
      "##पादन": 8255,
      "सuनार": 8256,
      "##जसaती": 8257,
      "पाटo": 8258,
      "दrढ": 8259,
      "लिमिटlडलl": 8260,
      "गानaध": 8261,
      "गoलaड": 8262,
      "गuमाएका": 8263,
      "झk": 8264,
      "शuकaरवार": 8265,
      "सापaता": 8266,
      "##िसि": 8267,
      "सरसaवती": 8268,
      "गpरी": 8269,
      "कलlजमा": 8270,
      "मङaगलबार": 8271,
      "समaहाल": 8272,
      "नगरaनu": 8273,
      "बaरहa": 8274,
      "झड": 8275,
      "##iची": 8276,
      "हuiदाहuiदk": 8277,
      "पलaट": 8278,
      "दिपा": 8279,
      "गrहमनaतaर": 8280,
      "सञaचारकरaमी": 8281,
      "दमaप": 8282,
      "सcघिय": 8283,
      "माकaरaस": 8284,
      "भगवानa": 8285,
      "नमिलaनl": 8286,
      "आजदlखि": 8287,
      "मaयाच": 8288,
      "मlलामा": 8289,
      "राउत": 8290,
      "भवनमा": 8291,
      "नसकlपछि": 8292,
      "आइरहlका": 8293,
      "खल": 8294,
      "##नaदo": 8295,
      "मानl": 8296,
      "मuदaधा": 8297,
      "परिकलaपना": 8298,
      "ताम": 8299,
      "धlरkकo": 8300,
      "कसuर": 8301,
      "वo": 8302,
      "##नaमuख": 8303,
      "जितlर": 8304,
      "एनआरएनए": 8305,
      "##पuल": 8306,
      "सuखी": 8307,
      "पaरoट": 8308,
      "काटि": 8309,
      "##यामा": 8310,
      "नlपालभारत": 8311,
      "पारaव": 8312,
      "चीनका": 8313,
      "##पतaरिका": 8314,
      "यतिखlर": 8315,
      "मनाङ": 8316,
      "जाम": 8317,
      "परिकार": 8318,
      "रlस": 8319,
      "चलखlल": 8320,
      "शरaमाकo": 8321,
      "##काcकaषा": 8322,
      "रlश": 8323,
      "बाiकl": 8324,
      "बaयवसाय": 8325,
      "सिनaड": 8326,
      "चाडपरaव": 8327,
      "##समaप": 8328,
      "##सaटार": 8329,
      "सuनिल": 8330,
      "##डlलa": 8331,
      "सामानaयतया": 8332,
      "मनaतaरिपरिषदaकo": 8333,
      "##किङaग": 8334,
      "##सaरoत": 8335,
      "जीवित": 8336,
      "##विरuदaधकo": 8337,
      "##टaटि": 8338,
      "गिरिजा": 8339,
      "##भएकo": 8340,
      "बkठककo": 8341,
      "मानवअधिकार": 8342,
      "##uण": 8343,
      "##ठeला": 8344,
      "तlहaर": 8345,
      "##चa": 8346,
      "##lटी": 8347,
      "बuधवार": 8348,
      "दकaषिणी": 8349,
      "जिक": 8350,
      "दoबaबर": 8351,
      "घuमा": 8352,
      "समrदaधिका": 8353,
      "पeरaवपaरधानमनaतaरी": 8354,
      "कuराहरe": 8355,
      "सuरकaषाकरaमी": 8356,
      "साहितaयकo": 8357,
      "परिसरमा": 8358,
      "##नuपरaदा": 8359,
      "बीपी": 8360,
      "हlलिकपaटर": 8361,
      "आपसमा": 8362,
      "भuकमaप": 8363,
      "##वाहित": 8364,
      "यuनाइटlड": 8365,
      "पaरकrतिकo": 8366,
      "सापaताहिक": 8367,
      "##uटि": 8368,
      "माननaध": 8369,
      "##पuरका": 8370,
      "छoरo": 8371,
      "मuखमा": 8372,
      "अरaकoतिर": 8373,
      "##िकk": 8374,
      "गतlबाट": 8375,
      "बहuम": 8376,
      "मनoनयन": 8377,
      "शिला": 8378,
      "छायाi": 8379,
      "जिजaञासा": 8380,
      "ओलमaपिक": 8381,
      "##वरaती": 8382,
      "नoभlमaबर": 8383,
      "वढ": 8384,
      "हालlर": 8385,
      "खरa": 8386,
      "थपa": 8387,
      "##काणaड": 8388,
      "थिई": 8389,
      "##लान": 8390,
      "विस": 8391,
      "दlखaनl": 8392,
      "बlचaनl": 8393,
      "##कामा": 8394,
      "लागतमा": 8395,
      "##पानीकo": 8396,
      "कaलबलl": 8397,
      "खतaर": 8398,
      "कमाइ": 8399,
      "सकिए": 8400,
      "##बuटी": 8401,
      "थपिएकo": 8402,
      "दायरामा": 8403,
      "उनaमuख": 8404,
      "थaरी": 8405,
      "महlनaदaरनगर": 8406,
      "महाराज": 8407,
      "दाउ": 8408,
      "##ितीय": 8409,
      "दिनपछि": 8410,
      "सiगसiगk": 8411,
      "समlटिएकo": 8412,
      "इणaड": 8413,
      "##अगा": 8414,
      "माह": 8415,
      "आरमaभ": 8416,
      "इलl": 8417,
      "चलाइ": 8418,
      "बाiचaन": 8419,
      "##आउट": 8420,
      "दuव": 8421,
      "परिमाण": 8422,
      "बuझाउनl": 8423,
      "राजaयमा": 8424,
      "पदकo": 8425,
      "अधaययनका": 8426,
      "गमaभिर": 8427,
      "सuनaनl": 8428,
      "विरामी": 8429,
      "समगaरमा": 8430,
      "हटा": 8431,
      "##राही": 8432,
      "निराश": 8433,
      "नजर": 8434,
      "##१६": 8435,
      "जिता": 8436,
      "##खaयात": 8437,
      "कमाउन": 8438,
      "भaरषaट": 8439,
      "हाउस": 8440,
      "दाम": 8441,
      "सरaवसमaम": 8442,
      "##पनकo": 8443,
      "##रaटर": 8444,
      "टoलीका": 8445,
      "घन": 8446,
      "समaपरa": 8447,
      "एनस": 8448,
      "टoलीकo": 8449,
      "पaरचणaडकo": 8450,
      "निराशा": 8451,
      "बागa": 8452,
      "बढीकo": 8453,
      "भीमदतaत": 8454,
      "##कlश": 8455,
      "दिनaछनa": 8456,
      "चिनaति": 8457,
      "निकालaनl": 8458,
      "भारतसiग": 8459,
      "आजसमaम": 8460,
      "दिएकी": 8461,
      "राषaटaरपतिकo": 8462,
      "##मoचन": 8463,
      "जaञवालीलl": 8464,
      "डानaस": 8465,
      "छर": 8466,
      "##डका": 8467,
      "निकासी": 8468,
      "भिटामिन": 8469,
      "##मानमा": 8470,
      "नियत": 8471,
      "##रoज": 8472,
      "सuदrढ": 8473,
      "##जिर": 8474,
      "कारागार": 8475,
      "रoका": 8476,
      "जिनaदगी": 8477,
      "८६": 8478,
      "##पाठ": 8479,
      "भएकाl": 8480,
      "थाह": 8481,
      "सaतरकo": 8482,
      "२०१२": 8483,
      "भoलिपलaट": 8484,
      "कoषकo": 8485,
      "रवी": 8486,
      "##पारी": 8487,
      "गoलa": 8488,
      "अरuकo": 8489,
      "बिति": 8490,
      "समाजसlवी": 8491,
      "विषयवसaतu": 8492,
      "##पaरlर": 8493,
      "##पaरlषण": 8494,
      "हातaती": 8495,
      "ऐनमा": 8496,
      "तaयसमाथि": 8497,
      "वaयवसaथाकo": 8498,
      "खoप": 8499,
      "फरaकिएका": 8500,
      "##दमा": 8501,
      "कoइरालाकo": 8502,
      "हदसमaम": 8503,
      "चoर": 8504,
      "सaनातक": 8505,
      "नlदर": 8506,
      "##रिय": 8507,
      "विनाश": 8508,
      "डडlलa": 8509,
      "तिनलाई": 8510,
      "कमरlड": 8511,
      "कoरियाकo": 8512,
      "काउनaसि": 8513,
      "मापन": 8514,
      "पaरदeषण": 8515,
      "शतaरu": 8516,
      "कमिट": 8517,
      "##मानकo": 8518,
      "##lनaज": 8519,
      "बजlर": 8520,
      "धaयानमा": 8521,
      "सारaब": 8522,
      "##खaयक": 8523,
      "अनियमितता": 8524,
      "चिनaतित": 8525,
      "##नaदि": 8526,
      "सडकखणaड": 8527,
      "##iदo": 8528,
      "कuनkपनि": 8529,
      "निरीकaषण": 8530,
      "बिमसaटlक": 8531,
      "काफaलl": 8532,
      "एभरl": 8533,
      "जoडaन": 8534,
      "पाठaयकaरम": 8535,
      "परिसe": 8536,
      "##aयाएकo": 8537,
      "खाडी": 8538,
      "खoजिएकo": 8539,
      "जaञवाली": 8540,
      "निरaमित": 8541,
      "बनlपछि": 8542,
      "टaरक": 8543,
      "खग": 8544,
      "वकaत": 8545,
      "##तर": 8546,
      "##अघ": 8547,
      "हिनaदी": 8548,
      "आचारसc": 8549,
      "##जल": 8550,
      "##pटी": 8551,
      "पाउiछनa": 8552,
      "राजaयमनaतaरी": 8553,
      "एकाएक": 8554,
      "##धम": 8555,
      "भितaरk": 8556,
      "##रaपoर": 8557,
      "पथ": 8558,
      "खoल": 8559,
      "भाइटीका": 8560,
      "सcशoधनकo": 8561,
      "सकaनuपरaछ": 8562,
      "आमालाई": 8563,
      "माथिकo": 8564,
      "भuटान": 8565,
      "##कaषaमी": 8566,
      "खoजीमा": 8567,
      "पहिरoलl": 8568,
      "पaररaद": 8569,
      "आवासीय": 8570,
      "##पालीका": 8571,
      "बलातaकारपछि": 8572,
      "विदa": 8573,
      "टlवा": 8574,
      "सहमतिमा": 8575,
      "सoलuखuमaबu": 8576,
      "नानी": 8577,
      "##ाउनuपरaछ": 8578,
      "भनlकk": 8579,
      "वाग": 8580,
      "लoग": 8581,
      "सरि": 8582,
      "##करणकo": 8583,
      "पlसा": 8584,
      "पaराण": 8585,
      "खाiचo": 8586,
      "टoलीलाई": 8587,
      "भlग": 8588,
      "नमaबरमा": 8589,
      "पारदरaशी": 8590,
      "अमrत": 8591,
      "सcचालक": 8592,
      "##lनaसी": 8593,
      "बिरामीलाई": 8594,
      "नlवि": 8595,
      "हानी": 8596,
      "साफ": 8597,
      "अबa": 8598,
      "अनaतरaवारaता": 8599,
      "तिमीलl": 8600,
      "हिमालय": 8601,
      "डडlलaधu": 8602,
      "अङaगaर": 8603,
      "अमlरिकाका": 8604,
      "कतिपयलl": 8605,
      "वसaतuकo": 8606,
      "मनाइनl": 8607,
      "उपराषaटaरपति": 8608,
      "##चालित": 8609,
      "अधaयादlश": 8610,
      "निमारaण": 8611,
      "विपरित": 8612,
      "बसaदा": 8613,
      "भlटमा": 8614,
      "##ातaमक": 8615,
      "##वlला": 8616,
      "पारस": 8617,
      "रlगaमीलl": 8618,
      "पाउनlछनa": 8619,
      "कसaता": 8620,
      "##नlशaवर": 8621,
      "##ाचार": 8622,
      "##निस": 8623,
      "सaवभाविक": 8624,
      "भारतलाई": 8625,
      "दlखाउiछ": 8626,
      "अनpपचारिक": 8627,
      "लp": 8628,
      "##पoत": 8629,
      "सारlकo": 8630,
      "पिडित": 8631,
      "निकायका": 8632,
      "एजlणaडा": 8633,
      "हरaष": 8634,
      "फरaकlर": 8635,
      "ककaषामा": 8636,
      "हडa": 8637,
      "पaरधाना": 8638,
      "चaयानल": 8639,
      "चाहनaछनa": 8640,
      "जथाभावी": 8641,
      "काटlर": 8642,
      "सaरषaटा": 8643,
      "माता": 8644,
      "##विकaरम": 8645,
      "##जlर": 8646,
      "##बाजी": 8647,
      "##uरlनaट": 8648,
      "जिलaलाबाट": 8649,
      "लाइफ": 8650,
      "खटिएका": 8651,
      "विदaयालयलl": 8652,
      "आमaदान": 8653,
      "मoटo": 8654,
      "मानaछlलाई": 8655,
      "नpलo": 8656,
      "##मिर": 8657,
      "##दuई": 8658,
      "अराज": 8659,
      "कह": 8660,
      "किनaनl": 8661,
      "कमk": 8662,
      "##चिएकo": 8663,
      "नगरl": 8664,
      "वaयावहारिक": 8665,
      "सहरमा": 8666,
      "पrषaठभeमि": 8667,
      "वरa": 8668,
      "खlलlका": 8669,
      "अधिनायक": 8670,
      "भिम": 8671,
      "चाiडo": 8672,
      "सिcगo": 8673,
      "उदaयoगकo": 8674,
      "फिफा": 8675,
      "कटu": 8676,
      "गkc": 8677,
      "झलa": 8678,
      "एकएक": 8679,
      "##िमणaड": 8680,
      "गरlc": 8681,
      "महादlव": 8682,
      "कoरियालl": 8683,
      "सहuलियत": 8684,
      "२०६३": 8685,
      "सuनuवार": 8686,
      "गाडीमा": 8687,
      "उदार": 8688,
      "साकaषर": 8689,
      "गरaनuपरaनlमा": 8690,
      "मrतक": 8691,
      "लघuवितaत": 8692,
      "सारaवभpम": 8693,
      "छरि": 8694,
      "बिचार": 8695,
      "कटpती": 8696,
      "सतरaक": 8697,
      "एमaबuलlनaस": 8698,
      "सcगीतकार": 8699,
      "वrतaत": 8700,
      "##डaरिड": 8701,
      "##नaतबaय": 8702,
      "वहाi": 8703,
      "##अर": 8704,
      "विध": 8705,
      "सबkका": 8706,
      "विपदa": 8707,
      "गचaछदार": 8708,
      "अरuलाई": 8709,
      "लoप": 8710,
      "##कaव": 8711,
      "सcरचनामा": 8712,
      "ठeलk": 8713,
      "##नaडा": 8714,
      "अबसaथा": 8715,
      "ढङaगलl": 8716,
      "सuनlर": 8717,
      "##सaवरeप": 8718,
      "मuनाफा": 8719,
      "अतिकaरमण": 8720,
      "बaयाजदर": 8721,
      "मसiग": 8722,
      "गीतकार": 8723,
      "बuहारी": 8724,
      "महासcघलl": 8725,
      "जानuपरaनl": 8726,
      "बाब": 8727,
      "भरपरa": 8728,
      "खाएकo": 8729,
      "महासcघकo": 8730,
      "गठबनaधनकo": 8731,
      "सफाइ": 8732,
      "सaवाय": 8733,
      "चिज": 8734,
      "गaरनaथ": 8735,
      "पaरतिनिधिसभाकo": 8736,
      "##eर": 8737,
      "निकालlर": 8738,
      "##कaताकo": 8739,
      "डाउनलoड": 8740,
      "भणaडारीकo": 8741,
      "##यका": 8742,
      "निरaमाणाधीन": 8743,
      "वरaगकo": 8744,
      "पlनालa": 8745,
      "समाधानका": 8746,
      "कफी": 8747,
      "##बस": 8748,
      "##बमा": 8749,
      "बसपारaक": 8750,
      "##पास": 8751,
      "सबkमा": 8752,
      "७९": 8753,
      "लिनuपरaनl": 8754,
      "सदसaयता": 8755,
      "अट": 8756,
      "शिरaष": 8757,
      "सकlर": 8758,
      "काठमाडाkc": 8759,
      "गभ": 8760,
      "##बितaतिकk": 8761,
      "यoजनाकo": 8762,
      "बीबी": 8763,
      "पटककo": 8764,
      "मरaयादा": 8765,
      "चनaदा": 8766,
      "मरa": 8767,
      "०४": 8768,
      "शaरीमत": 8769,
      "सिनaधuली": 8770,
      "अधaययनलl": 8771,
      "तिनीहरeलl": 8772,
      "महoतaसवमा": 8773,
      "बङaगलादlश": 8774,
      "सवालमा": 8775,
      "पढlर": 8776,
      "रदaद": 8777,
      "##िलl": 8778,
      "लाभाcश": 8779,
      "##विपरी": 8780,
      "##सङaखaया": 8781,
      "सaवरमा": 8782,
      "##aरlज": 8783,
      "##लaदा": 8784,
      "दeर": 8785,
      "गाविसमा": 8786,
      "मoरaचालl": 8787,
      "मrग": 8788,
      "घरaती": 8789,
      "मानa": 8790,
      "लनaडन": 8791,
      "सlलa": 8792,
      "इञa": 8793,
      "गगन": 8794,
      "छिर": 8795,
      "##साङ": 8796,
      "आवकo": 8797,
      "चिनa": 8798,
      "बuझlर": 8799,
      "बकaस": 8800,
      "सावित": 8801,
      "बसl": 8802,
      "पaरoजl": 8803,
      "कामहरu": 8804,
      "याताया": 8805,
      "##पीकo": 8806,
      "हजारकo": 8807,
      "साहितaयमा": 8808,
      "सuनuवाई": 8809,
      "आयuरaवlद": 8810,
      "कuवlत": 8811,
      "करaपoर": 8812,
      "९४": 8813,
      "##दिप": 8814,
      "टaयाकaसी": 8815,
      "##हारा": 8816,
      "बढाएर": 8817,
      "सकaदछ": 8818,
      "घoराही": 8819,
      "पaरतिसaपरaधामा": 8820,
      "##मaया": 8821,
      "राखaदा": 8822,
      "तराईका": 8823,
      "शaरoत": 8824,
      "सिनaडिकlट": 8825,
      "बनaदर": 8826,
      "लहर": 8827,
      "विशaवसaत": 8828,
      "जबरaज": 8829,
      "शहीद": 8830,
      "राषaटaरका": 8831,
      "##सिङ": 8832,
      "बनaध": 8833,
      "९६": 8834,
      "बaरानaड": 8835,
      "उलaलc": 8836,
      "तीमधaयl": 8837,
      "९२": 8838,
      "##eन": 8839,
      "बागलu": 8840,
      "मeलaयाङaकन": 8841,
      "शिविरमा": 8842,
      "९३": 8843,
      "सरoज": 8844,
      "हuनaछन": 8845,
      "बारaषिक": 8846,
      "तापकaरम": 8847,
      "ससaथा": 8848,
      "##नaदन": 8849,
      "सिमित": 8850,
      "लlन": 8851,
      "##eत": 8852,
      "जuतaता": 8853,
      "अधिवकaता": 8854,
      "गएरा": 8855,
      "कचaचा": 8856,
      "##लाउन": 8857,
      "चिनaह": 8858,
      "बताएकी": 8859,
      "नपाइनl": 8860,
      "उपसमिति": 8861,
      "सoधl": 8862,
      "मधuमlह": 8863,
      "महाअ": 8864,
      "रकमकo": 8865,
      "अतaयावशaयक": 8866,
      "##uग": 8867,
      "##ाइमा": 8868,
      "##िमि": 8869,
      "पदम": 8870,
      "बनaदी": 8871,
      "डलरकo": 8872,
      "कालिका": 8873,
      "##लम": 8874,
      "सlवाका": 8875,
      "##ाउदk": 8876,
      "महिनाभितaर": 8877,
      "मuसaताङ": 8878,
      "दuनियाi": 8879,
      "जaयादk": 8880,
      "नलागaनl": 8881,
      "##घaर": 8882,
      "सिलव": 8883,
      "विदlशबाट": 8884,
      "सcसदaकo": 8885,
      "उति": 8886,
      "##एकk": 8887,
      "##मaपा": 8888,
      "हuला": 8889,
      "##जीव": 8890,
      "बlलायतमा": 8891,
      "##कारलl": 8892,
      "##तीरaण": 8893,
      "परaछनa": 8894,
      "सaपlन": 8895,
      "सहरी": 8896,
      "सफaटवlयर": 8897,
      "रeपानaतरण": 8898,
      "८१": 8899,
      "एयरलाइनaस": 8900,
      "खuलlर": 8901,
      "##फरaम": 8902,
      "पaरवि": 8903,
      "सहयoगका": 8904,
      "कlटाकlट": 8905,
      "घाई": 8906,
      "##पाती": 8907,
      "गरीब": 8908,
      "बताउदk": 8909,
      "सफलताकo": 8910,
      "जलवा": 8911,
      "दाहालकo": 8912,
      "भवनकo": 8913,
      "अहिलlका": 8914,
      "सaवायतaत": 8915,
      "जनसङaखaया": 8916,
      "कारखाना": 8917,
      "बितaतिकk": 8918,
      "दरaशकलl": 8919,
      "यहा": 8920,
      "रारा": 8921,
      "निकaकk": 8922,
      "बlलाबlला": 8923,
      "विधlयकमा": 8924,
      "##खी": 8925,
      "पeरaणिमा": 8926,
      "आशि": 8927,
      "##iटा": 8928,
      "साझlदार": 8929,
      "वाचन": 8930,
      "पaरशoधन": 8931,
      "ठपaप": 8932,
      "नमaवर": 8933,
      "पाएi": 8934,
      "##यoजक": 8935,
      "यसकारण": 8936,
      "दuईजना": 8937,
      "नaयuयoरaक": 8938,
      "डिसlमaबर": 8939,
      "जिकिर": 8940,
      "लमaस": 8941,
      "कaषlतaरलl": 8942,
      "बkङaकलl": 8943,
      "सङaगीत": 8944,
      "जानlछ": 8945,
      "नlताहरuकo": 8946,
      "दलहरeलl": 8947,
      "नaयpपानlलl": 8948,
      "हिसा": 8949,
      "##दlखी": 8950,
      "##हारaय": 8951,
      "##लिप": 8952,
      "टoलीमा": 8953,
      "आतaमसा": 8954,
      "धमाधम": 8955,
      "मिरaग": 8956,
      "##ियामा": 8957,
      "जनस": 8958,
      "##तaतिकo": 8959,
      "बuटव": 8960,
      "समaबदaध": 8961,
      "जनचlतना": 8962,
      "पuरaन": 8963,
      "बoली": 8964,
      "लaयाउनu": 8965,
      "दलहरuलl": 8966,
      "##गामी": 8967,
      "पaरमo": 8968,
      "##खालl": 8969,
      "आवत": 8970,
      "अपाcग": 8971,
      "भkर": 8972,
      "महिनावारी": 8973,
      "ढuङaगा": 8974,
      "२०१०": 8975,
      "थालaछ": 8976,
      "एशo": 8977,
      "अनuशासन": 8978,
      "सlनाका": 8979,
      "समितिलाई": 8980,
      "रlमिटaया": 8981,
      "घटनासaथल": 8982,
      "हतaयाकo": 8983,
      "निषaपकaष": 8984,
      "दlशभरका": 8985,
      "##मlट": 8986,
      "##aयाङ": 8987,
      "आगमन": 8988,
      "##मaभव": 8989,
      "फाइल": 8990,
      "मuआ": 8991,
      "विविधता": 8992,
      "##थoक": 8993,
      "जातaरा": 8994,
      "नामलl": 8995,
      "पिसाब": 8996,
      "राहदानी": 8997,
      "##हीc": 8998,
      "अपमान": 8999,
      "दिइनa": 9000,
      "##कaसिकo": 9001,
      "कoशी": 9002,
      "सaवाद": 9003,
      "सभासद": 9004,
      "कaरानaतिकo": 9005,
      "सतaताकo": 9006,
      "अनuसनaधानका": 9007,
      "##टिभ": 9008,
      "गoरu": 9009,
      "पaरतिशतभनaदा": 9010,
      "गिरीलl": 9011,
      "##एमई": 9012,
      "टlलिफoन": 9013,
      "गरिन": 9014,
      "समlटlर": 9015,
      "महिनासमaम": 9016,
      "धनगढ": 9017,
      "##सकk": 9018,
      "गठबनaधनलl": 9019,
      "डटक": 9020,
      "बढlका": 9021,
      "महिनाअघि": 9022,
      "वaयवसायीकo": 9023,
      "जीवनका": 9024,
      "बटu": 9025,
      "गरpi": 9026,
      "##वासीकo": 9027,
      "अदuवा": 9028,
      "२०११": 9029,
      "बlलायतकo": 9030,
      "सापकoटालl": 9031,
      "एसि": 9032,
      "सना": 9033,
      "उपाधaयकaषमा": 9034,
      "##सनमा": 9035,
      "##ऊi": 9036,
      "सहजीकरण": 9037,
      "वरपर": 9038,
      "सनaतuलन": 9039,
      "सनaदीप": 9040,
      "समसaयालाई": 9041,
      "अफर": 9042,
      "छlउमा": 9043,
      "##ियाका": 9044,
      "सaथानीयकo": 9045,
      "##माकo": 9046,
      "निबनaध": 9047,
      "शoक": 9048,
      "विनaदu": 9049,
      "बuiदा": 9050,
      "##बिच": 9051,
      "पaरविध": 9052,
      "साथीहरu": 9053,
      "मनoवि": 9054,
      "सारaबजनिक": 9055,
      "रlमिटaयानaस": 9056,
      "दसaताव": 9057,
      "हान": 9058,
      "दlखlपछि": 9059,
      "##पशaचातa": 9060,
      "विभाजित": 9061,
      "इनaसaयoर": 9062,
      "चuरoट": 9063,
      "##cकo": 9064,
      "अतaयाधuनिक": 9065,
      "एफएम": 9066,
      "##मीमा": 9067,
      "##नाक": 9068,
      "##डaस": 9069,
      "कहिलlकाहीi": 9070,
      "पारaटीभितaर": 9071,
      "निरaदlशित": 9072,
      "नाराका": 9073,
      "भनिएका": 9074,
      "जनकपuरधाम": 9075,
      "सव": 9076,
      "०००": 9077,
      "लगlकo": 9078,
      "नचाह": 9079,
      "शपथ": 9080,
      "८७": 9081,
      "##सaकoटा": 9082,
      "मजबu": 9083,
      "बताइनaछ": 9084,
      "बड": 9085,
      "उठाएका": 9086,
      "आउiदkन": 9087,
      "##cखला": 9088,
      "खuकu": 9089,
      "सहमतिकo": 9090,
      "उकa": 9091,
      "पचा": 9092,
      "खoलlर": 9093,
      "२०२०": 9094,
      "पाइला": 9095,
      "##सिनo": 9096,
      "##कानu": 9097,
      "सकaछpc": 9098,
      "अपरिहारaय": 9099,
      "##ालaन": 9100,
      "##नaदaरा": 9101,
      "मधaया": 9102,
      "बनाउनका": 9103,
      "धरा": 9104,
      "##lनी": 9105,
      "बढlपछि": 9106,
      "उपवि": 9107,
      "तिनीहरe": 9108,
      "माथी": 9109,
      "विभागमा": 9110,
      "भरिएकo": 9111,
      "बkतडी": 9112,
      "सरह": 9113,
      "तपाइ": 9114,
      "अनसन": 9115,
      "समाचारमा": 9116,
      "##१७": 9117,
      "मिडियामा": 9118,
      "जनaमिएका": 9119,
      "पल": 9120,
      "पaलस": 9121,
      "बनaदuक": 9122,
      "सaथलमा": 9123,
      "आइतवार": 9124,
      "##पयo": 9125,
      "निरu": 9126,
      "कायमk": 9127,
      "मlहनत": 9128,
      "##oनlसिया": 9129,
      "##टिक": 9130,
      "तlकaवा": 9131,
      "डaराइ": 9132,
      "##िला": 9133,
      "बाजu": 9134,
      "##सlना": 9135,
      "##फामा": 9136,
      "खoजaनu": 9137,
      "किनारमा": 9138,
      "##पuरा": 9139,
      "सिमाना": 9140,
      "भlदभाव": 9141,
      "हlलिकo": 9142,
      "राजि": 9143,
      "हालतमा": 9144,
      "विशaवविदaयालयका": 9145,
      "सlमिफाइनल": 9146,
      "समaझpतामा": 9147,
      "पaरशासकीय": 9148,
      "महoतaतरी": 9149,
      "अला": 9150,
      "##विना": 9151,
      "वaयवसaथापक": 9152,
      "उदयपuर": 9153,
      "##lब": 9154,
      "घटlर": 9155,
      "ओझ": 9156,
      "पनी": 9157,
      "आशaर": 9158,
      "नियमा": 9159,
      "एसएसपी": 9160,
      "गठबनaधनका": 9161,
      "##हlर": 9162,
      "##पदा": 9163,
      "जlलमा": 9164,
      "##भियoग": 9165,
      "सuरuवा": 9166,
      "सcसारकo": 9167,
      "मuकaतिनाथ": 9168,
      "बिर": 9169,
      "##रaपित": 9170,
      "तaयहा": 9171,
      "टिभी": 9172,
      "सिसaटम": 9173,
      "एसएलसी": 9174,
      "इमlल": 9175,
      "थारe": 9176,
      "राधा": 9177,
      "सaयाङaजा": 9178,
      "##विपरीत": 9179,
      "लागlपछि": 9180,
      "पaरसaतuती": 9181,
      "अcकलl": 9182,
      "सनaतuषaट": 9183,
      "##ालीलl": 9184,
      "किसानकo": 9185,
      "##ीति": 9186,
      "##हाङ": 9187,
      "सaकuलमा": 9188,
      "##करaमीलl": 9189,
      "लlक": 9190,
      "##तaसा": 9191,
      "अदालतका": 9192,
      "खालl": 9193,
      "##रaनर": 9194,
      "नहuन": 9195,
      "सoमवार": 9196,
      "काटaनl": 9197,
      "तथापि": 9198,
      "रoड": 9199,
      "##uकo": 9200,
      "शuरuवात": 9201,
      "सaतन": 9202,
      "पaरlममा": 9203,
      "टaवि": 9204,
      "पlरिस": 9205,
      "ओखलढucगा": 9206,
      "वcश": 9207,
      "ससाना": 9208,
      "हaवा": 9209,
      "सहारा": 9210,
      "##षaठा": 9211,
      "नहर": 9212,
      "##सaतरकo": 9213,
      "##पाई": 9214,
      "इलlकaट": 9215,
      "८९": 9216,
      "##मaमद": 9217,
      "पuलकo": 9218,
      "पaरमuखकo": 9219,
      "डlभल": 9220,
      "अरaकाकo": 9221,
      "बसaतीमा": 9222,
      "गरaनालl": 9223,
      "##यालl": 9224,
      "एकदम": 9225,
      "हाई": 9226,
      "पaरतिशतकo": 9227,
      "वaयवसaथापनका": 9228,
      "निमनaतaरण": 9229,
      "बझा": 9230,
      "##cलl": 9231,
      "बताउनl": 9232,
      "##दिएका": 9233,
      "बoहरा": 9234,
      "रजत": 9235,
      "##खान": 9236,
      "बlगaलk": 9237,
      "अcगaरlज": 9238,
      "रणनीतिक": 9239,
      "विदaरoही": 9240,
      "##टिन": 9241,
      "गरaव": 9242,
      "हरaक": 9243,
      "##वaरaय": 9244,
      "पaयाकlज": 9245,
      "##छl": 9246,
      "##सहितका": 9247,
      "##करaमीकo": 9248,
      "टuकaरा": 9249,
      "मामि": 9250,
      "##बाटo": 9251,
      "यातना": 9252,
      "##aयाली": 9253,
      "अभियानका": 9254,
      "बालकrषaण": 9255,
      "लणaडन": 9256,
      "बिदaयारaथी": 9257,
      "परिकaषा": 9258,
      "हlड": 9259,
      "मगरलl": 9260,
      "##ाइi": 9261,
      "पuगaनu": 9262,
      "भइनa": 9263,
      "टाढ": 9264,
      "##सaटा": 9265,
      "##मaबी": 9266,
      "साटo": 9267,
      "परिरहlकo": 9268,
      "##काजी": 9269,
      "##रीक": 9270,
      "जाय": 9271,
      "दमन": 9272,
      "##कaषि": 9273,
      "गरlननa": 9274,
      "निषaकास": 9275,
      "कलम": 9276,
      "लoडसlडिङ": 9277,
      "नरaसि": 9278,
      "पढaदा": 9279,
      "घटनालl": 9280,
      "आiखामा": 9281,
      "कlनaदaरबाट": 9282,
      "सिदaधारaथ": 9283,
      "##दणaड": 9284,
      "##रaदaधन": 9285,
      "बढाइएकo": 9286,
      "वkचारिक": 9287,
      "पkसाकo": 9288,
      "अपaरिल": 9289,
      "भoगaनu": 9290,
      "रoशन": 9291,
      "कaयाम": 9292,
      "दाiत": 9293,
      "समरaपित": 9294,
      "जoन": 9295,
      "हाl": 9296,
      "सaटaर": 9297,
      "फeलकo": 9298,
      "अनaयoल": 9299,
      "##नuभएन": 9300,
      "बlचaन": 9301,
      "##lशaवरी": 9302,
      "छoरीलाई": 9303,
      "लामिछानlलl": 9304,
      "नियनaतaर": 9305,
      "नuन": 9306,
      "पबaलिक": 9307,
      "अतaयाधिक": 9308,
      "एकदिन": 9309,
      "अनaतरलl": 9310,
      "उपमl": 9311,
      "##lनaटी": 9312,
      "थापालाई": 9313,
      "९१": 9314,
      "##गrह": 9315,
      "##पछ": 9316,
      "##ारीमा": 9317,
      "मlकaसिकo": 9318,
      "डिगaरी": 9319,
      "##लlशaवर": 9320,
      "भनिए": 9321,
      "अकaषर": 9322,
      "अधिकारीहरuलl": 9323,
      "मधaयन": 9324,
      "परिसeचक": 9325,
      "गuड": 9326,
      "मतपतaर": 9327,
      "##एनए": 9328,
      "कaयामlरा": 9329,
      "बाकaलo": 9330,
      "बिरuदaध": 9331,
      "मuआबaजा": 9332,
      "नगरaदा": 9333,
      "##कuलपति": 9334,
      "नaयuज": 9335,
      "आपaरवासी": 9336,
      "रामlछाप": 9337,
      "##फरक": 9338,
      "घरका": 9339,
      "घरधu": 9340,
      "खlलाडीलाई": 9341,
      "जuल": 9342,
      "धlरkलाई": 9343,
      "##परlका": 9344,
      "ठकu": 9345,
      "##यनaस": 9346,
      "वरaषpc": 9347,
      "कrषिमा": 9348,
      "नारायणगढ": 9349,
      "बितa": 9350,
      "नामावली": 9351,
      "वातावरणमा": 9352,
      "वaयवसaथापनकo": 9353,
      "तuरuनaतk": 9354,
      "यlश": 9355,
      "पाटन": 9356,
      "##सकlकी": 9357,
      "विघ": 9358,
      "लlखlर": 9359,
      "जaवरo": 9360,
      "आइपuगaदा": 9361,
      "वकaतवaय": 9362,
      "काठमाडpiकo": 9363,
      "२०६९": 9364,
      "साcग": 9365,
      "आदिकo": 9366,
      "चaयाट": 9367,
      "सकिएपछि": 9368,
      "शिकaषककo": 9369,
      "फkलि": 9370,
      "हlटpi": 9371,
      "करoडpc": 9372,
      "बoकlका": 9373,
      "लभ": 9374,
      "एजlनaडा": 9375,
      "लaयाई": 9376,
      "सामuहिक": 9377,
      "उखu": 9378,
      "किनlर": 9379,
      "बरaस": 9380,
      "सuधा": 9381,
      "बढaयo": 9382,
      "टaरफी": 9383,
      "अठ": 9384,
      "महशu": 9385,
[...]
