{
  "version": "1.0",
  "truncation": null,
  "padding": null,
  "added_tokens": [
    {
      "id": 0,
      "content": " ",
      "single_word": false,
      "lstrip": false,
      "rstrip": false,
      "normalized": false,
      "special": true
    }
  ],
  "normalizer": null,
  "pre_tokenizer": {
    "type": "ByteLevel",
    "add_prefix_space": false,
    "trim_offsets": true,
    "use_regex": true
  },
  "post_processor": {
    "type": "ByteLevel",
    "add_prefix_space": true,
    "trim_offsets": false,
    "use_regex": true
  },
  "decoder": {
    "type": "ByteLevel",
    "add_prefix_space": true,
    "trim_offsets": true,
    "use_regex": true
  },
  "model": {
    "type": "BPE",
    "dropout": null,
    "unk_token": null,
    "continuing_subword_prefix": null,
    "end_of_word_suffix": null,
    "fuse_unk": false,
    "byte_fallback": false,
    "vocab": {
      " ": 0,
      "!": 1,
      "\"": 2,
      "#": 3,
      "$": 4,
      "%": 5,
      "&": 6,
      "'": 7,
      "(": 8,
      ")": 9,
      "*": 10,
      "+": 11,
      ",": 12,
      "-": 13,
      ".": 14,
      "/": 15,
      "0": 16,
      "1": 17,
      "2": 18,
      "3": 19,
      "4": 20,
      "5": 21,
      "6": 22,
      "7": 23,
      "8": 24,
      "9": 25,
      ":": 26,
      ";": 27,
      "<": 28,
      "=": 29,
      ">": 30,
      "?": 31,
      "@": 32,
      "A": 33,
      "B": 34,
      "C": 35,
      "D": 36,
      "E": 37,
      "F": 38,
      "G": 39,
      "H": 40,
      "I": 41,
      "J": 42,
      "K": 43,
      "L": 44,
      "M": 45,
      "N": 46,
      "O": 47,
      "P": 48,
      "Q": 49,
      "R": 50,
      "S": 51,
      "T": 52,
      "U": 53,
      "V": 54,
      "W": 55,
      "X": 56,
      "Y": 57,
      "Z": 58,
      "[": 59,
      "\\": 60,
      "]": 61,
      "^": 62,
      "_": 63,
      "`": 64,
      "a": 65,
      "b": 66,
      "c": 67,
      "d": 68,
      "e": 69,
      "f": 70,
      "g": 71,
      "h": 72,
      "i": 73,
      "j": 74,
      "k": 75,
      "l": 76,
      "m": 77,
      "n": 78,
      "o": 79,
      "p": 80,
      "q": 81,
      "r": 82,
      "s": 83,
      "t": 84,
      "u": 85,
      "v": 86,
      "w": 87,
      "x": 88,
      "y": 89,
      "z": 90,
      "{": 91,
      "|": 92,
      "}": 93,
      "~": 94,
      "¡": 95,
      "¢": 96,
      "£": 97,
      "¤": 98,
      "¥": 99,
      "¦": 100,
      "§": 101,
      "¨": 102,
      "©": 103,
      "ª": 104,
      "«": 105,
      "¬": 106,
      "®": 107,
      "¯": 108,
      "°": 109,
      "±": 110,
      "²": 111,
      "³": 112,
      "´": 113,
      "µ": 114,
      "¶": 115,
      "·": 116,
      "¸": 117,
      "¹": 118,
      "º": 119,
      "»": 120,
      "¼": 121,
      "½": 122,
      "¾": 123,
      "¿": 124,
      "À": 125,
      "Á": 126,
      "Â": 127,
      "Ã": 128,
      "Ä": 129,
      "Å": 130,
      "Æ": 131,
      "Ç": 132,
      "È": 133,
      "É": 134,
      "Ê": 135,
      "Ë": 136,
      "Ì": 137,
      "Í": 138,
      "Î": 139,
      "Ï": 140,
      "Ð": 141,
      "Ñ": 142,
      "Ò": 143,
      "Ó": 144,
      "Ô": 145,
      "Õ": 146,
      "Ö": 147,
      "×": 148,
      "Ø": 149,
      "Ù": 150,
      "Ú": 151,
      "Û": 152,
      "Ü": 153,
      "Ý": 154,
      "Þ": 155,
      "ß": 156,
      "à": 157,
      "á": 158,
      "â": 159,
      "ã": 160,
      "ä": 161,
      "å": 162,
      "æ": 163,
      "ç": 164,
      "è": 165,
      "é": 166,
      "ê": 167,
      "ë": 168,
      "ì": 169,
      "í": 170,
      "î": 171,
      "ï": 172,
      "ð": 173,
      "ñ": 174,
      "ò": 175,
      "ó": 176,
      "ô": 177,
      "õ": 178,
      "ö": 179,
      "÷": 180,
      "ø": 181,
      "ù": 182,
      "ú": 183,
      "û": 184,
      "ü": 185,
      "ý": 186,
      "þ": 187,
      "ÿ": 188,
      "Ā": 189,
      "ā": 190,
      "Ă": 191,
      "ă": 192,
      "Ą": 193,
      "ą": 194,
      "Ć": 195,
      "ć": 196,
      "Ĉ": 197,
      "ĉ": 198,
      "Ċ": 199,
      "ċ": 200,
      "Č": 201,
      "č": 202,
      "Ď": 203,
      "ď": 204,
      "Đ": 205,
      "đ": 206,
      "Ē": 207,
      "ē": 208,
      "Ĕ": 209,
      "ĕ": 210,
      "Ė": 211,
      "ė": 212,
      "Ę": 213,
      "ę": 214,
      "Ě": 215,
      "ě": 216,
      "Ĝ": 217,
      "ĝ": 218,
      "Ğ": 219,
      "ğ": 220,
      "Ġ": 221,
      "ġ": 222,
      "Ģ": 223,
      "ģ": 224,
      "Ĥ": 225,
      "ĥ": 226,
      "Ħ": 227,
      "ħ": 228,
      "Ĩ": 229,
      "ĩ": 230,
      "Ī": 231,
      "ī": 232,
      "Ĭ": 233,
      "ĭ": 234,
      "Į": 235,
      "į": 236,
      "İ": 237,
      "ı": 238,
      "Ĳ": 239,
      "ĳ": 240,
      "Ĵ": 241,
      "ĵ": 242,
      "Ķ": 243,
      "ķ": 244,
      "ĸ": 245,
      "Ĺ": 246,
      "ĺ": 247,
      "Ļ": 248,
      "ļ": 249,
      "Ľ": 250,
      "ľ": 251,
      "Ŀ": 252,
      "ŀ": 253,
      "Ł": 254,
      "ł": 255,
      "Ń": 256,
      "à¤": 257,
      "à¥": 258,
      "Ġà¤": 259,
      "à¤¾": 260,
      "à¥į": 261,
      "à¤°": 262,
      "à¤¨": 263,
      "à¤ķ": 264,
      "à¤¿": 265,
      "à¥ĩ": 266,
      "à¥ĭ": 267,
      "à¤²": 268,
      "à¤®": 269,
      "à¤¤": 270,
      "à¤¯": 271,
      "à¥ģ": 272,
      "à¥Ģ": 273,
      "à¤¸": 274,
      "Ġà¤¸": 275,
      "Ġà¥": 276,
      "Ġà¤ª": 277,
      "à¤¹": 278,
      "à¤ª": 279,
      "à¤¦": 280,
      "à¤µ": 281,
      "Ġà¥¤": 282,
      "Ġà¤ķ": 283,
      "Ġà¤Ĺ": 284,
      "à¤Ĺ": 285,
      "Ġà¤°": 286,
      "à¥Ī": 287,
      "à¤Ł": 288,
      "Ġà¤¨": 289,
      "Ġà¤¬": 290,
      "à¤ı": 291,
      "Ġà¤®": 292,
      "Ġà¤Ń": 293,
      "à¤ľ": 294,
      "Ġà¤ħ": 295,
      "Ġà¤¹": 296,
      "Ġà¤Ĺà¤°": 297,
      "Ġà¤µ": 298,
      "à¤¬": 299,
      "à¤·": 300,
      "Ġà¤Ľ": 301,
      "à¤§": 302,
      "Ġ?": 303,
      "Ġà¤¤": 304,
      "Ġà¤¦": 305,
      "à¤ıà¤ķ": 306,
      "à¤¥": 307,
      "à¤ģ": 308,
      "Ġà¤Ĩ": 309,
      "à¤¶": 310,
      "Ġà¤ľ": 311,
      "à¤Ĥ": 312,
      "Ġà¤²": 313,
      "à¤Ī": 314,
      "à¤ļ": 315,
      "à¤¡": 316,
      "à¤£": 317,
      "à¤Ľ": 318,
      "à¥Ĥ": 319,
      "Ġà¤ī": 320,
      "à¤Ń": 321,
      "à¤ĸ": 322,
      "à¤ī": 323,
      "Ġà¤¯": 324,
      "à¤¹à¤°": 325,
      "Ġà¤¸à¤®": 326,
      "à¤°à¤ķ": 327,
      "à¤ĩ": 328,
      "à¤°à¤®": 329,
      "Ġà¤ļ": 330,
      "Ġà¤Ńà¤¨": 331,
      "à¤«": 332,
      "à¥Į": 333,
      "Ġà¤¶": 334,
      "Ġà¤¥": 335,
      "Ġà¤ĸ": 336,
      "à¤¯à¤ķ": 337,
      "Ġà¤ı": 338,
      "à¤īà¤¨": 339,
      "Ġà¤ªà¤¨": 340,
      "à¤¾à¤ģ": 341,
      "à¤ł": 342,
      "à¤¨à¤ķ": 343,
      "Ġà¤Ńà¤ıà¤ķ": 344,
      "Ġà¤ªà¤°": 345,
      "Ġà¤ħà¤¨": 346,
      "à¤°à¤¤": 347,
      "à¥ĥ": 348,
      "à¤Ļ": 349,
      "Ġà¤«": 350,
      "à¥¦": 351,
      "à¤°à¤£": 352,
      "à¤¸à¤ķ": 353,
      "Ġà¤Ľà¤¨": 354,
      "à¤ľà¤¨": 355,
      "Ġà¥§": 356,
      "Ġà¥¨": 357,
      "à¤¢": 358,
      "à¤¸à¤®": 359,
      "à¤ªà¤°": 360,
      "à¤ĺ": 361,
      "Ġà¤°à¤¹": 362,
      "à¤¨à¤®": 363,
      "à¤µà¤¸": 364,
      "Ġà¤ĺ": 365,
      "Ġà¤ıà¤ķ": 366,
      "à¤¨à¤²": 367,
      "Ġà¤®à¤¹": 368,
      "Ġà¤¬à¤¨": 369,
      "Ġà¤¯à¤¸": 370,
      "Ġà¤ľà¤¨": 371,
      "Ġà¤§": 372,
      "à¤²à¤ķ": 373,
      "à¤¯à¤®": 374,
      "Ġà¤Ł": 375,
      "Ġà¤¸à¤ķ": 376,
      "à¤ªà¤¨": 377,
      "à¤°à¤¹": 378,
      "à¤ŀ": 379,
      "à¤Ĺà¤°": 380,
      "Ġà¤Ĩà¤«": 381,
      "Ġà¤¤à¤¥": 382,
      "Ġà¤ħà¤§": 383,
      "à¤°à¤²": 384,
      "Ġà¤¸à¤¹": 385,
      "Ġà¤¡": 386,
      "Ġà¥§à¥": 387,
      "Ġà¤µà¤°": 388,
      "à¤¯à¤¸": 389,
      "à¤²à¤®": 390,
      "Ġà¤¤à¤°": 391,
      "à¤ªà¤Ľ": 392,
      "à¤¤à¤°": 393,
      "à¤¯à¤¤": 394,
      "à¤°à¤¸": 395,
      "à¤Ŀ": 396,
      "Ġà¤īà¤ª": 397,
      "Ġà¤¬à¤¤": 398,
      "Ġà¤ħà¤°": 399,
      "à¥Įà¤Ĥ": 400,
      "à¤ıà¤°": 401,
      "Ġà¤®à¤¨": 402,
      "Ġà¤¬à¤¢": 403,
      "Ġà¤¸à¤°à¤ķ": 404,
      "ĠĠ": 405,
      "Ġà¤ķà¤®": 406,
      "à¤°à¤¦": 407,
      "à¤ªà¤¤": 408,
      "à¤Ľà¤¨": 409,
      "Ġà¤ķà¤°": 410,
      "Ġà¤²à¤Ĺ": 411,
      "à¤ªà¤®": 412,
      "à¤ķà¤²": 413,
      "Ġà¤ł": 414,
      "à¤ĩà¤¨": 415,
      "à¤°à¤¹à¤°": 416,
      "Ġà¤ĩ": 417,
      "à¤łà¤®": 418,
      "à¤ķà¤®": 419,
      "Ġà¤ªà¤¹": 420,
      "à¥ģà¤ģ": 421,
      "à¤¤à¤ķ": 422,
      "Ġà¥¨à¥¦": 423,
      "Ġà¤¸à¤¬": 424,
      "Ġà¤ħà¤¸": 425,
      "à¤®à¤ķ": 426,
      "à¤Łà¤ķ": 427,
      "Ġà¤Ĩà¤¯": 428,
      "Ġà¤īà¤¨": 429,
      "à¤¯à¤¨": 430,
      "Ġà¥¨à¥": 431,
      "à¤µà¤ķ": 432,
      "à¤¬à¤¨": 433,
      "à¤µà¤°": 434,
      "à¤¯à¤µà¤¸": 435,
      "à¤ħ": 436,
      "Ġà¤īà¤¤": 437,
      "Ġà¤īà¤¨à¤²": 438,
      "Ġà¤Ńà¤ı": 439,
      "à¤µà¤¨": 440,
      "à¤²à¤²": 441,
      "Ġà¥©": 442,
      "Ġà¤¬à¤¸": 443,
      "à¤ļà¤¨": 444,
      "à¤¾à¤Ĥ": 445,
      "à¤Ĺà¤¤": 446,
      "à¤²à¤¯": 447,
      "à¤¸à¤²": 448,
      "à¤²à¤¨": 449,
      "à¤²à¤¬": 450,
      "Ġà¤Ĺà¤¤": 451,
      "à¤·à¤£": 452,
      "à¤Łà¤¨": 453,
      "à¥Ń": 454,
      "à¤°à¤µ": 455,
      "à¤°à¤¬": 456,
      "à¥§": 457,
      "à¤¶à¤ķ": 458,
      "Ġà¤ħà¤µà¤¸": 459,
      "Ġà¥«": 460,
      "Ġà¤¨à¤Ĺà¤°": 461,
      "Ġà¤ħà¤Ń": 462,
      "Ġà¤Ĩà¤ıà¤ķ": 463,
      "à¤¸à¤¨": 464,
      "Ġà¤Ŀ": 465,
      "Ġà¤¬à¤ľ": 466,
      "Ġà¤Ĩà¤°": 467,
      "à¥«": 468,
      "Ġà¤ħà¤¹": 469,
      "Ġà¤¹à¤ľ": 470,
      "à¤·à¤ķ": 471,
      "à¤¤à¤®": 472,
      "à¤Łà¤°": 473,
      "Ġà¤īà¤¦": 474,
      "à¥Īà¤Ĥ": 475,
      "à¤®à¤¤": 476,
      "à¤Ńà¤¨": 477,
      "à¤¤à¤¨": 478,
      "à¤°à¤§": 479,
      "à¤ķà¤ķ": 480,
      "Ġà¤¸à¤°": 481,
      "Ġà¤¸à¤¨": 482,
      "Ġà¥ª": 483,
      "à¤®à¤¨": 484,
      "à¤°à¤¯": 485,
      "à¤ķà¤°": 486,
      "à¤¯à¤²": 487,
      "Ġà¤Ĩà¤µ": 488,
      "à¥¨": 489,
      "Ġà¤¸à¤ŀ": 490,
      "à¤Ńà¤¯": 491,
      "Ġà¤ĵ": 492,
      "Ġà¤ļà¤²": 493,
      "à¥Įà¤ģ": 494,
      "à¤¡à¤ķ": 495,
      "à¤ªà¤ķ": 496,
      "à¤ľà¤ķ": 497,
      "à¤¨à¤¨": 498,
      "à¤Ĩ": 499,
      "Ġà¤¸à¤¦": 500,
      "à¤Ńà¤ıà¤ķ": 501,
      "à¤¦à¤¨": 502,
      "à¤°à¤®à¤®": 503,
      "à¤īà¤Ł": 504,
      "Ġà¥¬": 505,
      "à¤Ĺà¤²": 506,
      "Ġà¤ªà¤¤": 507,
      "Ġà¤¨à¤¯": 508,
      "Ġà¤ľà¤¸": 509,
      "Ġà¤ªà¤ķ": 510,
      "à¥¬": 511,
      "Ġà¤¬à¤°": 512,
      "à¥ª": 513,
      "à¤ĩà¤ıà¤ķ": 514,
      "à¤°à¤¶": 515,
      "Ġà¤ªà¤Ľ": 516,
      "à¤µà¤²": 517,
      "Ġà¤ķà¤¸": 518,
      "à¤«à¤²": 519,
      "à¤¶à¤¨": 520,
      "à¤¨à¤¸": 521,
      "à¤Ĺà¤ķ": 522,
      "à¤¿à¤Ĥ": 523,
      "Ġà¤Ĩà¤§": 524,
      "à¤¤à¤²": 525,
      "à¥©": 526,
      "à¤®à¤²": 527,
      "Ġà¤ıà¤īà¤Ł": 528,
      "Ġà¤īà¤¨à¤ķ": 529,
      "à¤§à¤¨": 530,
      "Ġà¤¹à¤°": 531,
      "à¤ĩà¤°à¤¹": 532,
      "Ġà¤¸à¤¯": 533,
      "à¤¬à¤°": 534,
      "Ġà¤¢": 535,
      "à¤¨à¤®à¤¨": 536,
      "à¤¯à¤°": 537,
      "Ġà¤īà¤¹": 538,
      "Ġà¤¯à¤¹": 539,
      "à¤®à¤®": 540,
      "Ġà¤ħà¤Ĺ": 541,
      "Ġà¤¸à¤®à¤¯": 542,
      "Ġà¤Ńà¤¯": 543,
      "à¤ĥ": 544,
      "Ġà¤Ĩà¤ľ": 545,
      "Ġà¤ħà¤®": 546,
      "à¤¿à¤ģ": 547,
      "Ġà¥Ń": 548,
      "Ġà¤ħà¤¬": 549,
      "à¤ķà¤°à¤£": 550,
      "ĠĠĠĠ": 551,
      "Ġà¤¤à¤¯": 552,
      "à¤ĸà¤°": 553,
      "à¤ĵ": 554,
      "à¤°à¤Ń": 555,
      "Ġà¤ĸà¤°": 556,
      "Ġà¤¸à¤¹à¤¯": 557,
      "Ġà¤®à¤§": 558,
      "Ġà¤¸à¤®à¤¸": 559,
      "Ġà¤¦à¤°": 560,
      "à¤µà¤®": 561,
      "Ġà¤ķà¤²": 562,
      "à¤¯à¤¹": 563,
      "à¤Łà¤®": 564,
      "Ġà¤Ķ": 565,
      "Ġà¤ľà¤¨à¤¤": 566,
      "Ġà¤ĺà¤°": 567,
      "Ġà¤ķà¤¤": 568,
      "Ġà¤īà¤ķ": 569,
      "Ġà¤¤à¤ª": 570,
      "à¤¸à¤¦": 571,
      "à¤Ĺà¤®": 572,
      "à¤¹à¤ķ": 573,
      "à¥®": 574,
      "Ġà¥§à¥¦": 575,
      "Ġà¤ªà¤¦": 576,
      "Ġà¤¸à¤¦à¤¸": 577,
      "Ġà¤®à¤²": 578,
      "Ġà¤Ĩà¤īà¤¨": 579,
      "Ġà¤ĩà¤¨": 580,
      "Ġà¤¨à¤Ĺà¤°à¤ª": 581,
      "Ġà¥®": 582,
      "Ġà¤ħà¤µ": 583,
      "à¤ľà¤¸": 584,
      "à¤ķà¤¤": 585,
      "Ġà¤ħà¤ĺ": 586,
      "à¤²à¤Ĺ": 587,
      "à¤·à¤®": 588,
      "à¤¶à¤®": 589,
      "à¤¦à¤°": 590,
      "Ġà¥¯": 591,
      "Ġà¤¬à¤¹": 592,
      "Ġà¤Ĩà¤µà¤¶": 593,
      "à¥¯": 594,
      "Ġà¤ıà¤®": 595,
      "Ġà¤Ĩà¤®": 596,
      "Ġà¤¬à¤²": 597,
      "à¤¾à¥ĩ": 598,
      "à¤¹à¤¨": 599,
      "Ġà¤Ĩà¤Ĺ": 600,
      "Ġà¤¯à¤¸à¤ķ": 601,
      "Ġà¤Ĩà¤ĩ": 602,
      "Ġà¤īà¤®": 603,
      "Ġà¤¸à¤Ń": 604,
      "Ġà¤¶à¤°": 605,
      "à¤£à¤ķ": 606,
      "Ġà¤Ĩà¤¨": 607,
      "à¤ħà¤¨": 608,
      "Ġà¤ħà¤¤": 609,
      "à¤µà¤¤": 610,
      "à¤ıà¤¨": 611,
      "Ġà¤¨à¤®": 612,
      "à¤Ńà¤°": 613,
      "Ġà¤¨à¤¸à¤ķ": 614,
      "à¤¯à¤µ": 615,
      "à¤Łà¤²": 616,
      "Ġà¤ļà¤°": 617,
      "à¤µà¤ľà¤¨": 618,
      "Ġà¤®à¤¤": 619,
      "Ġà¤ħà¤ª": 620,
      "Ġà¥¨à¥¦à¥Ń": 621,
      "Ġà¤Ĺà¤ıà¤ķ": 622,
      "Ġà¤¥à¤ª": 623,
      "à¤ıà¤ªà¤Ľ": 624,
      "Ġà¤«à¤°": 625,
      "Ġà¤īà¤²": 626,
      "Ġà¤īà¤ļ": 627,
      "à¤¶à¤¤": 628,
      "à¤ķà¤ª": 629,
      "Ġà¤¦à¤²": 630,
      "à¤ĩà¤²": 631,
      "Ġà¤ªà¤¢": 632,
      "à¤ľà¤®": 633,
      "à¤ķà¤¨": 634,
      "Ġà¤¸à¤Ļ": 635,
      "Ġà¤ķà¤¹": 636,
      "Ġà¤Ĩà¤¦": 637,
      "Ġà¤Ńà¤°": 638,
      "Ġà¤ªà¤Łà¤ķ": 639,
      "à¤¡à¤²": 640,
      "à¤°à¤ļ": 641,
      "à¤ĵà¤µ": 642,
      "Ġà¤¸à¤¤": 643,
      "à¤ħà¤ĺ": 644,
      "à¤²à¤¯à¤ķ": 645,
      "Ġà¤¯à¤¸à¤²": 646,
      "Ġà¤ĺà¤Łà¤¨": 647,
      "Ġà¤µà¤Ł": 648,
      "Ġà¤°à¤¹à¤¨": 649,
      "à¤¦à¤Ľ": 650,
      "à¤£à¤¯": 651,
      "Ġà¤¨à¤¹": 652,
      "Ġà¤®à¤¹à¤¤": 653,
      "à¤°à¤¨": 654,
      "Ġà¤¸à¤¹à¤Ń": 655,
      "Ġà¤²à¤ķ": 656,
      "Ġà¤¸à¤ļ": 657,
      "à¤¬à¤²": 658,
      "Ġà¤¸à¤«à¤²": 659,
      "à¤Ļà¤ķ": 660,
      "à¤®à¤ļ": 661,
      "à¤¥à¤®": 662,
      "à¤¦à¤ķ": 663,
      "à¤ļà¤ķ": 664,
      "Ġà¤µà¤¡": 665,
      "à¤¯à¤¸à¤ķ": 666,
      "à¤¤à¤µ": 667,
      "à¤¬à¤¹": 668,
      "à¤°à¤ª": 669,
      "Ġà¤ĵà¤²": 670,
      "Ġà¤¨à¤¦": 671,
      "à¤µà¤°à¤£": 672,
      "à¤łà¤¨": 673,
      "à¤ªà¤²": 674,
      "Ġà¤Ĳ": 675,
      "à¤¤à¤°à¤£": 676,
      "Ġà¤¤à¤¤": 677,
      "Ġà¤Ńà¤ĩà¤°à¤¹": 678,
      "à¤·à¤¯à¤®": 679,
      "Ġà¤ħà¤²": 680,
      "à¤¨à¤µ": 681,
      "Ġà¤¯à¤¤": 682,
      "Ġà¤¹à¤¤": 683,
      "à¤ľà¤Ĺ": 684,
      "Ġà¤¸à¤¡à¤ķ": 685,
      "Ġà¤¸à¤®à¤¯à¤®": 686,
      "à¤¡à¤®": 687,
      "à¤¯à¤¤à¤ķ": 688,
      "Ġà¤ħà¤Ŀ": 689,
      "à¤·à¤¤": 690,
      "Ġà¤§à¤°": 691,
      "à¤ĩà¤¸à¤ķ": 692,
      "à¤°à¤®à¤£": 693,
      "Ġà¤°à¤ķà¤®": 694,
      "Ġà¥§à¥¯": 695,
      "Ġà¤Ńà¤ıà¤°": 696,
      "à¤µà¤ª": 697,
      "Ġà¤īà¤ł": 698,
      "Ġà¥§à¥«": 699,
      "à¤ľà¤²": 700,
      "Ġà¤ªà¤¶": 701,
      "Ġà¤¸à¤µ": 702,
      "à¤«à¤¤": 703,
      "Ġà¤ľà¤®": 704,
      "à¤²à¤¤": 705,
      "Ġà¥§à¥¨": 706,
      "Ġà¤ıà¤¸": 707,
      "Ġà¤ħà¤¦": 708,
      "à¤¹à¤²": 709,
      "à¤°à¤ªà¤¤": 710,
      "à¤²à¤¯à¤²": 711,
      "à¤¨à¤¬": 712,
      "Ġà¥§à¥§": 713,
      "Ġà¤īà¤ªà¤ļ": 714,
      "à¤¸à¤¹": 715,
      "à¤¸à¤Ń": 716,
      "Ġà¤§à¤¨": 717,
      "Ġà¤Ĩà¤ķ": 718,
      "Ġà¤Ĩà¤¶": 719,
      "à¤§à¤ķ": 720,
      "Ġà¤Ľà¤²": 721,
      "Ġà¤ļà¤²à¤ļ": 722,
      "Ġà¤¨à¤Ń": 723,
      "à¤µà¤¯": 724,
      "à¤¦à¤²": 725,
      "à¤¸à¤°": 726,
      "Ġà¤¶à¤ķ": 727,
      "Ġà¤Ĩà¤¤": 728,
      "Ġà¤Ĩà¤ī": 729,
      "à¤¹à¤®": 730,
      "à¤¦à¤µ": 731,
      "Ġà¤ľà¤°": 732,
      "à¤Īà¤²": 733,
      "Ġà¥¨à¥¦à¥§": 734,
      "Ġà¤®à¤°": 735,
      "Ġà¤¦à¤¶": 736,
      "à¤¤à¤¬": 737,
      "à¤¯à¤ª": 738,
      "Ġà¤¨à¤Ńà¤ıà¤ķ": 739,
      "à¤ĺà¤ķ": 740,
      "à¤ĩà¤¦": 741,
      "Ġà¤ħà¤«": 742,
      "à¤·à¤¦": 743,
      "Ġà¤īà¤ªà¤²à¤¬": 744,
      "à¤²à¤¸": 745,
      "Ġà¤Ńà¤ıà¤ªà¤Ľ": 746,
      "à¤°à¤ľ": 747,
      "Ġà¤ªà¤ł": 748,
      "à¤ªà¤¯": 749,
      "à¤łà¤ķ": 750,
      "à¤·à¤¯": 751,
      "Ġà¤¨à¤ľ": 752,
      "Ġà¤¨à¤ª": 753,
      "Ġà¤¬à¤ļ": 754,
      "à¤§à¤®": 755,
      "à¤²à¤¨à¤®": 756,
      "à¤®à¤¦": 757,
      "à¥Īà¤ģ": 758,
      "Ġà¥«à¥¦": 759,
      "Ġà¤ľà¤Ĺ": 760,
      "à¤ıà¤¸": 761,
      "à¤°à¤¦à¤°": 762,
      "Ġà¤ıà¤¨": 763,
      "à¤²à¤¯à¤®": 764,
      "à¤ļà¤®": 765,
      "Ġà¤¸à¤¹à¤®à¤¤": 766,
      "à¤¨à¤°": 767,
      "à¤®à¤¬": 768,
      "à¤¨à¤ª": 769,
      "à¤²à¤µ": 770,
      "à¤¨à¤Ĺà¤°": 771,
      "Ġà¤ķà¤¸à¤°": 772,
      "à¤¨à¤¤": 773,
      "à¤¥à¤²": 774,
      "Ġà¤¨à¤°": 775,
      "à¤¤à¤ª": 776,
      "Ġà¤¸à¤¹à¤ķ": 777,
      "à¤Īà¤ķ": 778,
      "Ġà¥¨à¥«": 779,
      "à¤¦à¤®": 780,
      "à¤¯à¤¸à¤®": 781,
      "Ġà¤¹à¤¸": 782,
      "Ġà¤Ĺà¤£": 783,
      "Ġà¤ıà¤µ": 784,
      "à¤¯à¤¯à¤¨": 785,
      "Ġà¤ķà¤ª": 786,
      "Ġà¤ħà¤ªà¤°": 787,
      "âĢ": 788,
      "Ġà¥©à¥¦": 789,
      "à¤°à¤£à¤®": 790,
      "à¤¯à¤¹à¤°": 791,
      "âĢĬ": 792,
      "à¤Ńà¤µ": 793,
      "Ġà¤¸à¤ľ": 794,
      "Ġà¤ĺà¤Ł": 795,
      "Ġà¤¦à¤ķ": 796,
      "à¤ĩà¤ķ": 797,
      "à¤ªà¤Łà¤ķ": 798,
      "à¤Ļà¤²": 799,
      "Ġà¤Ī": 800,
      "à¥ģà¤Ĥ": 801,
      "à¤Ĺà¤¦": 802,
      "à¤¶à¤²": 803,
      "à¤°à¤®à¤ķ": 804,
      "Ġà¤Ľà¤²à¤«à¤²": 805,
      "à¤īà¤¦": 806,
      "à¤ĩà¤Ł": 807,
      "ĠĠĠĠĠĠĠĠ": 808,
      "à¤§à¤¤": 809,
      "Ġà¤Ńà¤Ł": 810,
      "à¤°à¤¤à¤ķ": 811,
      "à¤¯à¤¸à¤²": 812,
      "Ġà¥§à¥©": 813,
      "à¤ľà¤¯": 814,
      "Ġà¤¯à¤¦": 815,
      "à¤®à¤¸": 816,
      "à¤®à¤°": 817,
      "Ġà¤Ńà¤ĩà¤¸à¤ķ": 818,
      "Ġà¤ĺà¤°à¤®": 819,
      "Ġà¥¦": 820,
      "à¤ªà¤¦": 821,
      "à¤®à¤§": 822,
      "Ġà¤¸à¤¹à¤ľ": 823,
      "Ġà¤ıà¤ķà¤¤": 824,
      "Ġà¤Ńà¤¦": 825,
      "Ġà¥§à¥ª": 826,
      "Ġà¤Ńà¤µ": 827,
      "Ġà¤ľà¤¤": 828,
      "Ġà¥§à¥®": 829,
      "Ġà¤ªà¤°à¤®": 830,
      "à¤ľà¤¦": 831,
      "Ġà¤®à¤¸": 832,
      "à¤¬à¤¦": 833,
      "à¤¨à¤¸à¤ķ": 834,
      "à¤°à¤·": 835,
      "Ġà¥§à¥¬": 836,
      "à¤ĺà¤Łà¤¨": 837,
      "à¤¸à¤¸": 838,
      "Ġà¤ľà¤¸à¤²": 839,
      "Ġà¤°à¤®": 840,
      "Ġà¤ķà¤µ": 841,
      "Ġà¤Ńà¤Ī": 842,
      "Ġà¤°à¤ķ": 843,
      "à¤¯à¤Łà¤ķ": 844,
      "Ġà¤ķà¤¥": 845,
      "à¤¸à¤¹à¤°": 846,
      "à¤ľà¤§": 847,
      "à¤¯à¤¬": 848,
      "à¤¸à¤¬": 849,
      "Ġà¤¯à¤¸à¤°": 850,
      "à¤ıà¤®": 851,
      "à¤ļà¤²": 852,
      "Ġà¤Ńà¤£": 853,
      "à¤ķà¤¹à¤°": 854,
      "Ġà¤ľà¤¹": 855,
      "à¤·à¤®à¤¤": 856,
      "Ġà¤ħà¤µà¤§": 857,
      "à¤ĩà¤°": 858,
      "à¤¹à¤¤": 859,
      "Ġà¤ĭ": 860,
      "à¤µà¤¦": 861,
      "à¤¨à¤¹à¤°": 862,
      "à¤ľà¤¨à¤ķ": 863,
      "à¤¯à¤¸à¤ªà¤Ľ": 864,
      "Ġà¤īà¤¸à¤²": 865,
      "Ġà¤ĸà¤¡": 866,
      "Ġà¤īà¤ªà¤¸": 867,
      "à¤·à¤§": 868,
      "à¤²à¤¨à¤ķ": 869,
      "Ġà¤¸à¤²": 870,
      "à¤ķà¤Ł": 871,
      "à¤ĩà¤¤": 872,
      "Ġà¥¨à¥§": 873,
      "à¤°à¤ļà¤¨": 874,
      "à¤ķà¤¸": 875,
      "Ġà¤ļà¤¨": 876,
      "à¤¯à¤£": 877,
      "Ġà¤¹à¤Ł": 878,
      "à¤ĸà¤ķ": 879,
      "Ġà¤Ĺà¤łà¤¨": 880,
      "Ġà¤«à¤°à¤ķ": 881,
      "Ġà¤īà¤ªà¤¯": 882,
      "à¤µà¤µ": 883,
      "Ġà¤®à¤¤à¤¦": 884,
      "à¤Ńà¤ķ": 885,
      "à¤°à¤£à¤²": 886,
      "à¤²à¤°": 887,
      "Ġà¤¶à¤¨": 888,
      "à¤§à¤¬": 889,
      "à¤¯à¤ķà¤°": 890,
      "Ġà¤Ĩà¤ª": 891,
      "Ġà¤µà¤¨": 892,
      "Ġà¤īà¤¡": 893,
      "Ġà¥§à¥Ń": 894,
      "Ġà¤Ŀà¤¨": 895,
      "à¤ĺà¤°": 896,
      "à¤ľà¤°": 897,
      "à¤·à¤²": 898,
      "à¤°à¤£à¤ķ": 899,
      "à¤°à¤ļà¤£": 900,
      "à¤§à¤°": 901,
      "Ġà¤Ĩà¤Ī": 902,
      "Ġà¤Ĭ": 903,
      "Ġà¤¹à¤²": 904,
      "à¤¯à¤ķà¤¤": 905,
      "Ġà¤Ĺà¤ł": 906,
      "Ġà¤¤à¤¹à¤ķ": 907,
      "à¤Īà¤¨": 908,
      "Ġà¤¯à¤¸à¤®": 909,
      "Ġà¤¤à¤¸": 910,
      "Ġà¤Ĺà¤®": 911,
      "Ġà¥¨à¥¨": 912,
      "à¤¯à¤Łà¤¨": 913,
      "Ġà¤ķà¤ķ": 914,
      "Ġà¤¶à¤¬": 915,
      "Ġà¤¯à¤¸à¤ħà¤ĺ": 916,
      "à¤¤à¤¤": 917,
      "Ġà¤µà¤¸": 918,
      "Ġà¤ķà¤¨": 919,
      "à¤§à¤¨à¤ķ": 920,
      "Ġà¤ĩà¤¤": 921,
      "Ġà¤¨à¤ķ": 922,
      "à¤¤à¤¹à¤°": 923,
      "Ġà¤ķà¤®à¤ľ": 924,
      "à¤µà¤¯à¤¨": 925,
      "Ġà¥¨à¥ª": 926,
      "à¤Ļà¤®": 927,
      "à¤ªà¤£": 928,
      "à¤Ĺà¤²à¤¬": 929,
      "Ġà¤¸à¤¡": 930,
      "Ġà¤¦à¤²à¤ķ": 931,
      "Ġà¤¤à¤²": 932,
      "à¤ļà¤°": 933,
      "Ġà¤ħà¤ķ": 934,
      "à¤¯à¤µà¤¹": 935,
      "Ġà¤Ĩà¤ľà¤ķ": 936,
      "à¥ĩà¤Ĥ": 937,
      "à¤¯à¤¦": 938,
      "Ġà¤ĸà¤¨": 939,
      "à¤Ĩà¤°": 940,
      "Ġà¤Ķà¤·à¤§": 941,
      "Ġà¤Ĩà¤²": 942,
      "à¤µà¤¤à¤¨": 943,
      "à¤¸à¤ļ": 944,
      "à¤ķà¤²à¤¨": 945,
      "à¥ĩà¤ģ": 946,
      "à¤¨à¤Ĺà¤°à¤ª": 947,
      "Ġà¤ľà¤¬": 948,
      "Ġà¤Ĳà¤¨": 949,
      "à¤¯à¤®à¤¨": 950,
      "à¤®à¤Ĺ": 951,
      "Ġà¥ªà¥¦": 952,
      "à¤ªà¤·": 953,
      "Ġà¤ħà¤µà¤¸à¤°à¤®": 954,
      "à¤Ĺà¤¢": 955,
      "Ġà¤Ńà¤ķ": 956,
      "à¤łà¤ķà¤²": 957,
      "à¤ĩà¤¨à¤²": 958,
      "Ġà¤ľà¤µ": 959,
      "Ġà¤¸à¤®à¤°": 960,
      "à¤ĸà¤²": 961,
      "à¤ľà¤µ": 962,
      "Ġà¤īà¤ªà¤Ń": 963,
      "Ġà¥¨à¥¦à¥¬": 964,
      "à¤°à¤ĸ": 965,
      "à¤£à¤®": 966,
      "à¤ĩà¤®": 967,
      "Ġà¤Ĩà¤ļ": 968,
      "à¤ķà¤°à¤£à¤ķ": 969,
      "à¤¨à¤¦": 970,
      "Ġà¤ħà¤µà¤¸à¤°": 971,
      "Ġà¤«à¤²": 972,
      "à¤¥à¤ķ": 973,
      "Ġà¥¨à¥®": 974,
      "Ġà¤īà¤¸à¤ķ": 975,
      "Ġà¤¤à¤¹": 976,
      "Ġà¤²à¤¡": 977,
      "Ġà¤Ĩà¤ĩà¤¤à¤¬": 978,
      "à¤¡à¤°": 979,
      "Ġà¤īà¤ľ": 980,
      "à¤łà¤²": 981,
      "à¤®à¤ª": 982,
      "à¤Łà¤¬": 983,
      "à¤īà¤µ": 984,
      "Ġà¤Ńà¤¤": 985,
      "à¥¨à¥¦": 986,
      "Ġà¥¨à¥©": 987,
      "à¤Ĺà¤łà¤¨": 988,
      "Ġà¥¨à¥¦à¥¦": 989,
      "à¤¬à¤°à¤ķ": 990,
      "Ġà¥¨à¥Ń": 991,
      "Ġà¤ıà¤ľ": 992,
      "à¤ļà¤¨à¤®": 993,
      "Ġà¤ķà¤Ł": 994,
      "à¤°à¤¹à¤¨": 995,
      "Ġà¤Ĩà¤ķà¤°": 996,
      "Ġà¤ľà¤¨à¤¸": 997,
      "à¤£à¤¸": 998,
      "Ġà¤Ĩà¤ł": 999,
      "à¤Ĺà¤¨": 1000,
      "Ġà¤¸à¤®à¤¨": 1001,
      "à¤¸à¤µ": 1002,
      "Ġà¤¶à¤¹à¤°": 1003,
      "Ġà¤®à¤¦": 1004,
      "Ġà¤¸à¤ªà¤¨": 1005,
      "Ġà¤ĺà¤£": 1006,
      "à¤¤à¤°à¤ķ": 1007,
      "Ġà¤¨à¤µ": 1008,
      "Ġà¥¨à¥¯": 1009,
      "à¤ĸà¤®": 1010,
      "à¤¨à¤¸à¤®": 1011,
      "Ġà¤¬à¤®": 1012,
      "Ġà¤ªà¤¸": 1013,
      "à¤¸à¤ª": 1014,
      "à¤¯à¤¯": 1015,
      "à¤¨à¤¯": 1016,
      "Ġà¤¸à¤ª": 1017,
      "Ġà¤¯à¤¸à¤¬": 1018,
      "Ġà¥¨à¥¦à¥Ńà¥«": 1019,
      "à¤£à¤¨": 1020,
      "à¤°à¤°": 1021,
      "à¤®à¤¹": 1022,
      "à¤°à¤¬à¤¹": 1023,
      "à¤°à¤µà¤ķ": 1024,
      "Ġà¤¦à¤²à¤¹à¤°": 1025,
      "ĠĠĠ": 1026,
      "Ġà¤ĩà¤²": 1027,
      "Ġà¤ħà¤ĸ": 1028,
      "Ġà¤¨à¤¤": 1029,
      "Ġà¥¨à¥¬": 1030,
      "à¤²à¤¸à¤®": 1031,
      "Ġà¤Ńà¤ıà¤¨": 1032,
      "à¤łà¤ķà¤®": 1033,
      "à¤Ĺà¤ł": 1034,
      "Ġà¤ĸà¤¸": 1035,
      "à¤Łà¤¬à¤²": 1036,
      "à¤ªà¤ļ": 1037,
      "à¤ĸà¤¨": 1038,
      "à¤ĩà¤ľ": 1039,
      "à¤Ĺà¤¬": 1040,
      "à¤µà¤Ł": 1041,
      "Ġà¤Ńà¤µà¤¨": 1042,
      "Ġà¤°à¤¸": 1043,
      "à¤ľà¤ª": 1044,
      "Ġà¥¨à¥¦à¥Ńà¥ª": 1045,
      "Ġà¤¬à¤Ĺ": 1046,
      "à¤«à¤¬": 1047,
      "Ġà¤ľà¤²": 1048,
      "Ġà¤Ĺà¤¨": 1049,
      "à¤µà¤§": 1050,
      "Ġà¤ªà¤²": 1051,
      "à¤Ńà¤®": 1052,
      "Ġà¤¨à¤¬": 1053,
      "Ġà¤¤à¤¹à¤®": 1054,
      "à¤Ĺà¤®à¤¨": 1055,
      "Ġà¤¤à¤¨": 1056,
      "Ġà¤Ĺà¤²": 1057,
      "Ġà¤Ĩà¤«à¤¨": 1058,
      "Ġà¤ĭà¤£": 1059,
      "Ġà¥¬à¥¦": 1060,
      "à¤Ķ": 1061,
      "Ġà¤Ĺà¤¯": 1062,
      "à¤īà¤ķ": 1063,
      "à¤°à¤¸à¤®": 1064,
      "à¤īà¤¨à¤ķ": 1065,
      "Ġà¤ªà¤ŀ": 1066,
      "Ġà¤Ĺà¤ıà¤°": 1067,
      "Ġà¤¸à¤§": 1068,
      "à¤Ĺà¤¤à¤ķ": 1069,
      "Ġà¤¸à¤¸": 1070,
      "Ġà¤ļà¤°à¤£à¤®": 1071,
      "Ġà¤¸à¤«": 1072,
      "Ġà¤¨à¤²": 1073,
      "à¤µà¤¶": 1074,
      "Ġà¤Ĺà¤łà¤¬à¤¨": 1075,
      "Ġà¤¸à¤«à¤²à¤¤": 1076,
      "à¤ķà¤¬": 1077,
      "à¤¶à¤¸": 1078,
      "Ġà¤ķà¤ł": 1079,
      "à¤ķà¤µ": 1080,
      "Ġà¤īà¤ªà¤¤": 1081,
      "Ġà¤ĸà¤¬à¤°": 1082,
      "à¤Łà¤°à¤¨": 1083,
      "à¤¸à¤¨à¤²": 1084,
      "à¤°à¤Ĺà¤¤": 1085,
      "Ġà¤Ńà¤Ĺ": 1086,
      "à¤ļà¤¨à¤ķ": 1087,
      "à¤ĩà¤¸": 1088,
      "à¤°à¤¤à¤²": 1089,
      "à¤¸à¤¨à¤ķ": 1090,
      "à¤ıà¤²": 1091,
      "Ġà¤ħà¤¡": 1092,
      "à¤®à¤£": 1093,
      "Ġà¤ķà¤¡": 1094,
      "Ġà¤¦à¤¸": 1095,
      "à¤Łà¤¹à¤°": 1096,
      "à¥ģà¤ĥ": 1097,
      "Ġà¤ľà¤¨à¤ķ": 1098,
      "à¤¡à¤¨": 1099,
      "Ġà¤¸à¤¹à¤°": 1100,
      "à¤¬à¤®": 1101,
      "à¤·à¤°": 1102,
      "Ġà¤ħà¤¸à¤°": 1103,
      "Ġà¥©à¥§": 1104,
      "Ġà¤ĸà¤Ł": 1105,
      "à¤²à¤ª": 1106,
      "à¤°à¤¥à¤®": 1107,
      "à¤¦à¤Ľà¤¨": 1108,
      "à¤ĩà¤¡": 1109,
      "à¥¦à¥¦": 1110,
      "à¤Īà¤®": 1111,
      "à¤°à¤®à¤£à¤ķ": 1112,
      "à¤Ĺà¤¤à¤®": 1113,
      "Ġà¤ħà¤¨à¤²": 1114,
      "à¤¥à¤¨": 1115,
      "à¤¤à¤°à¤®": 1116,
      "Ġà¤Ĩà¤ĩà¤ª": 1117,
      "Ġà¤°à¤¨": 1118,
      "Ġà¤ľà¤¸à¤ķ": 1119,
      "Ġà¤¯à¤¥": 1120,
      "Ġà¤ļà¤¢": 1121,
      "à¤Ĺà¤°à¤ķ": 1122,
      "Ġà¤ľà¤²à¤µ": 1123,
      "à¤Ĺà¤°à¤®": 1124,
      "à¤·à¤£à¤ķ": 1125,
      "à¤Łà¤µ": 1126,
      "Ġà¤Ĺà¤²à¤¤": 1127,
      "à¤ĺà¤²": 1128,
      "à¤¶à¤¬": 1129,
      "Ġà¤Ŀà¤£": 1130,
      "à¤µà¤Ń": 1131,
      "Ġà¤²à¤®": 1132,
      "Ġà¤Ńà¤ıà¤ªà¤¨": 1133,
      "Ġà¤¦à¤¬": 1134,
      "à¤¬à¤¸": 1135,
      "à¤ªà¤¸": 1136,
      "à¤²à¤Ń": 1137,
      "Ġà¤ĩà¤®": 1138,
      "à¤°à¤Ĺ": 1139,
      "à¤īà¤®": 1140,
      "à¤ķà¤¤à¤¨": 1141,
      "à¥ģà¥ģ": 1142,
      "Ġà¤ĸà¤¤": 1143,
      "à¤¶à¤¨à¤®": 1144,
      "Ġà¤ĸà¤£": 1145,
      "Ġà¤ªà¤¦à¤®": 1146,
      "à¤¶à¤¨à¤ķ": 1147,
      "Ġà¥©à¥«": 1148,
      "à¤¬à¤ķ": 1149,
      "à¤ļà¤¯": 1150,
      "à¤¨à¤¸à¤Ń": 1151,
      "Ġà¤¤à¤°à¤ķ": 1152,
      "Ġà¤īà¤°": 1153,
      "à¤Ŀà¤¨": 1154,
      "Ġà¤īà¤ªà¤°": 1155,
      "Ġà¤¹à¤ª": 1156,
      "à¤Łà¤°à¤ķ": 1157,
      "à¤ĩà¤¯": 1158,
      "à¤¹à¤°à¤£": 1159,
      "à¤¤à¤µà¤¨": 1160,
      "Ġà¤Ĩà¤ı": 1161,
      "à¤¯à¤¸à¤¬": 1162,
      "à¤Ĩà¤Ī": 1163,
      "à¤§à¤µ": 1164,
      "Ġà¤ľà¤¨à¤ľ": 1165,
      "à¤¶à¤¸à¤Ń": 1166,
      "Ġà¤ıà¤²": 1167,
      "Ġà¤²à¤²": 1168,
      "à¤¯à¤°à¤¤": 1169,
      "Ġà¤¸à¤¦à¤°à¤®": 1170,
      "Ġà¤¸à¤°à¤¸": 1171,
      "à¤Łà¤ª": 1172,
      "à¤ħà¤°": 1173,
      "à¤ļà¤¨à¤ª": 1174,
      "à¤¥à¤²à¤®": 1175,
      "Ġà¤īà¤¸": 1176,
      "à¤µà¤¨à¤ķ": 1177,
      "Ġà¤®à¤Ĺà¤°": 1178,
      "à¤¦à¤¨à¤®": 1179,
      "à¤ķà¤®à¤²": 1180,
      "Ġà¤ħà¤µà¤°": 1181,
      "Ġà¤ľà¤¸à¤®": 1182,
      "à¤ıà¤¨à¤¨": 1183,
      "Ġà¤Ĩà¤ıà¤°": 1184,
      "à¤°à¤¤à¤®": 1185,
      "Ġà¤ķà¤ŀ": 1186,
      "à¤¨à¤Ńà¤¨": 1187,
      "Ġà¤¨à¤ªà¤°": 1188,
      "Ġà¤ľà¤¨à¤ª": 1189,
      "à¤°à¤®à¤²": 1190,
      "à¤Ĺà¤¹à¤°": 1191,
      "Ġà¤¨à¤Ńà¤ı": 1192,
      "à¤¡à¤¬": 1193,
      "à¤°à¤«": 1194,
      "à¥ĭà¥ĩ": 1195,
      "Ġà¤Ĳà¤¤": 1196,
      "Ġà¤¢à¤ķ": 1197,
      "à¤¥à¤°": 1198,
      "Ġà¤ľà¤¡": 1199,
      "Ġà¤ıà¤ª": 1200,
      "Ġà¤¨à¤Ńà¤Ī": 1201,
      "à¤ľà¤¤": 1202,
      "Ġà¤®à¤ŀ": 1203,
      "Ġà¤ħà¤¶": 1204,
      "à¤¹à¤¦": 1205,
      "Ġà¤¸à¤¡à¤ķà¤®": 1206,
      "Ġà¤ħà¤·": 1207,
      "Ġà¤ĩà¤ļ": 1208,
      "à¤¥à¤µ": 1209,
      "Ġà¤®à¤¨à¤®": 1210,
      "à¤«à¤ķ": 1211,
      "Ġà¤ªà¤¹à¤²": 1212,
      "à¤Łà¤°à¤®": 1213,
      "à¤¶à¤¨à¤²": 1214,
      "Ġà¤Ĭà¤°": 1215,
      "à¤Ĭ": 1216,
      "à¤Ĩà¤«": 1217,
      "Ġà¤¨à¤Ĺà¤¦": 1218,
      "à¤²à¤¦": 1219,
      "Ġà¥ªà¥«": 1220,
      "à¤µà¤¨à¤®": 1221,
      "à¤¤à¤¸": 1222,
      "Ġà¤¦à¤¶à¤ķ": 1223,
      "à¤®à¤²à¤µ": 1224,
      "à¤²à¤¤à¤²": 1225,
      "à¤°à¤¥": 1226,
      "Ġà¤¦à¤¶à¤®à¤²à¤µ": 1227,
      "Ġà¤¸à¤®à¤Ĺ": 1228,
      "Ġà¤ıà¤µà¤®": 1229,
      "Ġà¤ľà¤¨à¤ķà¤ª": 1230,
      "Ġà¤®à¤¹à¤¸": 1231,
      "à¤²à¤¹à¤°": 1232,
      "à¤¶à¤¹à¤°": 1233,
      "Ġà¤®à¤£": 1234,
      "Ġà¤ħà¤ªà¤¨": 1235,
      "à¥Ĥà¤ģ": 1236,
      "à¤®à¤¹à¤°": 1237,
      "Ġà¤¹à¤ķ": 1238,
      "Ġà¤ĺà¤°à¤ķ": 1239,
      "à¤ħà¤§": 1240,
      "Ġà¥Ńà¥¦": 1241,
      "à¥Ģà¤ģ": 1242,
      "à¤§à¤²": 1243,
      "Ġà¤ļà¤ķ": 1244,
      "Ġà¤Ĩà¤¹": 1245,
      "Ġà¤ķà¤®à¤²": 1246,
      "Ġà¤¬à¤¡": 1247,
      "Ġà¤ļà¤°à¤£à¤ķ": 1248,
      "à¤ľà¤¬": 1249,
      "Ġà¤Ĺà¤ı": 1250,
      "Ġà¤Ķà¤ªà¤ļ": 1251,
      "à¤īà¤¸": 1252,
      "Ġà¥®à¥¦": 1253,
      "Ġà¥©à¥¨": 1254,
      "à¤¡à¤¸": 1255,
      "à¤¦à¤¤": 1256,
      "à¤ĩà¤ķà¤²": 1257,
      "à¤·à¤¹à¤°": 1258,
      "Ġà¤Ĺà¤£à¤¤à¤¨": 1259,
      "Ġà¥¨à¥¦à¥«": 1260,
      "Ġà¤ĸà¤¤à¤°": 1261,
      "Ġà¤¡à¤²à¤°": 1262,
      "Ġà¤ĺà¤¨": 1263,
      "à¤²à¤¤à¤®": 1264,
      "Ġà¤īà¤Ń": 1265,
      "à¤¯à¤Ł": 1266,
      "à¤¥à¤¤à¤¨": 1267,
      "Ġà¤ħà¤Ļ": 1268,
      "à¤Łà¤°à¤¸": 1269,
      "à¤Īà¤ıà¤ķ": 1270,
      "ĠĠĠĠĠĠĠĠĠĠĠĠĠĠĠĠ": 1271,
      "à¤¹à¤®à¤¨": 1272,
      "Ġà¤īà¤ªà¤®à¤¹": 1273,
      "Ġà¤Ĺà¤¹": 1274,
      "à¤·à¤ħà¤ĺ": 1275,
      "à¤µà¤¹à¤°": 1276,
      "à¤£à¤²": 1277,
      "à¤¹à¤¸": 1278,
      "Ġà¤µà¤ķ": 1279,
      "Ġà¤®à¤ľà¤¦": 1280,
      "à¤Łà¤¨à¤Ĺà¤°": 1281,
      "Ġà¥¨à¥¦à¥Ńà¥©": 1282,
      "à¤µà¤ķà¤ª": 1283,
      "à¤°à¤ķà¤°": 1284,
      "Ġà¤Ĩà¤¸": 1285,
      "Ġà¤§à¤®": 1286,
      "à¤¯à¤¤à¤²": 1287,
      "Ġà¤¤à¤®": 1288,
      "à¤£à¤¤": 1289,
      "à¤°à¤®à¤£à¤®": 1290,
      "à¤Ĺà¤ľ": 1291,
      "à¤¦à¤µà¤²": 1292,
      "Ġà¥©à¥©": 1293,
      "à¤¤à¤°à¤¤": 1294,
      "à¤ªà¤¦à¤£": 1295,
      "Ġà¤¸à¤¶à¤¸": 1296,
      "Ġà¤¦à¤®": 1297,
      "Ġà¤īà¤ªà¤ª": 1298,
      "à¤¬à¤ľ": 1299,
      "à¤·à¤¸à¤®": 1300,
      "Ġà¤®à¤¹à¤°": 1301,
      "Ġà¤ıà¤ķà¤²": 1302,
      "Ġà¤Ĩà¤ĩà¤°à¤¹": 1303,
      "Ġà¤ľà¤¨à¤®": 1304,
      "à¤Łà¤¸": 1305,
      "Ġà¤Ńà¤°à¤¤": 1306,
      "à¥Ńà¥«": 1307,
      "Ġà¤ļà¤²à¤¨": 1308,
      "à¤ŀà¤ª": 1309,
      "Ġà¤ªà¤¦à¤ķ": 1310,
      "à¤Ńà¤Ĺ": 1311,
      "Ġà¤ħà¤¸à¤¨": 1312,
      "Ġà¤¨à¤Ĩ": 1313,
      "Ġà¤¬à¤¦à¤²": 1314,
      "Ġà¤Ńà¤Ĺà¤µ": 1315,
      "Ġà¤ľà¤¸à¤°": 1316,
      "Ġà¤¶à¤¤": 1317,
      "Ġà¤®à¤Ļ": 1318,
      "à¤µà¤°à¤ķ": 1319,
      "à¤ĩà¤¨à¤²à¤®": 1320,
      "Ġà¤ıà¤¶": 1321,
      "à¤¿à¤ĥ": 1322,
      "à¤¶à¤µ": 1323,
      "Ġà¤°à¤£à¤¨": 1324,
      "Ġà¤¤à¤²à¤¬": 1325,
      "Ġà¤īà¤ªà¤¨": 1326,
      "Ġà¥Ńà¥«": 1327,
      "Ġà¤°à¤µ": 1328,
      "Ġà¤ıà¤ķà¤ľà¤¨": 1329,
      "à¤ªà¤¨à¤ķ": 1330,
      "à¤īà¤ª": 1331,
      "à¤Ńà¤²": 1332,
      "Ġà¤«à¤¸": 1333,
      "Ġà¤ĩà¤¸": 1334,
      "Ġà¤ħà¤¥à¤µ": 1335,
      "Ġà¤¶à¤µ": 1336,
      "à¤«à¤°": 1337,
      "à¤¯à¤®à¤¬": 1338,
      "à¤īà¤²": 1339,
      "Ġà¤ıà¤¨à¤Ĩà¤°": 1340,
      "à¤ªà¤Ł": 1341,
      "à¤®à¤¬à¤¹": 1342,
      "à¤Ĺà¤¸": 1343,
      "Ġà¤Ŀà¤°": 1344,
      "Ġà¤Ńà¤ıà¤®": 1345,
      "Ġà¤¹à¤µ": 1346,
      "à¤ķà¤°à¤£à¤²": 1347,
      "Ġà¤¡à¤°": 1348,
      "à¤¤à¤¹": 1349,
      "Ġà¤¹à¤Ļà¤ķ": 1350,
      "à¤īà¤°": 1351,
      "Ġà¥¨à¥¦à¥ª": 1352,
      "Ġà¤Ĩà¤ıà¤ªà¤Ľ": 1353,
      "Ġà¤Ĩà¤Ĩà¤«": 1354,
      "à¤·à¤¯à¤²": 1355,
      "Ġà¤ļà¤¯à¤¨": 1356,
      "Ġà¤¨à¤Ńà¤ıà¤°": 1357,
      "Ġà¤¨à¤°à¤¹": 1358,
      "à¤°à¤¬à¤¨": 1359,
      "Ġà¥¨à¥¦à¥Ńà¥¨": 1360,
      "à¤ªà¤ķà¤®à¤²": 1361,
      "à¤¦à¤¨à¤ķ": 1362,
      "Ġà¤ħà¤ļ": 1363,
      "Ġà¤Ľà¤°": 1364,
      "Ġà¥§à¥¯à¥¯": 1365,
      "Ġà¤ľà¤¨à¤¶à¤ķ": 1366,
      "à¤°à¤µà¤¦": 1367,
      "à¤Ŀà¤¦": 1368,
      "à¤°à¤®à¤¹à¤°": 1369,
      "à¤ĸà¤¦": 1370,
      "à¤¨à¤ļ": 1371,
      "à¤¸à¤¤": 1372,
      "Ġà¥¯à¥¦": 1373,
      "Ġà¤Ľà¤²à¤«": 1374,
      "à¤²à¤¯à¤¹à¤°": 1375,
      "à¤¨à¤¤à¤®": 1376,
      "à¤ĩà¤ª": 1377,
      "Ġà¤¸à¤®à¤¯à¤ķ": 1378,
      "à¤µà¤¹": 1379,
      "à¤²à¤¤à¤ķ": 1380,
      "à¤µà¤°à¤²": 1381,
      "à¤·à¤ķà¤ķ": 1382,
      "à¤£à¤ªà¤¤": 1383,
      "à¤·à¤¬": 1384,
      "à¤·à¤£à¤®": 1385,
      "Ġà¤Ĩà¤¨à¤¨": 1386,
      "Ġà¥«à¥«": 1387,
      "Ġà¤ªà¤°à¤°": 1388,
      "Ġà¤łà¤Ĺ": 1389,
      "Ġà¤¸à¤®à¤¯à¤¦": 1390,
      "à¤°à¤¹à¤£": 1391,
      "Ġà¤ħà¤¸à¤«à¤²": 1392,
      "à¤ıà¤«": 1393,
      "à¤²à¤ĸ": 1394,
      "à¥Ńà¥ª": 1395,
      "Ġà¥¨à¥¦à¥§à¥®": 1396,
      "Ġà¤Ńà¤²": 1397,
      "à¤¤à¤¨à¤ķ": 1398,
      "à¤²à¤¯à¤¬": 1399,
      "Ġà¤°à¤ļà¤¨": 1400,
      "Ġà¤ķà¤¬": 1401,
      "à¤¨à¤¸à¤°": 1402,
      "à¤®à¤µ": 1403,
      "Ġà¤ħà¤Ł": 1404,
      "à¤·à¤ķà¤²": 1405,
      "à¤īà¤£": 1406,
      "à¤Ĺà¤¶": 1407,
      "Ġà¤¦à¤²à¤²": 1408,
      "Ġà¤Ĺà¤ľ": 1409,
      "Ġà¤ķà¤¸à¤²": 1410,
      "Ġà¤ħà¤²à¤Ĺ": 1411,
      "à¤ľà¤¨à¤®": 1412,
      "à¤®à¤°à¤£": 1413,
      "à¤¯à¤°à¤ķ": 1414,
      "Ġà¤ªà¤¸à¤²": 1415,
      "à¤ªà¤¬": 1416,
      "à¤§à¤¨à¤²": 1417,
      "à¤Łà¤µà¤²": 1418,
      "à¤·à¤¯à¤ķ": 1419,
      "à¤°à¤®à¤¶": 1420,
      "Ġà¤łà¤¹à¤°": 1421,
      "à¤¸à¤¨à¤®": 1422,
      "Ġà¤¦à¤°à¤¬": 1423,
      "Ġà¤ķà¤ªà¤¡": 1424,
      "à¤Ĩà¤®": 1425,
      "à¤·à¤ªà¤Ľ": 1426,
      "à¤®à¤¯": 1427,
      "Ġà¤¸à¤¡à¤ķà¤ķ": 1428,
      "à¤µà¤ļ": 1429,
      "à¤·à¤ķà¤¹à¤°": 1430,
      "Ġà¥©à¥¬": 1431,
      "à¤°à¤¤à¤¬": 1432,
      "Ġà¤¬à¤¹à¤¸": 1433,
      "Ġà¤ıà¤ķà¤¦à¤®": 1434,
      "à¤·à¤Ń": 1435,
      "à¤²à¤¨à¤²": 1436,
      "Ġà¤¨à¤µà¤²": 1437,
      "Ġà¤§à¤¨à¤Ĺà¤¢": 1438,
      "Ġà¤ħà¤ŀ": 1439,
      "Ġà¤¸à¤°à¤¸à¤«": 1440,
      "Ġà¤ıà¤¨à¤Ĩà¤°à¤ıà¤¨": 1441,
      "Ġà¤ıà¤£": 1442,
      "Ġà¤ħà¤¸à¤¹": 1443,
      "à¤¬à¤°à¤®": 1444,
      "à¤¡à¤«": 1445,
      "à¤§à¤¨à¤®": 1446,
      "à¤¥à¤®à¤¨": 1447,
      "à¤£à¤ª": 1448,
      "Ġà¤ıà¤«": 1449,
      "à¤µà¤¸à¤ķ": 1450,
      "Ġà¤ħà¤¬à¤ķ": 1451,
      "à¤µà¤°à¤®": 1452,
      "à¤Ĺà¤ķà¤°": 1453,
      "Ġà¤ľà¤Ł": 1454,
      "Ġà¤¨à¤¸": 1455,
      "à¤¯à¤§": 1456,
      "Ġà¤Ķà¤¦": 1457,
      "à¤¦à¤¶": 1458,
      "à¤¶à¤¤à¤²": 1459,
      "à¤µà¤¯à¤¨à¤®": 1460,
      "Ġà¤¬à¤ķ": 1461,
      "à¤µà¤¯à¤®": 1462,
      "à¤µà¤¡": 1463,
      "à¤²à¤ķà¤²": 1464,
      "Ġà¤¸à¤ĺ": 1465,
      "Ġà¤¢à¤²": 1466,
      "à¤Łà¤ĺ": 1467,
      "Ġà¤ĺà¤°à¤¬": 1468,
      "à¤ľà¤¨à¤²": 1469,
      "Ġà¤°à¤¤": 1470,
      "Ġà¥©à¥ª": 1471,
      "à¤®à¤¶": 1472,
      "à¤¨à¤¥": 1473,
      "à¤Īà¤¦": 1474,
      "Ġà¥¬à¥«": 1475,
      "Ġà¤ªà¤Łà¤ķà¤ªà¤Łà¤ķ": 1476,
      "à¤¥à¤²à¤ķ": 1477,
      "à¤ĩà¤¬": 1478,
      "Ġà¤²à¤Ĺà¤Ńà¤Ĺ": 1479,
      "à¤Łà¤°à¤²": 1480,
      "à¤¦à¤¨à¤¶": 1481,
      "à¤īà¤¤": 1482,
      "Ġà¤¨à¤ĸ": 1483,
      "à¤ıà¤¸à¤ª": 1484,
      "à¤¨à¤Ń": 1485,
      "à¤°à¤Ļ": 1486,
      "Ġà¤Ńà¤°à¤¤à¤ª": 1487,
      "à¤¯à¤¤à¤®": 1488,
      "à¤¸à¤¦à¤®": 1489,
      "à¤īà¤¡": 1490,
      "à¥§à¥¦": 1491,
      "Ġà¤¡à¤Ł": 1492,
      "à¤Ĺà¤łà¤¨à¤ķ": 1493,
      "à¤¦à¤Ĺ": 1494,
      "à¤¸à¤Ļ": 1495,
      "à¤¯à¤¸à¤°": 1496,
      "à¤ļà¤¸": 1497,
      "Ġà¤¨à¤ļ": 1498,
      "Ġà¤ħà¤¸à¤®": 1499,
      "à¤¤à¤µà¤®": 1500,
      "à¤¦à¤¯": 1501,
      "Ġà¤ıà¤ķà¤¦": 1502,
      "Ġà¤ĩà¤ķ": 1503,
      "Ġà¤°à¤Ĺà¤¤": 1504,
      "à¤Ĺà¤¡": 1505,
      "à¤µà¤¯à¤¨à¤ķ": 1506,
      "Ġà¤µà¤¹": 1507,
      "Ġà¤ħà¤µà¤²": 1508,
      "à¤µà¤¬": 1509,
      "Ġà¤²à¤ĺ": 1510,
      "à¤°à¤ķà¤Ł": 1511,
      "Ġà¤ħà¤ľ": 1512,
      "Ġà¤ıà¤¡": 1513,
      "à¤ªà¤¥": 1514,
      "à¤¸à¤°à¤ķ": 1515,
      "à¥©à¥¦": 1516,
      "à¤²à¤ªà¤¤": 1517,
      "Ġà¤°à¤Ļ": 1518,
      "à¤·à¤ľ": 1519,
      "à¤¯à¤°à¤²": 1520,
      "à¤ĩà¤Ń": 1521,
      "à¤°à¤ŀ": 1522,
      "à¤ĺà¤¸": 1523,
      "Ġà¤¸à¤®à¤Ŀà¤¦": 1524,
      "Ġà¤ĵà¤Ń": 1525,
      "Ġà¤ªà¤Ł": 1526,
      "Ġà¤¸à¤Ĺà¤°à¤®": 1527,
      "Ġà¤Ĩà¤ĸ": 1528,
      "à¤ľà¤ķà¤¤": 1529,
      "Ġà¤ĵà¤°": 1530,
      "à¤Ńà¤µà¤¤": 1531,
      "Ġà¤¯à¤¸à¤ªà¤Łà¤ķ": 1532,
      "à¤°à¤¶à¤¸": 1533,
      "à¤Īà¤¤": 1534,
      "à¤īà¤¨à¤²": 1535,
      "Ġà¥«à¥§": 1536,
      "Ġà¤¸à¤Ł": 1537,
      "à¤īà¤Ľ": 1538,
      "à¤¯à¤®à¤ķ": 1539,
      "à¤ĸà¤£": 1540,
      "Ġà¥ªà¥¨": 1541,
      "à¤¶à¤Ń": 1542,
      "Ġà¤Īà¤¨": 1543,
      "Ġà¤®à¤ķ": 1544,
      "à¤Ĺà¤£": 1545,
      "à¤¸à¤¦à¤¹à¤°": 1546,
      "Ġà¤īà¤ªà¤ķà¤°à¤£": 1547,
      "à¤ķà¤¦": 1548,
      "à¤ļà¤¬": 1549,
      "Ġà¤¥à¤°": 1550,
      "à¤¶à¤Ńà¤°": 1551,
      "Ġà¤łà¤ķ": 1552,
      "Ġà¥¨à¥¦à¥§à¥Ń": 1553,
      "Ġà¤¯à¤¸à¤ª": 1554,
      "Ġà¤¤à¤¹à¤²": 1555,
      "Ġà¤īà¤ªà¤¹": 1556,
      "Ġà¤¤à¤¬": 1557,
      "à¤¤à¤¦": 1558,
      "Ġà¤¸à¤°à¤²": 1559,
      "à¤ŀà¤µ": 1560,
      "Ġà¤¸à¤®à¤¯à¤¸à¤®": 1561,
      "Ġà¤ĩà¤°": 1562,
      "Ġà¤ļà¤®": 1563,
      "Ġà¤Ĩà¤ªà¤¤": 1564,
      "à¤µà¤ľ": 1565,
      "Ġà¤¡à¤²": 1566,
      "Ġà¤ĩà¤ľ": 1567,
      "à¤¸à¤¦à¤ķ": 1568,
      "Ġà¥©à¥®": 1569,
      "à¤ĩà¤¨à¤¨": 1570,
      "à¤¤à¤ľ": 1571,
      "Ġà¤²à¤Ĺà¤¤": 1572,
      "Ġà¥©à¥Ń": 1573,
      "à¤¯à¤®à¤²": 1574,
      "à¤ĸà¤¤": 1575,
      "à¤ĺà¤°à¤®": 1576,
      "à¤¤à¤®à¤²": 1577,
      "Ġà¤¨à¤µà¤²à¤ªà¤°": 1578,
      "Ġà¤ľà¤¨à¤¯": 1579,
      "Ġà¥§à¥¦à¥¦": 1580,
      "à¤¨à¤¹": 1581,
      "à¤¾à¤¾": 1582,
      "à¤ģà¥ģ": 1583,
      "Ġà¤ķà¤¦à¤®": 1584,
      "à¤ľà¤¹à¤°": 1585,
      "Ġà¤Łà¤¨": 1586,
      "Ġà¤ļà¤°à¤£": 1587,
      "à¥Ģà¤Ĥ": 1588,
      "Ġà¤Łà¤°": 1589,
      "Ġà¤¦à¤«": 1590,
      "Ġà¤¬à¤ļà¤¤": 1591,
      "Ġà¤ħà¤¸à¤²": 1592,
      "à¤µà¤ķà¤°": 1593,
      "Ġà¤¨à¤¬à¤¨": 1594,
      "à¤Łà¤²à¤®": 1595,
      "à¤¤à¤µà¤¨à¤ķ": 1596,
      "à¤ŀà¤¹à¤°": 1597,
      "à¤¯à¤¶": 1598,
      "Ġà¤µà¤²": 1599,
      "Ġà¤Īà¤¶": 1600,
      "Ġà¤Ĺà¤ĩà¤°à¤¹": 1601,
      "à¥ĭà¤Ĥ": 1602,
      "Ġà¥ªà¥®": 1603,
      "à¤ªà¤¨à¤®": 1604,
      "à¤°à¤¯à¤¤": 1605,
      "Ġà¤ľà¤¬à¤°": 1606,
      "Ġà¥ªà¥§": 1607,
      "à¤Īà¤¹à¤°": 1608,
      "à¤«à¤®": 1609,
      "à¤ªà¤¶": 1610,
      "Ġà¤¸à¤¶à¤ķ": 1611,
      "à¤¤à¤ķà¤ķ": 1612,
      "à¤Īà¤¸": 1613,
      "Ġà¤¹à¤¨": 1614,
      "Ġà¥¦à¥Ń": 1615,
      "Ġà¤ªà¤ļ": 1616,
      "à¤Īà¤µà¤Ł": 1617,
      "Ġà¤Ńà¤ĩ": 1618,
      "à¤ĺà¤¨": 1619,
      "à¤¦à¤¹à¤°": 1620,
      "Ġà¤Ĩà¤Ĺà¤²": 1621,
      "Ġà¤Ľà¤ķ": 1622,
      "Ġà¥«à¥¬": 1623,
      "Ġà¥¨à¥¦à¥§à¥¬": 1624,
      "Ġà¥ªà¥ª": 1625,
      "à¤¯à¤°à¤®": 1626,
      "Ġà¤¨à¤·": 1627,
      "à¤µà¤¸à¤®": 1628,
      "à¤°à¤ªà¤Ľ": 1629,
      "Ġà¥ªà¥©": 1630,
      "Ġà¤«à¤²à¤«": 1631,
      "Ġà¤¨à¤¨": 1632,
      "Ġà¤Ĩà¤¦à¤°": 1633,
      "à¤Ĺà¤£à¤¨": 1634,
      "Ġà¤¬à¤Ł": 1635,
      "à¤¥à¤Ĺ": 1636,
      "à¤¬à¤¤": 1637,
      "à¤¯à¤¬à¤¸": 1638,
      "Ġà¥«à¥¨": 1639,
      "à¤¯à¤ľ": 1640,
      "à¤²à¤¬à¤²": 1641,
      "Ġà¤®à¤ķà¤µ": 1642,
      "à¤²à¤ķà¤ķ": 1643,
      "à¤ĵà¤¸": 1644,
      "Ġà¤·": 1645,
      "à¤¸à¤Ĺà¤°": 1646,
      "à¤ľà¤¶": 1647,
      "Ġà¤¹à¤®": 1648,
      "Ġà¤ªà¤µ": 1649,
      "à¤£à¤°": 1650,
      "à¤°à¤ªà¤¶": 1651,
      "à¤Ļà¤¬": 1652,
      "Ġà¤¦à¤°à¤²": 1653,
      "Ġà¤¸à¤¹à¤¸à¤ļ": 1654,
      "Ġà¤®à¤¦à¤¨": 1655,
      "à¤¯à¤ķà¤ķ": 1656,
      "à¤¤à¤¡": 1657,
      "Ġà¤°à¤¨à¤ķ": 1658,
      "à¤°à¤µà¤°": 1659,
      "à¤®à¤ľ": 1660,
      "à¤Łà¤«": 1661,
      "à¤¸à¤ķà¤¹à¤°": 1662,
      "Ġà¤ħà¤«à¤Ĺ": 1663,
      "Ġà¤¹à¤¦": 1664,
      "à¤¨à¤µà¤Ł": 1665,
      "à¤®à¤ļà¤¨": 1666,
      "Ġà¥©à¥¯": 1667,
      "à¤¹à¤¬": 1668,
      "ĠĠĠĠĠ": 1669,
      "Ġà¤®à¤ľ": 1670,
      "à¤¯à¤®à¤®": 1671,
      "à¤¡à¤²à¤ķ": 1672,
      "Ġà¤¬à¤Ļ": 1673,
      "Ġà¤¬à¤¯": 1674,
      "à¤ķà¤¹": 1675,
      "à¤łà¤ķà¤ķ": 1676,
      "Ġà¤ħà¤µà¤¶": 1677,
      "Ġà¤ªà¤£": 1678,
      "à¤Ĺà¤Ł": 1679,
      "Ġà¤®à¤ļ": 1680,
      "à¤ħà¤ª": 1681,
      "à¥Ńà¥¬": 1682,
      "à¤¤à¤°à¤²": 1683,
      "à¤ķà¤°à¤£à¤®": 1684,
      "Ġà¤ıà¤ķà¤ªà¤Łà¤ķ": 1685,
      "à¤¶à¤ķà¤²": 1686,
      "à¤¯à¤¨à¤ķ": 1687,
      "Ġà¥¨à¥¦à¥¨": 1688,
      "à¤¯à¤¯à¤¨à¤ķ": 1689,
      "à¤ªà¤¹à¤°": 1690,
      "Ġà¤īà¤ĸ": 1691,
      "à¤°à¤Ńà¤¨": 1692,
      "Ġà¤Ĩà¤¸à¤ª": 1693,
      "à¤Ĩà¤ľ": 1694,
      "à¤°à¤ľà¤¨": 1695,
      "à¤¡à¤ªà¤°": 1696,
      "Ġà¤¹à¤ķà¤®": 1697,
      "Ġà¤Ńà¤°à¤®": 1698,
      "à¥§à¥§": 1699,
      "à¤Ĩà¤µ": 1700,
      "Ġà¤§à¤¨à¤ķ": 1701,
      "à¤¹à¤¦à¤°à¤¬": 1702,
      "à¤¤à¤°à¤¦": 1703,
      "à¤ħà¤¸": 1704,
      "à¤¨à¤ªà¤Ľ": 1705,
      "à¤®à¤¹à¤¤": 1706,
      "Ġà¥ªà¥¬": 1707,
      "Ġà¤ľà¤¨à¤µ": 1708,
      "à¤ªà¤ª": 1709,
      "à¤°à¤¸à¤¹": 1710,
      "à¤¸à¤µà¤ķ": 1711,
      "à¤ľà¤ķà¤²": 1712,
      "Ġà¥¦à¥¬": 1713,
      "à¤¯à¤ľà¤¨": 1714,
      "à¤¾à¥Ī": 1715,
      "à¤Īà¤Ł": 1716,
      "à¤®à¤ªà¤¨": 1717,
      "à¤¦à¤¥": 1718,
      "Ġà¤ĸà¤²": 1719,
      "Ġà¥«à¥®": 1720,
      "à¤¤à¤¸à¤®": 1721,
      "à¤¯à¤¥": 1722,
      "Ġà¤Ĺà¤ıà¤ªà¤Ľ": 1723,
      "Ġà¤Ŀà¤²": 1724,
      "à¤¤à¤°à¤£à¤ķ": 1725,
      "Ġà¤Ńà¤ĩà¤¨": 1726,
      "à¤¨à¤ľ": 1727,
      "Ġà¤¨à¤Ĺ": 1728,
      "Ġà¤Ĩà¤¬à¤¦": 1729,
      "Ġà¤Ĩà¤ĩà¤¸à¤ķ": 1730,
      "à¤¯à¤Łà¤ķà¤ķ": 1731,
      "à¤Ĺà¤²à¤®": 1732,
      "à¤Ĩà¤¨": 1733,
      "Ġà¤ķà¤«": 1734,
      "Ġà¤°à¤ľ": 1735,
      "à¤¯à¤¨à¤¸": 1736,
      "à¤¿à¥į": 1737,
      "à¤ıà¤ªà¤¨": 1738,
      "à¤ĩà¤¨à¤®": 1739,
      "Ġà¤¤à¤¸à¤°": 1740,
      "Ġà¥®à¥«": 1741,
      "Ġà¤ħà¤ļà¤®": 1742,
      "Ġà¥«à¥©": 1743,
      "à¤¸à¤¦à¤²": 1744,
      "à¤µà¤ķà¤²": 1745,
      "à¤¸à¤°à¤®": 1746,
      "à¤¾à¥Īà¤Ĥ": 1747,
      "Ġà¤ĭà¤·": 1748,
      "à¤¯à¤¸à¤Ń": 1749,
      "Ġà¤Ľà¤²à¤«à¤²à¤®": 1750,
      "Ġà¤®à¤¨à¤¸": 1751,
      "Ġà¤¶à¤°à¤£": 1752,
      "à¤°à¤¤à¤¸": 1753,
      "Ġà¤Ńà¤ıà¤¸": 1754,
      "Ġà¤ķà¤ļ": 1755,
      "à¤ĸà¤¹à¤°": 1756,
      "Ġà¤µà¤¤": 1757,
      "à¤¦à¤¬": 1758,
      "Ġà¤¬à¤²à¤®": 1759,
      "Ġà¤§à¤ķ": 1760,
      "Ġà¤®à¤¨à¤ķ": 1761,
      "Ġà¤Ĩà¤Ń": 1762,
      "à¤²à¤¬à¤¹": 1763,
      "à¥§à¥«": 1764,
      "à¤®à¤¸à¤®": 1765,
      "Ġà¤ħà¤µà¤ķ": 1766,
      "Ġà¤¨à¤Ĺà¤°à¤ķ": 1767,
      "Ġà¤ĵà¤¸": 1768,
      "Ġà¥¬à¥ª": 1769,
      "à¤ĩà¤«": 1770,
      "Ġà¤Ľà¤µ": 1771,
      "à¤¶à¤°": 1772,
      "Ġà¤¸à¤®à¤ķ": 1773,
      "à¤²à¤ļ": 1774,
      "à¤¡à¤ª": 1775,
      "à¤Ĺà¤®à¤²": 1776,
      "à¥§à¥¯": 1777,
      "Ġà¤ıà¤¸à¤ª": 1778,
      "Ġà¥ªà¥¯": 1779,
      "Ġà¤¬à¤§": 1780,
      "à¤²à¤Ĺà¤ŀ": 1781,
      "Ġà¤ĵà¤Ł": 1782,
      "ĉĠ": 1783,
      "Ġà¤¤à¤¨à¤¹": 1784,
      "Ġà¥«à¥ª": 1785,
      "Ġà¤ħà¤°à¤¬": 1786,
      "à¤°à¤ļà¤²à¤¨": 1787,
      "Ġà¤°à¤¹à¤°": 1788,
      "Ġà¥¬à¥©": 1789,
      "Ġà¤ĥ": 1790,
      "Ġà¥«à¥Ń": 1791,
      "Ġà¤ĵà¤Ńà¤°à¤®": 1792,
      "à¤¡à¤µ": 1793,
      "Ġà¤ĵà¤Ŀ": 1794,
      "Ġà¤ķà¤®à¤°": 1795,
      "à¤ļà¤¨à¤²": 1796,
      "à¤Ļà¤Ĺ": 1797,
      "Ġà¤ĩà¤Łà¤¹à¤°": 1798,
      "Ġà¤ĩà¤ľà¤²": 1799,
      "Ġà¤Ĺà¤¹à¤¨": 1800,
      "à¤Ńà¤¦": 1801,
      "Ġà¤ļà¤°à¤®": 1802,
      "à¤£à¤µ": 1803,
      "Ġà¤Ĺà¤Ī": 1804,
      "Ġà¤¶à¤¹": 1805,
      "à¤ªà¤¹": 1806,
      "Ġà¥Ńà¥¨": 1807,
      "à¤¨à¤¡": 1808,
      "Ġà¤ıà¤ļ": 1809,
      "à¤µà¤¨à¤²": 1810,
      "à¤ĸà¤¬": 1811,
      "à¤£à¤¬à¤¹": 1812,
      "à¥§à¥¨": 1813,
      "à¥ĩà¥į": 1814,
      "à¤²à¤¬à¤ķ": 1815,
      "Ġà¤ıà¤ķà¤®": 1816,
      "à¤·à¤ķà¤®": 1817,
      "à¤°à¤®à¤¨": 1818,
      "à¤ľà¤°à¤ķ": 1819,
      "à¤¨à¤ķà¤°": 1820,
      "Ġà¤Ĩà¤ªà¤¸": 1821,
      "à¤¦à¤¨à¤²": 1822,
      "à¤¸à¤®à¤ķ": 1823,
      "à¤¬à¤Ī": 1824,
      "Ġà¥ªà¥Ń": 1825,
      "à¤·à¤¸": 1826,
      "Ġà¤Ńà¤Īà¤°à¤¹": 1827,
      "Ġà¤ıà¤¯à¤°": 1828,
      "à¥ĥà¤Ĥ": 1829,
      "à¤µà¤Ńà¤°": 1830,
      "à¤ħà¤²": 1831,
      "Ġà¥¨à¥¦à¥©": 1832,
      "à¤¤à¤ļ": 1833,
      "Ġà¤¦à¤£": 1834,
      "à¤Ĩà¤ıà¤ķ": 1835,
      "Ġà¤Ľà¤ł": 1836,
      "à¤Ļà¤¸": 1837,
      "Ġà¤ĺà¤¡": 1838,
      "Ġà¥¨à¥¦à¥§à¥«": 1839,
      "Ġà¤ķà¤°à¤ķ": 1840,
      "Ġà¤ĵà¤®": 1841,
      "à¤¡à¤¹à¤°": 1842,
      "Ġà¤ĩà¤ľà¤°": 1843,
      "à¤Łà¤¬à¤²à¤ķ": 1844,
      "Ġà¤¸à¤¹à¤¨": 1845,
      "Ġà¥¬à¥¨": 1846,
      "à¤łà¤Ń": 1847,
      "à¤¨à¤Ńà¤°": 1848,
      "à¤µà¤°à¤£à¤®": 1849,
      "à¤°à¤Ĩà¤µ": 1850,
      "Ġà¤¥à¤²": 1851,
      "Ġà¥§à¥¯à¥®": 1852,
      "Ġà¤ıà¤¨à¤¸": 1853,
      "Ġà¤ħà¤¨à¤¶à¤¨": 1854,
      "Ġà¤Ĩà¤®à¤¨": 1855,
      "Ġà¤ľà¤¯à¤¨": 1856,
      "Ġà¤¦à¤°à¤¬à¤¨": 1857,
      "à¤µà¤ķà¤ªà¤®": 1858,
      "Ġà¤Ĺà¤£à¤¨": 1859,
      "Ġà¤Ĺà¤¦": 1860,
      "Ġà¤µà¤ľ": 1861,
      "Ġà¤¬à¤¦": 1862,
      "à¤¶à¤ķà¤ķ": 1863,
      "à¤ķà¤¡": 1864,
      "Ġà¤Ĩà¤ĩà¤¸": 1865,
      "Ġà¤¹à¤¡": 1866,
      "Ġà¤®à¤¤à¤Ĺà¤£à¤¨": 1867,
      "à¤Łà¤µà¤°": 1868,
      "à¤ķà¤¤à¤®": 1869,
      "Ġà¤µà¤¢": 1870,
      "Ġà¤Ĩà¤īà¤Ł": 1871,
      "à¤Ĺà¤®à¤ķ": 1872,
      "à¤ªà¤¸à¤®": 1873,
      "Ġà¥¬à¥¬": 1874,
      "à¤ĩà¤°à¤¹à¤¨": 1875,
      "à¤ľà¤¤à¤¨": 1876,
      "Ġà¤°à¤¹à¤¸": 1877,
      "à¥Ńà¥©": 1878,
      "à¤¯à¤ķà¤®": 1879,
      "à¤¹à¤£": 1880,
      "à¤¦à¤°à¤²": 1881,
      "à¤¡à¤¯à¤¨": 1882,
      "Ġà¤¸à¤Ĺ": 1883,
      "à¤µà¤ķà¤ªà¤ķ": 1884,
      "Ġà¤¦à¤¹": 1885,
      "Ġà¤ħà¤Ľ": 1886,
      "Ġà¤ıà¤°": 1887,
      "à¤Łà¤¸à¤®": 1888,
      "Ġà¤ľà¤Ĺà¤¤": 1889,
      "Ġà¤²à¤®à¤ľ": 1890,
      "à¤ĺà¤®": 1891,
      "Ġà¤¶à¤²": 1892,
      "à¤°à¤§à¤¨": 1893,
      "Ġà¤Ĺà¤ľà¤²": 1894,
      "à¤¯à¤Łà¤ķà¤²": 1895,
      "à¤¼": 1896,
      "Ġà¤®à¤¨à¤ªà¤°": 1897,
      "Ġà¤¨à¤µà¤°": 1898,
      "Ġà¤²à¤¨": 1899,
      "à¤īà¤ľ": 1900,
      "à¤®à¤Ĺà¤°": 1901,
      "Ġà¥¯à¥«": 1902,
      "à¤¨à¤µà¤ħà¤§": 1903,
      "Ġà¥¨à¥¦à¥§à¥ª": 1904,
      "Ġà¤ĩà¤ŀ": 1905,
      "Ġà¤ıà¤Ł": 1906,
      "Ġà¤¦à¤µ": 1907,
      "Ġà¥«à¥¯": 1908,
      "Ġà¤¹à¤Ļà¤ķà¤Ļ": 1909,
      "à¤¹à¤°à¤£à¤ķ": 1910,
      "Ġà¤ķà¤°à¤£": 1911,
      "à¤Ĺà¤µ": 1912,
      "Ġà¥Ńà¥ª": 1913,
      "Ġà¤ħà¤¯": 1914,
      "Ġà¤Ĩà¤µà¤¦": 1915,
      "à¤°à¤Ĺà¤ŀ": 1916,
      "Ġà¤ĩà¤Ł": 1917,
      "à¤°à¤¸à¤°": 1918,
      "à¤°à¤¹à¤µ": 1919,
      "à¥§à¥®": 1920,
      "à¤²à¤µà¤¸": 1921,
      "Ġà¥«à¥¦à¥¦": 1922,
      "à¤¶à¤¤à¤ķ": 1923,
      "à¤²à¤Ļ": 1924,
      "à¤¸à¤ķà¤²": 1925,
      "Ġà¥Ńà¥¬": 1926,
      "à¤°à¤¸à¤°à¤ķ": 1927,
      "à¥ģà¥į": 1928,
      "Ġà¤¦à¤®à¤ķ": 1929,
      "à¤¶à¤¦": 1930,
      "à¤·à¤Ĺà¤°": 1931,
      "à¤¯à¤ķà¤²": 1932,
      "à¤¹à¤ķà¤²": 1933,
      "Ġà¤īà¤¦à¤¯à¤ª": 1934,
      "à¤·à¤¦à¤ķ": 1935,
      "Ġà¥¬à¥Ń": 1936,
      "Ġà¤īà¤ªà¤ķ": 1937,
      "à¤¦à¤¸": 1938,
      "à¤ħà¤Ń": 1939,
      "Ġà¥¬à¥§": 1940,
      "à¤īà¤Ľà¤¨": 1941,
      "Ġà¤ħà¤²à¤ªà¤¤": 1942,
      "à¤¶à¤ª": 1943,
      "Ġà¤¨à¤µà¤¨": 1944,
      "Ġà¤Ĳà¤¨à¤ķ": 1945,
      "à¤ĩà¤¨à¤ķ": 1946,
      "Ġà¥¨à¥¦à¥Ńà¥§": 1947,
      "Ġà¤ĩà¤£": 1948,
      "Ġà¤µà¤¸à¤¨": 1949,
      "à¤ļà¤¯à¤ªà¤¤": 1950,
      "Ġà¤¶à¤¹à¤°à¤®": 1951,
      "à¤¥à¤¸": 1952,
      "Ġà¤ıà¤ķà¤ħà¤°": 1953,
      "Ġà¤ľà¤Ļ": 1954,
      "à¤¶à¤ķà¤¹à¤°": 1955,
      "Ġà¥¬à¥®": 1956,
      "à¤µà¤¤à¤ķ": 1957,
      "Ġà¤ħà¤£": 1958,
      "Ġà¥Ńà¥®": 1959,
      "Ġà¤ľà¤¨à¤ļ": 1960,
      "à¤ıà¤ľ": 1961,
      "Ġà¤¡à¤°à¤²": 1962,
      "Ġà¤ľà¤¯": 1963,
      "à¤¯à¤¤à¤¯": 1964,
      "Ġà¤¹à¤²à¤®": 1965,
      "à¤·à¤¯à¤¹à¤°": 1966,
      "Ġà¤¸à¤¬à¤Ńà¤¨": 1967,
      "Ġà¤ķà¤¦": 1968,
      "à¥«à¥¦": 1969,
      "à¤°à¤Ĺà¤¨": 1970,
      "à¤ĸà¤²à¤¢": 1971,
      "Ġà¤ĺà¤²": 1972,
      "Ġà¤ľà¤¨à¤µà¤°": 1973,
      "Ġà¥Ńà¥©": 1974,
      "à¤Ĺà¤łà¤¨à¤²": 1975,
      "Ġà¤ķà¤·": 1976,
      "Ġà¤ĺà¤°à¤ªà¤°": 1977,
      "à¤ķà¤¨à¤ķ": 1978,
      "à¤®à¤¤à¤ķ": 1979,
      "à¤µà¤¸à¤¨": 1980,
      "Ġà¤Ĩà¤°à¤ķ": 1981,
      "Ġà¤ļà¤Ł": 1982,
      "à¤°à¤¹à¤ķ": 1983,
      "à¤£à¤¬": 1984,
      "Ġà¤ıà¤ķà¤¸": 1985,
      "à¤Ĺà¤®à¤¨à¤ķ": 1986,
      "Ġà¤¢à¤Ļ": 1987,
      "à¤¯à¤Ń": 1988,
      "à¤²à¤ķà¤¹à¤°": 1989,
      "à¤ķà¤¶": 1990,
      "Ġà¤¸à¤²à¤®": 1991,
      "Ġà¤Ĩà¤¬": 1992,
      "Ġà¤ªà¤ª": 1993,
      "Ġà¥Ńà¥Ń": 1994,
      "à¤¹à¤ķà¤¹à¤°": 1995,
      "à¤ķà¤¥": 1996,
      "à¤ķà¤Łà¤ķ": 1997,
      "Ġà¤ħà¤®à¤°": 1998,
      "à¤µà¤¨à¤¸": 1999,
      "Ġà¤Ŀà¤Ĺà¤¡": 2000,
      "Ġà¤¹à¤ķà¤ª": 2001,
      "Ġà¤¨à¤Ńà¤ıà¤ªà¤Ľ": 2002,
      "à¤¨à¤ħà¤ĺ": 2003,
      "Ġà¥¯à¥¯": 2004,
      "à¤¯à¤®à¤¹à¤°": 2005,
      "Ġà¥¨à¥¦à¥Ńà¥¦": 2006,
      "Ġà¤ªà¤¹à¤²à¤®": 2007,
      "à¤Īà¤ľ": 2008,
      "Ġà¤¡à¤¡": 2009,
      "à¤¦à¤£": 2010,
      "Ġà¤¥à¤ķ": 2011,
      "Ġà¤¨à¤Ńà¤¨": 2012,
      "à¤¨à¤ħà¤¨": 2013,
      "à¤°à¤ļà¤²": 2014,
      "Ġà¤¯à¤ľ": 2015,
      "Ġà¤ıà¤¯à¤°à¤²": 2016,
      "Ġà¤ħà¤µà¤²à¤®": 2017,
      "Ġà¤¬à¤¸à¤¨": 2018,
      "à¤īà¤¨à¤®": 2019,
      "à¤¸à¤µà¤®": 2020,
      "Ġà¤¨à¤Ľ": 2021,
      "Ġà¤²à¤£": 2022,
      "à¤¯à¤¯à¤¨à¤°à¤¤": 2023,
      "à¤ªà¤ªà¤Ľ": 2024,
      "Ġà¤Ĺà¤«": 2025,
      "à¤ĩà¤ı": 2026,
      "Ġà¤°à¤¦": 2027,
      "à¤Ĺà¤²à¤ķ": 2028,
      "à¤¦à¤ª": 2029,
      "Ġà¤ªà¤łà¤¨": 2030,
      "à¤ªà¤¯à¤²": 2031,
      "à¤°à¤¸à¤Ļ": 2032,
      "à¤Łà¤°à¤¹à¤°": 2033,
      "à¤°à¤®à¤¬": 2034,
      "Ġà¥®à¥®": 2035,
      "à¤®à¤¦à¤¤": 2036,
      "Ġà¤ħà¤ªà¤®": 2037,
      "Ġà¤ĸà¤ªà¤¤": 2038,
      "Ġà¤ħà¤ªà¤¹à¤°à¤£": 2039,
      "à¤¤à¤ķà¤²": 2040,
      "à¤°à¤£à¤¸à¤Ń": 2041,
      "à¤°à¤¨à¤Ĺà¤°": 2042,
      "Ġà¤Ĺà¤ļ": 2043,
      "à¥§à¥¬": 2044,
      "à¤¸à¤ķà¤ķ": 2045,
      "Ġà¤®à¤¨à¤²": 2046,
      "à¤¥à¤ª": 2047,
      "à¤Łà¤°à¤«": 2048,
      "Ġà¤¦à¤¶à¤®": 2049,
      "à¤Ĩà¤īà¤Ł": 2050,
      "à¤§à¤ª": 2051,
      "à¤īà¤¥": 2052,
      "Ġà¤ıà¤®à¤¬": 2053,
      "à¤ıà¤²à¤¸": 2054,
      "Ġà¤²à¤¤": 2055,
      "Ġà¥¯à¥®": 2056,
      "Ġà¤Ĩà¤Īà¤ª": 2057,
      "à¤Īà¤¬": 2058,
      "Ġà¤ĵà¤²à¤®": 2059,
      "à¤°à¤Ńà¤°": 2060,
      "à¤¨à¤ľà¤¨": 2061,
      "à¤¨à¤¬à¤¹": 2062,
      "Ġà¤ĵà¤ĸà¤²à¤¢": 2063,
      "à¤¦à¤Ń": 2064,
      "Ġà¤Ńà¤¬": 2065,
      "à¤·à¤£à¤²": 2066,
      "Ġà¤īà¤ªà¤¸à¤Ń": 2067,
      "à¤Īà¤°à¤¹": 2068,
      "à¤ķà¤®à¤ķ": 2069,
      "Ġà¥®à¥ª": 2070,
      "à¤Łà¤°à¤¬": 2071,
      "Ġà¤ıà¤Ńà¤°": 2072,
      "à¤¸à¤¤à¤®": 2073,
      "Ġà¤ľà¤¨à¤Ĩà¤¨": 2074,
      "Ġà¤ľà¤¨à¤¸à¤®": 2075,
      "ĠĠĠĠĠĠ": 2076,
      "à¤Łà¤²à¤ķ": 2077,
      "à¤Ĺà¤ª": 2078,
      "Ġà¤ħà¤¬à¤¸": 2079,
      "à¤ľà¤°à¤²": 2080,
      "Ġà¤Ķà¤ļ": 2081,
      "à¤ĺà¤Ł": 2082,
      "Ġà¤®à¤¹à¤¶": 2083,
      "Ġà¤®à¤Ĺà¤°à¤²": 2084,
      "Ġà¥¬à¥¯": 2085,
      "Ġà¤Ĩà¤ķà¤¸": 2086,
      "Ġà¤īà¤ªà¤®": 2087,
      "à¤°à¤Ļà¤ķ": 2088,
      "Ġà¥®à¥¨": 2089,
      "à¤ħà¤Ĺ": 2090,
      "Ġà¤īà¤ªà¤¸à¤®": 2091,
      "Ġà¤łà¤®": 2092,
      "Ġà¤ªà¤¸à¤²à¤®": 2093,
      "Ġà¤īà¤ªà¤µ": 2094,
      "Ġà¤Ķà¤¸à¤¤": 2095,
      "Ġà¥Ńà¥§": 2096,
      "à¤µà¤¨à¤¶": 2097,
      "à¤²à¤Ĺà¤¨": 2098,
      "Ġà¤ªà¤¬": 2099,
      "Ġà¥¨à¥¦à¥¦à¥Ń": 2100,
      "Ġà¤ľà¤¥": 2101,
      "Ġà¤Ĩà¤ľà¤¸à¤®": 2102,
      "Ġà¤ķà¤²à¤®": 2103,
      "à¤£à¤¯à¤²": 2104,
      "Ġà¤¦à¤¯": 2105,
      "Ġà¤Ĩà¤Īà¤¸": 2106,
      "Ġà¥¨à¥¦à¥§à¥©": 2107,
      "Ġà¤¯à¤®": 2108,
      "Ġà¤Ĩà¤ľà¤¦": 2109,
      "Ġà¤ªà¤Łà¤ķà¤ķ": 2110,
      "Ġà¤ĸà¤¬": 2111,
      "à¤²à¤Ĺà¤¤": 2112,
      "Ġà¤²à¤¸": 2113,
      "Ġà¥®à¥©": 2114,
      "Ġà¤¡à¤ķ": 2115,
      "à¤¯à¤²à¤ķ": 2116,
      "à¤¾à¤ĥ": 2117,
      "à¤ľà¤¯à¤ķ": 2118,
      "à¤µà¤ķà¤ķ": 2119,
      "à¤¨à¤¸à¤¹": 2120,
      "à¤ĩà¤¹à¤°": 2121,
      "à¤¤à¤¨à¤²": 2122,
      "Ġà¤¤à¤°à¤²": 2123,
      "à¤µà¤²à¤®": 2124,
      "Ġà¤Ĩà¤°à¤®": 2125,
      "à¤ĵà¤¬": 2126,
      "Ġà¤¹à¤¦à¤¸à¤®": 2127,
      "à¤¯à¤¯à¤¨à¤²": 2128,
      "à¤¦à¤µà¤ķ": 2129,
      "à¤ıà¤ļ": 2130,
      "à¤¯à¤¸à¤¹": 2131,
      "à¤¤à¤ķà¤®": 2132,
      "Ġà¤Ńà¤µà¤¨à¤ķ": 2133,
      "à¤¯à¤Łà¤ķà¤¹à¤°": 2134,
      "Ġà¤Ńà¤µà¤¨à¤®": 2135,
      "Ġà¤ıà¤¸à¤ıà¤²à¤¸": 2136,
      "à¤¹à¤²à¤ª": 2137,
      "Ġà¤ľà¤¬à¤ķ": 2138,
      "Ġà¤°à¤ķà¤®à¤ķ": 2139,
      "Ġà¤Ĩà¤¯à¤²": 2140,
      "à¤¹à¤µ": 2141,
      "à¤¶à¤Ńà¤°à¤ķ": 2142,
      "à¤Ĩà¤¤": 2143,
      "Ġà¥§à¥¯à¥¬": 2144,
      "ĠĠĠĠĠĠĠĠĠĠĠĠĠĠĠĠĠĠĠĠĠĠĠĠĠĠĠĠĠĠĠĠ": 2145,
      "à¤·à¤¯à¤µà¤¸": 2146,
      "à¤Łà¤¤": 2147,
      "Ġà¤®à¤ľà¤¬": 2148,
      "à¤²à¤Ł": 2149,
      "Ġà¥¨à¥¦à¥¬à¥ª": 2150,
      "à¤ıà¤¨à¤ı": 2151,
      "à¤£à¤¯à¤ķ": 2152,
      "Ġà¤Ĩà¤ªà¤¸à¤®": 2153,
      "à¥§à¥Ń": 2154,
      "Ġà¤Ńà¤Ĺà¤µà¤¤": 2155,
      "Ġà¤ªà¤®": 2156,
      "à¤«à¤°à¤ķ": 2157,
      "Ġà¤Ĳà¤¨à¤®": 2158,
      "Ġà¤²à¤¹à¤°": 2159,
      "à¤¤à¤Ĺà¤¤": 2160,
      "Ġà¤¨à¤Ĩà¤ıà¤ķ": 2161,
      "Ġà¤ļà¤ª": 2162,
      "à¤ļà¤¤": 2163,
      "à¤ķà¤°à¤²": 2164,
      "à¤ľà¤Ń": 2165,
      "Ġà¤¶à¤Ļ": 2166,
      "à¤¯à¤Ļ": 2167,
      "Ġà¤ĩà¤¶": 2168,
      "à¤°à¤µà¤Ł": 2169,
      "Ġà¤ľà¤²à¤¸": 2170,
      "à¤ĩà¤Łà¤®": 2171,
      "Ġà¥¨à¥¦à¥¬à¥®": 2172,
      "Ġà¤Ńà¤°à¤ªà¤°": 2173,
      "Ġà¤ľà¤®à¤°": 2174,
      "à¤ľà¤¦à¤°": 2175,
      "à¤Ľà¤¦": 2176,
      "Ġà¤¹à¤®à¤²": 2177,
      "à¥§à¥ª": 2178,
      "à¤¯à¤Łà¤¨à¤ķ": 2179,
      "à¤¨à¤Ľ": 2180,
      "à¤£à¤¹à¤°": 2181,
      "Ġà¤ķà¤¯": 2182,
      "Ġà¤Ĩà¤µà¤ķ": 2183,
      "Ġà¤¸à¤¡à¤ķà¤ĸà¤£": 2184,
      "à¤¨à¤Ĺà¤°à¤ķ": 2185,
      "à¤Ķà¤·à¤§": 2186,
      "à¤¦à¤¦": 2187,
      "à¤ķà¤Łà¤®": 2188,
      "à¤°à¤®à¤£à¤²": 2189,
      "Ġà¥¦à¥«": 2190,
      "Ġà¤ļà¤²à¤ĸ": 2191,
      "à¤¤à¤¹à¤¤": 2192,
      "Ġà¤ĸà¤Ĺ": 2193,
      "Ġà¤¸à¤¹à¤°à¤®": 2194,
      "à¤¤à¤°à¤¬": 2195,
      "à¤ĸà¤¸à¤®": 2196,
      "à¤¿à¤¾": 2197,
      "Ġà¤¡à¤²à¤°à¤ķ": 2198,
      "Ġà¥®à¥¬": 2199,
      "à¤ħà¤®": 2200,
      "Ġà¤²à¤ľ": 2201,
      "à¤ıà¤Ī": 2202,
      "Ġà¤®à¤®": 2203,
      "Ġà¤²à¤¹": 2204,
      "à¤°à¤£à¤¹à¤°": 2205,
      "Ġà¥¨à¥¦à¥§à¥¨": 2206,
      "Ġà¤ľà¤¨à¤®à¤¤": 2207,
      "à¤¬à¤ľà¤¨": 2208,
      "à¤ĵà¤²": 2209,
      "à¥įà¥į": 2210,
      "Ġà¤¬à¤¸à¤ª": 2211,
      "à¤ıà¤¸à¤®": 2212,
      "à¤Īà¤ľà¤¨": 2213,
      "Ġà¤ıà¤ķà¤ıà¤ķ": 2214,
      "Ġà¤Ĩà¤īà¤¦": 2215,
      "Ġà¤ĩà¤Ń": 2216,
      "à¤¤à¤°à¤µ": 2217,
      "à¤¹à¤ª": 2218,
      "Ġà¤¸à¤¤à¤°": 2219,
      "à¤ĩà¤²à¤®": 2220,
      "à¤¦à¤°à¤¤": 2221,
      "Ġà¤¸à¤¬à¤²": 2222,
      "à¤¹à¤¨à¤¤": 2223,
      "à¤Łà¤¨à¤ķ": 2224,
      "à¤¨à¤¯à¤¨": 2225,
      "à¤·à¤Ńà¤¨": 2226,
      "Ġà¤°à¤¬": 2227,
      "à¤¨à¤¶": 2228,
      "à¤¦à¤°à¤Ĺ": 2229,
      "à¤¤à¤°à¤Ĺà¤¤": 2230,
      "à¤¤à¤ķà¤¹à¤°": 2231,
      "à¤ķà¤¬à¤¹": 2232,
      "à¤Ĺà¤¬à¤¹": 2233,
      "à¤°à¤²à¤Ĺ": 2234,
      "à¤ķà¤¸à¤®": 2235,
      "à¤¤à¤°à¤°": 2236,
      "à¥įà¤¾": 2237,
      "à¤²à¤¡": 2238,
      "Ġà¤Ľà¤¤": 2239,
      "à¤Ĩà¤¬": 2240,
      "Ġà¤«à¤¡": 2241,
      "Ġà¤ľà¤¨à¤¸à¤Ļ": 2242,
      "Ġà¤īà¤ªà¤¦": 2243,
      "à¤Ĺà¤²à¤µ": 2244,
      "Ġà¤ªà¤¯": 2245,
      "à¤°à¤ķà¤²": 2246,
      "Ġà¤ıà¤¸à¤ıà¤¸à¤ª": 2247,
      "à¤ªà¤¨à¤²": 2248,
      "Ġà¤·à¤¡": 2249,
      "Ġà¤Ľà¤²à¤«à¤²à¤ķ": 2250,
      "Ġà¤®à¤¤à¤ªà¤¤": 2251,
      "Ġà¥Ńà¥¯": 2252,
      "Ġà¤®à¤¡": 2253,
      "à¤¶à¤¤à¤®": 2254,
      "à¤¸à¤¸à¤®": 2255,
      "Ġà¤łà¤ª": 2256,
      "Ġà¤ħà¤²à¤®": 2257,
      "à¤°à¤¤à¤°": 2258,
      "à¤ķà¤Ń": 2259,
      "Ġà¥¯à¥¨": 2260,
      "à¤ĵà¤ķ": 2261,
      "Ġà¤ĺà¤°à¤¹à¤°": 2262,
      "à¤¤à¤ķà¤°": 2263,
      "à¤¡à¤¦": 2264,
      "à¤¯à¤£à¤Ĺà¤¢": 2265,
      "Ġà¤ħà¤Ĺà¤¸": 2266,
      "à¤µà¤£": 2267,
      "Ġà¤¤à¤Ł": 2268,
      "Ġà¤°à¤¨à¤®": 2269,
      "à¤Ĩà¤¯": 2270,
      "Ġà¤¶à¤®": 2271,
      "Ġà¥¯à¥¬": 2272,
      "Ġà¥¨à¥¦à¥¬à¥©": 2273,
      "Ġà¥¯à¥ª": 2274,
      "à¤Ĩà¤Īà¤ľ": 2275,
      "à¤Īà¤°": 2276,
      "à¤ĩà¤¬à¤°": 2277,
      "Ġà¥¯à¥©": 2278,
      "à¤§à¤¹à¤°": 2279,
      "Ġà¤¨à¤Ńà¤ıà¤¸à¤®": 2280,
      "Ġà¥¨à¥¦à¥§à¥§": 2281,
      "à¤¯à¤¨à¤²": 2282,
      "à¤¶à¤¤à¤Ńà¤¨": 2283,
      "à¤ļà¤²à¤ķ": 2284,
      "Ġà¥¦à¥ª": 2285,
      "Ġà¤ķà¤¸à¤ķ": 2286,
      "à¤¯à¤¸à¤ħà¤ĺ": 2287,
      "à¤²à¤§": 2288,
      "Ġà¤ĺà¤°à¤¦": 2289,
      "à¤ĩà¤°à¤²": 2290,
      "à¤ľà¤Ĺà¤¢": 2291,
      "à¤ªà¤°à¤¬": 2292,
      "à¤ıà¤¸à¤¨": 2293,
      "Ġà¤¶à¤¹à¤°à¤ķ": 2294,
      "Ġà¤¨à¤Ĩà¤īà¤¨": 2295,
      "à¤¥à¤²à¤¬": 2296,
      "Ġà¤īà¤¬": 2297,
      "Ġà¤ıà¤¨à¤Ĩà¤°à¤ıà¤¨à¤ı": 2298,
      "Ġà¤¶à¤¶": 2299,
      "Ġà¤ĸà¤ª": 2300,
      "à¤¨à¤Ĺ": 2301,
      "Ġà¤ħà¤¨à¤®": 2302,
      "Ġà¤µà¤¨à¤¸": 2303,
      "à¤¡à¤¤": 2304,
      "Ġà¥¨à¥¦à¥§à¥¦": 2305,
      "à¤¤à¤ľà¤¨": 2306,
      "Ġà¤¶à¤°à¤¦": 2307,
      "à¤¡à¤²à¤®": 2308,
      "Ġà¤ĺà¤°à¤Ń": 2309,
      "à¥¨à¥¬": 2310,
      "Ġà¤¸à¤®à¤¯à¤¸": 2311,
      "à¤ªà¤ķà¤°": 2312,
      "à¤īà¤¤à¤²": 2313,
      "Ġà¤ªà¤łà¤¨à¤ª": 2314,
      "Ġà¤¨à¤¹à¤°": 2315,
      "à¤ªà¤°à¤ķ": 2316,
      "à¤Ńà¤ıà¤¨": 2317,
      "Ġà¥®à¥§": 2318,
      "à¤²à¤¶": 2319,
      "Ġà¤ıà¤ķà¤Ľ": 2320,
      "Ġà¤ħà¤µà¤¤à¤°à¤£": 2321,
      "à¤¹à¤¹à¤°": 2322,
      "à¤ĩà¤µ": 2323,
      "Ġà¤¬à¤Ŀ": 2324,
      "Ġà¤¯à¤ķ": 2325,
      "Ġà¤ĺà¤°à¤§": 2326,
      "Ġà¥¨à¥¦à¥¨à¥¦": 2327,
      "Ġà¤Ĺà¤Ńà¤°": 2328,
      "à¤¡à¤²à¤²": 2329,
      "à¤¸à¤Ł": 2330,
      "Ġà¥®à¥Ń": 2331,
      "à¤¯à¤£à¤ķ": 2332,
      "à¤²à¤¹": 2333,
      "à¤²à¤¯à¤¨": 2334,
      "Ġà¤ħà¤ł": 2335,
      "Ġà¤«à¤¨": 2336,
      "Ġà¤ħà¤«à¤°": 2337,
      "à¤ªà¤¡": 2338,
      "Ġà¤ķà¤£": 2339,
      "à¥¨à¥«": 2340,
      "Ġà¤ħà¤¸à¤¹à¤®à¤¤": 2341,
      "Ġà¤Ĩà¤ĩà¤¤à¤µ": 2342,
      "Ġà¥¦à¥¦à¥¦": 2343,
      "à¤¤à¤®à¤ķ": 2344,
      "à¤·à¤ª": 2345,
      "à¤¡à¤¨à¤ķ": 2346,
      "à¤°à¤£à¤¬": 2347,
      "Ġà¤®à¤Ŀ": 2348,
      "à¤¶à¤¤à¤¸à¤®": 2349,
      "à¤°à¤¹à¤®": 2350,
      "à¤Ńà¤¤": 2351,
      "Ġà¤ĵà¤Ńà¤°": 2352,
      "à¤²à¤²à¤Ĺ": 2353,
      "à¤®à¤ĺ": 2354,
      "Ġà¤¸à¤ĸ": 2355,
      "à¤¦à¤¶à¤¨": 2356,
      "à¤ıà¤Ľ": 2357,
      "Ġà¤Ĩà¤¸à¤¨": 2358,
      "à¤·à¤°à¤¤": 2359,
      "à¤Īà¤ª": 2360,
      "Ġà¥¨à¥¦à¥¬à¥¯": 2361,
      "Ġà¥®à¥¯": 2362,
      "à¤Łà¤¬à¤²à¤®": 2363,
      "à¤Ļà¤¦": 2364,
      "à¥§à¥©": 2365,
      "Ġà¤¡à¤®": 2366,
      "à¤¯à¤¨à¤ľà¤°": 2367,
      "à¤°à¤ķà¤°à¤£à¤®": 2368,
      "Ġà¤ĺà¤°à¤ĺà¤°à¤®": 2369,
      "à¤·à¤¯à¤¤": 2370,
      "Ġà¤«à¤°à¤ķà¤«à¤°à¤ķ": 2371,
      "Ġà¤ħà¤¨à¤¸à¤¨": 2372,
      "Ġà¤¸à¤®à¤¯à¤ªà¤Ľ": 2373,
      "Ġà¤¨à¤ľà¤°": 2374,
      "à¤°à¤¬à¤°": 2375,
      "Ġà¤°à¤ĺ": 2376,
      "Ġà¤Ĩà¤µà¤®": 2377,
      "à¤²à¤¯à¤¸": 2378,
      "Ġà¤¶à¤ªà¤¥": 2379,
      "à¤Ĺà¤łà¤¨à¤¹à¤°": 2380,
      "à¤°à¤®à¤£à¤¬": 2381,
      "Ġà¤ľà¤¸à¤®à¤§": 2382,
      "à¤²à¤ľ": 2383,
      "Ġà¤Łà¤¸": 2384,
      "Ġà¤Ńà¤ıà¤¤": 2385,
      "Ġà¤ĵà¤ªà¤¨": 2386,
      "Ġà¤¥à¤¨": 2387,
      "Ġà¤ħà¤¨à¤¨": 2388,
      "Ġà¤ĩà¤Ļ": 2389,
      "à¤«à¤¦": 2390,
      "Ġà¤Ĳà¤¨à¤²": 2391,
      "Ġà¤°à¤ľà¤¤": 2392,
      "Ġà¤«à¤ķ": 2393,
      "à¤ĸà¤Ńà¤¨": 2394,
      "à¤ķà¤°à¤ķ": 2395,
      "à¤¸à¤Ĺ": 2396,
      "à¤Īà¤¨à¤²": 2397,
      "Ġà¥¯à¥Ń": 2398,
      "Ġà¥¨à¥¦à¥¦à¥®": 2399,
      "Ġà¤Ńà¤ĩà¤°à¤¹à¤¨": 2400,
      "à¤¯à¤¬à¤¹": 2401,
      "à¤¥à¤¤": 2402,
      "à¤¹à¤ķà¤ķ": 2403,
      "Ġà¤īà¤§": 2404,
      "Ġà¥¯à¥§": 2405,
      "Ġà¤§à¤°à¤¹à¤°": 2406,
      "Ġà¤¸à¤®à¤¯à¤²": 2407,
      "à¤ķà¤ľ": 2408,
      "Ġà¤Ķà¤²": 2409,
      "Ġà¤īà¤ªà¤¸à¤ļ": 2410,
      "à¤¾à¤ģà¥Ī": 2411,
      "Ġà¤Ńà¤Īà¤¸à¤ķ": 2412,
      "à¤£à¤¯à¤®": 2413,
      "Ġà¤ķà¤¦à¤°": 2414,
      "à¤Ńà¤°à¤¤": 2415,
      "à¤ķà¤ħà¤¨": 2416,
      "à¤°à¤¸à¤ŀ": 2417,
      "Ġà¤ĵà¤Ĺà¤Ł": 2418,
      "Ġà¥¨à¥¦à¥Ńà¥ªà¥Ńà¥«": 2419,
      "Ġà¤°à¤ļ": 2420,
      "Ġà¥¨à¥¦à¥ªà¥¬": 2421,
      "à¤¥à¤²à¤Ĺà¤¤": 2422,
      "Ġà¤ľà¤¬à¤°à¤ľà¤¸": 2423,
      "à¤¹à¤ľ": 2424,
      "Ġà¤¡à¤¬": 2425,
      "Ġà¤¸à¤°à¤¹": 2426,
      "à¤¯à¤ķà¤µ": 2427,
      "à¤Ĺà¤¸à¤®": 2428,
      "Ġà¤µà¤ŀ": 2429,
      "Ġà¤ĩà¤ª": 2430,
      "Ġà¤¨à¤²à¤Ĺ": 2431,
      "à¤ıà¤®à¤Ī": 2432,
      "Ġà¤Ĩà¤Īà¤¤à¤¬": 2433,
      "Ġà¤Ĺà¤Ĺà¤¨": 2434,
      "Ġà¤Ĩà¤ªà¤°": 2435,
      "Ġà¤ħà¤µà¤¸à¤°à¤ķ": 2436,
      "Ġà¤ªà¤ĸ": 2437,
      "à¥Ńà¥¨": 2438,
      "à¤¾à¤Ĥà¥Ī": 2439,
      "Ġà¤Łà¤ª": 2440,
      "à¤Łà¤¨à¤Ĺà¤°à¤®": 2441,
      "à¤Ĺà¤ħà¤¨": 2442,
      "à¤¤à¤¯": 2443,
      "à¤°à¤«à¤²": 2444,
      "Ġà¤ªà¤¦à¤¯": 2445,
      "à¤°à¤®à¤¸": 2446,
      "à¤µà¤ķà¤¹à¤°": 2447,
      "à¤Ĺà¤°à¤£": 2448,
      "à¤¥à¤¹à¤°": 2449,
      "à¤¯à¤ªà¤¤": 2450,
      "à¤·à¤¯à¤Ĺà¤¤": 2451,
      "Ġà¤¸à¤¯à¤Ńà¤¨": 2452,
      "à¤ĩà¤Łà¤¹à¤°": 2453,
      "Ġà¤¨à¤¬à¤¢": 2454,
      "Ġà¤ĩà¤¨à¤°": 2455,
      "Ġà¤¸à¤¹à¤°à¤ķ": 2456,
      "Ġà¤®à¤¤à¤²": 2457,
      "Ġà¤īà¤Ĺ": 2458,
      "à¤¶à¤¨à¤¬": 2459,
      "Ġà¤²à¤Ń": 2460,
      "à¤µà¤°à¤£à¤ķ": 2461,
      "Ġà¤¨à¤Ł": 2462,
      "à¤§à¤¨à¤¬": 2463,
      "à¤¶à¤®à¤¨": 2464,
      "à¤ĸà¤ķà¤²": 2465,
      "Ġà¤Ĺà¤łà¤¨à¤ķ": 2466,
      "Ġà¤Īà¤²": 2467,
      "à¤ªà¤¸à¤ķ": 2468,
      "à¤Ŀà¤ķ": 2469,
      "à¤ĩà¤ıà¤¨": 2470,
      "Ġà¥§à¥«à¥¦": 2471,
      "Ġà¤¨à¤ļà¤²": 2472,
      "Ġà¤Ĩà¤Ĺà¤®à¤¨": 2473,
      "à¤²à¤¨à¤¬": 2474,
      "Ġà¤ĸà¤®": 2475,
      "Ġà¤¬à¤ŀ": 2476,
      "Ġà¤µà¤¨à¤ķ": 2477,
      "Ġà¤ħà¤¥": 2478,
      "à¥Ńà¥¦": 2479,
      "Ġà¥©à¥¦à¥¦": 2480,
      "Ġà¤®à¤¹à¤µà¤ª": 2481,
      "à¤Ńà¤ªà¤¤": 2482,
      "Ġà¤ªà¤°à¤¦": 2483,
      "à¤ĺà¤°à¤ķ": 2484,
      "Ġà¤®à¤Ĺ": 2485,
      "Ġà¤¦à¤®à¤¨": 2486,
      "à¤¤à¤µà¤¨à¤®": 2487,
      "à¤§à¤¸": 2488,
      "à¤¥à¤¶": 2489,
      "à¤ĸà¤¨à¤¨": 2490,
      "à¤¸à¤®à¤®": 2491,
      "Ġà¤Ĩà¤µà¤¤à¤ľ": 2492,
      "Ġà¤¦à¤¶à¤ķà¤®": 2493,
      "à¤¨à¤ªà¤°": 2494,
      "à¤¯à¤¦à¤²": 2495,
      "à¤¤à¤¹à¤Ł": 2496,
      "à¤¤à¤¬à¤¹": 2497,
      "ĠĠĠĠĠĠĠ": 2498,
      "Ġà¤Łà¤ķ": 2499,
      "à¤¤à¤¹à¤¤à¤ķ": 2500,
      "à¤Ńà¤²à¤ªà¤®": 2501,
      "Ġà¤Ĺà¤¢": 2502,
      "Ġà¤°à¤ŀ": 2503,
      "Ġà¤¬à¤¦à¤¨": 2504,
      "à¤ŀà¤ķ": 2505,
      "à¤ĩà¤¹": 2506,
      "à¤¯à¤¸à¤¤": 2507,
      "Ġà¤ļà¤¤": 2508,
      "à¤¨à¤²à¤Ĺ": 2509,
      "Ġà¥§à¥¯à¥«": 2510,
      "à¤²à¤¬à¤¨": 2511,
      "à¤Łà¤¯": 2512,
      "Ġà¤¤à¤¹à¤¬": 2513,
      "à¤ıà¤¤": 2514,
      "à¤Łà¤¦": 2515,
      "Ġà¤¸à¤¹à¤ľà¤¤": 2516,
      "à¤§à¤°à¤²": 2517,
      "Ġà¤ªà¤¡": 2518,
      "Ġà¤ªà¤¦à¤¬": 2519,
      "à¤¯à¤¸à¤®à¤§": 2520,
      "Ġà¤¨à¤¶": 2521,
      "Ġà¤Ĩà¤Ļ": 2522,
      "Ġà¥§à¥¯à¥ª": 2523,
      "Ġà¤Ĩà¤ľà¤Ń": 2524,
      "à¤Ŀà¤®": 2525,
      "Ġà¤¤à¤°à¤²à¤¤": 2526,
      "à¤ľà¤ķà¤ķ": 2527,
      "Ġà¤¯à¤¨": 2528,
      "Ġà¤²à¤ĸ": 2529,
      "à¤¤à¤°à¤£à¤®": 2530,
      "à¤¥à¤¬": 2531,
      "à¤¸à¤«": 2532,
      "Ġà¥¦à¥Ńà¥ª": 2533,
      "Ġà¤ĵà¤¬": 2534,
      "Ġà¤ıà¤ķà¤ľ": 2535,
      "Ġà¤ķà¤²à¤ķ": 2536,
      "Ġà¤¬à¤¸à¤®": 2537,
      "à¤īà¤¬": 2538,
      "Ġà¤²à¤¯": 2539,
      "Ġà¤¤à¤¹à¤¸à¤®": 2540,
      "à¤¤à¤Ńà¤°": 2541,
      "à¤ķà¤¤à¤°": 2542,
      "à¤Īà¤¡": 2543,
      "à¤µà¤ªà¤¶": 2544,
      "à¤¬à¤²à¤ķ": 2545,
      "à¤¤à¤°à¤ª": 2546,
      "à¤£à¤¯à¤¹à¤°": 2547,
      "à¤µà¤Ĺ": 2548,
      "à¥įà¥ĩ": 2549,
      "à¤Łà¤ķà¤ķ": 2550,
      "Ġà¤ĭà¤¤": 2551,
      "à¤²à¤¤à¤¬": 2552,
      "à¤¯à¤¦à¤²à¤²": 2553,
      "à¤¯à¤¯à¤¨à¤®": 2554,
      "à¤ļà¤ª": 2555,
      "Ġà¤ħà¤ĸà¤£": 2556,
      "Ġà¥¨à¥¦à¥§à¥¯": 2557,
      "à¤Ĺà¤²à¤²": 2558,
      "à¤Ľà¤¡": 2559,
      "à¤²à¤ķà¤£": 2560,
      "Ġà¤Ńà¤ıà¤Ľ": 2561,
      "à¤ĩà¤²à¤ķ": 2562,
      "Ġà¤¬à¤¬": 2563,
      "à¤ķà¤Ńà¤°": 2564,
      "Ġà¤īà¤¦à¤¯": 2565,
      "Ġà¥¨à¥¦à¥¦à¥¯": 2566,
      "à¤ĩà¤ļ": 2567,
      "Ġà¤Ńà¤ĩà¤¹": 2568,
      "à¤īà¤¡à¤ķ": 2569,
      "Ġà¤ıà¤Ń": 2570,
      "Ġà¤®à¤¨à¤Ĺ": 2571,
      "Ġà¤ĺà¤°à¤ľà¤Ĺ": 2572,
      "à¤°à¤µà¤¨": 2573,
      "Ġà¤ľà¤¸à¤¬": 2574,
      "Ġà¤Ĩà¤¤à¤Ļ": 2575,
      "à¤Łà¤¨à¤®": 2576,
      "Ġà¤ıà¤¯à¤°à¤ª": 2577,
      "Ġà¤ıà¤¬": 2578,
      "à¤°à¤«à¤²à¤®": 2579,
      "Ġà¤¸à¤¯à¤ªà¤¤": 2580,
      "à¤µà¤²à¤²": 2581,
      "à¤ļà¤µ": 2582,
      "à¤ªà¤¨à¤ªà¤¤": 2583,
      "à¤°à¤ľà¤¨à¤¨": 2584,
      "Ġà¥¨à¥¦à¥Ńà¥«à¥¦": 2585,
      "Ġà¤īà¤ªà¤²à¤ķ": 2586,
      "à¤¤à¤Ń": 2587,
      "à¤Ŀà¤Ł": 2588,
      "Ġà¤īà¤ªà¤²à¤µ": 2589,
      "à¤Īà¤ĵ": 2590,
      "à¤²à¤¬à¤®": 2591,
      "Ġà¤¨à¤®à¤¸": 2592,
      "à¤Ĺà¤®à¤¤": 2593,
      "à¤¡à¤¨à¤®": 2594,
      "Ġà¤ĵà¤¹": 2595,
      "Ġà¤¬à¤¦à¤°": 2596,
      "à¤¯à¤¸à¤ļ": 2597,
      "Ġà¤¦à¤¨": 2598,
      "Ġà¤Ĩà¤ıà¤¨": 2599,
      "Ġà¤¦à¤°à¤®": 2600,
      "Ġà¤®à¤¹à¤¤à¤²": 2601,
      "Ġà¤¬à¤¸à¤ķ": 2602,
      "Ġà¤®à¤¸à¤²": 2603,
      "à¤Łà¤ķà¤°": 2604,
      "à¤°à¤¸à¤ķ": 2605,
      "Ġà¤Īà¤®": 2606,
      "Ġà¤Ŀà¤°à¤¨": 2607,
      "à¤¾à¥į": 2608,
      "à¤¬à¤¢": 2609,
      "à¤Īà¤®à¤§": 2610,
      "Ġà¥¨à¥¦à¥¬à¥«": 2611,
      "à¤¯à¤°à¤§à¤¨": 2612,
      "à¤ķà¤ħà¤ª": 2613,
      "Ġà¤¸à¤¤à¤¹": 2614,
      "Ġà¤µà¤ļà¤¨": 2615,
      "à¥įà¥ģ": 2616,
      "à¤Łà¤ªà¤Ł": 2617,
      "à¤¨à¤°à¤®": 2618,
      "Ġà¤Łà¤¹à¤°": 2619,
      "à¤Īà¤ļ": 2620,
      "Ġà¤Īà¤¸": 2621,
      "à¤¦à¤¨à¤¹à¤°": 2622,
      "à¤°à¤ªà¤¸": 2623,
      "Ġà¤¬à¤²à¤°": 2624,
      "à¤²à¤¸à¤¹": 2625,
      "Ġà¤ıà¤ķà¤ķ": 2626,
      "à¤ĸà¤¸": 2627,
      "à¤¨à¤ĸ": 2628,
      "à¤īà¤¡à¤®": 2629,
      "à¤ļà¤¥à¤°": 2630,
      "à¤¸à¤²à¤®": 2631,
      "à¤Ĺà¤®à¤¨à¤®": 2632,
      "à¤Īà¤Ń": 2633,
      "à¤¤à¤µà¤Ł": 2634,
      "à¤°à¤®à¤§": 2635,
      "à¥¨à¥¦à¥Ńà¥«": 2636,
      "Ġà¤®à¤ĸ": 2637,
      "à¤Łà¤µà¤²à¤®": 2638,
      "Ġà¤¹à¤Ļà¤ķà¤Ļà¤®": 2639,
      "Ġà¤ħà¤¸à¤¹à¤ľ": 2640,
      "à¤Ńà¤¸": 2641,
      "à¤ĩà¤¨à¤¬": 2642,
      "à¤®à¤Ń": 2643,
      "à¤¯à¤¤à¤¨": 2644,
      "Ġà¤¸à¤¹à¤ķà¤°": 2645,
      "Ġà¤ĵà¤ª": 2646,
      "à¤ļà¤¥": 2647,
      "à¤ªà¤¤à¤ķ": 2648,
      "Ġà¥¨à¥¦à¥¦à¥¬": 2649,
      "à¥ī": 2650,
      "à¤Łà¤¨à¤Ĺà¤°à¤ķ": 2651,
      "à¤§à¤¨à¤¹à¤°": 2652,
      "à¤Ĩà¤ĩà¤ľ": 2653,
      "Ġà¤Ńà¤ľà¤¨": 2654,
      "à¤®à¤²à¤ķ": 2655,
      "Ġà¤²à¤°": 2656,
      "Ġà¤¦à¤¶à¤®à¤²à¤¬": 2657,
      "à¤µà¤°à¤¬": 2658,
      "à¤¯à¤¨à¤®": 2659,
      "Ġà¤Ĺà¤ľà¤²à¤ķ": 2660,
      "à¤¡à¤Ń": 2661,
      "à¤ªà¤µ": 2662,
      "à¤¡à¤ªà¤®": 2663,
      "Ġà¤¨à¤°à¤®": 2664,
      "à¤ĩà¤²à¤Ł": 2665,
      "à¤°à¤ħà¤¨": 2666,
      "Ġà¤ªà¤¥": 2667,
      "à¥Īà¥Ī": 2668,
      "Ġà¤¹à¤Ļà¤ķà¤Ļà¤ķ": 2669,
      "à¤¯à¤²à¤¯": 2670,
      "Ġà¤®à¤¤à¤²à¤¬": 2671,
      "Ġà¤¸à¤¡à¤ķà¤²": 2672,
      "à¤īà¤ļ": 2673,
      "Ġà¤¦à¤°à¤ĸ": 2674,
      "Ġà¤Ńà¤¡": 2675,
      "Ġà¤Ĩà¤¡à¤®": 2676,
      "à¤Ľà¤°": 2677,
      "Ġà¤¨à¤¬à¤¸": 2678,
      "à¤²à¤ªà¤Ľ": 2679,
      "Ġà¥¨à¥¦à¥Ńà¥«à¥Ńà¥¬": 2680,
      "à¤ķà¤°à¤®": 2681,
      "Ġà¤®à¤Ĺà¤°à¤ķ": 2682,
      "à¤·à¤Ńà¤°": 2683,
      "à¤®à¤ĸ": 2684,
      "Ġà¤ĵà¤¢": 2685,
      "à¤µà¤²à¤ķ": 2686,
      "à¤Ĥà¤Ĥ": 2687,
      "à¤¯à¤®à¤¶": 2688,
      "Ġà¤¸à¤ªà¤¥": 2689,
      "Ġà¤®à¤®à¤¤": 2690,
      "à¤°à¤¸à¤²": 2691,
      "Ġà¤¬à¤ĸà¤¤": 2692,
      "à¤¯à¤¸à¤¨": 2693,
      "Ġà¤ıà¤ķà¤ªà¤Ľ": 2694,
      "Ġà¥§à¥§à¥©": 2695,
      "Ġà¤«à¤²à¤¸": 2696,
      "Ġà¤®à¤¹à¤¨": 2697,
      "Ġà¤Ŀà¤²à¤¨": 2698,
      "à¤ħà¤¹": 2699,
      "Ġà¤īà¤Ľ": 2700,
      "à¤ĸà¤¨à¤ķ": 2701,
      "à¤Ĺà¤¬à¤¨": 2702,
      "Ġà¤°à¤¹à¤¦": 2703,
      "à¤°à¤ľà¤¸": 2704,
      "à¤¡à¤¸à¤®": 2705,
      "à¤¶à¤¯": 2706,
      "Ġà¤ĸà¤¤à¤°à¤¨": 2707,
      "à¤¬à¤¹à¤°": 2708,
      "à¤§à¤µà¤ķ": 2709,
      "Ġà¤®à¤Ł": 2710,
      "à¤¯à¤ķà¤¹à¤°": 2711,
      "Ġà¤Ĩà¤ĩà¤«": 2712,
      "Ġà¤Ĺà¤¤à¤µà¤°": 2713,
      "Ġà¤¦à¤¤": 2714,
      "à¤Ĥà¥Ī": 2715,
      "à¤¤à¤µà¤¨à¤²": 2716,
      "à¤Ĺà¤¨à¤®": 2717,
      "à¤ļà¤¹à¤°": 2718,
      "à¤ªà¤°à¤µ": 2719,
      "à¥¨à¥©": 2720,
      "Ġà¤Ńà¤°à¤ª": 2721,
      "à¤°à¤ĺ": 2722,
      "à¤ĩà¤ķà¤²à¤®": 2723,
      "Ġà¤ıà¤«à¤ıà¤®": 2724,
      "à¤®à¤«": 2725,
      "à¤¯à¤°à¤¬": 2726,
      "à¤łà¤ķà¤¬": 2727,
      "à¤ıà¤®à¤ıà¤¸": 2728,
      "Ġà¤Ĩà¤£à¤µ": 2729,
      "Ġà¤Ĳà¤¶": 2730,
      "Ġà¤ıà¤ķà¤°": 2731,
      "à¤ķà¤Ĺ": 2732,
      "Ġà¤ªà¤°à¤¨": 2733,
      "Ġà¤ľà¤¨à¤°à¤²": 2734,
      "Ġà¤¦à¤²à¤¬": 2735,
      "Ġà¤ľà¤¨à¤¨": 2736,
      "Ġà¥¨à¥¦à¥Ńà¥©à¥Ńà¥ª": 2737,
      "à¤¥à¤¨à¤®": 2738,
      "Ġà¤ıà¤ıà¤«": 2739,
      "Ġà¤¡à¤Łà¤ķà¤®": 2740,
      "Ġà¤ľà¤¨à¤¹": 2741,
      "à¤Ĺà¤Ń": 2742,
      "à¤ªà¤ĸ": 2743,
      "Ġà¤°à¤¨à¤²": 2744,
      "Ġà¤¦à¤¶à¤ķà¤¦": 2745,
      "à¤Łà¤µà¤²à¤ķ": 2746,
      "à¤ľà¤Ńà¤£": 2747,
      "Ġà¤¹à¤ķà¤ķ": 2748,
      "à¤ŀà¤¤": 2749,
      "Ġà¥§à¥¯à¥¯à¥¦": 2750,
      "à¤ıà¤Ł": 2751,
      "à¤¶à¤Ńà¤ķ": 2752,
      "à¤ģà¤Ĥ": 2753,
      "à¤ıà¤ľà¤¸": 2754,
      "Ġà¤Ŀà¤Ł": 2755,
      "Ġà¤¯à¤¸à¤µà¤°": 2756,
      "Ġà¤®à¤¨à¤¨": 2757,
      "à¤ľà¤¹": 2758,
      "Ġà¤Ĩà¤ľà¤¬": 2759,
      "Ġà¤¤à¤ªà¤¸": 2760,
      "à¤ķà¤°à¤¹à¤°": 2761,
      "à¤·à¤£à¤¹à¤°": 2762,
      "Ġà¤µà¤°à¤ªà¤°": 2763,
      "à¤¨à¤Ĺà¤°à¤²": 2764,
      "à¤Łà¤Ń": 2765,
      "à¤°à¤¸à¤¨": 2766,
      "à¤ıà¤¤à¤ķ": 2767,
      "Ġà¤¸à¤®à¤¯à¤ħà¤ĺ": 2768,
      "Ġà¤Ĩà¤ĩà¤¨": 2769,
      "Ġà¤īà¤·": 2770,
      "Ġà¤Ľà¤ª": 2771,
      "Ġà¤¸à¤¦à¤¨à¤®": 2772,
      "Ġà¤Ńà¤ıà¤¨à¤¨": 2773,
      "à¤¨à¤µà¤¤": 2774,
      "à¤Ļà¤Ł": 2775,
      "Ġà¤®à¤¤à¤Ń": 2776,
      "Ġà¤ľà¤Ĺà¤¦": 2777,
      "à¤°à¤¬à¤¦": 2778,
      "Ġà¤°à¤¥": 2779,
      "à¤ķà¤²à¤¨à¤ķ": 2780,
      "Ġà¤¯à¤¸à¤ªà¤Ľ": 2781,
      "Ġà¤°à¤Ĺà¤¤à¤ķ": 2782,
      "à¤Īà¤¸à¤ķ": 2783,
      "Ġà¤Ĩà¤Īà¤°à¤¹": 2784,
      "à¤ıà¤Īà¤ķ": 2785,
      "à¤¡à¤Ńà¤¨": 2786,
      "à¤·à¤¤à¤°": 2787,
      "à¤Ńà¤ªà¤¤à¤¨": 2788,
      "Ġà¤ħà¤ľà¤¯": 2789,
      "à¤īà¤ł": 2790,
      "Ġà¤ħà¤ªà¤µ": 2791,
      "à¤²à¤ĸà¤£": 2792,
      "à¤¯à¤¸à¤¤à¤°": 2793,
      "à¤Ĺà¤ļ": 2794,
      "Ġà¤¸à¤¦à¤¨": 2795,
      "Ġà¥ªà¥¦à¥¦": 2796,
      "Ġà¤¸à¤ľà¤Ĺ": 2797,
      "Ġà¥¨à¥¦à¥ªà¥®": 2798,
      "à¥¨à¥ª": 2799,
      "à¤ĸà¤¨à¤®": 2800,
      "Ġà¥¨à¥¦à¥¬à¥¬": 2801,
      "à¤ĸà¤°à¤®": 2802,
      "à¤ľà¤¨à¤¶": 2803,
      "à¤²à¤µà¤ķ": 2804,
      "à¤¸à¤¨à¤¬": 2805,
      "Ġà¤ľà¤¬à¤¸à¤®": 2806,
      "à¤¯à¤ļ": 2807,
      "Ġà¤ĩà¤®à¤°": 2808,
      "Ġà¤¦à¤°à¤ķ": 2809,
      "Ġà¤¡à¤¬à¤²": 2810,
      "Ġà¤ĵà¤Ľ": 2811,
      "Ġà¤Ĺà¤ĩà¤¸à¤ķ": 2812,
      "à¤Īà¤ķà¤²": 2813,
      "à¥¨à¥®": 2814,
      "Ġà¤®à¤¤à¤ķ": 2815,
      "Ġà¤°à¤¨à¤°": 2816,
      "Ġà¤°à¤®à¤£": 2817,
      "Ġà¤ħà¤Ĺà¤·": 2818,
      "à¥¦à¥Ńà¥«": 2819,
      "à¤°à¤®à¤ħà¤¨": 2820,
      "à¤·à¤¦à¤²": 2821,
      "à¤Ńà¤°à¤ķ": 2822,
      "à¥¨à¥¯": 2823,
      "Ġà¤Ŀà¤¡à¤ª": 2824,
      "à¤Ńà¤ļ": 2825,
      "Ġà¤ħà¤µà¤¤": 2826,
      "à¤µà¤¤à¤®": 2827,
      "Ġà¤Ĩà¤ĩà¤ªà¤°": 2828,
      "à¤ģà¥Ī": 2829,
      "à¤®à¤¥": 2830,
      "Ġà¤ıà¤ĺ": 2831,
      "à¤¤à¤¨à¤®": 2832,
      "à¤łà¤ķà¤¹à¤°": 2833,
      "à¤Łà¤°à¤ª": 2834,
      "à¤ľà¤ªà¤¤": 2835,
      "Ġà¤Ķà¤ľ": 2836,
      "à¤¥à¤²à¤¹à¤°": 2837,
      "Ġà¤ħà¤¸à¤«à¤²à¤¤": 2838,
      "à¤¯à¤ªà¤¶": 2839,
      "Ġà¤ĭà¤£à¤ķ": 2840,
      "à¤°à¤ķà¤®": 2841,
      "Ġà¤ħà¤²à¤®à¤²": 2842,
      "à¤ĩà¤Ļ": 2843,
      "à¤Ĥà¤ģ": 2844,
      "à¤¡à¤°à¤ķ": 2845,
      "Ġà¤¯à¤¶": 2846,
      "Ġà¤Ĺà¤¸": 2847,
      "Ġà¤ªà¤µà¤¨": 2848,
      "à¤¹à¤Ł": 2849,
      "à¤ļà¤µà¤Ł": 2850,
      "à¤Ńà¤¬": 2851,
      "à¤°à¤µà¤¹à¤¨": 2852,
      "à¤µà¤¸à¤¹": 2853,
      "à¤Łà¤¨à¤²": 2854,
      "Ġà¤§à¤®à¤²": 2855,
      "Ġà¤īà¤ªà¤²": 2856,
      "à¤ĸà¤¬à¤°": 2857,
      "à¤¨à¤¤à¤°": 2858,
      "Ġà¤¸à¤¹à¤ª": 2859,
      "Ġà¤¸à¤®à¤¤": 2860,
      "à¤¾à¥Īà¤ģ": 2861,
      "à¤ļà¤Ĺ": 2862,
      "Ġà¤¨à¤Ńà¤ĩ": 2863,
      "à¤¨à¤¨à¤Ĺà¤°": 2864,
      "à¤Łà¤ķà¤®": 2865,
      "à¤ıà¤²à¤ķ": 2866,
      "à¤Ńà¤ķà¤°": 2867,
      "Ġà¤¸à¤®à¤ķà¤ķ": 2868,
      "à¤ħà¤ķ": 2869,
      "à¥ªà¥¦": 2870,
      "à¤ļà¤¨à¤ªà¤Ľ": 2871,
      "à¥¨à¥§": 2872,
      "à¤¨à¤Ł": 2873,
      "à¤Łà¤°à¤Ł": 2874,
      "Ġà¤ĺà¤¨à¤¶": 2875,
      "à¤¦à¤ķà¤¤": 2876,
      "Ġà¤¤à¤²à¤ķ": 2877,
      "à¤ļà¤¨à¤¬": 2878,
      "Ġà¤ĵà¤¡": 2879,
      "à¤ķà¤Łà¤²": 2880,
      "à¤¶à¤°à¤£": 2881,
      "Ġà¤¸à¤¡à¤ķà¤¬": 2882,
      "à¤¡à¤¹": 2883,
      "Ġà¤ħà¤ªà¤¡": 2884,
      "à¤Łà¤²à¤²": 2885,
      "à¥Ńà¥§": 2886,
      "Ġà¤µà¤¨à¤®": 2887,
      "Ġà¤ıà¤¯à¤°à¤ķ": 2888,
      "Ġà¤ļà¤®à¤¤": 2889,
      "Ġà¤Ĺà¤¥": 2890,
      "à¤Ĺà¤¦à¤°": 2891,
      "à¤ıà¤¨à¤ķ": 2892,
      "à¤®à¤¤à¤²": 2893,
      "à¤µà¤°à¤¸": 2894,
      "Ġà¤¬à¤¹à¤°": 2895,
      "à¤Īà¤¯": 2896,
      "Ġà¤Ŀà¤®": 2897,
      "Ġà¤Ĩà¤īà¤Ľ": 2898,
      "Ġà¤¸à¤¯à¤ķ": 2899,
      "Ġà¤¨à¤Ĺà¤°à¤¸à¤Ń": 2900,
      "Ġà¤ķà¤Ńà¤°": 2901,
      "Ġà¤¤à¤µà¤°à¤²": 2902,
      "Ġà¤²à¤ļ": 2903,
      "Ġà¤¡à¤¨": 2904,
      "Ġà¤¥à¤ªà¤²": 2905,
      "à¤°à¤ķà¤°à¤£": 2906,
      "à¤²à¤µà¤²": 2907,
      "à¤¯à¤²à¤®": 2908,
      "à¤¯à¤Ńà¤¨": 2909,
      "Ġà¤ħà¤ªà¤²": 2910,
      "à¤°à¤Ĩà¤®": 2911,
      "à¤ĩà¤ıà¤ªà¤Ľ": 2912,
      "à¤²à¤°à¤ķ": 2913,
      "à¤²à¤ľà¤¸": 2914,
      "à¤Łà¤ļ": 2915,
      "à¥¨à¥¨": 2916,
      "à¤Ĩà¤ĩ": 2917,
      "à¥ªà¥«": 2918,
      "à¥ĩà¥ĩ": 2919,
      "à¤ĩà¤°à¤¸": 2920,
      "à¥ĭà¤ģ": 2921,
      "à¤°à¤ķà¤ķ": 2922,
      "à¤¯à¤®à¤¯": 2923,
      "Ġà¤¡à¤¢": 2924,
      "à¤¬à¤¡": 2925,
      "à¤°à¤ħ": 2926,
      "à¤¯à¤²à¤²": 2927,
      "Ġà¤¯à¤®à¤ª": 2928,
      "Ġà¤Ĩà¤ĩà¤¡": 2929,
      "à¤¸à¤¯": 2930,
      "à¤µà¤®à¤¨": 2931,
      "Ġà¤ħà¤®à¤²": 2932,
      "Ġà¤Ĩà¤µà¤¸": 2933,
      "Ġà¤²à¤¬": 2934,
      "à¤ĩà¤ªà¤²": 2935,
      "Ġà¤¯à¤¸à¤¸": 2936,
      "à¤¡à¤ķà¤ª": 2937,
      "Ġà¤Ĺà¤¡": 2938,
      "Ġà¤īà¤¦à¤ĺ": 2939,
      "à¤°à¤®à¤ľ": 2940,
      "à¤¯à¤ħà¤¨": 2941,
      "à¤ľà¤¸à¤®": 2942,
      "à¤ľà¤¨à¤¤": 2943,
      "à¤¯à¤¦à¤²à¤ķ": 2944,
      "à¤ĩà¤Ńà¤°": 2945,
      "à¤¯à¤¨à¤¹à¤°": 2946,
      "à¤·à¤£à¤¬": 2947,
      "à¤¤à¤ªà¤¤": 2948,
      "à¤¸à¤«à¤°": 2949,
      "à¤ıà¤¸à¤ķ": 2950,
      "Ġà¤Ĩà¤Īà¤ľ": 2951,
      "Ġà¤«à¤£": 2952,
      "à¤Ĭà¤¨": 2953,
      "à¤ĸà¤ķà¤ķ": 2954,
      "à¤¨à¤¬à¤®": 2955,
      "Ġà¥§à¥¯à¥¯à¥®": 2956,
      "à¤¶à¤®à¤¶": 2957,
      "à¤²à¤¬à¤°": 2958,
      "Ġà¤Ļ": 2959,
      "Ġà¤ķà¤°à¤¦": 2960,
      "Ġà¤Ĩà¤ļà¤°à¤£": 2961,
      "à¤¬à¤°à¤²": 2962,
      "Ġà¤¨à¤µà¤ľ": 2963,
      "Ġà¥¦à¥Ńà¥©": 2964,
      "à¤īà¤¸à¤®": 2965,
      "à¤Ĺà¤łà¤¨à¤®": 2966,
      "à¤¯à¤¸à¤µ": 2967,
      "Ġà¤Ĳà¤°": 2968,
      "Ġà¥¨à¥¦à¥«à¥®": 2969,
      "à¤°à¤ļà¤¢": 2970,
      "à¥¨à¥¦à¥¬": 2971,
      "Ġà¥¨à¥¦à¥¬à¥Ń": 2972,
      "à¤ĩà¤Ĺ": 2973,
      "à¤Ńà¤°à¤ª": 2974,
      "Ġà¥¨à¥¦à¥¦à¥ª": 2975,
      "à¥¨à¥Ń": 2976,
      "Ġà¤Ĩà¤ĩà¤ıà¤®à¤Ī": 2977,
      "Ġà¤ıà¤«à¤ı": 2978,
      "Ġà¤Īà¤¤": 2979,
      "à¤¦à¤²à¤²": 2980,
      "à¤¤à¤°à¤¸à¤®": 2981,
      "Ġà¤Ĩà¤ĩà¤ľ": 2982,
      "Ġà¤ľà¤ª": 2983,
      "Ġà¥¦à¥©": 2984,
      "Ġà¤ħà¤¹à¤®": 2985,
      "à¤¸à¤µà¤°": 2986,
      "à¤µà¤²à¤¨": 2987,
      "à¤ĩà¤Łà¤ķ": 2988,
      "Ġà¤īà¤ªà¤ľ": 2989,
      "à¤Łà¤ªà¤Ľ": 2990,
      "à¤§à¤°à¤ķ": 2991,
      "Ġà¤Ĺà¤Ļ": 2992,
      "Ġà¤ıà¤¸à¤ıà¤®à¤ıà¤¸": 2993,
      "à¤µà¤°à¤¹à¤°": 2994,
      "à¤µà¤¤à¤²": 2995,
      "à¤®à¤Ĺà¤°à¤²": 2996,
      "à¤²à¤¨à¤°à¤¤": 2997,
      "Ġà¥§à¥¯à¥«à¥¦": 2998,
      "à¤µà¤°à¤£à¤²": 2999,
      "Ġà¤°à¤ķà¤®à¤²": 3000,
      "à¤¬à¤²à¤®": 3001,
      "Ġà¤Łà¤®": 3002,
      "Ġà¤¬à¤²à¤ķ": 3003,
      "Ġà¤Ńà¤ĩà¤¦": 3004,
      "à¤¤à¤¹à¤¤à¤®": 3005,
      "à¤ªà¤°à¤¸": 3006,
      "Ġà¤Ĩà¤µà¤§": 3007,
      "à¤¨à¤ľà¤¸": 3008,
      "à¤Ļà¤ľ": 3009,
      "Ġà¤ĩà¤·": 3010,
      "à¤¯à¤°à¤¹à¤°": 3011,
      "à¤ļà¤¦": 3012,
      "Ġà¤¯à¤¸à¤ªà¤Łà¤ķà¤ķ": 3013,
      "Ġà¤¨à¤°à¤¹à¤¨": 3014,
      "Ġà¤¯à¤®à¤ªà¤ŀ": 3015,
      "Ġà¤¶à¤®à¤¶": 3016,
      "Ġà¥¦à¥¦": 3017,
      "à¤µà¤¯à¤ķ": 3018,
      "Ġà¤®à¤²à¤®": 3019,
      "Ġà¤Īà¤ª": 3020,
      "Ġà¤ħà¤ĸà¤¬": 3021,
      "à¤ıà¤²à¤Ĺà¤¤": 3022,
      "à¤Ĩà¤§": 3023,
      "Ġà¥¦à¥Ńà¥«": 3024,
      "à¤¹à¤ľà¤¨à¤ķ": 3025,
      "à¤¯à¤¸à¤¯à¤¤": 3026,
      "à¤·à¤ľà¤¨à¤ķ": 3027,
      "à¤ļà¤²à¤®": 3028,
      "à¤Łà¤²à¤¹à¤°": 3029,
      "Ġà¥Ĳ": 3030,
      "à¤·à¤µ": 3031,
      "à¤Ńà¤µà¤²": 3032,
      "à¥ģà¤¾": 3033,
      "à¤īà¤¹": 3034,
      "Ġà¤ıà¤¨à¤ľ": 3035,
      "à¥Ģà¥ĩ": 3036,
      "Ġà¥¦à¥Ńà¥¨": 3037,
      "à¤ªà¤ķà¤²": 3038,
      "à¤°à¤¬à¤²": 3039,
      "Ġà¥¨à¥«à¥¦": 3040,
      "à¤¥à¤ķà¤¤": 3041,
      "à¤ľà¤¨à¤Ńà¤¨": 3042,
      "à¤Łà¤°à¤¸à¤®": 3043,
      "à¤·à¤§à¤°": 3044,
      "à¤ıà¤Īà¤®": 3045,
      "Ġà¤¸à¤¹à¤¸": 3046,
      "à¤¸à¤°à¤²": 3047,
      "à¤¹à¤¯": 3048,
      "à¤łà¤¤": 3049,
      "à¤ħà¤¬": 3050,
      "à¤°à¤µà¤²": 3051,
      "Ġà¤¸à¤¦à¤Ń": 3052,
      "à¤¹à¤¤à¤ķ": 3053,
      "à¤¥à¤²à¤²": 3054,
      "Ġà¤¨à¤īà¤ł": 3055,
      "Ġà¤ıà¤¨à¤ı": 3056,
      "Ġà¤ħà¤¬à¤°": 3057,
      "Ġà¤¤à¤¹à¤¹à¤°": 3058,
      "à¤¹à¤²à¤ªà¤¹à¤²": 3059,
      "Ġà¤¸à¤¦à¤°": 3060,
      "à¤¦à¤ķà¤²": 3061,
      "Ġà¤ļà¤¹à¤²à¤ªà¤¹à¤²": 3062,
      "à¤¢à¤¤": 3063,
      "Ġà¤īà¤ªà¤§": 3064,
      "à¤Īà¤«": 3065,
      "à¤¡à¤¡": 3066,
      "à¤ĩà¤ķà¤°": 3067,
      "à¤Ļà¤¹à¤°": 3068,
      "Ġà¤īà¤ªà¤¦à¤«": 3069,
      "à¤µà¤ħà¤§": 3070,
      "Ġà¤Ĩà¤Ĺà¤¨": 3071,
      "Ġà¥¨à¥¦à¥¬à¥¨": 3072,
      "à¤¯à¤ľà¤¸": 3073,
      "à¤¬à¤°à¤£": 3074,
      "à¤ķà¤¨à¤®": 3075,
      "Ġà¤Ĩà¤¯à¤Ĩà¤°": 3076,
      "Ġà¤Ĩà¤ĩà¤²": 3077,
      "à¤¯à¤Ĺ": 3078,
      "Ġà¤Ľà¤Łà¤ªà¤Ł": 3079,
      "à¤łà¤¹à¤°": 3080,
      "à¤®à¤¸à¤¤": 3081,
      "à¤ķà¤°à¤¬": 3082,
      "Ġà¤ľà¤¨à¤Ĺà¤£à¤¨": 3083,
      "Ġà¤ªà¤¹à¤°": 3084,
      "Ġà¤ħà¤¶à¤ķ": 3085,
      "Ġà¤¦à¤²à¤®": 3086,
      "Ġà¤¬à¤¹à¤¨": 3087,
      "Ġà¤Ĩà¤®à¤°à¤£": 3088,
      "à¤¤à¤°à¤¹": 3089,
      "Ġà¤°à¤ķà¤®à¤®": 3090,
      "Ġà¥§à¥§à¥¦": 3091,
      "à¤ĩà¤ķà¤²à¤ķ": 3092,
      "à¤®à¤°à¤¤": 3093,
      "à¤ľà¤¨à¤¬": 3094,
      "Ġà¤·à¤¡à¤¯à¤¨": 3095,
      "Ġà¥¨à¥¦à¥¦à¥¦": 3096,
      "Ġà¤īà¤¨à¤®": 3097,
      "à¤¤à¤¹à¤Łà¤ķ": 3098,
      "à¤¯à¤¤à¤¬": 3099,
      "à¤¸à¤ŀ": 3100,
      "Ġà¤ĺà¤°à¤²": 3101,
      "à¤²à¤¤à¤°": 3102,
      "Ġà¤²à¤ĸà¤¨": 3103,
      "à¤¨à¤§": 3104,
      "à¤ŀà¤²": 3105,
      "à¤ıà¤¸à¤¬": 3106,
      "Ġà¤łà¤Ł": 3107,
      "Ġà¤¬à¤ĸ": 3108,
      "à¤¹à¤¨à¤ķ": 3109,
      "Ġà¤¯à¤®à¤°": 3110,
      "Ġà¤¶à¤¤à¤ª": 3111,
      "Ġà¤ĸà¤¡à¤ķ": 3112,
      "à¥¬à¥¦": 3113,
      "à¤¦à¤¦à¤°": 3114,
      "à¤Ĩà¤Īà¤¸": 3115,
      "à¤¸à¤¸à¤¹": 3116,
      "à¤¨à¤²à¤®": 3117,
      "à¤°à¤¹à¤²": 3118,
      "Ġà¤¨à¤µà¤²à¤ª": 3119,
      "à¤¨à¤ªà¤¤": 3120,
      "à¤²à¤Ńà¤°": 3121,
      "à¤¥à¤ķà¤¹à¤°": 3122,
      "à¤ĩà¤Łà¤²": 3123,
      "Ġà¤ľà¤¸à¤ħà¤¨": 3124,
      "à¤®à¤¶à¤°à¤£": 3125,
      "Ġà¤¤à¤²à¤®": 3126,
      "à¤¨à¤µà¤²": 3127,
      "Ġà¤ľà¤²à¤®": 3128,
      "Ġà¤Ĩà¤Ĺà¤ľà¤¨": 3129,
      "Ġà¤¸à¤¤à¤¹à¤®": 3130,
      "à¤ªà¤²à¤ķ": 3131,
      "à¤Ńà¤µà¤ķ": 3132,
      "Ġà¤ħà¤µà¤¸à¤°à¤¹à¤°": 3133,
      "Ġà¤¤à¤²à¤µ": 3134,
      "à¤ľà¤ķà¤¹à¤°": 3135,
      "Ġà¤ªà¤ķà¤¡": 3136,
      "Ġà¤ªà¤°à¤®à¤ª": 3137,
      "à¤¦à¤¹": 3138,
      "à¤¬à¤Īà¤®": 3139,
      "Ġà¤ıà¤ķà¤¤à¤°": 3140,
      "Ġà¤ķà¤ªà¤ķ": 3141,
      "à¤°à¤ªà¤¥": 3142,
      "Ġà¤¶à¤¹à¤°à¤¹à¤°": 3143,
      "à¤ļà¤¥à¤°à¤ķ": 3144,
      "Ġà¥¨à¥¦à¥«à¥¯": 3145,
      "à¤«à¤¸": 3146,
      "à¤Ĺà¤°à¤²": 3147,
      "à¤µà¤Ńà¤°à¤ķ": 3148,
      "Ġà¤«à¤Ł": 3149,
      "à¤ªà¤°à¤²": 3150,
      "à¤ľà¤®à¤£": 3151,
      "Ġà¤¦à¤¶à¤°à¤¥": 3152,
      "Ġà¤¸à¤¨à¤®": 3153,
      "à¤ªà¤Łà¤ª": 3154,
      "Ġà¤Ĺà¤¡à¤¬": 3155,
      "Ġà¤ľà¤Ĺà¤¤à¤®": 3156,
      "à¥¨à¥¦à¥Ńà¥©": 3157,
      "à¤ķà¤¸à¤¹": 3158,
      "Ġà¤°à¤£à¤µ": 3159,
      "Ġà¤¨à¤ľà¤°à¤®": 3160,
      "à¤¨à¤Ĺà¤°à¤®": 3161,
      "Ġà¤ħà¤¢": 3162,
      "Ġà¤µà¤°à¤ªà¤°à¤ķ": 3163,
      "Ġà¤¤à¤Łà¤¬à¤¨": 3164,
      "à¤ªà¤ķà¤ķ": 3165,
      "Ġà¤°à¤Ĺà¤¤à¤®": 3166,
      "à¤¬à¤¬": 3167,
      "à¤¥à¤¯": 3168,
      "Ġ+": 3169,
      "à¤ªà¤°à¤®": 3170,
      "Ġà¤¸à¤®à¤²": 3171,
      "à¤µà¤¨à¤¯": 3172,
      "Ġà¤ıà¤Ĺ": 3173,
      "à¤¨à¤¢": 3174,
      "Ġà¤¦à¤°à¤µ": 3175,
      "à¤ªà¤¢": 3176,
      "Ġà¤īà¤«": 3177,
      "Ġà¤ľà¤¯à¤ª": 3178,
      "à¤īà¤ªà¤°": 3179,
      "à¤ĵà¤®": 3180,
      "Ġà¤¸à¤¡à¤ķà¤¹à¤°": 3181,
      "Ġà¤Ĩà¤īà¤²": 3182,
      "à¤Ļà¤µ": 3183,
      "à¤ĵà¤Ł": 3184,
      "Ġà¤¹à¤ķà¤¹": 3185,
      "Ġà¥¨à¥¦à¥ªà¥Ń": 3186,
      "à¤ıà¤¬": 3187,
      "Ġà¤¬à¤¢à¤¨": 3188,
      "Ġà¤¨à¤ķà¤Ĩà¤īà¤Ł": 3189,
      "à¤ľà¤ķà¤®": 3190,
      "Ġà¤īà¤ªà¤ķà¤°à¤£à¤¹à¤°": 3191,
      "Ġà¤¥à¤®": 3192,
      "Ġà¤®à¤²à¤ķ": 3193,
      "Ġà¤®à¤¦à¤¤": 3194,
      "Ġà¤Ĺà¤°à¤ķ": 3195,
      "à¤¹à¤°à¤ķ": 3196,
      "Ġà¤łà¤¡": 3197,
      "à¤Ĺà¤¯": 3198,
      "Ġà¤¯à¤¸à¤¤à¤°": 3199,
      "Ġà¤®à¤¨à¤¹à¤°": 3200,
      "Ġà¤Īà¤ļ": 3201,
      "Ġà¤µà¤¯à¤¸": 3202,
      "Ġà¤¬à¤²à¤²": 3203,
      "Ġà¤ľà¤ĺà¤¨": 3204,
      "à¤Ĺà¤®à¤¨à¤²": 3205,
      "à¤«à¤¨": 3206,
      "à¤°à¤ļà¤²à¤¨à¤®": 3207,
      "à¤¡à¤°à¤®": 3208,
      "Ġà¤Ńà¤ıà¤¦": 3209,
      "à¤°à¤¸à¤¸": 3210,
      "à¤µà¤¨à¤Ńà¤°": 3211,
      "à¤ľà¤Ĺà¤ŀ": 3212,
      "à¤µà¤ªà¤Ľ": 3213,
      "à¥¦à¥¦à¥¦": 3214,
      "à¥®à¥¦": 3215,
      "Ġà¤Ĩà¤ĩà¤°à¤¹à¤¨": 3216,
      "Ġà¤Ŀà¤¸": 3217,
      "à¤§à¤¯": 3218,
      "Ġà¤Īà¤ķ": 3219,
      "à¤¬à¤§": 3220,
      "à¤ıà¤¸à¤ľ": 3221,
      "Ġà¤ĸà¤¬à¤°à¤¦": 3222,
      "à¤¶à¤ļà¤¨": 3223,
      "à¤Ĺà¤«": 3224,
      "Ġà¤¬à¤¹à¤¸à¤ķ": 3225,
      "Ġà¤°à¤ķà¤®à¤¬": 3226,
      "Ġà¥¨à¥¦à¥«à¥¨": 3227,
      "Ġà¤ĵà¤®à¤ª": 3228,
      "à¤¦à¤ķà¤¹à¤°": 3229,
      "à¥ĩà¤¾": 3230,
      "Ġà¤¹à¤ļ": 3231,
      "Ġà¤®à¤¹à¤µ": 3232,
      "Ġà¤Ĩà¤²à¤®": 3233,
      "à¤¦à¤²à¤ķ": 3234,
      "Ġà¤ľà¤Ĺà¤®": 3235,
      "à¤Ĺà¤ľà¤ªà¤¤": 3236,
      "à¤¯à¤ªà¤°": 3237,
      "à¥¨à¥¦à¥Ńà¥ª": 3238,
      "à¤¨à¤¯à¤®": 3239,
      "Ġà¤ªà¤¤à¤¨": 3240,
      "Ġà¥¨à¥¦à¥¬à¥§": 3241,
      "à¤¨à¤°à¤²": 3242,
      "à¤Ĩà¤Īà¤¬": 3243,
      "Ġà¤Ľà¤¦": 3244,
      "Ġà¤¨à¤Ĺà¤°à¤µ": 3245,
      "Ġà¥ģ": 3246,
      "à¤Łà¤¡": 3247,
      "Ġà¤Ĩà¤ľà¤ķà¤²": 3248,
      "à¤¤à¤ĸ": 3249,
      "à¤¯à¤ªà¤¹": 3250,
      "à¤¦à¤¶à¤®": 3251,
      "Ġà¥¨à¥¦à¥¦à¥«": 3252,
      "Ġà¤¹à¤¡à¤¤": 3253,
      "à¤¯à¤£à¤Ĺà¤¢à¤®": 3254,
      "Ġà¤ªà¤¦à¤ª": 3255,
      "Ġà¤ħà¤µà¤Ĺà¤¤": 3256,
      "à¤¨à¤ľà¤¨à¤ķ": 3257,
      "à¤¤à¤¨à¤ª": 3258,
      "Ġà¤¦à¤¶à¤ķà¤ķ": 3259,
      "Ġà¤°à¤ľà¤¨": 3260,
      "Ġà¤ıà¤ļà¤ķ": 3261,
      "à¤ħà¤«": 3262,
      "à¤Łà¤¸à¤²": 3263,
      "Ġà¤Ĩà¤ĩà¤Ł": 3264,
      "Ġà¤ªà¤¸à¤²à¤¹à¤°": 3265,
      "à¤Ĺà¤ªà¤¤": 3266,
      "Ġà¤¿": 3267,
      "à¤ļà¤°à¤£": 3268,
      "Ġà¤Ĳà¤ķ": 3269,
      "à¤¯à¤ľà¤¨à¤ķ": 3270,
      "Ġà¤ıà¤¸à¤Ī": 3271,
      "à¤²à¤¬à¤ļ": 3272,
      "à¤£à¤¯à¤¬": 3273,
      "Ġà¥¨à¥¦à¥¬à¥¦": 3274,
      "Ġà¤¨à¤°à¤¸": 3275,
      "à¤ķà¤Łà¤¤": 3276,
      "à¤®à¤Ĺà¤ł": 3277,
      "Ġà¤¤à¤¬à¤¸à¤®": 3278,
      "Ġà¥¨à¥¦à¥¦à¥©": 3279,
      "à¤ıà¤¶": 3280,
      "Ġà¤ļà¤£": 3281,
      "Ġà¤¸à¤¹à¤ļ": 3282,
      "à¤¯à¤¸à¤Ńà¤¨": 3283,
      "à¤¤à¤Ĺ": 3284,
      "à¤µà¤¨à¤¬": 3285,
      "à¤®à¤ľà¤¯à¤¨": 3286,
      "à¤ľà¤¬à¤¹": 3287,
      "à¤¦à¤¯à¤ĺ": 3288,
      "Ġà¥¨à¥¦à¥©à¥¦": 3289,
      "à¤¦à¤¬à¤¹": 3290,
      "à¤¾à¤¿": 3291,
      "à¤¡à¤°à¤²": 3292,
      "à¤²à¤¬à¤¸": 3293,
      "Ġà¤ķà¤¸à¤°à¤¤": 3294,
      "Ġà¤¸à¤ķà¤°": 3295,
      "à¤²à¤Ńà¤¨": 3296,
      "Ġà¥¨à¥¦à¥Ńà¥ªà¥¦à¥Ńà¥«": 3297,
      "Ġà¤¹à¤µà¤²": 3298,
      "à¤®à¤ķà¤°": 3299,
      "Ġà¤«à¤²à¤¦": 3300,
      "à¤¸à¤ľ": 3301,
      "à¤ıà¤Ľà¤¨": 3302,
      "à¤ªà¤¸à¤²": 3303,
      "à¤Ĺà¤ľà¤®": 3304,
      "Ġà¤Ľà¤¡": 3305,
      "Ġà¤ħà¤°à¤¨": 3306,
      "Ġà¤Ĺà¤¡à¤¬à¤¡": 3307,
      "à¤łà¤¶": 3308,
      "Ġà¥¨à¥¦à¥¦à¥¨": 3309,
      "Ġà¤®à¤¤à¤ª": 3310,
      "Ġà¤ĸà¤ļ": 3311,
      "Ġà¥¨à¥¦à¥¨à¥¨": 3312,
      "à¤°à¤®à¤¦": 3313,
      "à¤ĺà¤£": 3314,
      "à¤°à¤¸à¤°à¤¤": 3315,
      "à¤·à¤¨": 3316,
      "Ġà¤¤à¤¦": 3317,
      "Ġà¤Ĩà¤ıà¤®": 3318,
      "Ġà¤¬à¤¸à¤²": 3319,
      "Ġà¤Ĺà¤£à¤¤": 3320,
      "à¤Īà¤ªà¤Łà¤ķ": 3321,
      "à¤®à¤ķà¤¥": 3322,
      "Ġà¤ĺà¤°à¤§à¤¨": 3323,
      "à¤ķà¤ŀ": 3324,
      "à¤¡à¤ħà¤¨": 3325,
      "à¤²à¤«": 3326,
      "Ġà¤§à¤¨à¤¬à¤¹": 3327,
      "à¤¸à¤¡": 3328,
      "à¤¨à¤®à¤§": 3329,
      "à¤®à¤¥à¤²": 3330,
      "à¤ļà¤¤à¤®": 3331,
      "à¤ıà¤¸à¤¨à¤ķ": 3332,
      "à¤°à¤¡": 3333,
      "à¤¹à¤²à¤®": 3334,
      "Ġà¤ªà¤¦à¤¸": 3335,
      "à¤ķà¤®à¤ľ": 3336,
      "Ġà¤Ķà¤§": 3337,
      "Ġà¤ħà¤ªà¤¹à¤°à¤£à¤ķ": 3338,
      "Ġà¤ªà¤Łà¤ķà¤¸à¤®": 3339,
      "à¤ļà¤²à¤¨": 3340,
      "Ġà¤§à¤¨à¤®": 3341,
      "Ġà¥¨à¥¦à¥«à¥§": 3342,
      "Ġà¥¨à¥¦à¥«à¥¬": 3343,
      "à¤ķà¤²à¤®": 3344,
      "à¤¦à¤°à¤ķ": 3345,
      "à¤°à¤¤à¤¤": 3346,
      "Ġà¥¬à¥¦à¥¦": 3347,
      "Ġà¤¹à¤¨à¤¨": 3348,
      "à¤ľà¤¦à¤°à¤®": 3349,
      "à¤ķà¤Łà¤¤à¤®": 3350,
      "à¥¨à¥¦à¥§à¥®": 3351,
      "à¤¸à¤°à¤¬": 3352,
      "Ġà¤§à¤¨à¤°": 3353,
      "à¤¯à¤£à¤ª": 3354,
      "à¤Ĺà¤®à¤ŀ": 3355,
      "Ġà¤¯à¤°": 3356,
      "Ġà¤ļà¤ķà¤²": 3357,
      "Ġà¤ĺà¤Łà¤¸": 3358,
      "à¤µà¤ĺ": 3359,
      "Ġà¤¨à¤Ļ": 3360,
      "Ġà¤ħà¤¸à¤¹à¤¯": 3361,
      "Ġà¤¸à¤®à¤µ": 3362,
      "Ġà¤¡à¤£": 3363,
      "à¤°à¤µà¤ļà¤¨": 3364,
      "à¤ļà¤ķà¤ķ": 3365,
      "Ġà¤¦à¤²à¤¸": 3366,
      "Ġà¥§à¥¯à¥©": 3367,
      "Ġà¥§à¥¨à¥¦": 3368,
      "Ġà¥¨à¥¦à¥Ńà¥©à¥¦": 3369,
      "à¤ķà¤ľà¤¸": 3370,
      "Ġà¤ªà¤Ļ": 3371,
      "à¤¡à¤ľ": 3372,
      "Ġà¤¸à¤ĺà¤¨": 3373,
      "à¤Ĺà¤¹à¤¨": 3374,
      "à¤§à¤¨à¤Ĺà¤¢": 3375,
      "Ġà¥¨à¥¦à¥«à¥ª": 3376,
      "Ġà¤¬à¤¹à¤¸à¤®": 3377,
      "à¤ĩà¤¨à¤²à¤ķ": 3378,
      "à¤µà¤°à¤¤": 3379,
      "à¤²à¤¯à¤ħà¤¨": 3380,
      "Ġà¤Ĩà¤¶à¤Ļ": 3381,
      "Ġà¤ķà¤®à¤¸": 3382,
      "à¥Ģà¤ĥ": 3383,
      "Ġà¤¸à¤°à¤¦à¤°": 3384,
      "Ġà¤ħà¤¸à¤ķ": 3385,
      "à¤ļà¤°à¤ķ": 3386,
      "à¤īà¤¸à¤ķ": 3387,
      "Ġà¤ļà¤¹": 3388,
      "Ġà¤ħà¤¬à¤¸à¤°à¤®": 3389,
      "à¤¤à¤²à¤®": 3390,
      "à¤¶à¤²à¤¤": 3391,
      "Ġà¤²à¤µ": 3392,
      "Ġà¤²à¤Ĺà¤¨à¤¶": 3393,
      "Ġà¤ªà¤¹à¤²à¤ķ": 3394,
      "à¤¹à¤°à¤²": 3395,
      "à¤ľà¤¨à¤ķà¤ª": 3396,
      "Ġà¤®à¤ĸà¤®à¤²": 3397,
      "à¤²à¤ħà¤¨": 3398,
      "à¤ĩà¤¨à¤°": 3399,
      "à¤®à¤ķà¤°à¤£": 3400,
      "Ġà¤ıà¤ıà¤«à¤¸": 3401,
      "à¤¨à¤«": 3402,
      "à¤īà¤¨à¤¦": 3403,
      "à¤¤à¤¨à¤Ĺà¤°": 3404,
      "à¤¶à¤ķà¤®": 3405,
      "à¤ĸà¤ķà¤¹à¤°": 3406,
      "Ġà¤¸à¤¶": 3407,
      "Ġà¤Ľà¤Ł": 3408,
      "Ġà¥¨à¥¦à¥«à¥¦": 3409,
      "Ġà¤¨à¤Ĩà¤ī": 3410,
      "à¤²à¤°à¤®": 3411,
      "à¤¸à¤¸à¤²": 3412,
      "Ġà¤²à¤ł": 3413,
      "à¤Ĺà¤¨à¤ķ": 3414,
      "Ġà¥¨à¥¦à¥ªà¥¯": 3415,
      "à¤¬à¤¤à¤ķ": 3416,
      "à¤Īà¤ĺ": 3417,
      "Ġà¤Ńà¤ıà¤²à¤Ĺà¤¤": 3418,
      "Ġà¤ķà¤¥à¤¨": 3419,
      "à¤ķà¤²à¤ķ": 3420,
      "à¤īà¤¤à¤ķ": 3421,
      "Ġà¤ĸà¤¬à¤°à¤²": 3422,
      "à¤ħà¤²à¤Ĺ": 3423,
      "à¤¨à¤°à¤ķ": 3424,
      "à¤ªà¤ŀ": 3425,
      "à¤ªà¤²à¤²": 3426,
      "à¤ļà¤°à¤²": 3427,
      "à¤Ľà¤µ": 3428,
      "Ġà¤ıà¤ħ": 3429,
      "Ġà¤Ĺà¤°à¤Ĺà¤¹à¤¨": 3430,
      "Ġà¤Ĩà¤¯à¤°à¤²": 3431,
      "Ġà¤¹à¤Ļà¤ķà¤Ļà¤²": 3432,
      "à¥įà¥Ĥ": 3433,
      "à¤¹à¤£à¤ķ": 3434,
      "à¤¨à¤²à¤ķ": 3435,
      "à¤¯à¤¤à¤¥": 3436,
      "à¤Łà¤®à¤ķ": 3437,
      "à¤Ľà¤¤": 3438,
      "à¤ľà¤Ļ": 3439,
      "Ġà¤Ńà¤ıà¤ľà¤¸": 3440,
      "Ġà¤Ĩà¤ªà¤¤à¤ķ": 3441,
      "à¥ľ": 3442,
      "à¤ıà¤ħà¤¨": 3443,
      "à¤Ĺà¤²à¤¸": 3444,
      "à¤ķà¤«": 3445,
      "à¤¸à¤ªà¤Ľ": 3446,
      "à¤¦à¤ķà¤ķ": 3447,
      "à¤Łà¤¹": 3448,
      "à¤²à¤ķà¤®": 3449,
      "Ġà¤Ĩà¤¬à¤¶": 3450,
      "Ġà¤ªà¤Łà¤¨": 3451,
      "Ġà¤ıà¤ķà¤ļ": 3452,
      "Ġà¤¸à¤¨à¤°": 3453,
      "Ġà¤ªà¤°à¤¸": 3454,
      "à¤¸à¤®à¤¨": 3455,
      "Ġà¤¨à¤Ĺà¤°à¤®": 3456,
      "Ġà¤¨à¤Ńà¤ıà¤ªà¤¨": 3457,
      "à¤Ĺà¤¤à¤¦": 3458,
      "à¤®à¤Ĺà¤łà¤¬à¤¨": 3459,
      "à¤²à¤Ŀ": 3460,
      "Ġà¤®à¤¦à¤°": 3461,
      "à¤¯à¤¤à¤°": 3462,
      "à¤ıà¤ļà¤¡": 3463,
      "à¤ļà¤ľà¤¨": 3464,
      "Ġà¤ķà¤¹à¤²": 3465,
      "à¤Ŀà¤¬": 3466,
      "à¤²à¤¨à¤ª": 3467,
      "à¤¨à¤µà¤°": 3468,
      "à¤Ĺà¤¤à¤°": 3469,
      "Ġà¤¦à¤¯à¤¨": 3470,
      "Ġà¥®à¥¦à¥¦": 3471,
      "Ġà¤ħà¤²à¤Ĺà¤ħà¤²à¤Ĺ": 3472,
      "Ġà¤®à¤¨à¤®à¤¨": 3473,
      "Ġà¤«à¤¤": 3474,
      "à¤¸à¤®à¤¸": 3475,
      "à¤²à¤¨à¤ªà¤Ľ": 3476,
      "Ġà¤ıà¤ļà¤Ĩ": 3477,
      "à¤¤à¤¶": 3478,
      "Ġà¤ħà¤¨à¤Ĺ": 3479,
      "à¤µà¤¸à¤¤": 3480,
      "Ġà¤¦à¤®à¤ķà¤²": 3481,
      "Ġà¤¡à¤²à¤°à¤®": 3482,
      "à¤¡à¤¯": 3483,
      "à¤¯à¤¸à¤ª": 3484,
      "Ġà¤¸à¤®à¤¯à¤ħà¤¨": 3485,
      "Ġà¤Ĩà¤®à¤®": 3486,
      "à¤¯à¤®à¤¨à¤ķ": 3487,
      "Ġà¤ľà¤µà¤°": 3488,
      "Ġà¤¸à¤®à¤¯à¤Ń": 3489,
      "à¤£à¤Ĺ": 3490,
      "à¤¨à¤²à¤²": 3491,
      "Ġà¤ľà¤«à¤¤": 3492,
      "à¤ĩà¤ľà¤°": 3493,
      "Ġà¤ķà¤²à¤°": 3494,
      "Ġà¤ªà¤¦à¤¹à¤°": 3495,
      "Ġà¤ªà¤¥à¤°": 3496,
      "à¤ļà¤ķà¤¹à¤°": 3497,
      "à¤ıà¤®à¤ı": 3498,
      "à¤®à¤¸à¤®à¤°": 3499,
      "à¤°à¤¹à¤¦": 3500,
      "à¤Łà¤¸à¤¹": 3501,
      "à¤¯à¤¤à¤¸": 3502,
      "à¤łà¤®à¤£": 3503,
      "Ġà¤¦à¤¶à¤ķà¤ħà¤ĺ": 3504,
      "Ġà¤ĸà¤ľ": 3505,
      "Ġà¤Ńà¤¯à¤ķ": 3506,
      "à¤²à¤¯à¤¦": 3507,
      "Ġà¤®à¤¯": 3508,
      "Ġà¤ıà¤®à¤ı": 3509,
      "Ġà¥§à¥¯à¥Ń": 3510,
      "Ġà¤ľà¤²à¤ľà¤²": 3511,
      "à¤®à¤¨à¤ķ": 3512,
      "à¤¯à¤®à¤¸": 3513,
      "Ġà¤¬à¤¢à¤¦": 3514,
      "à¤¤à¤ľà¤¨à¤¹à¤°": 3515,
      "Ġà¥¨à¥¦à¥Ńà¥¨à¥Ńà¥©": 3516,
      "Ġà¤¡à¤¸": 3517,
      "à¥¨à¥¬à¥©": 3518,
      "Ġà¤ªà¤Ĺ": 3519,
      "à¤§à¤¨à¤¸": 3520,
      "à¤ĸà¤¡": 3521,
      "à¤łà¤¸": 3522,
      "à¤¸à¤°à¤¹": 3523,
      "Ġà¤°à¤£": 3524,
      "Ġà¤¬à¤Ĺà¤°": 3525,
      "à¤Łà¤¬à¤¨": 3526,
      "Ġà¤īà¤ªà¤¶": 3527,
      "Ġà¤ĵà¤ķ": 3528,
      "à¥©à¥«": 3529,
      "Ġà¤Ĩà¤ĩà¤¡à¤²": 3530,
      "Ġà¤Ľà¤²à¤«à¤²à¤ªà¤Ľ": 3531,
      "à¤·à¤¦à¤°": 3532,
      "à¤°à¤¬à¤¦à¤²": 3533,
      "Ġà¤¨à¤°à¤¬à¤¹": 3534,
      "Ġà¤ĸà¤µà¤°": 3535,
      "à¤Ļà¤²à¤Ĺ": 3536,
      "Ġà¤¨à¤Ńà¤ıà¤®": 3537,
      "à¤łà¤ķà¤ªà¤Ľ": 3538,
      "à¤ıà¤ª": 3539,
      "à¤·à¤¯à¤°": 3540,
      "Ġà¤ħà¤ªà¤¹à¤°": 3541,
      "ĠĠĠĠĠĠĠĠĠ": 3542,
      "à¤¸à¤°à¤¸": 3543,
      "à¤Ĩà¤ĩà¤¬": 3544,
      "Ġà¤¤à¤ķ": 3545,
      "Ġà¤¤à¤¦à¤°": 3546,
      "à¤Ńà¤°à¤®": 3547,
      "à¤¤à¤®à¤§": 3548,
      "Ġà¤Ĩà¤¶à¤¯": 3549,
      "à¤¤à¤ľà¤¨à¤ķ": 3550,
      "à¤ķà¤ªà¤¡": 3551,
      "Ġà¤Ĳà¤¨à¤ħà¤¨": 3552,
      "Ġà¤ıà¤¨à¤Ĩà¤°à¤ıà¤¨à¤ķ": 3553,
      "à¤£à¤ªà¤¨": 3554,
      "à¤ķà¤®à¤°": 3555,
      "Ġà¤®à¤¦à¤¨à¤ķ": 3556,
      "Ġà¤ıà¤ļà¤Ĩà¤ĩà¤Ń": 3557,
      "Ġà¤Ĺà¤ĩà¤¨": 3558,
      "à¤¬à¤Ńà¤¨": 3559,
      "à¤½": 3560,
      "à¥¯à¥¦": 3561,
      "à¤ĺà¤¬": 3562,
      "à¤²à¤ķà¤°": 3563,
      "à¤¶à¤¨à¤ªà¤Ľ": 3564,
      "à¤¯à¤µà¤¶": 3565,
      "Ġà¤¸à¤¯à¤®": 3566,
      "Ġà¤¨à¤µà¤¦": 3567,
      "à¤¡à¤§": 3568,
      "Ġà¤®à¤¹à¤Ļ": 3569,
      "Ġà¤°à¤¶": 3570,
      "à¤ĩà¤ĵ": 3571,
      "Ġà¤ªà¤°à¤¶": 3572,
      "à¤Ĺà¤µà¤¤": 3573,
      "Ġà¤¤à¤°à¤Ļ": 3574,
      "Ġà¤ľà¤®à¤ĺà¤Ł": 3575,
      "à¤¥à¤ķà¤°": 3576,
      "Ġà¤ıà¤ķà¤¥à¤°": 3577,
      "Ġà¤µà¤¯": 3578,
      "Ġà¤Ĩà¤ĩà¤¸à¤²": 3579,
      "Ġà¤ħà¤¸à¤®à¤Ŀà¤¦": 3580,
      "à¤ļà¤¯à¤ķ": 3581,
      "Ġà¤Ĩà¤ıà¤ªà¤¨": 3582,
      "Ġà¤ĩà¤¬": 3583,
      "à¤ĩà¤ķà¤²à¤²": 3584,
      "Ġà¤¨à¤¸à¤°": 3585,
      "Ġà¤ļà¤®à¤ķ": 3586,
      "à¤īà¤¹à¤°": 3587,
      "à¤Ĺà¤¤à¤²": 3588,
      "à¤Īà¤¨à¤²à¤®": 3589,
      "à¤²à¤¨à¤¸": 3590,
      "à¤²à¤ķà¤¬": 3591,
      "Ġà¤ķà¤Ļ": 3592,
      "Ġà¤¬à¤¦à¤®": 3593,
      "à¤Ńà¤¨à¤®": 3594,
      "à¤Ĺà¤ŀ": 3595,
      "Ġà¤ķà¤°à¤¬": 3596,
      "âĢ¯": 3597,
      "Ġà¤ļà¤°à¤£à¤¬": 3598,
      "à¤ħà¤µà¤¸": 3599,
      "à¤ªà¤ķà¤¹à¤°": 3600,
      "Ġà¤ªà¤¸à¤²à¤ķ": 3601,
      "Ġà¤ıà¤«à¤ª": 3602,
      "Ġà¤Ĩà¤·": 3603,
      "Ġà¤ħà¤µà¤¸à¤°à¤²": 3604,
      "Ġà¤¨à¤ªà¤ł": 3605,
      "à¤¨à¤¯à¤¤": 3606,
      "à¤µà¤¦à¤²": 3607,
      "Ġà¤¨à¤«à¤°": 3608,
      "à¤Ŀà¤²": 3609,
      "à¥¨à¥¦à¥¦": 3610,
      "Ġà¤ħà¤ªà¤¨à¤¤": 3611,
      "à¤°à¤Ľ": 3612,
      "à¤§à¤ªà¤Ľ": 3613,
      "Ġà¤īà¤ªà¤ķà¤°à¤£à¤ķ": 3614,
      "Ġà¥¨à¥¦à¥Ńà¥«à¥¦à¥Ńà¥¬": 3615,
      "à¤®à¤Ļ": 3616,
      "à¤ļà¤¶": 3617,
      "Ġà¥§à¥¯à¥¯à¥Ń": 3618,
      "à¤Łà¤Ł": 3619,
      "à¤Ńà¤Ł": 3620,
      "à¤°à¤¶à¤¨": 3621,
      "à¤¸à¤¦à¤¬": 3622,
      "Ġà¥§à¥¦à¥®": 3623,
      "à¤ıà¤«à¤ª": 3624,
      "à¤¤à¤ļà¤°": 3625,
      "Ġà¤ļà¤¸": 3626,
      "à¤ķà¤²à¤¨à¤®": 3627,
      "à¤¸à¤²à¤Ĺ": 3628,
      "Ġà¤Ńà¤µà¤¨à¤¹à¤°": 3629,
      "Ġà¤ıà¤ķà¤Ĩ": 3630,
      "Ġà¤Ŀà¤¡": 3631,
      "à¤°à¤¨à¤Ĺà¤°à¤®": 3632,
      "Ġà¤Ĩà¤īà¤ľ": 3633,
      "à¤¡à¤°à¤¸": 3634,
      "Ġà¤ĺà¤Łà¤ķ": 3635,
      "Ġà¤Ĩà¤ľà¤Ńà¤¨": 3636,
      "à¤ıà¤¸à¤¸": 3637,
      "Ġà¤ıà¤Ĩà¤Īà¤ľ": 3638,
      "Ġà¤ħà¤µà¤¹": 3639,
      "à¤·à¤¦à¤®": 3640,
      "Ġà¤¸à¤Łà¤¹": 3641,
      "Ġà¤ħà¤¨à¤¶à¤¨à¤°à¤¤": 3642,
      "à¤¥à¤Ĺà¤¨": 3643,
      "Ġà¥¨à¥¦à¥¦à¥§": 3644,
      "à¤¨à¤¯à¤ķ": 3645,
      "à¤°à¤¤à¤¤à¤°": 3646,
      "à¤Ļà¤¸à¤®": 3647,
      "Ġà¤µà¤°à¤¦": 3648,
      "à¤Īà¤µ": 3649,
      "Ġà¤ħà¤°à¤¬à¤ķ": 3650,
      "à¤²à¤Ĺà¤°": 3651,
      "à¤®à¤ªà¤¤": 3652,
      "à¤¦à¤²à¤¯": 3653,
      "Ġà¤ķà¤ªà¤®": 3654,
      "Ġà¤Ŀà¤ķ": 3655,
      "Ġà¤Ĺà¤łà¤µà¤¨": 3656,
      "à¤¹à¤¦à¤°à¤µ": 3657,
      "à¥īà¤Ĥ": 3658,
      "à¥Īà¥į": 3659,
      "Ġà¤Ĩà¤¯à¤ķ": 3660,
      "Ġà¤¨à¤¥": 3661,
      "Ġà¤¨à¤«": 3662,
      "Ġà¤ĩà¤¯": 3663,
      "à¤®à¤ŀ": 3664,
      "Ġà¤¹à¤Ļ": 3665,
      "Ġà¤ħà¤¬à¤¦": 3666,
      "à¤ķà¤°à¤£à¤¬": 3667,
      "à¤®à¤ħà¤¨": 3668,
      "Ġà¥¨à¥¦à¥¨à¥«": 3669,
      "à¤ĭ": 3670,
      "Ġà¥§à¥¨à¥«": 3671,
      "Ġà¥¨à¥¦à¥«à¥«": 3672,
      "Ġà¤Ĺà¤Īà¤°à¤¹": 3673,
      "Ġà¤¸à¤°à¤¦": 3674,
      "Ġà¤®à¤¹à¤²": 3675,
      "à¤°à¤µà¤£": 3676,
      "à¥©à¥§": 3677,
      "Ġà¤ĭà¤£à¤®": 3678,
      "Ġà¤°à¤Ļà¤ķ": 3679,
      "Ġà¤¸à¤ķà¤¸": 3680,
      "Ġà¤ķà¤²à¤ķà¤¤": 3681,
      "Ġà¤¾": 3682,
      "Ġà¤Ĩà¤¯à¤¸": 3683,
      "à¤ĩà¤ķà¤¨": 3684,
      "à¤¸à¤¨à¤¸": 3685,
      "à¤Īà¤Ĺ": 3686,
      "à¥Ĥà¥Ĥ": 3687,
      "à¤°à¤ķà¤°à¤£à¤ķ": 3688,
      "Ġà¤¨à¤ķà¤°": 3689,
      "à¤ķà¤²à¤Ĺ": 3690,
      "Ġà¥§à¥¬à¥¦": 3691,
      "à¤ŀà¤°": 3692,
      "Ġà¤ľà¤Ĺà¤¤à¤ķ": 3693,
      "Ġà¤¬à¤ľà¤Ĺ": 3694,
      "Ġà¤¨à¤¹à¤Ł": 3695,
      "Ġà¤ıà¤¨à¤ıà¤®à¤¬": 3696,
      "à¤®à¤°à¤ķ": 3697,
      "à¤Ĺà¤Łà¤¨": 3698,
      "ĠĠĠĠĠĠĠĠĠĠĠĠĠĠĠĠĠĠĠĠĠĠĠĠĠĠĠĠĠĠĠĠĠĠĠĠĠĠĠĠĠĠĠĠĠĠĠĠĠĠĠĠĠĠĠĠĠĠĠĠĠĠĠĠ": 3699,
      "à¤¦à¤ĺ": 3700,
      "à¤Ńà¤ı": 3701,
      "à¤°à¤°à¤¤": 3702,
      "à¤®à¤ķà¤¤": 3703,
      "Ġà¤Ŀà¤²à¤ķ": 3704,
      "Ġà¤¸à¤¯à¤¦": 3705,
      "à¤²à¤°à¤²": 3706,
      "Ġà¤¬à¤ļà¤¨": 3707,
      "Ġà¤ħà¤ķà¤¸": 3708,
      "Ġà¤²à¤¯à¤®": 3709,
      "à¤²à¤¯à¤¸à¤®": 3710,
      "Ġà¥Ńà¥¦à¥¦": 3711,
      "Ġà¤Ĩà¤¦à¤°à¤£": 3712,
      "Ġà¤Ĺà¤²à¤ķ": 3713,
      "à¤ľà¤¤à¤²": 3714,
      "Ġà¥§à¥®à¥¦": 3715,
      "Ġà¤ķà¤¶": 3716,
      "Ġà¤ĵà¤¶": 3717,
      "à¤ķà¤Ľ": 3718,
      "à¤ªà¤£à¤ķ": 3719,
      "à¤Ļà¤¯": 3720,
      "à¤¤à¤¨à¤¶": 3721,
      "à¤¯à¤²à¤Ĺ": 3722,
      "Ġà¤ĵà¤ł": 3723,
      "Ġà¤¨à¤ªà¤¢": 3724,
      "à¤Ĺà¤¬à¤£": 3725,
      "à¥įà¥Ģ": 3726,
      "à¤īà¤Ĺ": 3727,
      "à¤īà¤¸à¤²": 3728,
      "Ġà¤ıà¤¥": 3729,
      "Ġà¤ķà¤¦à¤®à¤²": 3730,
      "à¤¯à¤Ĺà¤¤": 3731,
      "à¤ĩà¤¡à¤ķ": 3732,
      "à¤Łà¤²à¤Ĺ": 3733,
      "Ġà¤ľà¤ķ": 3734,
      "Ġà¥§à¥¦à¥«": 3735,
      "à¤¯à¤¯à¤¨à¤ħà¤¨": 3736,
      "à¤²à¤¢": 3737,
      "Ġà¤Ĩà¤ķà¤²à¤¨": 3738,
      "à¤£à¤¸à¤®": 3739,
      "à¤¤à¤°à¤Ļ": 3740,
      "à¤ıà¤īà¤Ł": 3741,
      "à¤¸à¤µà¤²": 3742,
      "à¤¯à¤£à¤¹": 3743,
      "à¤§à¤°à¤£": 3744,
      "Ġà¤Ĩà¤ıà¤¸": 3745,
      "à¤Ļà¤ª": 3746,
      "Ġà¤Ĩà¤®à¤ľà¤¨à¤¤": 3747,
      "à¤°à¤Ł": 3748,
      "à¤¨à¤µà¤ķ": 3749,
      "à¤®à¤µà¤°": 3750,
      "à¤Ĺà¤¸à¤¹": 3751,
      "Ġà¤ļà¤¯à¤¨à¤ķ": 3752,
      "à¤²à¤¬à¤ľ": 3753,
      "à¤Łà¤Ńà¤¨": 3754,
      "à¤Ĩà¤Īà¤Ń": 3755,
      "à¤¶à¤¨à¤¹à¤°": 3756,
      "Ġà¤®à¤¤à¤ªà¤°": 3757,
      "Ġà¤ľà¤¨à¤ħà¤§": 3758,
      "Ġà¤ıà¤¨à¤Ĩà¤Īà¤¸": 3759,
      "à¤®à¤µà¤°à¤£": 3760,
      "à¤µà¤¶à¤ķ": 3761,
      "Ġà¤²à¤®à¤¹": 3762,
      "à¤Ļà¤Łà¤¨": 3763,
      "à¤łà¤°": 3764,
      "Ġà¤ħà¤¨à¤Ń": 3765,
      "à¤°à¤¨à¤®": 3766,
      "à¤§à¤¨à¤µ": 3767,
      "à¤ķà¤¡à¤Ń": 3768,
      "Ġà¤ķà¤°à¤®": 3769,
      "Ġà¤®à¤·": 3770,
      "à¤¯à¤¸à¤ħà¤¨": 3771,
      "à¤µà¤°à¤ª": 3772,
      "à¤¸à¤¸à¤ķ": 3773,
      "Ġà¤°à¤«": 3774,
      "à¤ĩà¤¸à¤®": 3775,
      "à¤Ĩà¤°à¤ķ": 3776,
      "à¤Łà¤«à¤°": 3777,
      "Ġà¤ıà¤¤": 3778,
      "Ġà¤µà¤ľà¤¨": 3779,
      "à¤¤à¤¸à¤¹": 3780,
      "Ġà¤ħà¤µà¤®": 3781,
      "à¤®à¤¤à¤¸à¤®": 3782,
      "à¤°à¤Ļà¤®": 3783,
      "à¤¯à¤¬à¤¦": 3784,
      "Ġà¤¬à¤®à¤ķ": 3785,
      "Ġà¥§à¥¯à¥¦": 3786,
      "Ġà¤ħà¤¨à¤ª": 3787,
      "à¤°à¤¤à¤µ": 3788,
      "à¤¤à¤®à¤¬": 3789,
      "Ġà¥§à¥§à¥«": 3790,
      "Ġà¤ıà¤ķà¤Ĩà¤ªà¤¸à¤®": 3791,
      "à¤ıà¤Ŀ": 3792,
      "à¤īà¤ĸ": 3793,
      "à¤īà¤¨à¤¸à¤®": 3794,
      "à¤¸à¤®à¤¯": 3795,
      "à¤ıà¤«à¤ķ": 3796,
      "à¤µà¤¸à¤²": 3797,
      "à¤°à¤ľà¤¹": 3798,
      "à¤µà¤Łà¤ķ": 3799,
      "à¤Ĩà¤ĩà¤¸": 3800,
      "à¤ıà¤®à¤¸": 3801,
      "à¤¬à¤¨à¤®": 3802,
      "Ġà¤Ŀà¤¡à¤ªà¤®": 3803,
      "à¥¬à¥¬": 3804,
      "Ġà¤¸à¤µà¤²": 3805,
      "à¤ľà¤¯à¤²": 3806,
      "Ġà¤ħà¤ķà¤²": 3807,
      "Ġà¤µà¤¨à¤²": 3808,
      "à¤¸à¤ĸ": 3809,
      "à¤ħà¤Ļ": 3810,
      "à¤ıà¤¸à¤Ł": 3811,
      "Ġà¤Ĩà¤ĺ": 3812,
      "Ġà¤ľà¤²à¤¬": 3813,
      "à¤ľà¤¨à¤¸": 3814,
      "Ġà¤¹à¤ķà¤¸à¤®": 3815,
      "à¤Łà¤ħà¤¨": 3816,
      "à¤§à¤¶": 3817,
      "à¤¯à¤¸à¤¸": 3818,
      "Ġà¥§à¥¦à¥¦à¥¦": 3819,
      "à¤ıà¤¨à¤ľ": 3820,
      "Ġà¤ĵà¤ĩà¤°": 3821,
      "Ġà¤ıà¤ķà¤¸à¤¯": 3822,
      "à¤ļà¤¸à¤®": 3823,
      "ĠĠĠĠĠĠĠĠĠĠ": 3824,
      "Ġà¤¤à¤¹à¤¸": 3825,
      "à¤ķà¤®à¤§": 3826,
      "Ġà¤Ĩà¤Īà¤¤à¤µ": 3827,
      "à¤¯à¤µà¤°": 3828,
      "à¤Īà¤¸à¤®": 3829,
      "à¤īà¤ªà¤¯": 3830,
      "Ġà¤ıà¤ļà¤Ĩà¤Īà¤Ń": 3831,
      "Ġà¤ªà¤°à¤ķ": 3832,
      "à¤¦à¤¯à¤ķ": 3833,
      "à¤¬à¤Īà¤ķ": 3834,
      "Ġà¤Ľà¤łà¤ķ": 3835,
      "Ġà¤Īà¤¯": 3836,
      "Ġà¤ħà¤²à¤®à¤²à¤®": 3837,
      "à¤¯à¤ĺ": 3838,
      "à¤¶à¤¸à¤®": 3839,
      "à¤®à¤¤à¤°": 3840,
      "à¤¤à¤°à¤¸": 3841,
      "à¤Łà¤ķà¤²": 3842,
      "à¤§à¤¨à¤ªà¤Ľ": 3843,
      "à¤¤à¤ªà¤Ľ": 3844,
      "Ġà¤¦à¤°à¤Ń": 3845,
      "à¤®à¤¨à¤Ĺà¤°": 3846,
      "à¤Ĺà¤£à¤®": 3847,
      "à¤ıà¤¨à¤²": 3848,
      "Ġà¤¹à¤¬": 3849,
      "à¤ļà¤²à¤²": 3850,
      "Ġà¤Ĩà¤ĩà¤¡à¤²à¤ķ": 3851,
      "à¤¦à¤°à¤®": 3852,
      "Ġà¤§à¤ª": 3853,
      "à¤²à¤¨à¤¹à¤°": 3854,
      "à¥įà¤¾à¤¾": 3855,
      "Ġà¤Ńà¤ĩà¤°": 3856,
      "à¤¶à¤ľ": 3857,
      "Ġà¤ķà¤¨à¤ķ": 3858,
      "à¤¶à¤ħà¤¨": 3859,
      "Ġà¥¦à¥®": 3860,
      "à¤īà¤ªà¤¡": 3861,
      "Ġà¤ħà¤¨à¤°": 3862,
      "Ġà¤Ĩà¤Īà¤Ł": 3863,
      "à¤ķà¤Ńà¤¨": 3864,
      "à¤°à¤ĸà¤°": 3865,
      "à¤ĩà¤ıà¤²": 3866,
      "Ġà¤«à¤°à¤µ": 3867,
      "Ġà¤ĵà¤Ńà¤°à¤ķ": 3868,
      "à¤¨à¤ļà¤°": 3869,
      "à¤ľà¤¡": 3870,
      "à¤īà¤¨à¤¸à¤ķ": 3871,
      "Ġà¤¯à¤¸à¤¸à¤®": 3872,
      "à¤¿à¥ĩ": 3873,
      "Ġà¤¸à¤®à¤·": 3874,
      "à¤¯à¤ķà¤°à¤£": 3875,
      "à¤®à¤¦à¤°": 3876,
      "à¤Ĺà¤§à¤¨": 3877,
      "Ġà¤¤à¤®à¤²": 3878,
      "Ġà¤Ĩà¤°à¤ľ": 3879,
      "à¤°à¤®à¤ª": 3880,
      "à¤°à¤¶à¤®à¤¶": 3881,
      "à¤£à¤¯à¤ħà¤¨": 3882,
      "à¤®à¤¨à¤²": 3883,
      "Ġà¤ħà¤¸à¤¤": 3884,
      "à¤¦à¤¨à¤ħà¤¨": 3885,
      "à¤Ľà¤¸": 3886,
      "Ġà¤ıà¤¯à¤°à¤¬": 3887,
      "à¤¯à¤²à¤¯à¤®": 3888,
      "à¤ªà¤¯à¤ķ": 3889,
      "à¤ľà¤°à¤®": 3890,
      "Ġà¤Ľà¤¬": 3891,
      "Ġà¤ªà¤Łà¤ķà¤¥": 3892,
      "Ġà¤¸à¤¦à¤¨à¤ķ": 3893,
      "Ġà¤¸à¤¤à¤¹à¤¬": 3894,
      "à¤ľà¤¯à¤¨": 3895,
      "à¤ªà¤ħà¤¨": 3896,
      "Ġà¤¦à¤Ļ": 3897,
      "Ġà¤ĸà¤ķ": 3898,
      "à¤Ļà¤ļ": 3899,
      "Ġà¤ĺà¤®à¤£": 3900,
      "à¤°à¤¹à¤¤": 3901,
      "Ġà¤Ĩà¤°à¤¤": 3902,
      "Ġà¤ıà¤¬à¤®": 3903,
      "à¤®à¤Ŀ": 3904,
      "Ġà¤¦à¤¸à¤®": 3905,
      "Ġà¤²à¤Ł": 3906,
      "Ġà¤¸à¤¬à¤¸": 3907,
      "Ġà¥§à¥¦à¥§": 3908,
      "Ġà¥¦à¥¯": 3909,
      "Ġà¤¸à¤®à¤¯à¤¸à¤®à¤¯à¤®": 3910,
      "Ġà¤ķà¤¸à¤®": 3911,
      "à¤Ĺà¤®à¤®": 3912,
      "à¤Ļà¤¤à¤°": 3913,
      "Ġà¥§à¥©à¥¦": 3914,
      "à¤īà¤Ń": 3915,
      "Ġà¤ıà¤¸à¤ıà¤¸à¤¬": 3916,
      "Ġà¤¯à¤¸à¤®à¤§": 3917,
      "Ġà¤®à¤łà¤®": 3918,
      "à¤ļà¤ĸ": 3919,
      "à¤ıà¤Īà¤²": 3920,
      "Ġà¤®à¤ķà¤°": 3921,
      "à¤§à¤¸à¤®": 3922,
      "Ġà¥§à¥¬à¥«": 3923,
      "Ġà¥¦à¥Ńà¥¦": 3924,
      "à¤ıà¤²à¤®": 3925,
      "à¤¸à¤¹à¤Ń": 3926,
      "Ġà¥¦à¥ªà¥¬": 3927,
      "à¤ĺà¤¦": 3928,
      "Ġà¥§à¥¯à¥¯à¥¯": 3929,
      "à¤µà¤¦à¤¨": 3930,
      "Ġà¤°à¤¡": 3931,
      "à¤ĩà¤¬à¤²": 3932,
      "Ġà¤Ĩà¤ĩà¤ķ": 3933,
      "Ġà¥¨à¥¦à¥«à¥Ń": 3934,
      "Ġà¥§à¥¯à¥¯à¥ª": 3935,
      "à¤¦à¤ķà¤°": 3936,
      "à¤łà¤¬": 3937,
      "Ġà¤ıà¤ķà¤ªà¤²": 3938,
      "à¤¯à¤ªà¤¦": 3939,
      "Ġà¤Ĺà¤Ľ": 3940,
      "à¥¬à¥¯": 3941,
      "Ġà¤Ĩà¤®à¤¸à¤ŀ": 3942,
      "à¤Ńà¤µà¤¹à¤°": 3943,
      "à¤¯à¤¡": 3944,
      "Ġà¤µà¤®": 3945,
      "à¤²à¤Ĺà¤¢": 3946,
      "à¤¦à¤¸à¤®": 3947,
      "à¤ıà¤¡": 3948,
      "Ġà¤Ńà¤Ļ": 3949,
      "à¤£à¤¦": 3950,
      "à¤ĩà¤Ĺà¤°": 3951,
      "Ġà¤ıà¤¯": 3952,
      "Ġà¤ıà¤²à¤ª": 3953,
      "à¤£à¤§": 3954,
      "à¤¨à¤²à¤¹à¤°": 3955,
      "à¤¤à¤¥": 3956,
      "à¤¤à¤¤à¤°": 3957,
      "à¤ģà¥ĩ": 3958,
      "à¤ĩà¤ıà¤®": 3959,
      "Ġà¤ĺà¤°à¤µ": 3960,
      "à¥¬à¥«": 3961,
      "Ġà¤ĭà¤ļ": 3962,
      "Ġà¤ľà¤¯à¤°": 3963,
      "à¤ĩà¤¨à¤¸": 3964,
      "à¤¯à¤Łà¤¨à¤®": 3965,
      "Ġà¤µà¤¹à¤¨": 3966,
      "Ġà¤Ĩà¤¡": 3967,
      "à¤¶à¤ªà¤Ľ": 3968,
      "Ġà¤Ĩà¤µà¤°à¤£à¤®": 3969,
      "à¤¹à¤°à¤£à¤¹à¤°": 3970,
      "Ġà¤ķà¤¦à¤®à¤ķ": 3971,
      "à¤ıà¤«à¤²": 3972,
      "à¤Ĩà¤Īà¤ª": 3973,
      "à¤¯à¤Łà¤¨à¤²": 3974,
      "Ġà¤Ľà¤°à¤Ľ": 3975,
      "à¤¬à¤¨à¤ķ": 3976,
      "à¤¤à¤¨à¤¸": 3977,
      "Ġà¤¨à¤Ĩà¤ıà¤ªà¤Ľ": 3978,
      "à¤¸à¤°à¤¤": 3979,
      "à¤¸à¤ªà¤°": 3980,
      "à¤¹à¤ªà¤Ľ": 3981,
      "à¤°à¤¬à¤ķ": 3982,
      "Ġà¤ıà¤¸à¤Īà¤Ī": 3983,
      "Ġà¤¨à¤µà¤¯": 3984,
      "Ġà¤¤à¤Łà¤¸": 3985,
      "Ġà¤¬à¤²à¤¤": 3986,
      "Ġà¤ħà¤¸à¤®à¤°": 3987,
      "Ġà¤¸à¤¹à¤¨à¤¶": 3988,
      "à¤ªà¤¬à¤¹": 3989,
      "à¤ľà¤«": 3990,
      "Ġà¤ıà¤ķà¤¨": 3991,
      "Ġà¤īà¤ªà¤Ĺ": 3992,
      "Ġà¤ħà¤ªà¤¹": 3993,
      "Ġà¤¨à¤Ĺà¤ıà¤ķ": 3994,
      "Ġà¤ĵà¤ªà¤¨à¤°": 3995,
      "à¤²à¤®à¤£": 3996,
      "Ġà¤ħà¤µà¤¸à¤°à¤µ": 3997,
      "à¤¨à¤¤à¤²": 3998,
      "à¥Įà¤¾": 3999,
      "à¤Łà¤¨à¤°": 4000,
      "Ġà¤ħà¤¬à¤§": 4001,
      "Ġà¥§à¥¯à¥¯à¥¬": 4002,
      "à¤¦à¤°à¤¬": 4003,
      "Ġà¤«à¤Ľ": 4004,
      "à¤Ĩà¤°à¤¸": 4005,
      "à¤Ĺà¤²à¤Ĺ": 4006,
      "Ġà¤Īà¤°": 4007,
      "à¤·à¤¶": 4008,
      "Ġà¤Ĩà¤¯à¤ķà¤°": 4009,
      "à¤¥à¤ķà¤²": 4010,
      "Ġà¤ļà¤¡": 4011,
      "Ġà¤ıà¤²à¤°": 4012,
      "à¤Ļà¤°": 4013,
      "à¤¦à¤²à¤®": 4014,
      "à¤Łà¤¨à¤Ĺà¤°à¤²": 4015,
      "à¤Ĺà¤ľà¤ķ": 4016,
      "Ġà¤¯à¤¸à¤Ńà¤¨": 4017,
      "à¤¯à¤®à¤£": 4018,
      "Ġà¤ĩà¤¥": 4019,
      "à¥ĭà¤ĥ": 4020,
      "à¤¤à¤Ĺà¤°": 4021,
      "Ġà¤ħà¤ªà¤¹à¤°à¤£à¤®": 4022,
      "à¤¸à¤°à¤£": 4023,
      "à¤ļà¤¨à¤¸à¤®": 4024,
      "Ġà¥ĩ": 4025,
      "à¤µà¤¤à¤°": 4026,
      "à¤ıà¤²à¤²": 4027,
      "Ġà¥¨à¥¦à¥Ńà¥©à¥¦à¥Ńà¥ª": 4028,
      "à¤Ľà¤ķ": 4029,
      "à¤ªà¤¨à¤¬": 4030,
      "Ġà¤Ĳà¤²": 4031,
      "à¤ķà¤£": 4032,
      "à¤§à¤µà¤ª": 4033,
      "Ġà¤¶à¤¸à¤¸": 4034,
      "à¤łà¤Ĺ": 4035,
      "à¤¸à¤®à¤µ": 4036,
      "Ġà¤ħà¤¸à¤ľ": 4037,
      "à¤Īà¤¬à¤°": 4038,
      "à¤°à¤ķà¤µ": 4039,
      "à¤Ĩà¤ķ": 4040,
      "à¤°à¤®à¤£à¤ªà¤Ľ": 4041,
      "à¤°à¤Ĺà¤¢": 4042,
      "Ġà¥¨à¥¨à¥¦": 4043,
      "Ġà¥§à¥¯à¥¯à¥©": 4044,
      "à¤Łà¤®à¤®": 4045,
      "Ġà¤¬à¤¬à¤Ī": 4046,
      "Ġà¤ķà¤®à¤²à¤ª": 4047,
      "Ġà¥§à¥¦à¥ª": 4048,
      "Ġà¤ľà¤²à¤ª": 4049,
      "Ġà¤ªà¤¹à¤²à¤ķà¤¦à¤®": 4050,
      "à¤¹à¤¸à¤®": 4051,
      "à¤īà¤¡à¤°": 4052,
      "à¤¯à¤®à¤µ": 4053,
      "à¤¤à¤¨à¤¹à¤°": 4054,
      "Ġà¤ĵà¤ĸà¤°": 4055,
      "Ġà¥¯à¥¦à¥¦": 4056,
      "Ġà¤¦à¤¸à¤®à¤²à¤µ": 4057,
      "à¤²à¤ħà¤§": 4058,
      "à¤£à¤ļà¤¨": 4059,
      "à¤ħà¤ªà¤°": 4060,
      "à¤²à¤¬à¤¹à¤°": 4061,
      "à¤¼à¤¾": 4062,
      "Ġà¤ĵà¤¨à¤¸à¤°": 4063,
      "Ġà¤ªà¤¦à¤Ń": 4064,
      "Ġà¤ıà¤®à¤¸": 4065,
      "à¤ıà¤Łà¤°": 4066,
      "à¤¶à¤¯à¤¯": 4067,
      "à¤Ńà¤ŀ": 4068,
      "Ġà¤ļà¤Ļ": 4069,
      "à¤Ĺà¤®à¤¸": 4070,
      "Ġà¤ªà¤Łà¤ķà¤®": 4071,
      "Ġà¤¦à¤Ĺ": 4072,
      "Ġà¤ĩà¤¡": 4073,
      "Ġà¤ĩà¤«": 4074,
      "Ġà¤Ńà¤ıà¤ħà¤¨": 4075,
      "à¤ıà¤¶à¤¨": 4076,
      "à¤§à¤ķà¤°": 4077,
      "à¤°à¤¦à¤¤": 4078,
      "à¤·à¤ķà¤¬": 4079,
      "à¤Ĩà¤¶": 4080,
      "Ġà¤Ķà¤¸à¤¤à¤®": 4081,
      "à¤²à¤°à¤¹": 4082,
      "à¤¸à¤ľà¤¸": 4083,
      "à¤ļà¤µà¤°": 4084,
      "Ġà¤ĩà¤Łà¤²": 4085,
      "Ġà¤ĭà¤£à¤ªà¤¤": 4086,
      "à¤ķà¤§": 4087,
      "à¤·à¤£à¤¸à¤®": 4088,
      "Ġà¤ıà¤¸à¤ĩ": 4089,
      "à¤ķà¤ļ": 4090,
      "à¤¸à¤Ńà¤¨": 4091,
      "à¤ĸà¤§à¤°": 4092,
      "Ġà¤¸à¤¨à¤¸à¤¨": 4093,
      "à¤¯à¤£à¤²": 4094,
      "Ġà¥¨à¥¦à¥¬à¥¨à¥¬à¥©": 4095,
      "à¤²à¤ł": 4096,
      "Ġà¤¨à¤¸à¤®": 4097,
      "Ġà¤¬à¤²à¤¬à¤¹": 4098,
      "à¤¯à¤¤à¤ª": 4099,
      "à¤ħà¤·": 4100,
      "Ġà¥¦à¥¨": 4101,
      "à¤·à¤¸à¤¹": 4102,
      "à¤ĸà¤°à¤ķ": 4103,
      "Ġà¤Ńà¤ıà¤¸à¤®": 4104,
      "Ġà¥¨à¥¦à¥«à¥©": 4105,
      "à¤·à¤§à¤ķ": 4106,
      "Ġà¤ľà¤¨à¤§à¤¨à¤ķ": 4107,
      "à¤ķà¤°à¤£à¤¸": 4108,
      "à¤«à¤Ł": 4109,
      "à¥Įà¤Ĥà¤ģ": 4110,
      "Ġà¤ľà¤Ĺà¤¨": 4111,
      "à¤¬à¤°à¤¬": 4112,
      "à¤īà¤¨à¤¬": 4113,
      "Ġà¤¨à¤°à¤¹à¤°": 4114,
      "Ġà¥§à¥¨à¥®": 4115,
      "à¤«à¤µ": 4116,
      "Ġà¤ĺà¤®": 4117,
      "Ġà¤Ĩà¤łà¤µà¤Ł": 4118,
      "Ġà¥§à¥¯à¥¯à¥«": 4119,
      "Ġà¤¨à¤Ĺà¤°à¤¬": 4120,
      "à¤ľà¤Ĺà¤¨": 4121,
      "Ġà¤ľà¤²à¤¯": 4122,
      "Ġà¤°à¤¹à¤ķ": 4123,
      "à¤°à¤Ńà¤ķ": 4124,
      "à¤ıà¤¸à¤ıà¤®": 4125,
      "à¤¦à¤ķà¤ª": 4126,
      "Ġà¤¤à¤µà¤°à¤¬": 4127,
      "à¤ľà¤¨à¤¹à¤°": 4128,
      "Ġà¤ľà¤¨à¤Ĺ": 4129,
      "Ġà¤ħà¤¸à¤°à¤²": 4130,
      "Ġà¤ħà¤¬à¤¸à¤°": 4131,
      "Ġà¤¨à¤Ĺà¤¦à¤¸à¤¹": 4132,
      "à¤¹à¤°à¤®": 4133,
      "Ġà¤§à¤µà¤²": 4134,
      "Ġà¤Ĩà¤Īà¤ıà¤®à¤Ī": 4135,
      "Ġà¤ķà¤¬à¤¡": 4136,
      "Ġà¤®à¤łà¤®à¤¨": 4137,
      "à¥įà¤¿": 4138,
      "à¤ıà¤®à¤ķ": 4139,
      "à¤¾à¤ģà¤Ĥ": 4140,
      "à¤µà¤¦à¤¹": 4141,
      "Ġà¤µà¤ļ": 4142,
      "à¤Ļà¤¤": 4143,
      "Ġà¤¨à¤Ĺà¤°à¤²": 4144,
      "à¥Īà¤ĥ": 4145,
      "Ġà¤Ĩà¤ĩà¤®": 4146,
      "à¥ħ": 4147,
      "à¥įà¤ĥ": 4148,
      "à¤Łà¤²à¤¬": 4149,
      "Ġà¤Ĩà¤ĩà¤°à¤¨": 4150,
      "à¤ĩà¤²à¤¹à¤°": 4151,
      "à¤¯à¤£à¤Ĺ": 4152,
      "Ġà¤¶à¤¸à¤ķ": 4153,
      "Ġà¤ĸà¤µ": 4154,
      "Ġà¤Łà¤²": 4155,
      "Ġà¤Īà¤ľ": 4156,
      "Ġà¥§à¥ªà¥¦": 4157,
      "à¤¸à¤¸à¤ı": 4158,
      "à¤¤à¤°à¤¤à¤°": 4159,
      "Ġà¤Ĺà¤ıà¤®": 4160,
      "à¤Łà¤ªà¤Łà¤ķ": 4161,
      "à¤°à¤µà¤¹": 4162,
      "à¤µà¤°à¤£à¤¹à¤°": 4163,
      "Ġà¥¨à¥¦à¥ªà¥«": 4164,
      "à¤°à¤¡à¤ķ": 4165,
      "à¤¤à¤«": 4166,
      "Ġà¤Łà¤¯": 4167,
      "Ġà¤ħà¤°à¤µ": 4168,
      "à¥©à¥©": 4169,
      "Ġà¤ĺà¤°à¤ª": 4170,
      "à¤°à¤ľà¤¹à¤°": 4171,
      "Ġà¤¨à¤ħ": 4172,
      "à¤¨à¤²à¤¬": 4173,
      "à¤¯à¤µà¤§": 4174,
      "Ġà¥¦à¥§": 4175,
      "Ġà¤Ĺà¤®à¤²": 4176,
      "à¤ļà¤ķà¤¨": 4177,
      "Ġà¤īà¤¸à¤®": 4178,
      "à¤®à¤²à¤²": 4179,
      "à¤¤à¤Ńà¤¨": 4180,
      "à¤¬à¤®à¤®": 4181,
      "à¤Īà¤¨à¤®": 4182,
      "à¤Ĺà¤«à¤Ĺ": 4183,
      "Ġà¤²à¤Ļ": 4184,
      "à¤¸à¤¶": 4185,
      "à¤ıà¤¸à¤²": 4186,
      "à¤¡à¤ªà¤¤": 4187,
      "Ġà¤ħà¤¹à¤®à¤¦": 4188,
      "Ġà¥§à¥§à¥©à¥¯": 4189,
      "Ġà¤®à¤ł": 4190,
      "Ġà¤Ľà¤®": 4191,
      "Ġà¤¸à¤®à¤Ŀ": 4192,
      "à¤ĩà¤µà¤Ł": 4193,
      "à¤²à¤®à¤²": 4194,
      "Ġà¤ĩà¤Ļà¤²": 4195,
      "à¤¶à¤¨à¤¸à¤®": 4196,
      "Ġà¤ķà¤łà¤ĺà¤°": 4197,
      "à¤°à¤µà¤¤": 4198,
      "Ġà¤Īà¤Ł": 4199,
      "ĠĠĠĠĠĠĠĠĠĠĠ": 4200,
      "à¤²à¤ĺ": 4201,
      "Ġà¤ħà¤ĸà¤¡": 4202,
      "à¤Łà¤ħà¤ª": 4203,
      "Ġà¤ķà¤Łà¤¹à¤°": 4204,
      "Ġà¤¦à¤®à¤ķà¤ķ": 4205,
      "à¤¬à¤ĸà¤¤": 4206,
      "à¤¡à¤Ĺ": 4207,
      "à¤¡à¤¨à¤¸": 4208,
      "Ġà¤¸à¤¹à¤ľà¤°": 4209,
      "à¤īà¤¦à¤²": 4210,
      "à¤Ļà¤¹": 4211,
      "Ġà¤ıà¤¨à¤ª": 4212,
      "Ġà¥§à¥©à¥¨": 4213,
      "à¤§à¤ķà¤ķ": 4214,
      "Ġà¤Ľà¤²à¤«à¤²à¤²": 4215,
      "Ġà¤¸à¤¹à¤ħà¤§": 4216,
      "Ġà¤ķà¤®à¤¸à¤²": 4217,
      "à¤Ńà¤ħà¤Ļ": 4218,
      "à¤ĸà¤²à¤¨": 4219,
      "à¤Łà¤°à¤Ńà¤¨": 4220,
      "Ġà¤Ĩà¤®à¤¸à¤Ń": 4221,
      "Ġà¤Ĩà¤¯à¤®": 4222,
      "à¤¸à¤Ĺà¤¢": 4223,
      "Ġà¤¤à¤µ": 4224,
      "à¤ĺà¤¨à¤ķ": 4225,
      "Ġà¤ļà¤²à¤¨à¤ļà¤²": 4226,
      "Ġà¥§à¥¯à¥®à¥¦": 4227,
      "à¤°à¤ªà¤¨": 4228,
      "à¤¸à¤¤à¤°": 4229,
      "à¤¥à¤¨à¤ķ": 4230,
      "à¤¤à¤²à¤Ĺ": 4231,
      "à¤ĵà¤°": 4232,
      "Ġà¤¹à¤²à¤ķ": 4233,
      "à¤Ńà¤ıà¤Ľ": 4234,
      "Ġà¤ĸà¤Ĺà¤°": 4235,
      "Ġà¤§à¤¡": 4236,
      "Ġà¤ħà¤°à¤¬à¤®": 4237,
      "à¥«à¥«": 4238,
      "à¤°à¤Ńà¤°à¤ķ": 4239,
      "Ġà¤®à¤²à¤ľà¤²": 4240,
      "Ġà¤Ńà¤ŀ": 4241,
      "à¤¬à¤Ĺà¤°": 4242,
      "Ġà¤ĺà¤ļ": 4243,
      "Ġà¥§à¥¦à¥¯": 4244,
      "Ġà¥§à¥¯à¥Ńà¥¦": 4245,
      "Ġà¤¸à¤°à¤¹à¤ķ": 4246,
      "à¥¬à¥Ń": 4247,
      "à¤Łà¤®à¤§": 4248,
      "à¤®à¤£à¤²": 4249,
      "Ġà¤¦à¤¶à¤ķà¤ªà¤Ľ": 4250,
      "Ġà¤°à¤¨à¤µ": 4251,
      "à¤ĩà¤ľà¤¨": 4252,
      "à¤¨à¤¬à¤¤": 4253,
      "à¤ļà¤²à¤ļ": 4254,
      "Ġà¤Ńà¤Łà¤®": 4255,
      "à¤§à¤ľà¤¨": 4256,
      "à¤Ńà¤²à¤ķ": 4257,
      "Ġà¤ħà¤¨à¤¶à¤¨à¤®": 4258,
      "Ġà¤«à¤Ĺà¤¤": 4259,
      "Ġà¤ľà¤µà¤°à¤ľà¤¸": 4260,
      "à¤°à¤ªà¤°": 4261,
      "Ġà¤¨à¤ľà¤¨": 4262,
      "à¤¯à¤²à¤¯à¤ķ": 4263,
      "à¥ªà¥®": 4264,
      "à¤¡à¤²à¤¹à¤°": 4265,
      "Ġà¤¸à¤¹à¤°à¤¹à¤°": 4266,
      "à¤¼à¥į": 4267,
      "à¤ľà¤ªà¤°": 4268,
      "Ġà¤ħà¤Łà¤²": 4269,
      "Ġà¤¹à¤ł": 4270,
      "à¤Ĩà¤¦": 4271,
      "à¤¨à¤¸à¤¹à¤¨": 4272,
      "à¤ĩà¤Łà¤°": 4273,
      "à¤·à¤£à¤ªà¤Ľ": 4274,
      "Ġà¤ªà¤¢à¤¨": 4275,
      "à¤£à¤¤à¤°": 4276,
      "Ġà¤ħà¤¨à¤µà¤°à¤¤": 4277,
      "Ġà¤ħà¤µà¤ľ": 4278,
      "à¤ķà¤ķà¤²": 4279,
      "Ġà¤ĸà¤¶": 4280,
      "à¤°à¤¹à¤£à¤ķ": 4281,
      "Ġà¥§à¥®à¥¯": 4282,
      "Ġà¤ªà¤¸à¤²à¤¬": 4283,
      "à¤¦à¤¨à¤¸": 4284,
      "à¤Ĩà¤°à¤Ĩà¤Ī": 4285,
      "à¤¨à¤¯à¤¨à¤®": 4286,
      "à¤¦à¤¯à¤®": 4287,
      "à¤Ĺà¤¨à¤²": 4288,
      "à¤ĩà¤²à¤¬": 4289,
      "à¤¸à¤¸à¤ıà¤ıà¤«à¤ª": 4290,
      "Ġà¤¶à¤¯": 4291,
      "à¤¡à¤ķà¤ªà¤ķ": 4292,
      "à¤®à¤²à¤Ł": 4293,
      "à¤ľà¤®à¤°": 4294,
      "Ġà¥¨à¥¦à¥¨à¥®": 4295,
      "Ġà¤ħà¤¥à¤ķ": 4296,
      "Ġà¤¯à¤®à¤¨": 4297,
      "à¤ªà¤°à¤¹": 4298,
      "à¤Ŀà¤¸à¤®": 4299,
      "à¤Ĩà¤ĩà¤ª": 4300,
      "à¤¸à¤¸à¤¸": 4301,
      "Ġà¤°à¤¹à¤°à¤²": 4302,
      "Ġà¤ķà¤Ľ": 4303,
      "à¤·à¤°à¤®": 4304,
      "Ġà¤Ĩà¤łà¤¬": 4305,
      "à¤īà¤ªà¤Ĺ": 4306,
      "à¥¨à¥¦à¥¬à¥©": 4307,
      "à¤°à¤¨à¤ķ": 4308,
      "à¤ľà¤¯à¤ª": 4309,
      "Ġà¤²à¤ª": 4310,
      "à¤°à¤ķà¤¹à¤°": 4311,
      "à¤µà¤¸à¤Ń": 4312,
      "à¤¯à¤®à¤§": 4313,
      "Ġà¤¸à¤¹à¤®à¤¹": 4314,
      "Ġà¤ıà¤¨à¤Ĩà¤°à¤ıà¤¨à¤ıà¤ķ": 4315,
      "Ġà¤¬à¤Łà¤¨": 4316,
      "Ġà¤¬à¤®à¤²": 4317,
      "à¤¬à¤®à¤ķ": 4318,
      "à¤ĩà¤¤à¤®": 4319,
      "Ġà¤ĩà¤¯à¤°": 4320,
      "à¤¶à¤¤à¤¬": 4321,
      "Ġà¤¸à¤¹à¤ľà¤ķà¤°": 4322,
      "Ġà¤¹à¤ķà¤²": 4323,
      "à¤¬à¤ªà¤¤": 4324,
      "à¤ĸà¤ª": 4325,
      "Ġà¤Ľà¤²à¤«à¤²à¤¬": 4326,
      "à¤²à¤Ĺà¤®": 4327,
      "à¤®à¤ªà¤Ľ": 4328,
      "à¤µà¤ħà¤¨": 4329,
      "à¤ĸà¤ļ": 4330,
      "Ġà¤ĸà¤¹à¤°": 4331,
      "à¥ªà¥¬": 4332,
      "Ġà¤¨à¤Ŀ": 4333,
      "à¤¶à¤¶à¤°à¤£": 4334,
      "à¤¾à¤ģà¤ģ": 4335,
      "Ġà¤°à¤¹à¤¨à¤¸à¤¹à¤¨": 4336,
      "Ġà¤ıà¤ķà¤ª": 4337,
      "à¤Ĩà¤Īà¤ķ": 4338,
      "à¤¦à¤¨à¤¬": 4339,
      "à¤Ńà¤°à¤Ļ": 4340,
      "Ġà¤ıà¤¸à¤Īà¤ĵ": 4341,
      "à¤ĸà¤ľ": 4342,
      "Ġà¤ªà¤°à¤µ": 4343,
      "à¤ĺà¤ļ": 4344,
      "à¥©à¥¨": 4345,
      "Ġà¥§à¥®à¥®": 4346,
      "à¤łà¤ª": 4347,
      "Ġà¤¸à¤ķà¤Ńà¤°": 4348,
      "à¤¤à¤°à¤¨": 4349,
      "à¤¬à¤°à¤¸à¤®": 4350,
      "Ġà¤¨à¤Ĩà¤ı": 4351,
      "Ġà¤ľà¤¨à¤¸à¤¹à¤Ń": 4352,
      "Ġà¤ķà¤®à¤²à¤°": 4353,
      "à¤Ĩà¤ľà¤ķ": 4354,
      "Ġà¤¦à¤®à¤ķà¤®": 4355,
      "Ġà¤®à¤Ļà¤ª": 4356,
      "à¤®à¤¤à¤®": 4357,
      "Ġà¤ķà¤°à¤²": 4358,
      "à¤§à¤¶à¤¤à¤ķ": 4359,
      "à¤¶à¤¬à¤¹": 4360,
      "à¤ļà¤¯à¤ķà¤°": 4361,
      "à¤¾à¤Ĥà¤ģ": 4362,
      "Ġà¤¨à¤µà¤®": 4363,
      "Ġà¤¨à¤µà¤ª": 4364,
      "Ġà¤ĩà¤Ĺ": 4365,
      "Ġà¤ıà¤¡à¤Ń": 4366,
      "à¤¹à¤¡": 4367,
      "à¤Īà¤ªà¤ķ": 4368,
      "à¤²à¤®à¤¨": 4369,
      "à¤Ŀà¤Ĺà¤¡": 4370,
      "à¤¤à¤¨à¤ªà¤Ľ": 4371,
      "Ġà¤ľà¤Ĺà¤¦à¤®": 4372,
      "à¤Ĳ": 4373,
      "à¤²à¤£": 4374,
      "Ġà¤¥à¤°à¤ķ": 4375,
      "à¤¸à¤¨à¤µ": 4376,
      "Ġà¤¦à¤ĸ": 4377,
      "à¤²à¤¬à¤¬": 4378,
      "à¤¹à¤®à¤¦": 4379,
      "à¤ıà¤¸à¤¨à¤²": 4380,
      "Ġà¤¤à¤¹à¤¸à¤¨": 4381,
      "à¤¤à¤ľà¤¨à¤²": 4382,
      "à¤¸à¤¡à¤ķ": 4383,
      "à¤µà¤¯à¤²": 4384,
      "Ġà¤ļà¤Łà¤ķ": 4385,
      "à¤ĩà¤¡à¤²": 4386,
      "Ġà¤ĺà¤°à¤¸à¤®": 4387,
      "à¤ªà¤ľ": 4388,
      "Ġà¤ĩà¤¦": 4389,
      "Ġà¤Ĺà¤¹à¤¤à¤°": 4390,
      "à¤¢à¤ķ": 4391,
      "à¤£à¤¤à¤¯": 4392,
      "à¤¤à¤ľà¤¸": 4393,
      "Ġà¤¦à¤°à¤°": 4394,
      "Ġà¤ıà¤®à¤¡": 4395,
      "à¤¯à¤Łà¤¨à¤®à¤¨": 4396,
      "Ġà¤°à¤ľà¤¸": 4397,
      "à¤°à¤®à¤¸à¤®": 4398,
      "Ġà¤ĵà¤ľ": 4399,
      "Ġà¤Ĩà¤īà¤¨à¤¸à¤ķ": 4400,
      "Ġà¥§à¥¯à¥¯à¥¨": 4401,
      "Ġà¤¤à¤¹à¤¸à¤¨à¤¹à¤¸": 4402,
      "à¤¡à¤¨à¤²": 4403,
      "à¤ħà¤¤": 4404,
      "à¤°à¤¨à¤Ĺà¤°à¤ķ": 4405,
      "Ġà¤ħà¤²à¤µ": 4406,
      "Ġà¥¨à¥¦à¥©à¥¬": 4407,
      "Ġà¤ıà¤ıà¤«à¤ª": 4408,
      "Ġà¤ħà¤¨à¤§": 4409,
      "à¤¯à¤®à¤¤": 4410,
      "à¤ŀà¤®": 4411,
      "à¤ªà¤²à¤Ł": 4412,
      "Ġà¥¨à¥¦à¥¨à¥§": 4413,
      "Ġà¤®à¤°à¤£": 4414,
      "Ġà¤ıà¤¡à¤®": 4415,
      "Ġà¤Ĩà¤ĩà¤ıà¤®": 4416,
      "Ġà¥§à¥§à¥§": 4417,
      "Ġà¤¹à¤ķà¤¦": 4418,
      "Ġà¤¸à¤®à¤¥à¤°": 4419,
      "Ġà¤Ĩà¤ĩà¤ıà¤¸": 4420,
      "à¤ªà¤°à¤¤": 4421,
      "à¥Įà¤Ĥà¤ĥ": 4422,
      "Ġà¤Ĩà¤ĩà¤¹": 4423,
      "à¤ķà¤¨à¤²": 4424,
      "à¤¯à¤¸à¤²à¤Ĺà¤¤": 4425,
      "Ġà¥§à¥¯à¥®à¥¬": 4426,
      "à¤ĩà¤¬à¤¹": 4427,
      "Ġà¤¬à¤«": 4428,
      "Ġà¤ıà¤ļà¤¡": 4429,
      "à¤®à¤¬à¤²": 4430,
      "à¤¡à¤ķà¤²": 4431,
      "Ġà¤¶à¤¤à¤ķ": 4432,
      "à¤¯à¤®à¤¦": 4433,
      "à¤§à¤¨à¤ª": 4434,
      "à¤²à¤¨à¤¸à¤®": 4435,
      "Ġà¤ľà¤¯à¤¨à¤Ĺà¤°": 4436,
      "à¤¤à¤ħà¤¨": 4437,
      "Ġà¤Ńà¤·": 4438,
      "Ġà¤¯à¤¸à¤µ": 4439,
      "à¤¸à¤¨à¤°": 4440,
      "à¤¨à¤µà¤ľ": 4441,
      "à¤¯à¤¯à¤¨à¤¬": 4442,
      "à¤ĩà¤¨à¤²à¤¸à¤®": 4443,
      "à¤¹à¤Ĺà¤¤": 4444,
      "Ġà¤®à¤¥": 4445,
      "à¤¬à¤¸à¤®": 4446,
      "à¤ĩà¤«à¤²": 4447,
      "Ġà¤ıà¤¥à¤²": 4448,
      "à¤łà¤¨à¤®": 4449,
      "à¤¨à¤ªà¤Łà¤ķ": 4450,
      "Ġà¤¦à¤¶à¤ķà¤¸à¤®": 4451,
      "à¤ĩà¤Ľ": 4452,
      "à¤®à¤Ńà¤¨": 4453,
      "à¤ıà¤¨à¤¸": 4454,
      "Ġà¤µà¤§": 4455,
      "à¤Ĩà¤²": 4456,
      "Ġà¤¶à¤µà¤²": 4457,
      "Ġà¤ľà¤¨à¤ªà¤ķ": 4458,
      "à¤¤à¤°à¤Ĺà¤¤à¤ķ": 4459,
      "à¤Ĩà¤¸": 4460,
      "à¤¸à¤¦à¤¸": 4461,
      "Ġà¤ıà¤²à¤ľ": 4462,
      "à¤ľà¤¤à¤ªà¤¤": 4463,
      "à¤®à¤¸à¤¹": 4464,
      "à¤¦à¤°à¤¹à¤°": 4465,
      "à¤£à¤¸à¤Ń": 4466,
      "à¤Ļà¤ĸ": 4467,
      "Ġà¤§à¤¨à¤²": 4468,
      "à¥¬à¥ª": 4469,
      "à¤®à¤Ĺà¤°à¤ķ": 4470,
      "à¤°à¤Ļà¤²": 4471,
      "à¤Ĺà¤¹": 4472,
      "Ġà¤¤à¤¦à¤¨": 4473,
      "à¤ĩà¤ľà¤ķ": 4474,
      "Ġà¤ķà¤®à¤ķ": 4475,
      "à¤®à¤²à¤Ĺ": 4476,
      "à¤µà¤°à¤£à¤ħà¤¨": 4477,
      "Ġà¤ľà¤Ĺà¤ľ": 4478,
      "Ġà¤Ńà¤Īà¤¨": 4479,
      "à¤®à¤¦à¤¨": 4480,
      "Ġà¤°à¤¹à¤¯": 4481,
      "à¤ĩà¤¨à¤ĸà¤¬": 4482,
      "Ġà¥§à¥¯à¥¯à¥§": 4483,
      "Ġà¤°à¤¤à¤¨": 4484,
      "Ġà¤ħà¤®à¤¨": 4485,
      "à¤Ńà¤²à¤®": 4486,
      "à¤°à¤£à¤µ": 4487,
      "Ġà¥§à¥¦à¥©": 4488,
      "à¤µà¤¤à¤¯": 4489,
      "Ġà¥¨à¥¦à¥ªà¥¦": 4490,
      "à¥įà¤ģ": 4491,
      "à¤¤à¤²à¤ķ": 4492,
      "à¤Ĺà¤Ļ": 4493,
      "Ġà¤Ĩà¤Ĺà¤®": 4494,
      "Ġà¤¦à¤®à¤¨à¤ķ": 4495,
      "Ġà¥¨à¥¦à¥©à¥©": 4496,
      "à¤Ĺà¤ıà¤ķ": 4497,
      "Ġà¤Ľà¤¤à¤®": 4498,
      "à¤Ńà¤¹à¤°": 4499,
      "Ġà¥¦à¥¬à¥©": 4500,
      "Ġà¥§à¥¯à¥¬à¥¦": 4501,
      "à¤ĩà¤¡à¤®": 4502,
      "Ġà¤¯à¤¸à¤ħà¤¨": 4503,
      "à¤¯à¤£à¤®": 4504,
      "Ġà¤¤à¤¹à¤®à¤§": 4505,
      "Ġà¤£": 4506,
      "Ġà¤Ĩà¤Ĭ": 4507,
      "à¤°à¤ķà¤°à¤£à¤²": 4508,
      "à¤°à¤®à¤°": 4509,
      "Ġà¥§à¥¦à¥¨": 4510,
      "Ġà¤«à¤¹à¤°": 4511,
      "à¤ªà¤ķà¤¤": 4512,
      "ĠĠĠĠĠĠĠĠĠĠĠĠ": 4513,
      "à¤¨à¤ªà¤¨": 4514,
      "Ġà¤ħà¤ķà¤°": 4515,
      "Ġà¤¥à¤µ": 4516,
      "Ġà¤ķà¤²à¤¶": 4517,
      "à¤°à¤ªà¤Ł": 4518,
      "Ġà¥©à¥«à¥¦": 4519,
      "à¤ķà¤ħ": 4520,
      "Ġà¤¨à¤ĩ": 4521,
      "Ġà¥§à¥§à¥®": 4522,
      "à¥¨à¥¦à¥Ńà¥¨": 4523,
      "Ġà¤Ńà¤ıà¤¯à¤¤": 4524,
      "à¤°à¤¦à¤®": 4525,
      "Ġà¤Ĩà¤ĩà¤ĵ": 4526,
      "à¤µà¤¯à¤¨à¤²": 4527,
      "Ġà¤Ĺà¤ľà¤²à¤®": 4528,
      "Ġà¤ıà¤«à¤¸": 4529,
      "à¤ķà¤Ńà¤°à¤ķ": 4530,
      "à¤¾à¥Ģ": 4531,
      "Ġà¤ıà¤Ĩà¤ĩà¤ľ": 4532,
      "à¤°à¤ļà¤¨à¤²": 4533,
      "Ġà¤Ńà¤ĩà¤¨à¤¸à¤ķ": 4534,
      "à¤·à¤ħà¤Ĺ": 4535,
      "à¤Ĺà¤¬à¤ľ": 4536,
      "Ġà¤¶à¤°à¤£à¤®": 4537,
      "Ġà¤¬à¤¸à¤¹à¤°": 4538,
      "à¤Ĩà¤Īà¤²": 4539,
      "Ġà¤¤à¤¹à¤¦": 4540,
      "Ġà¥§à¥¯à¥¬à¥¬": 4541,
      "à¤ķà¤¸à¤Ń": 4542,
      "à¤¯à¤°à¤¸": 4543,
      "Ġà¤Ķà¤°à¤¹": 4544,
      "Ġà¤¦à¤¶à¤ķà¤Ńà¤¨": 4545,
      "à¥įà¤Ĥ": 4546,
      "à¤¹à¤ķà¤®": 4547,
      "à¤¡à¤°à¤¹à¤°": 4548,
      "à¤Ľà¤²": 4549,
      "Ġà¤Łà¤¡": 4550,
      "à¤¿à¤Ĥà¤ģ": 4551,
      "à¤µà¤®à¤¹": 4552,
      "à¤®à¤ļà¤²": 4553,
      "Ġà¤ľà¤¨à¤ħà¤ª": 4554,
      "Ġà¥¨à¥ªà¥¦": 4555,
      "à¤ĩà¤µà¤°": 4556,
      "Ġà¤°à¤¹à¤²": 4557,
      "à¥«à¥©": 4558,
      "à¤¨à¤µà¤¶": 4559,
      "Ġà¤ľà¤®à¤ĺ": 4560,
      "Ġà¤Ĩà¤°à¤¸": 4561,
      "à¤ĩà¤£": 4562,
      "à¤±": 4563,
      "à¤ķà¤¦à¤°": 4564,
      "Ġà¤®à¤¶": 4565,
      "Ġà¤ħà¤ļà¤²": 4566,
      "à¤µà¤ķà¤¤": 4567,
      "ĠĠĠĠĠĠĠĠĠĠĠĠĠ": 4568,
      "Ġà¤Ĩà¤²à¤Ł": 4569,
      "Ġà¤¨à¤Łà¤Ĩà¤īà¤Ł": 4570,
      "à¤µà¤µà¤°": 4571,
      "Ġà¤¹à¤¯": 4572,
      "à¤Īà¤µà¤°": 4573,
      "Ġà¥į": 4574,
      "à¤¸à¤ĺ": 4575,
      "à¤µà¤ªà¤ķ": 4576,
      "à¤Ĺà¤ľà¤¸": 4577,
      "Ġà¤¬à¤¬à¤°à¤®": 4578,
      "à¤ĩà¤²à¤²": 4579,
      "Ġà¤¬à¤Ĺà¤°à¤®": 4580,
      "Ġà¤ľà¤¨à¤®à¤¤à¤ķ": 4581,
      "à¤ıà¤«à¤¸": 4582,
      "à¤Īà¤ľà¤¹": 4583,
      "Ġà¤¸à¤®à¤¯à¤Ńà¤¨": 4584,
      "Ġà¤ıà¤¨à¤Ĩà¤ĩà¤¸": 4585,
      "à¤°à¤«à¤²à¤ķ": 4586,
      "Ġà¤ķà¤ľ": 4587,
      "Ġà¤¨à¤Ĺà¤¨": 4588,
      "à¤£à¤ªà¤Ľ": 4589,
      "Ġà¤īà¤¥à¤²": 4590,
      "à¤°à¤¦à¤²": 4591,
      "Ġà¤ħà¤²à¤Ĩà¤īà¤Ł": 4592,
      "Ġà¤¹à¤ķà¤ħà¤§": 4593,
      "Ġà¤ľà¤Ĺà¤¤à¤²": 4594,
      "à¤°à¤£à¤¯": 4595,
      "à¤²à¤ķà¤¤": 4596,
      "à¤¨à¤Ľà¤¨": 4597,
      "à¤¯à¤ªà¤ķ": 4598,
      "Ġà¤¶à¤µà¤ķ": 4599,
      "Ġà¤®à¤¨à¤Ń": 4600,
      "à¤¶à¤¨à¤ħà¤¨": 4601,
      "Ġà¥§à¥§à¥ª": 4602,
      "Ġà¤Ĭà¤¸": 4603,
      "Ġà¤°à¤ĸ": 4604,
      "à¤ĺà¤¹à¤°": 4605,
      "Ġà¤ĵà¤®à¤¨": 4606,
      "à¤Ĩà¤°à¤ª": 4607,
      "à¤ľà¤¦à¤°à¤¬": 4608,
      "à¤®à¤°à¤®": 4609,
      "à¤Ľà¤®": 4610,
      "Ġà¤Ĩà¤µà¤°à¤£": 4611,
      "Ġà¤²à¤«": 4612,
      "Ġà¤ľà¤¨à¤¶": 4613,
      "à¤¹à¤²à¤¤": 4614,
      "Ġà¤¸à¤ªà¤°": 4615,
      "Ġà¤¤à¤°à¤ªà¤¨": 4616,
      "à¤ķà¤²à¤²": 4617,
      "Ġà¤Ķà¤ªà¤¨": 4618,
      "à¤Łà¤Ĩà¤īà¤Ł": 4619,
      "Ġà¤²à¤¥": 4620,
      "à¤·à¤£à¤¸": 4621,
      "à¤ıà¤¸à¤ı": 4622,
      "Ġà¥¨à¥¦à¥©à¥ª": 4623,
      "Ġà¤Ĩà¤Īà¤ķ": 4624,
      "Ġà¤¸à¤¬à¤ķ": 4625,
      "Ġà¤ľà¤¨à¤ķà¤²": 4626,
      "Ġà¤¡à¤Łà¤ķà¤®à¤ķ": 4627,
      "à¤Łà¤¸à¤ķ": 4628,
      "à¤£à¤ªà¤ķ": 4629,
      "Ġà¤Łà¤ķà¤°": 4630,
      "à¤ĩà¤¨à¤¹à¤°": 4631,
      "Ġà¤¸à¤®à¤¯à¤¯à¤¤": 4632,
      "Ġà¥¨à¥¦à¥©à¥«": 4633,
      "à¤ĩà¤¡à¤°": 4634,
      "Ġà¤ħà¤µà¤¤à¤°à¤£à¤ķ": 4635,
      "Ġà¤ĵà¤Ńà¤°à¤¸": 4636,
      "à¤¯à¤Łà¤°": 4637,
      "à¤ļà¤¡": 4638,
      "à¤łà¤¦": 4639,
      "à¤¯à¤®à¤ħà¤¨": 4640,
      "Ġà¤¸à¤¹à¤ħà¤¸": 4641,
      "à¤²à¤®à¤§": 4642,
      "à¤¤à¤¨à¤¬": 4643,
      "Ġà¤ĵà¤ĸ": 4644,
      "à¤ıà¤¨à¤ª": 4645,
      "Ġà¤¹à¤²à¤ļà¤²": 4646,
      "Ġà¤Ĩà¤ıà¤¨à¤¨": 4647,
      "à¤°à¤¨à¤²": 4648,
      "Ġà¤¨à¤®à¤¨": 4649,
      "à¤§à¤Ńà¤¤": 4650,
      "à¤ļà¤ķà¤®": 4651,
      "à¤īà¤ªà¤¤": 4652,
      "à¤¯à¤ķà¤¬": 4653,
      "Ġà¥¦à¥Ńà¥ªà¥Ńà¥«": 4654,
      "Ġà¤°à¤Ł": 4655,
      "à¤°à¤¸à¤®à¤ķ": 4656,
      "Ġà¥¦à¥Ńà¥§": 4657,
      "à¤²à¤¥": 4658,
      "à¤¦à¤¨à¤¨": 4659,
      "à¤ĩà¤®à¤¨": 4660,
      "Ġà¤ľà¤¨à¤ĺ": 4661,
      "à¤µà¤¨à¤ª": 4662,
      "Ġà¥¨à¥¦à¥Ńà¥§à¥Ńà¥¨": 4663,
      "à¤·à¤°à¤ķ": 4664,
      "à¤īà¤ªà¤®": 4665,
      "à¤°à¤£à¤¸à¤®": 4666,
      "à¤ªà¤°à¤Ń": 4667,
      "Ġà¤§à¤°à¤ªà¤ķ": 4668,
      "Ġà¤ľà¤²à¤¶": 4669,
      "Ġà¤¨à¤ªà¤¤": 4670,
      "à¤¯à¤¸à¤¦": 4671,
      "à¤¤à¤°à¤Ĩà¤§": 4672,
      "Ġà¤Ĩà¤Īà¤ıà¤¸": 4673,
      "à¤½à¤½": 4674,
      "à¤¯à¤¶à¤ķ": 4675,
      "Ġà¤²à¤ŀ": 4676,
      "à¤Īà¤ķà¤¨": 4677,
      "Ġà¤¸à¤¦à¤¨à¤²": 4678,
      "Ġà¤¦à¤²à¤Ĺà¤¤": 4679,
      "à¤ļà¤°à¤®": 4680,
      "Ġà¤µà¤¨à¤Ń": 4681,
      "à¤¤à¤µà¤¨à¤¬": 4682,
      "à¤¯à¤°à¤¬à¤ľ": 4683,
      "Ġà¤²à¤ļà¤ķà¤¤": 4684,
      "à¤Łà¤Ĺ": 4685,
      "à¤§à¤ĸ": 4686,
      "à¤¶à¤¨à¤¸": 4687,
      "Ġà¥¨à¥«à¥¬": 4688,
      "Ġà¤¨à¤¯à¤¨": 4689,
      "Ġà¤Ĩà¤ĩà¤ıà¤ķ": 4690,
      "à¤¢à¤²": 4691,
      "Ġà¤Ķà¤°": 4692,
      "Ġà¥§à¥®à¥«": 4693,
      "Ġà¥¨à¥¦à¥ªà¥¨": 4694,
      "à¤²à¤ļà¤¨": 4695,
      "à¤īà¤¦à¤Ľ": 4696,
      "Ġà¤°à¤¹à¤®": 4697,
      "à¥®à¥«": 4698,
      "Ġà¤¦à¤¶à¤Ĺà¤ľ": 4699,
      "Ġà¤Ńà¤ıà¤¨à¤Ńà¤ıà¤ķ": 4700,
      "à¤¨à¤µà¤®": 4701,
      "à¤®à¤Ł": 4702,
      "à¤¤à¤Ĺà¤¤à¤ķ": 4703,
      "Ġà¤¸à¤Ī": 4704,
      "Ġà¤ĸà¤²à¤²": 4705,
      "Ġà¤¯à¤¸à¤ªà¤²": 4706,
      "à¤Ĺà¤°à¤ª": 4707,
      "à¤Łà¤¬à¤ľ": 4708,
      "Ġà¤Ĺà¤«à¤Ĺ": 4709,
      "Ġà¤ıà¤¯à¤°à¤µ": 4710,
      "Ġà¤¦à¤²à¤¬à¤¹": 4711,
      "Ġà¤Ĩà¤Ł": 4712,
      "à¤£à¤µà¤¤": 4713,
      "à¤«à¤¹à¤°": 4714,
      "à¤Ĩà¤Ĺ": 4715,
      "Ġà¤°à¤Ĺà¤¤à¤²": 4716,
      "Ġà¥Ĥ": 4717,
      "Ġà¤°à¤£à¤¬à¤¹": 4718,
      "à¤¸à¤¨à¤¹à¤°": 4719,
      "à¥ªà¥¯": 4720,
      "à¤¼à¥Ģ": 4721,
      "à¤¶à¤µà¤ķ": 4722,
      "à¤¶à¤µà¤°": 4723,
      "Ġà¤ıà¤ķà¤®à¤¤": 4724,
      "à¤ļà¤¨à¤°": 4725,
      "ĠĠĠĠĠĠĠĠĠĠĠĠĠĠ": 4726,
      "Ġà¤ĭà¤Ĺ": 4727,
      "à¤ķà¤ł": 4728,
      "à¤ĸà¤Ń": 4729,
      "à¤ĩà¤®à¤°": 4730,
      "à¤«à¤²à¤ķ": 4731,
      "Ġà¤§à¤¨à¤§": 4732,
      "à¤§à¤ķà¤¹à¤°": 4733,
      "Ġà¥¦à¥¬à¥ª": 4734,
      "Ġà¥§à¥§à¥©à¥®": 4735,
      "Ġà¤®à¤Ľ": 4736,
      "à¤£à¤¸à¤¹": 4737,
      "à¤¤à¤®à¤¨": 4738,
      "Ġà¤ħà¤¬à¤²à¤®": 4739,
      "Ġà¤°à¤¨à¤°à¤ħà¤ª": 4740,
      "Ġà¤ľà¤ľ": 4741,
      "Ġà¤ħà¤¨à¤¶à¤¨à¤ķ": 4742,
      "à¤·à¤¦à¤¬": 4743,
      "Ġà¤ķà¤Łà¤µ": 4744,
      "Ġà¤¨à¤ľà¤°à¤ħà¤¨": 4745,
      "à¤ıà¤Łà¤°à¤®": 4746,
      "à¤°à¤ľà¤¨à¤²": 4747,
      "à¤¸à¤ļà¤¨": 4748,
      "à¤Ĺà¤Ĺ": 4749,
      "Ġà¤«à¤²à¤¤": 4750,
      "à¤¤à¤°à¤ªà¤¶": 4751,
      "Ġà¤ıà¤®à¤ĵ": 4752,
      "Ġà¥§à¥©à¥«": 4753,
      "Ġà¤¤à¤²à¤¬à¤Ńà¤¤": 4754,
      "Ġà¤ħà¤¨à¤¸à¤¨à¤°à¤¤": 4755,
      "Ġà¤īà¤¥à¤²à¤ª": 4756,
      "à¤ľà¤ľ": 4757,
      "à¤Ńà¤ıà¤ªà¤Ľ": 4758,
      "à¤ĩà¤ľà¤®": 4759,
      "Ġà¤«à¤ľ": 4760,
      "Ġà¤ıà¤ķà¤Ńà¤¨": 4761,
      "Ġà¤Łà¤¨à¤ķ": 4762,
      "Ġà¥§à¥«à¥¨à¥¦": 4763,
      "Ġà¤®à¤¹à¤²à¤ķ": 4764,
      "à¤¤à¤°à¤£à¤²": 4765,
      "Ġà¥§à¥¬à¥¯": 4766,
      "à¤ķà¤Łà¤¬": 4767,
      "Ġà¤Ĩà¤Īà¤¡": 4768,
      "Ġà¤¶à¤¹à¤°à¤²": 4769,
      "Ġà¤¡à¤Łà¤ķà¤®à¤²": 4770,
      "à¤Ĺà¤²à¤®à¤¯": 4771,
      "Ġà¤Ĩà¤¬à¤¸": 4772,
      "à¤Īà¤®à¤¤": 4773,
      "à¤ķà¤°à¤ª": 4774,
      "à¤ľà¤¸à¤°": 4775,
      "Ġà¥¨à¥¦à¥Ńà¥¨à¥¦à¥Ńà¥©": 4776,
      "à¤īà¤ªà¤ª": 4777,
      "à¤ĩà¤ķà¤®": 4778,
      "Ġà¤Ĩà¤ĩà¤Łà¤®": 4779,
      "Ġà¤ĸà¤¸à¤Ĩà¤°": 4780,
      "à¤¦à¤¤à¤²": 4781,
      "Ġà¤Ľà¤¨à¤ķ": 4782,
      "Ġà¤Ĩà¤²à¤¸": 4783,
      "Ġà¤īà¤ĺ": 4784,
      "à¤ĩà¤ªà¤Ľ": 4785,
      "à¥Ńà¥Ń": 4786,
      "à¥¬à¥®": 4787,
      "Ġà¥§à¥¦à¥§à¥«": 4788,
      "Ġà¤¹à¤²à¤¹à¤°": 4789,
      "à¤ıà¤«à¤ı": 4790,
      "Ġà¤ħà¤®à¤°à¤Ĺà¤¢": 4791,
      "à¤¯à¤ªà¤Ľ": 4792,
      "à¤Ļà¤¨": 4793,
      "Ġà¤«à¤·": 4794,
      "à¤ķà¤°à¤£à¤¸à¤®": 4795,
      "Ġà¤¦à¤®à¤¦": 4796,
      "à¤¡à¤¸à¤¹": 4797,
      "Ġà¤«à¤²à¤ķ": 4798,
      "Ġà¤§à¤ľ": 4799,
      "Ġà¤®à¤¨à¤¬à¤¹": 4800,
      "à¤¹à¤¸à¤ļ": 4801,
      "à¤¦à¤¯à¤²": 4802,
      "à¤¶à¤¸à¤¹": 4803,
      "Ġà¥§à¥¦à¥§à¥¨": 4804,
      "à¤·à¤¯à¤¬à¤¸": 4805,
      "Ġà¤Ĺà¤ľà¤¬à¤ķ": 4806,
      "à¤Łà¤Ńà¤Ł": 4807,
      "Ġà¤ľà¤²à¤®à¤Ĺ": 4808,
      "à¤¸à¤ıà¤®": 4809,
      "à¤ıà¤Ĺ": 4810,
      "à¤§à¤ķà¤²": 4811,
      "à¤·à¤£à¤µ": 4812,
      "Ġà¤ħà¤®à¤°à¤¸": 4813,
      "Ġà¤Ĩà¤ĩà¤°": 4814,
      "à¤Ķà¤·à¤§à¤ķ": 4815,
      "Ġà¥©à¥©à¥¦": 4816,
      "à¤ľà¤¬à¤ķ": 4817,
      "à¤¬à¤¤à¤®": 4818,
      "Ġà¤Ľà¤¹à¤°": 4819,
      "Ġà¤ļà¤¶": 4820,
      "Ġà¤Ĩà¤µà¤¤": 4821,
      "à¤°à¤ªà¤ŀ": 4822,
      "à¤ıà¤¸à¤ıà¤²": 4823,
      "Ġà¥§à¥Ńà¥«": 4824,
      "à¤Łà¤¬à¤²à¤²": 4825,
      "à¤Łà¤¬à¤²à¤°": 4826,
      "Ġà¤ĸà¤¬à¤°à¤¹à¤°": 4827,
      "à¤Ĺà¤¸à¤¬": 4828,
      "à¤°à¤°à¤¹": 4829,
      "à¥Īà¥ĩ": 4830,
      "Ġà¤¨à¤ĺà¤Ł": 4831,
      "Ġà¤¬à¤°à¤¦": 4832,
      "à¤¡à¤·": 4833,
      "à¤ĩà¤¨à¤Ń": 4834,
      "à¤Ĺà¤¤à¤¤à¤°": 4835,
      "Ġà¤Ĺà¤łà¤¨à¤®": 4836,
      "à¤ķà¤¨à¤ķà¤°": 4837,
      "à¤Ńà¤§": 4838,
      "à¤°à¤®à¤®à¤¨": 4839,
      "Ġà¤¶à¤¸": 4840,
      "à¤¤à¤®à¤¸": 4841,
      "à¤ĵà¤ª": 4842,
      "Ġà¥®à¥§à¥¦": 4843,
      "Ġà¤ħà¤²à¤°": 4844,
      "à¤Łà¤¨à¤Ĺà¤°à¤¸": 4845,
      "à¤µà¤ķà¤¸": 4846,
      "à¤¤à¤²à¤¹à¤°": 4847,
      "Ġà¥§à¥§à¥¯": 4848,
      "Ġà¤Ĩà¤Īà¤¸à¤ķ": 4849,
      "Ġà¤Ĩà¤ĵà¤¸": 4850,
      "à¤¡à¤°à¤ª": 4851,
      "à¤°à¤£à¤¤à¤¯": 4852,
      "Ġà¤ķà¤®à¤®": 4853,
      "à¤Ĺà¤Ńà¤¨": 4854,
      "Ġà¤¬à¤¸à¤¬": 4855,
      "Ġà¤ĵà¤¤": 4856,
      "à¥¬à¥©": 4857,
      "Ġà¤Ńà¤µà¤¨à¤²": 4858,
      "à¤¨à¤¯à¤¨à¤ķ": 4859,
      "à¥ĩà¤ĥ": 4860,
      "Ġà¤¨à¤°à¤ķ": 4861,
      "à¥Ĥà¤Ĥ": 4862,
      "Ġà¤Ĩà¤°à¤ıà¤¸": 4863,
      "Ġà¤ľà¤¯à¤¬à¤¹": 4864,
      "Ġà¤Ĺà¤§": 4865,
      "Ġà¤ħà¤µà¤¸à¤°à¤¬": 4866,
      "à¤·à¤¯à¤¬": 4867,
      "à¤¯à¤¯à¤¨à¤ªà¤Ľ": 4868,
      "ĠĠĠĠĠĠĠĠĠĠĠĠĠĠĠ": 4869,
      "à¤ķà¤Łà¤¸": 4870,
      "Ġà¥¨à¥¦à¥ªà¥©": 4871,
      "à¤²à¤Ĺà¤ķ": 4872,
      "à¤¬à¤ª": 4873,
      "Ġà¤Ľà¤µà¤Ł": 4874,
      "Ġà¤Ĩà¤¶à¤®": 4875,
      "Ġà¤Ńà¤°à¤ĸà¤°": 4876,
      "à¤¤à¤¸à¤Ļ": 4877,
      "à¤¤à¤¸à¤ŀ": 4878,
      "à¤ķà¤ĺ": 4879,
      "à¤§à¤ªà¤¤": 4880,
      "à¤²à¤¯à¤Ń": 4881,
      "Ġà¤¸à¤¤à¤¹à¤¦": 4882,
      "Ġà¤ıà¤¨à¤ıà¤¸": 4883,
      "à¤¯à¤¯à¤¨à¤¹à¤°": 4884,
      "Ġà¤ªà¤°à¤ķà¤®": 4885,
      "à¤¹à¤²à¤ķ": 4886,
      "à¤Łà¤°à¤¦": 4887,
      "à¤¶à¤Ļ": 4888,
      "Ġà¤®à¤¹à¤¤à¤ķ": 4889,
      "à¤¯à¤¨à¤°à¤¤": 4890,
      "Ġà¤¨à¤®à¤°": 4891,
      "à¤ļà¤ªà¤¦": 4892,
      "à¤°à¤¤à¤¬à¤¨": 4893,
      "Ġà¤Ķà¤·à¤¤": 4894,
      "à¤¯à¤Ĺà¤°": 4895,
      "à¤Ļà¤ķà¤¨": 4896,
      "Ġà¤Ĩà¤¯à¤µ": 4897,
      "à¥ªà¥Ń": 4898,
      "Ġà¥¦à¥¬à¥¯": 4899,
      "Ġà¥§à¥¯à¥®à¥¯": 4900,
      "à¤§à¤ļ": 4901,
      "à¤¸à¤ķà¤¸": 4902,
      "à¤¸à¤¨à¤ª": 4903,
      "à¤¤à¤¨à¤µ": 4904,
      "à¤¸à¤¨à¤²à¤ķ": 4905,
      "à¤¹à¤¨à¤²": 4906,
      "à¤ªà¤ļà¤¨": 4907,
      "Ġà¤Ĺà¤£à¤ķ": 4908,
      "à¤¤à¤°à¤ľ": 4909,
      "Ġà¤īà¤®à¤Ļ": 4910,
      "Ġà¤Ĩà¤Īà¤«": 4911,
      "à¤¨à¤Ĺà¤¢": 4912,
      "Ġà¤¤à¤¡": 4913,
      "Ġà¤ĸà¤°à¤¬": 4914,
      "à¤ľà¤¨à¤ľ": 4915,
      "Ġà¤ıà¤ķà¤µà¤°": 4916,
      "à¤ħà¤¦": 4917,
      "à¤¸à¤²à¤Ł": 4918,
      "Ġà¤ķà¤²à¤Ļ": 4919,
      "à¤ĩà¤°à¤¸à¤ķ": 4920,
      "Ġà¥ªà¥«à¥¦": 4921,
      "Ġà¤°à¤¯": 4922,
      "à¤¬à¤°à¤¦": 4923,
      "à¤§à¤Ń": 4924,
      "Ġà¤¤à¤Ĺ": 4925,
      "à¤¯à¤®à¤µà¤°": 4926,
      "Ġà¤Łà¤ļ": 4927,
      "Ġà¥¨à¥¦à¥Ńà¥¬": 4928,
      "Ġà¤¨à¤ľà¤°à¤²": 4929,
      "à¤¤à¤¹à¤Łà¤®": 4930,
      "Ġà¤¨à¤¹à¤°à¤®": 4931,
      "Ġà¤®à¤¤à¤²à¤µ": 4932,
      "à¤¿à¥Ģ": 4933,
      "à¤¤à¤²à¤¨": 4934,
      "Ġà¤®à¤¬": 4935,
      "Ġà¤®à¤¹à¤µà¤ķ": 4936,
      "à¤µà¤¨à¤°à¤ķ": 4937,
      "à¤¦à¤¨à¤ª": 4938,
      "à¥©à¥¯": 4939,
      "à¤ĵà¤¤": 4940,
      "Ġà¤ªà¤¦à¤ķà¤ķ": 4941,
      "Ġà¤ħà¤ªà¤Ń": 4942,
      "Ġà¤ŀ": 4943,
      "à¤ªà¤§": 4944,
      "à¤¬à¤ļ": 4945,
      "à¥©à¥®": 4946,
      "Ġà¤īà¤µ": 4947,
      "à¤ľà¤¨à¤°": 4948,
      "à¤¨à¤®à¤¸": 4949,
      "Ġà¤ıà¤ķà¤¡": 4950,
      "Ġà¤ľà¤¨à¤Ń": 4951,
      "Ġà¤²à¤Ĺà¤¨à¤ĸ": 4952,
      "Ġà¤Ŀà¤¯": 4953,
      "à¤ĩà¤²à¤Łà¤²": 4954,
      "Ġà¤§à¤¨à¤ľà¤¨à¤ķ": 4955,
      "à¤Ĩà¤Īà¤¡": 4956,
      "à¤ıà¤µ": 4957,
      "Ġà¤ıà¤ªà¤®": 4958,
      "à¥ĥà¥ĥ": 4959,
      "à¤¿à¤ģà¤Ĥ": 4960,
      "Ġà¤ıà¤®à¤ª": 4961,
      "Ġà¤µà¤ļà¤¤": 4962,
      "à¤ķà¤²à¤¬": 4963,
      "à¤®à¤ķà¤¹": 4964,
      "Ġà¤ĺà¤°à¤ĺà¤°": 4965,
      "à¤Ĺà¤®à¤§": 4966,
      "Ġà¤¨à¤¹à¤°à¤ķ": 4967,
      "Ġà¤ıà¤«à¤ıà¤®à¤ķ": 4968,
      "Ġà¤¹à¤°à¤£": 4969,
      "à¤¡à¤®à¤ķ": 4970,
      "Ġà¤¯à¤®à¤²": 4971,
      "à¤ľà¤¨à¤¸à¤¹": 4972,
      "à¤°à¤¹à¤¬": 4973,
      "à¤ļà¤²à¤°": 4974,
      "Ġà¤¸à¤°à¤¸à¤²": 4975,
      "Ġà¤µà¤·": 4976,
      "à¤µà¤¨à¤¦": 4977,
      "à¤ªà¤¸à¤Ļ": 4978,
      "Ġà¤¸à¤¶à¤°": 4979,
      "à¤·à¤¯à¤¸": 4980,
      "Ġà¤Ľà¤¹": 4981,
      "Ġà¤ľà¤¯à¤ķ": 4982,
      "à¥©à¥¬": 4983,
      "Ġà¥§à¥§à¥¬": 4984,
      "Ġà¤ľà¤¨à¤ĺà¤¨à¤¤": 4985,
      "à¤ķà¤Ļ": 4986,
      "Ġà¤¯à¤®à¤¦": 4987,
      "Ġà¤ĸà¤²à¤¬à¤²": 4988,
      "Ġà¥Ńà¥«à¥¦": 4989,
      "Ġà¤µà¤¶": 4990,
      "à¤¶à¤¯à¤®": 4991,
      "à¤£à¤¯à¤µ": 4992,
      "à¤Łà¤²à¤°": 4993,
      "à¤µà¤¥": 4994,
      "Ġà¤®à¤ľà¤¸": 4995,
      "Ġà¤ıà¤Ļ": 4996,
      "à¤ľà¤¦à¤°à¤ķ": 4997,
      "Ġà¥Ńà¥«à¥©": 4998,
      "à¤¡à¤¯à¤¨à¤®à¤¨": 4999,
      "à¤¯à¤ĸ": 5000,
      "à¤ľà¤²à¤Ĺ": 5001,
      "à¤ļà¤ķà¤²": 5002,
      "à¤ĺà¤°à¤¬": 5003,
      "Ġà¤®à¤¹à¤ķ": 5004,
      "à¤¯à¤¦à¤²à¤®": 5005,
      "Ġà¥©à¥¬à¥«": 5006,
      "à¤ļà¤ªà¤¦à¤¸": 5007,
      "à¤¨à¤¯à¤²": 5008,
      "à¤¯à¤ŀ": 5009,
      "Ġà¤µà¤Ĺ": 5010,
      "Ġà¤¦à¤§": 5011,
      "à¤ľà¤¨à¤ª": 5012,
      "Ġà¤ħà¤Ńà¤¦": 5013,
      "Ġà¤Ĩà¤īà¤Łà¤²": 5014,
      "Ġà¤¬à¤¥": 5015,
      "à¤¶à¤ľà¤ķ": 5016,
      "à¤Ńà¤µà¤®": 5017,
      "à¤°à¤£à¤¸": 5018,
      "à¤¨à¤¸à¤ªà¤Ł": 5019,
      "à¤¯à¤µà¤¦": 5020,
      "Ġà¤¤à¤²à¤¬à¤®": 5021,
      "à¤¸à¤¨à¤¸à¤®": 5022,
      "Ġà¥§à¥Ńà¥¦": 5023,
      "à¤¸à¤¨à¤²à¤²": 5024,
      "à¤¨à¤°à¤¸": 5025,
      "Ġà¤Ńà¤ĩà¤¯": 5026,
      "à¤®à¤¤à¤¬": 5027,
      "à¤ľà¤¸à¤¹": 5028,
      "Ġà¤¬à¤¹à¤¸à¤²": 5029,
      "Ġà¤¶à¤¹à¤°à¤¬": 5030,
      "à¤«à¤¸à¤²à¤ķ": 5031,
      "à¤¸à¤¨à¤®à¤¨": 5032,
      "à¤¸à¤ħà¤¨": 5033,
      "Ġà¤¬à¤¨à¤ķ": 5034,
      "à¤īà¤ľà¤°": 5035,
      "Ġà¤ĸà¤²à¤¨": 5036,
      "à¤ªà¤¨à¤¸à¤®": 5037,
      "à¥©à¥ª": 5038,
      "Ġà¤ıà¤¸à¤¡": 5039,
      "Ġà¤Ĭà¤¨": 5040,
      "à¤ĩà¤ľà¤¹": 5041,
      "Ġà¤ħà¤ªà¤¤": 5042,
      "Ġà¤¨à¤Ĺà¤°à¤Ń": 5043,
      "à¤¶à¤®à¤§": 5044,
      "Ġà¤Īà¤Ń": 5045,
      "à¤Łà¤µà¤²à¤²": 5046,
      "Ġà¤Ĺà¤ıà¤ªà¤¨": 5047,
      "à¤¿à¥ĭ": 5048,
      "à¤¯à¤²à¤¯à¤²": 5049,
      "à¤Īà¤¨à¤ķ": 5050,
      "à¤Łà¤µà¤²à¤¬": 5051,
      "à¤²à¤¯à¤¤": 5052,
      "Ġà¤¸à¤¹à¤µ": 5053,
      "Ġà¤ıà¤¨à¤Ł": 5054,
      "à¤¬à¤¦à¤¬": 5055,
      "Ġà¤ıà¤¨à¤Ĩà¤°à¤ıà¤¨à¤²": 5056,
      "à¤īà¤ªà¤®à¤¹": 5057,
      "à¤¥à¤°à¤ķ": 5058,
      "Ġà¤ıà¤ķà¤ªà¤ķ": 5059,
      "Ġà¥§à¥¦à¥¬": 5060,
      "à¤¡à¤²à¤¸": 5061,
      "Ġà¤¸à¤²à¤¹": 5062,
      "à¤®à¤¸à¤¨": 5063,
      "à¤ªà¤Ĺ": 5064,
      "à¤µà¤µà¤¤": 5065,
      "Ġà¤¦à¤¬à¤¦à¤¬": 5066,
      "Ġà¤ĸà¤¬à¤°à¤ķ": 5067,
      "Ġà¤ľà¤¨à¤°": 5068,
      "à¤Ŀà¤ªà¤ĸ": 5069,
      "Ġà¤Ńà¤ıà¤ªà¤¶": 5070,
      "Ġà¤Īà¤·": 5071,
      "à¤Ĺà¤łà¤¨à¤Ń": 5072,
      "Ġà¤ķà¤¦à¤®à¤¹à¤°": 5073,
      "Ġà¤Ĺà¤¢à¤µ": 5074,
      "à¤µà¤¬à¤¹": 5075,
      "Ġà¤Ĺà¤Ĺà¤¨à¤ķ": 5076,
      "Ġà¤¹à¤¸à¤¨": 5077,
      "à¤Īà¤²à¤Ĺ": 5078,
      "à¤Ĩà¤īà¤¨": 5079,
      "Ġà¤¨à¤µà¤Ĺà¤ł": 5080,
      "Ġà¤¸à¤¹à¤°à¤²": 5081,
      "Ġà¤ļà¤°à¤£à¤¬à¤¦": 5082,
      "à¤Łà¤Ĩà¤īà¤Łà¤®": 5083,
      "à¤¬à¤²à¤²": 5084,
      "à¤°à¤¹à¤¹à¤°": 5085,
      "à¤¤à¤°à¤¦à¤ķ": 5086,
      "Ġà¤ĩà¤µ": 5087,
      "Ġà¤ħà¤¸à¤°à¤ķ": 5088,
      "à¤®à¤¨à¤¸": 5089,
      "Ġà¤ĵà¤¹à¤¦": 5090,
      "Ġà¤Ńà¤¯à¤°à¤¹": 5091,
      "à¤¨à¤µà¤²à¤ªà¤°": 5092,
      "à¤ķà¤·": 5093,
      "à¤µà¤ķà¤®": 5094,
      "Ġà¤Ľà¤¸": 5095,
      "à¤¤à¤°à¤Ĺ": 5096,
      "à¤¤à¤°à¤ĺ": 5097,
      "à¤ķà¤°à¤¶": 5098,
      "à¤ķà¤°à¤£à¤ªà¤Ľ": 5099,
      "Ġà¥¨à¥¦à¥¨à¥ª": 5100,
      "Ġà¥¨à¥¦à¥©à¥¯": 5101,
      "à¤ķà¤Ĩà¤°": 5102,
      "à¤²à¤ļà¤ķ": 5103,
      "à¤¡à¤¶": 5104,
      "à¤ĩà¤Łà¤¨": 5105,
      "Ġà¤¸à¤¹à¤¦": 5106,
      "à¤¶à¤¨à¤°": 5107,
      "Ġà¤Ĩà¤łà¤°": 5108,
      "à¤ĩà¤¡à¤¬à¤¡": 5109,
      "Ġà¤¤à¤²à¤¬à¤ķ": 5110,
      "à¤¸à¤¬à¤°": 5111,
      "à¤¦à¤¤à¤°": 5112,
      "Ġà¤Ńà¤Ĺà¤¤": 5113,
      "à¤ľà¤°à¤Ń": 5114,
      "à¤¥à¤¸à¤®": 5115,
      "Ġà¤«à¤Ĺ": 5116,
      "Ġà¤§à¤°à¤¤": 5117,
      "Ġà¤¤à¤°à¤¬": 5118,
      "Ġà¥¦à¥¬à¥®": 5119,
      "Ġà¥¦à¥Ńà¥©à¥Ńà¥ª": 5120,
      "à¤ķà¤°à¤¦": 5121,
      "à¤®à¤ľà¤¸": 5122,
      "Ġà¤ħà¤²à¤ķ": 5123,
      "Ġà¤Ĩà¤¥": 5124,
      "Ġà¤ľà¤²à¤ķ": 5125,
      "à¤ĸà¤¨à¤²": 5126,
      "Ġà¤¡à¤Ĺ": 5127,
      "à¤ħà¤µà¤§": 5128,
      "à¥Ńà¥¯": 5129,
      "Ġà¤¦à¤²à¤Ń": 5130,
      "Ġà¤ıà¤®à¤ĵà¤¯": 5131,
      "Ġà¤Ńà¤ľ": 5132,
      "à¤¬à¤°à¤¬à¤¹": 5133,
      "Ġà¤ľà¤¨à¤¸à¤Ń": 5134,
      "à¤Ĩà¤ĩà¤¡": 5135,
      "Ġà¤ıà¤¯à¤°à¤¬à¤¸": 5136,
      "à¤°à¤Ĺà¤°": 5137,
      "à¤Łà¤ħ": 5138,
      "à¤ıà¤¦": 5139,
      "à¤ıà¤£": 5140,
      "à¤¸à¤®à¤²": 5141,
      "à¤Łà¤¨à¤¹": 5142,
      "Ġà¥§à¥§à¥¨": 5143,
      "Ġà¤Ĺà¤ľà¤²à¤¹à¤°": 5144,
      "à¤¿à¥ģ": 5145,
      "à¤¬à¤¶": 5146,
      "à¤¨à¤ķà¤²": 5147,
      "Ġà¤®à¤¹à¤®": 5148,
      "à¤ıà¤¨à¤¡": 5149,
      "Ġà¤¸à¤Łà¤°": 5150,
      "Ġà¤µà¤¨à¤¬": 5151,
      "à¤·à¤¤à¤µ": 5152,
      "à¤Īà¤°à¤¹à¤¨": 5153,
      "à¤®à¤ķà¤µ": 5154,
      "Ġà¤ĺà¤Łà¤¬à¤¢": 5155,
      "Ġà¤Īà¤Łà¤¹à¤°": 5156,
      "à¤ĺà¤¡": 5157,
      "Ġà¤ĺà¤°à¤¤": 5158,
      "Ġà¤¯à¤¸à¤Ń": 5159,
      "Ġà¤¸à¤¹à¤Ĩà¤¯": 5160,
      "Ġà¤ķà¤®à¤¨": 5161,
      "à¤®à¤¨à¤ª": 5162,
      "Ġà¤ĵà¤ĸà¤¤": 5163,
      "à¤Ĩà¤ī": 5164,
      "à¤µà¤¤à¤¸": 5165,
      "à¤°à¤ĸà¤ª": 5166,
      "à¤ķà¤ķà¤®": 5167,
      "à¤¦à¤µà¤¸": 5168,
      "à¤µà¤Łà¤²": 5169,
      "à¤Łà¤®à¤²": 5170,
      "à¤Łà¤ľà¤¸": 5171,
      "à¤¥à¤¹": 5172,
      "à¤°à¤µà¤¶": 5173,
      "Ġà¥¨à¥¦à¥©à¥®": 5174,
      "à¤ľà¤Ĺà¤¢à¤®": 5175,
      "à¤¯à¤ļà¤ķ": 5176,
      "Ġà¤Ĺà¤ıà¤¨": 5177,
      "à¤ıà¤®à¤²": 5178,
      "Ġà¤µà¤¨à¤µ": 5179,
      "Ġà¤ļà¤ŀ": 5180,
      "Ġà¤Ńà¤¨à¤¸": 5181,
      "à¤łà¤¯": 5182,
      "Ġà¤ħà¤¸à¤Ī": 5183,
      "à¤Ĺà¤¤à¤¯": 5184,
      "à¤¥à¤²à¤¸à¤®": 5185,
      "à¤ļà¤°à¤¹à¤°": 5186,
      "à¤Ńà¤°à¤£": 5187,
      "Ġà¤Ĺà¤£à¤ªà¤¤": 5188,
      "à¤Łà¤¨à¤Ĺà¤°à¤¬": 5189,
      "Ġà¤Ĩà¤Ĺà¤®à¤¨à¤¸": 5190,
      "à¤Ĺà¤°à¤£à¤ķ": 5191,
      "Ġà¤Ĩà¤Ĺà¤®à¤¨à¤²": 5192,
      "Ġà¤ķà¤®à¤¬": 5193,
      "à¤¯à¤¨à¤¬": 5194,
      "à¤·à¤£à¤¯": 5195,
      "Ġà¥¨à¥¦à¥ªà¥ª": 5196,
      "à¤µà¤£à¤ķ": 5197,
      "Ġà¤Ĺà¤ĩ": 5198,
      "à¤łà¤¨à¤ķ": 5199,
      "Ġà¤ħà¤¨à¤¸à¤¨à¤®": 5200,
      "à¥ªà¥ª": 5201,
      "à¤£à¤ªà¤¶": 5202,
      "Ġà¤°à¤¥à¤¯": 5203,
      "à¤¡à¤²à¤Ĺ": 5204,
      "Ġà¥§à¥¦à¥§à¥¦": 5205,
      "Ġà¤ħà¤¸à¤¹à¤ľà¤¤": 5206,
      "Ġà¥¨à¥¦à¥©à¥¨": 5207,
      "à¤®à¤Ńà¤ķ": 5208,
      "Ġà¤¨à¤ł": 5209,
      "Ġà¤ıà¤¨à¤¬": 5210,
      "à¤°à¤¸à¤¬": 5211,
      "à¤Ńà¤¨à¤°": 5212,
      "Ġà¤ªà¤¦à¤ļ": 5213,
      "à¤¦à¤®à¤ķ": 5214,
      "à¤ģà¤ģ": 5215,
      "Ġà¤Ĩà¤¯à¤¤": 5216,
      "Ġà¤ľà¤®à¤²": 5217,
      "à¤¡à¤²à¤¬": 5218,
      "à¤ĸà¤¸à¤¹": 5219,
      "à¤«à¤ķà¤¨": 5220,
      "Ġà¤Łà¤Ļ": 5221,
      "à¤ħà¤µ": 5222,
      "Ġà¤Ŀà¤®à¤ķ": 5223,
      "à¥«à¥¬": 5224,
      "à¤¨à¤¨à¤°à¤¸": 5225,
      "à¤Ĩà¤°à¤²": 5226,
      "Ġà¤ħà¤«à¤¸": 5227,
      "à¤¨à¤ĺ": 5228,
      "à¤ķà¤·à¤£": 5229,
      "à¤¯à¤·": 5230,
      "à¤¥à¤¸à¤ļ": 5231,
      "à¤Īà¤Łà¤®": 5232,
      "Ġà¤ĺà¤¸": 5233,
      "à¤ªà¤¨à¤¸": 5234,
      "Ġà¤īà¤ªà¤¬": 5235,
      "Ġà¤ħà¤¸à¤°à¤¬": 5236,
      "à¤Łà¤¨à¤¬": 5237,
      "à¤¯à¤²à¤¸": 5238,
      "Ġà¥§à¥¦à¥Ń": 5239,
      "Ġà¤ªà¤¦à¤²": 5240,
      "à¤¤à¤¨à¤Ĺà¤°à¤ª": 5241,
      "à¤¸à¤°à¤¹à¤°": 5242,
      "à¤Ńà¤µà¤¨": 5243,
      "Ġà¤®à¤¨à¤¤": 5244,
      "à¤ļà¤¨à¤ľ": 5245,
      "Ġà¤ıà¤®à¤Ł": 5246,
      "à¤µà¤°à¤£à¤®à¤¨": 5247,
      "à¤Ńà¤µà¤¬": 5248,
      "à¤¶à¤Ńà¤°à¤¬": 5249,
      "Ġà¤§à¤°à¤ªà¤ķà¤¡": 5250,
      "à¥Ĭ": 5251,
      "Ġà¤¸à¤µà¤¸": 5252,
      "à¤¹à¤ħà¤¨": 5253,
      "à¤ıà¤Ńà¤¨": 5254,
      "Ġà¤¹à¤°à¤ķ": 5255,
      "Ġà¤¹à¤¡à¤ª": 5256,
      "Ġà¤ıà¤Łà¤²": 5257,
      "à¤µà¤¸à¤ļ": 5258,
      "Ġà¤ķà¤°à¤¨": 5259,
      "Ġà¤Ĩà¤¶à¤¯à¤ķ": 5260,
      "Ġà¤Ĩà¤īà¤Ľà¤¨": 5261,
      "Ġà¥§à¥¯à¥®à¥ª": 5262,
      "à¤ķà¤Łà¤¨": 5263,
      "à¤ªà¤¸à¤¬": 5264,
      "Ġà¤Ńà¤°à¤ķ": 5265,
      "à¤·à¤Ĺ": 5266,
      "à¤·à¤°à¤²": 5267,
      "à¤°à¤¤à¤ª": 5268,
      "Ġà¤²à¤Ĺà¤¨": 5269,
      "Ġà¤¨à¤Ĺà¤°à¤ªà¤°": 5270,
      "Ġà¤ħà¤ªà¤¦à¤¸": 5271,
      "à¤ľà¤²à¤¸": 5272,
      "Ġà¥§à¥¨à¥§": 5273,
      "à¤¨à¤¸à¤ªà¤Łà¤²à¤®": 5274,
      "à¤¯à¤¯à¤ķ": 5275,
      "Ġà¤ħà¤¦à¤ķ": 5276,
      "à¤£à¤¯à¤¸": 5277,
      "à¤Ľà¤¯": 5278,
      "Ġà¤¬à¤¨à¤¸": 5279,
      "à¤ħà¤°à¤ķ": 5280,
      "Ġà¤ķà¤²à¤¸": 5281,
      "Ġà¤ªà¤¦à¤®à¤ª": 5282,
      "Ġà¤®à¤²à¤ĸ": 5283,
      "à¤ĩà¤Łà¤¬": 5284,
      "à¤¯à¤£à¤ĺ": 5285,
      "Ġà¥¨à¥Ńà¥«": 5286,
      "Ġà¤ļà¤°à¤£à¤ħà¤¨": 5287,
      "à¤¾à¥ģ": 5288,
      "à¤®à¤°à¤£à¤®": 5289,
      "à¤ĩà¤ªà¤ķ": 5290,
      "à¤łà¤¸à¤®": 5291,
      "à¥§à¥¦à¥¦": 5292,
      "Ġà¤ĺà¤°à¤Ĩ": 5293,
      "à¥¯à¥¯": 5294,
      "Ġà¥§à¥§à¥Ń": 5295,
      "Ġà¥¨à¥©à¥¦": 5296,
      "Ġà¤®à¤Ĺà¤°à¤¹à¤°": 5297,
      "à¤ķà¤¢": 5298,
      "à¤Īà¤Ńà¤¨": 5299,
      "à¤ĸà¤µ": 5300,
      "Ġà¤¤à¤°à¤ĸà¤°à¤®": 5301,
      "Ġà¤ĵà¤®à¤ķ": 5302,
      "à¤¹à¤¨à¤¤à¤ķ": 5303,
      "Ġà¤µà¤¨à¤ľ": 5304,
      "à¤¯à¤¯à¤Ń": 5305,
      "à¤²à¤ļà¤²à¤¨": 5306,
      "Ġà¥§à¥¯à¥®à¥¨": 5307,
      "Ġà¤ªà¤Ĺà¤°": 5308,
      "à¤¬à¤¦à¤¨": 5309,
      "Ġà¤¥à¤ªà¤ķ": 5310,
      "à¤ļà¤¨à¤¸": 5311,
      "Ġà¥¨à¥¦à¥Ńà¥ªà¥¦": 5312,
      "Ġà¤¨à¤Ĩà¤ĵà¤¸": 5313,
      "Ġà¤ªà¤Łà¤ķà¤ªà¤Łà¤ķà¤ķ": 5314,
      "à¤®à¤¯à¤ķ": 5315,
      "à¤ŀà¤¸": 5316,
      "à¥ªà¥¨": 5317,
      "Ġà¥§à¥¯à¥®à¥®": 5318,
      "à¤·à¤°à¤¹à¤°": 5319,
      "à¤ĩà¤ªà¤°": 5320,
      "à¤ĩà¤ķà¤ķ": 5321,
      "à¤Ļà¤¸à¤¹": 5322,
      "à¤Łà¤¨à¤¸": 5323,
      "à¤°à¤µà¤¸": 5324,
      "à¥ģà¥ĥ": 5325,
      "à¤µà¤Ī": 5326,
      "à¤¬à¤Ł": 5327,
      "Ġà¤¤à¤¡à¤ķ": 5328,
      "à¤ĩà¤Ńà¤¨": 5329,
      "Ġà¤¡à¤Ļ": 5330,
      "Ġà¤ķà¤²à¤¹": 5331,
      "à¤·à¤®à¤£": 5332,
      "Ġà¥§à¥«à¥«": 5333,
      "Ġà¥¨à¥¦à¥¨à¥¬": 5334,
      "Ġà¤ĵà¤Ńà¤°à¤Ł": 5335,
      "Ġà¤ıà¤ħà¤°à¤²": 5336,
      "Ġà¤Ŀà¤¡à¤ªà¤ķ": 5337,
      "à¤¦à¤®à¤¨": 5338,
      "à¤¯à¤¸à¤¨à¤ķ": 5339,
      "Ġà¤¸à¤¯à¤¸à¤®": 5340,
      "à¥¯à¥®": 5341,
      "Ġà¥¦à¥¬à¥«": 5342,
      "à¤ķà¤¯": 5343,
      "Ġà¤Ńà¤®": 5344,
      "à¤¥à¤ķà¤ķ": 5345,
      "à¤ļà¤Ńà¤¨": 5346,
      "à¤£à¤ľ": 5347,
      "à¤ĸà¤Ĺà¤ŀ": 5348,
      "Ġà¤§à¤¸": 5349,
      "Ġà¤ħà¤Ńà¤¯": 5350,
      "Ġà¤ļà¤²à¤¨à¤²": 5351,
      "Ġà¤ıà¤®à¤ıà¤¸": 5352,
      "à¤Ĺà¤łà¤¨à¤¬": 5353,
      "Ġà¤ķà¤ķà¤¨": 5354,
      "Ġà¤®à¤ª": 5355,
      "à¤ĩà¤¤à¤²": 5356,
      "à¥ªà¥§": 5357,
      "Ġà¤Ĳà¤¸": 5358,
      "Ġà¥§à¥¨à¥©": 5359,
      "Ġà¥§à¥©à¥¬": 5360,
      "à¤°à¤ł": 5361,
      "à¤ħà¤¨à¤²": 5362,
      "à¤°à¤ªà¤²": 5363,
      "Ġà¥¨à¥¦à¥©à¥Ń": 5364,
      "à¤Īà¤ĵà¤Ł": 5365,
      "à¤¬à¤Ĺ": 5366,
      "à¤¯à¤ķà¤¸": 5367,
      "Ġà¤Łà¤Ł": 5368,
      "Ġà¤¦à¤¶à¤ķà¤¯à¤¤": 5369,
      "à¤ıà¤«à¤ıà¤ķ": 5370,
      "Ġà¥§à¥¯à¥«à¥®": 5371,
      "ĉĠĠ": 5372,
      "à¤Łà¤ľà¤°à¤²": 5373,
      "à¤ıà¤¤à¤²": 5374,
      "Ġà¤ħà¤¨à¤ķ": 5375,
      "à¤¬à¤ĸ": 5376,
      "Ġà¤Łà¤£": 5377,
      "à¥Īà¤Ĥà¤ģ": 5378,
      "Ġà¤¬à¤²à¤¦": 5379,
      "à¤ıà¤¨à¤ıà¤¨": 5380,
      "Ġà¤ħà¤ķà¤¬à¤°": 5381,
      "Ġà¥¨à¥¦à¥©à¥§": 5382,
      "Ġà¤Ĩà¤²à¤®à¤²": 5383,
      "à¥Ŀ": 5384,
      "à¤¤à¤£": 5385,
      "à¤¯à¤µà¤¤": 5386,
      "à¤¹à¤²à¤Ĺ": 5387,
      "Ġà¤Ĺà¤µ": 5388,
      "Ġà¤Ĺà¤°à¤¯": 5389,
      "Ġà¤ıà¤²à¤¸": 5390,
      "Ġà¥©à¥¨à¥¦": 5391,
      "à¥Ńà¥®": 5392,
      "à¤¸à¤¦à¤µ": 5393,
      "à¤¶à¤¨à¤²à¤ķ": 5394,
      "Ġà¤Ĺà¤°à¤®": 5395,
      "à¤«à¤°à¤²": 5396,
      "Ġà¤®à¤¨à¤Ńà¤°": 5397,
      "à¤Ĩà¤°à¤Ł": 5398,
      "à¤Ĺà¤µà¤£": 5399,
      "Ġà¤¦à¤¶à¤°à¤¥à¤ļà¤¨": 5400,
      "à¤¿à¤¿": 5401,
      "à¤¦à¤¤à¤®": 5402,
      "à¤µà¤ļà¤¨": 5403,
      "à¤ıà¤ĩ": 5404,
      "Ġà¤ļà¤¤à¤°": 5405,
      "à¤¯à¤¸à¤¸à¤®": 5406,
      "à¤Łà¤ķà¤¹à¤°": 5407,
      "Ġà¤ĵà¤ķà¤²": 5408,
      "à¤ĵà¤¨": 5409,
      "à¤¹à¤¨à¤¬à¤¹": 5410,
      "à¤ıà¤¨à¤ıà¤¸": 5411,
      "Ġà¤ħà¤«à¤µ": 5412,
      "à¤Łà¤Ĺà¤¤": 5413,
      "à¤ľà¤ħà¤¨": 5414,
      "à¤¡à¤ªà¤ķ": 5415,
      "à¤£à¤Ńà¤ķ": 5416,
      "Ġà¤ĵà¤ĩà¤²": 5417,
      "Ġà¤ħà¤¬à¤²": 5418,
      "à¤µà¤¯à¤¨à¤¸": 5419,
      "à¤®à¤¡": 5420,
      "Ġà¤¨à¤¡à¤°": 5421,
      "à¤§à¤°à¤£à¤²": 5422,
      "à¤¶à¤¤à¤°": 5423,
      "à¤ĸà¤¬à¤¹": 5424,
      "à¤ĸà¤ªà¤¢": 5425,
      "à¤ªà¤¨à¤¹à¤°": 5426,
      "Ġà¤¡à¤ķà¤°": 5427,
      "à¤¯à¤¸à¤ŀ": 5428,
      "à¤¶à¤ķà¤¸": 5429,
      "à¥«à¥§": 5430,
      "Ġà¥§à¥¯à¥Ńà¥«": 5431,
      "Ġà¥§à¥¨à¥¯": 5432,
      "Ġà¤ıà¤¸à¤¬": 5433,
      "Ġà¥§à¥©à¥®": 5434,
      "à¤ĸà¤®à¤¯": 5435,
      "Ġà¥§à¥¯à¥¬à¥¨": 5436,
      "Ġà¤²à¤«à¤¡": 5437,
      "à¤¨à¤ĵà¤Ł": 5438,
      "Ġà¤¬à¤¹à¤ķ": 5439,
      "à¤¡à¤ªà¤Ľ": 5440,
      "Ġà¤Łà¤ªà¤°": 5441,
      "Ġà¤ªà¤¸à¤²à¤²": 5442,
      "à¤¤à¤Ľ": 5443,
      "Ġà¤¨à¤°à¤¦": 5444,
      "Ġà¤¸à¤®à¤¶": 5445,
      "à¤«à¤¸à¤²à¤®": 5446,
      "à¤£à¤¯à¤ª": 5447,
      "Ġà¤ıà¤ķà¤Ľà¤¤": 5448,
      "à¤¦à¤ªà¤Ľ": 5449,
      "à¤ıà¤¶à¤¨à¤ķ": 5450,
      "Ġà¤ľà¤¨à¤¬": 5451,
      "à¤µà¤°à¤¸à¤®": 5452,
      "à¤¯à¤°à¤¡": 5453,
      "Ġà¤¦à¤°à¤µà¤¨": 5454,
      "à¤ļà¤¸à¤¯": 5455,
      "à¤ĭà¤·": 5456,
      "à¤°à¤ľà¤²": 5457,
      "à¤®à¤ķà¤²": 5458,
      "à¤Īà¤¨à¤¨": 5459,
      "à¤¯à¤ķà¤Ĺ": 5460,
      "à¤µà¤°à¤°": 5461,
      "à¥¬à¥§": 5462,
      "à¤µà¤ľà¤¸": 5463,
      "Ġà¤ħà¤§à¤ķ": 5464,
      "à¤·à¤ķà¤¸": 5465,
      "à¤®à¤¨à¤°": 5466,
      "à¥Įà¤ģà¤Ĥ": 5467,
      "Ġà¤Ĩà¤ĩà¤¦": 5468,
      "Ġà¤¸à¤¡à¤ķà¤ª": 5469,
      "Ġà¤¨à¤Ĺà¤Ī": 5470,
      "Ġà¤ªà¤¥à¤®": 5471,
      "à¤¹à¤¬à¤°à¤®": 5472,
      "Ġà¤µà¤¹à¤¸": 5473,
      "à¤ħà¤¡": 5474,
      "Ġà¤¨à¤Ĺà¤°à¤¸": 5475,
      "à¤Ĩà¤ĩà¤ı": 5476,
      "Ġà¤Ĩà¤łà¤ľà¤¨": 5477,
      "Ġà¤ıà¤«à¤¡": 5478,
      "à¤²à¤ªà¤ķ": 5479,
      "à¤®à¤®à¤¨": 5480,
      "à¤¯à¤ªà¤¨": 5481,
      "à¤¦à¤¸à¤¤": 5482,
      "à¤µà¤ªà¤°": 5483,
      "Ġà¤¬à¤²à¤¬": 5484,
      "Ġà¤¸à¤®à¤ª": 5485,
      "à¤¸à¤ķà¤°": 5486,
      "à¤Ĩà¤µà¤¶": 5487,
      "Ġà¥§à¥¨à¥¦à¥¦": 5488,
      "Ġà¤Ńà¤µà¤¨à¤¬": 5489,
      "Ġà¥«à¥«à¥¦": 5490,
      "Ġà¥¦à¥¬à¥§": 5491,
      "à¤¥à¤ªà¤°à¤ķ": 5492,
      "Ġà¤¶à¤ªà¤¥à¤Ĺ": 5493,
      "à¤¨à¤¸à¤²": 5494,
      "Ġà¤°à¤¬à¤°": 5495,
      "Ġà¤ħà¤ľà¤®": 5496,
      "Ġà¤²à¤Ľ": 5497,
      "à¤ĺà¤·": 5498,
      "à¤²à¤ķà¤¸à¤¹": 5499,
      "Ġà¤ķà¤®à¤²à¤ķ": 5500,
      "à¤°à¤ªà¤¥à¤®": 5501,
      "à¤ĩà¤Ńà¤°à¤²": 5502,
      "Ġà¤īà¤ªà¤ķà¤°à¤£à¤®": 5503,
      "Ġà¥¦à¥ªà¥®": 5504,
      "à¤¤à¤¥à¤²": 5505,
      "à¤¹à¤ļ": 5506,
      "à¤µà¤ħà¤°": 5507,
      "à¤¬à¤ķà¤°": 5508,
      "à¤¡à¤ļ": 5509,
      "à¤Ńà¤ª": 5510,
      "Ġà¤¬à¤¸à¤¸": 5511,
      "à¤Łà¤¨à¤°à¤ķ": 5512,
      "à¤¬à¤²à¤Ł": 5513,
      "Ġà¥§à¥«à¥¦à¥¦": 5514,
      "à¤¤à¤¬à¤®": 5515,
      "Ġà¤¬à¤ļà¤¤à¤ķà¤°": 5516,
      "Ġà¥§à¥ªà¥«": 5517,
      "Ġà¥¨à¥¦à¥¨à¥©": 5518,
      "à¤¦à¤°à¤¬à¤ľ": 5519,
      "à¤¹à¤µà¤°à¤®": 5520,
      "Ġà¤Ľà¤¥à¤°": 5521,
      "à¤Īà¤°à¤²": 5522,
      "à¤ľà¤¨à¤¸à¤®": 5523,
      "Ġà¤ĵà¤¤à¤ª": 5524,
      "à¤¦à¤¨à¤¸à¤®": 5525,
      "Ġà¤¸à¤°à¤²à¤¤": 5526,
      "Ġà¥§à¥¯à¥ªà¥Ń": 5527,
      "à¤Īà¤µà¤¸": 5528,
      "à¤²à¤µà¤®": 5529,
      "Ġà¤ªà¤¥à¤ª": 5530,
      "à¤°à¤®à¤Ń": 5531,
      "Ġà¥§à¥¯à¥®à¥Ń": 5532,
      "à¤¸à¤¥": 5533,
      "à¤¸à¤²à¤ķ": 5534,
      "à¤µà¤°à¤¹": 5535,
      "Ġà¤Ľà¤Ľ": 5536,
      "à¤§à¤§à¤°": 5537,
      "à¤Ĩà¤°à¤®": 5538,
      "à¤¹à¤¤à¤®": 5539,
      "Ġà¤Ĩà¤µà¤°": 5540,
      "à¤²à¤¯à¤µ": 5541,
      "à¤¸à¤¨à¤¦": 5542,
      "Ġà¤ĵà¤¨": 5543,
      "à¤¸à¤¹à¤¯": 5544,
      "Ġà¤§à¤¨à¤¸à¤®": 5545,
      "Ġà¤ĸà¤Łà¤ªà¤Ł": 5546,
      "à¤°à¤²à¤ķ": 5547,
      "à¤¨à¤ħ": 5548,
      "à¤ªà¤ķà¤®": 5549,
      "à¤¡à¤¬à¤²": 5550,
      "à¤ĸà¤°à¤²": 5551,
      "à¤łà¤²à¤Ĺ": 5552,
      "à¥Įà¤Ĥà¤Ĥ": 5553,
      "Ġà¤Ĩà¤¶à¤¯à¤ªà¤¤": 5554,
      "à¥ŀ": 5555,
      "à¤°à¤ľà¤ķ": 5556,
      "à¤¨à¤¬à¤°": 5557,
      "Ġà¤Ĩà¤Ĺà¤®à¤¨à¤ķ": 5558,
      "à¤Ļà¤«": 5559,
      "à¥¦à¥Ńà¥¬": 5560,
      "à¤¯à¤¤à¤µ": 5561,
      "Ġà¤ĵà¤łà¤®": 5562,
      "Ġà¤Ĩà¤ĩà¤ıà¤¨à¤ľ": 5563,
      "à¤°à¤®à¤£à¤¹à¤°": 5564,
      "à¤°à¤ĸà¤¨": 5565,
      "Ġà¥©à¥¨à¥«": 5566,
      "à¤ĩà¤°à¤¨": 5567,
      "à¤ĩà¤¤à¤¬": 5568,
      "Ġà¤īà¤ªà¤ľà¤ķ": 5569,
      "à¤²à¤ľà¤¯": 5570,
      "à¤¸à¤ľà¤¨": 5571,
      "à¤ªà¤¸à¤¹": 5572,
      "à¤Łà¤ªà¤¤": 5573,
      "à¤¶à¤¯à¤ķ": 5574,
      "à¤¶à¤Ńà¤¨": 5575,
      "à¤Īà¤¤à¤°": 5576,
      "à¤«à¤°à¤®": 5577,
      "Ġà¤ıà¤²à¤¬": 5578,
      "Ġà¤ķà¤°à¤µ": 5579,
      "Ġà¤Ŀà¤ª": 5580,
      "Ġà¤¬à¤²à¤µ": 5581,
      "Ġà¥§à¥ªà¥®": 5582,
      "à¤Ĺà¤«à¤²": 5583,
      "à¤§à¤¦": 5584,
      "à¤Īà¤¹": 5585,
      "à¤ªà¤¨à¤¦": 5586,
      "à¤²à¤¯à¤ª": 5587,
      "à¥«à¥®": 5588,
      "à¤µà¤²à¤Ĺ": 5589,
      "à¤ıà¤¨à¤ıà¤ķ": 5590,
      "à¤ıà¤®à¤ľ": 5591,
      "Ġà¤¤à¤¹à¤Ĺà¤¤": 5592,
      "Ġà¤ľà¤¨à¤ķà¤°": 5593,
      "à¤ªà¤²à¤®": 5594,
      "à¤§à¤ķà¤®": 5595,
      "à¤°à¤®à¤¸à¤¹": 5596,
      "à¤¯à¤¨à¤¶": 5597,
      "à¤°à¤µà¤ª": 5598,
      "Ġà¥§à¥¨à¥¨": 5599,
      "Ġà¤µà¤«": 5600,
      "à¤°à¤®à¤¶à¤ķ": 5601,
      "Ġà¤Ĳà¤¨à¤¹à¤°": 5602,
      "Ġà¤ľà¤Ĺà¤¤à¤¬à¤¹": 5603,
      "à¤¥à¤¨à¤Ĺà¤°": 5604,
      "à¥«à¥ª": 5605,
      "à¤ķà¤°à¤Ń": 5606,
      "à¤ªà¤Łà¤ķà¤®": 5607,
      "Ġà¥©à¥¬à¥¦": 5608,
      "à¤°à¤Ĩ": 5609,
      "à¤®à¤£à¤ķ": 5610,
      "à¤·à¤ĺ": 5611,
      "Ġà¤Ĺà¤¤à¤¸": 5612,
      "à¤Ĺà¤®à¤Ĺ": 5613,
      "à¤£à¤¯à¤¸à¤®": 5614,
      "à¥įà¥Ī": 5615,
      "à¤®à¤¢": 5616,
      "Ġà¤Ľà¤ªà¤ķ": 5617,
      "Ġà¤ļà¤¯à¤¨à¤®": 5618,
      "à¤ĺà¤¸à¤¸": 5619,
      "à¤²à¤¨à¤ļ": 5620,
      "à¤®à¤¤à¤¦": 5621,
      "à¤®à¤®à¤§": 5622,
      "à¤ľà¤²à¤µ": 5623,
      "Ġà¥§à¥¨à¥¬": 5624,
      "à¤µà¤¯à¤®à¤¸": 5625,
      "Ġà¤¯à¤²": 5626,
      "Ġà¤ļà¤Łà¤ªà¤Ł": 5627,
      "Ġà¤§à¤®à¤¨": 5628,
      "Ġà¤ªà¤¤à¤ŀ": 5629,
      "Ġà¤°à¤ķà¤®à¤®à¤§": 5630,
      "Ġà¤Ĺà¤£à¤°": 5631,
      "Ġà¤¸à¤ľà¤Ĺà¤¤": 5632,
      "à¤®à¤ªà¤¶": 5633,
      "Ġà¤Ĩà¤ıà¤ľà¤¸": 5634,
      "Ġà¤¸à¤°à¤¸à¤°": 5635,
      "à¤§à¤ĺ": 5636,
      "Ġà¤¦à¤¹à¤¨": 5637,
      "à¤¢à¤Ĺ": 5638,
      "Ġà¤ľà¤¨à¤¸à¤°": 5639,
      "Ġà¤¸à¤¬à¤¥": 5640,
      "à¤Łà¤¨à¤°à¤¸": 5641,
      "Ġà¥§à¥¯à¥Ńà¥§": 5642,
      "ĠĠĠĠĠĠĠĠĠĠĠĠĠĠĠĠĠĠĠ": 5643,
      "à¥§à¥¦à¥Ńà¥¨": 5644,
      "Ġà¤ıà¤«à¤ıà¤®à¤²": 5645,
      "à¤ķà¤·à¤ķ": 5646,
      "à¤ıà¤®à¤¬": 5647,
      "Ġà¤®à¤¤à¤®": 5648,
      "Ġà¤¤à¤Ļ": 5649,
      "à¤£à¤²à¤Ĺ": 5650,
      "Ġà¤ıà¤ªà¤ķ": 5651,
      "à¤°à¤¹à¤¸à¤®": 5652,
      "Ġà¤ħà¤ªà¤ļ": 5653,
      "Ġà¥§à¥«à¥©": 5654,
      "Ġà¥¨à¥®à¥¦": 5655,
      "à¤¦à¤¶à¤¨à¤®": 5656,
      "à¤ıà¤Īà¤¸": 5657,
      "Ġà¤ľà¤ļ": 5658,
      "à¤ļà¤Ń": 5659,
      "Ġà¤ªà¤°à¤ľ": 5660,
      "à¤°à¤£à¤µà¤¶": 5661,
      "à¤ĵà¤ĸà¤²à¤¢": 5662,
      "Ġà¤ħà¤µà¤¯à¤µ": 5663,
      "Ġà¤Ĳà¤ļ": 5664,
      "à¥Ńà¥¬à¥®": 5665,
      "à¤°à¤ıà¤ķ": 5666,
      "à¤®à¤°à¤¸": 5667,
      "à¤®à¤®à¤¤": 5668,
      "à¤µà¤ıà¤®": 5669,
      "à¤µà¤¬à¤ľ": 5670,
      "Ġà¤Ńà¤¯à¤²": 5671,
      "à¤¶à¤¹": 5672,
      "à¤ĩà¤²à¤Ĺ": 5673,
      "Ġà¤ļà¤ĸ": 5674,
      "Ġà¤§à¤¤": 5675,
      "à¤µà¤°à¤µ": 5676,
      "Ġà¥§à¥Ńà¥®": 5677,
      "Ġà¥¨à¥¨à¥«": 5678,
      "Ġà¤Ńà¤°à¤¤à¤°": 5679,
      "Ġà¤¶à¤°à¤¦à¤ķ": 5680,
      "Ġà¤¨à¤ħà¤ªà¤¨": 5681,
      "à¤¯à¤¯à¤®": 5682,
      "à¤¬à¤¸à¤ķ": 5683,
      "à¤¨à¤ķà¤¤": 5684,
      "à¤Ļà¤Ń": 5685,
      "à¤¨à¤®à¤°": 5686,
      "à¤¤à¤°à¤µà¤¸": 5687,
      "à¤ķà¤²à¤¸": 5688,
      "à¤¶à¤¨à¤ª": 5689,
      "Ġà¥¨à¥¦à¥¨à¥Ń": 5690,
      "à¤¬à¤Īà¤¬": 5691,
      "à¤¦à¤¬à¤²": 5692,
      "à¤¡à¤¨à¤¬": 5693,
      "à¤īà¤¦à¤ķ": 5694,
      "Ġà¤ıà¤¸à¤ķ": 5695,
      "à¤Ļà¤ĸà¤²": 5696,
      "à¤·à¤£à¤ķà¤°": 5697,
      "à¤§à¤¨à¤¸à¤®": 5698,
      "à¥©à¥¦à¥Ńà¥ª": 5699,
      "Ġà¤ļà¤°à¤£à¤¹à¤°": 5700,
      "à¤ľà¤Ńà¤¤": 5701,
      "à¥Ľ": 5702,
      "à¤²à¤¸à¤ķ": 5703,
      "Ġà¤¸à¤¸à¤®": 5704,
      "Ġà¤¤à¤µà¤°à¤®": 5705,
      "à¤ļà¤²à¤¬": 5706,
      "à¤£à¤¨à¤Ĺà¤°": 5707,
      "Ġà¤īà¤łà¤¨": 5708,
      "à¤°à¤¤à¤²à¤Ĺ": 5709,
      "à¤ªà¤°à¤ľ": 5710,
      "Ġà¤¯à¤¸à¤¬à¤°": 5711,
      "Ġà¤īà¤ªà¤ķà¤ª": 5712,
      "à¤°à¤¦à¤ķ": 5713,
      "à¤ªà¤®à¤¤à¤®": 5714,
      "Ġà¤Ŀà¤²à¤ķà¤¹à¤°": 5715,
      "Ġà¤¸à¤®à¤¯à¤¬": 5716,
      "Ġà¤Ĩà¤īà¤¥": 5717,
      "à¤¯à¤£à¤¸": 5718,
      "à¤ĩà¤¨à¤²à¤¬": 5719,
      "Ġà¤ķà¤łà¤ª": 5720,
      "Ġà¥¦à¥«à¥®": 5721,
      "à¤®à¤Ľ": 5722,
      "Ġà¤®à¤Ńà¤¨": 5723,
      "Ġà¤¤à¤Łà¤®": 5724,
      "Ġà¤ªà¤°à¤ª": 5725,
      "à¤¸à¤ķà¤®": 5726,
      "Ġà¤®à¤¹à¤²à¤®": 5727,
      "à¤²à¤®à¤ľ": 5728,
      "Ġà¤¸à¤¯à¤µà¤Ł": 5729,
      "Ġà¥§à¥©à¥§": 5730,
      "à¤·à¤§à¤°à¤¹à¤°": 5731,
      "à¤Ĩà¤°à¤ıà¤¸": 5732,
      "Ġà¤Ĺà¤ľà¤²à¤²": 5733,
      "Ġà¥§à¥¯à¥®à¥«": 5734,
      "à¤¨à¤°à¤¤": 5735,
      "à¤²à¤ħà¤ĺ": 5736,
      "à¤¤à¤ªà¤°": 5737,
      "à¤¦à¤°à¤¹": 5738,
      "Ġà¤Ĺà¤ľà¤®": 5739,
      "Ġà¤¨à¤µà¤¸": 5740,
      "à¤§à¤Ńà¤°": 5741,
      "Ġà¤¤à¤®à¤¸": 5742,
      "à¥Ĥà¥į": 5743,
      "Ġà¤ĸà¤Ľ": 5744,
      "Ġà¤ıà¤Ĩà¤Ī": 5745,
      "à¤¨à¤®à¤Ĺà¤°": 5746,
      "Ġà¤¸à¤°à¤ª": 5747,
      "à¤ľà¤®à¤¸": 5748,
      "à¤£à¤¯à¤ªà¤Ľ": 5749,
      "Ġà¤¬à¤ļà¤¤à¤®": 5750,
      "Ġà¥¨à¥¦à¥¬à¥¨à¥¦à¥¬à¥©": 5751,
      "à¤²à¤¡à¤®à¤¨": 5752,
      "Ġà¤ıà¤¸à¤ĩà¤Ī": 5753,
      "à¤¹à¤£à¤®": 5754,
      "à¤Ĺà¤ĸ": 5755,
      "à¤Ĩà¤ł": 5756,
      "Ġà¤ıà¤®à¤Ĩà¤Ī": 5757,
      "Ġà¥§à¥¯à¥Ńà¥ª": 5758,
      "Ġà¤§à¤¨à¤ª": 5759,
      "Ġà¤ªà¤¦à¤®à¤¬à¤¹": 5760,
      "Ġà¥¦à¥¬à¥¨": 5761,
      "à¤¨à¤µà¤¸": 5762,
      "à¤¯à¤²à¤¬": 5763,
      "à¤µà¤Ļ": 5764,
      "Ġà¤Ńà¤°à¤¤à¤ķ": 5765,
      "Ġà¤¡à¤®à¤°": 5766,
      "Ġà¥¨à¥§à¥¦": 5767,
      "à¤µà¤¹à¤¨": 5768,
      "Ġà¤°à¤£à¤¬": 5769,
      "à¤Łà¤¤à¤°": 5770,
      "Ġà¤®à¤Ń": 5771,
      "Ġà¤¹à¤Łà¤²": 5772,
      "Ġà¤Ĩà¤ªà¤¨": 5773,
      "Ġà¤ıà¤ķà¤¦à¤²": 5774,
      "à¤¤à¤ķà¤¤": 5775,
      "Ġà¤Īà¤¬": 5776,
      "Ġà¥§à¥¬à¥§": 5777,
      "à¤Ĩà¤ĩà¤¤à¤¬": 5778,
      "à¤²à¤Ī": 5779,
      "à¤ªà¤¦à¤®": 5780,
      "Ġà¤²à¤ļà¤ķ": 5781,
      "à¤¡à¤¤à¤°": 5782,
      "Ġà¤Ńà¤¯à¤µ": 5783,
      "à¤µà¤°à¤£à¤¬": 5784,
      "à¥¨à¥¦à¥§à¥Ń": 5785,
      "à¤¸à¤§": 5786,
      "à¤ľà¤µà¤²": 5787,
      "Ġà¤µà¤¨à¤ª": 5788,
      "à¤«à¤²à¤®": 5789,
      "Ġà¤ıà¤ħà¤°": 5790,
      "Ġà¤¤à¤°à¤µ": 5791,
      "à¤¤à¤ķà¤¬": 5792,
      "à¤§à¤¨à¤Ĺà¤°": 5793,
      "à¤¯à¤¸à¤¬à¤ĸà¤¤": 5794,
      "à¤²à¤ĸà¤¬à¤°": 5795,
      "à¤²à¤°à¤¹à¤°": 5796,
      "à¤µà¤Ńà¤¨": 5797,
      "à¤ľà¤ķà¤°": 5798,
      "Ġà¤ıà¤ªà¤²": 5799,
      "à¥ĥà¥į": 5800,
      "Ġà¤ĺà¤¨à¤®": 5801,
      "à¤µà¤¨à¤°": 5802,
      "à¤·à¤£à¤ªà¤¤": 5803,
      "Ġà¥§à¥«à¥¬": 5804,
      "Ġà¤Ĩà¤ķà¤·": 5805,
      "Ġà¤ıà¤²à¤Īà¤¡": 5806,
      "ĠĠĠĠĠĠĠĠĠĠĠĠĠĠĠĠĠ": 5807,
      "à¥Īà¤¾": 5808,
      "Ġà¤¨à¤¤à¤®à¤¸": 5809,
      "à¤ıà¤ķà¤¤": 5810,
      "Ġà¤ľà¤¯à¤¶": 5811,
      "à¤°à¤£à¤ª": 5812,
      "Ġà¥¨à¥¦à¥®": 5813,
      "à¤Łà¤°à¤Ń": 5814,
      "Ġà¤ªà¤¦à¤µ": 5815,
      "Ġà¤Ĩà¤ĩà¤ķà¤¨": 5816,
      "Ġà¤¥à¤ªà¤ĺà¤Ł": 5817,
      "à¤ķà¤Łà¤¹à¤°": 5818,
      "Ġà¤ĭà¤£à¤¬": 5819,
      "Ġà¤Ĺà¤ĩà¤°à¤¹à¤¨": 5820,
      "à¤Īà¤¸à¤¯": 5821,
      "Ġà¤¹à¤¦à¤¬à¤¨": 5822,
      "à¤Ĺà¤Ńà¤Ļ": 5823,
      "à¤¨à¤Łà¤®": 5824,
      "Ġà¤°à¤¸à¤®": 5825,
      "à¤¶à¤¨à¤¦": 5826,
      "Ġà¤¬à¤²à¤ľà¤«": 5827,
      "à¤°à¤ªà¤¥à¤ķ": 5828,
      "Ġà¥§à¥«à¥®": 5829,
      "à¤Īà¤ķà¤²à¤®": 5830,
      "à¤īà¤¦à¤¯à¤ª": 5831,
      "Ġà¥§à¥©à¥ª": 5832,
      "à¤¸à¤¬à¤ķ": 5833,
      "Ġà¤¨à¤Ĩà¤ıà¤¸à¤®": 5834,
      "Ġà¥§à¥¯à¥Ńà¥®": 5835,
      "à¤®à¤²à¤®": 5836,
      "Ġà¤¹à¤Ĺ": 5837,
      "à¤Īà¤Łà¤¹à¤°": 5838,
      "Ġà¤®à¤¨à¤¬": 5839,
      "Ġà¤Ŀà¤Ŀà¤²": 5840,
      "à¤ĵà¤ıà¤¸": 5841,
      "Ġà¥§à¥«à¥§": 5842,
      "Ġà¤¤à¤¡à¤ķà¤Ń": 5843,
      "à¤°à¤ªà¤ķ": 5844,
      "à¤®à¤ł": 5845,
      "à¤·à¤ªà¤¹": 5846,
      "Ġà¤ħà¤¨à¤¸": 5847,
      "à¥«à¥¯": 5848,
      "à¤ķà¤Łà¤ª": 5849,
      "Ġà¥§à¥¯à¥®à¥§": 5850,
      "à¥Ńà¥©à¥Ńà¥ª": 5851,
      "Ġà¥¦à¥Ńà¥«à¥Ńà¥¬": 5852,
      "ĠĠĠĠĠĠĠĠĠĠĠĠĠĠĠĠĠĠĠĠĠĠĠĠĠĠĠĠĠĠĠĠĠĠĠĠĠĠĠĠĠĠĠĠĠĠĠĠĠĠĠĠĠĠĠĠĠĠĠĠĠĠĠĠĠĠĠĠĠĠĠĠĠĠĠĠĠĠĠĠĠĠĠĠĠĠĠĠĠĠĠĠĠĠĠĠĠĠĠĠĠĠĠĠĠĠĠĠĠĠĠĠĠĠĠĠĠĠĠĠĠĠĠĠĠĠĠĠ": 5853,
      "Ġà¤Ľà¤¯": 5854,
      "à¤«à¤¸à¤²": 5855,
      "Ġà¤¶à¤ª": 5856,
      "à¤łà¤¤à¤®": 5857,
      "Ġà¤«à¤°à¤®": 5858,
      "à¤ħà¤µà¤°": 5859,
      "à¥©à¥Ń": 5860,
      "Ġà¥§à¥¬à¥¬": 5861,
      "Ġà¤ľà¤¨à¤®à¤¤à¤²": 5862,
      "Ġà¤¹à¤Ļà¤ķà¤Ļà¤¸": 5863,
      "Ġà¤Łà¤¨à¤ķà¤ª": 5864,
      "à¤ķà¤°à¤¬à¤°": 5865,
      "à¤¦à¤¶à¤¨à¤ķ": 5866,
      "à¤Łà¤°à¤µ": 5867,
      "à¤ŀà¤¬à¤¹": 5868,
      "Ġà¤ĺà¤°à¤ľà¤®": 5869,
      "à¤¹à¤¨à¤ª": 5870,
      "à¤®à¤¬à¤¦": 5871,
      "Ġà¤Ĩà¤ıà¤Ľ": 5872,
      "Ġà¤®à¤¹à¤°à¤²": 5873,
      "Ġà¤·à¤·": 5874,
      "à¤Ĺà¤ļà¤²à¤¨": 5875,
      "à¤ķà¤°à¤¸": 5876,
      "à¤²à¤µà¤°": 5877,
      "Ġà¤¤à¤²à¤¤": 5878,
      "Ġà¤ļà¤ķà¤¨": 5879,
      "Ġà¤łà¤£": 5880,
      "à¤²à¤µà¤¹": 5881,
      "Ġà¥§à¥¬à¥®": 5882,
      "ĠĠĠĠĠĠĠĠĠĠĠĠĠĠĠĠĠĠ": 5883,
      "à¤µà¤¸à¤¹à¤®à¤¤": 5884,
      "à¤Ĺà¤ªà¤Ľ": 5885,
      "Ġà¤Ĩà¤¶à¤ķ": 5886,
      "Ġà¤§à¤¬": 5887,
      "à¤¹à¤ķà¤¸": 5888,
      "Ġà¤ħà¤ªà¤Ĺ": 5889,
      "à¤ĩà¤²à¤Łà¤ķ": 5890,
      "Ġà¤¨à¤µà¤īà¤¦": 5891,
      "Ġà¤¸à¤¹à¤°à¤¬": 5892,
      "à¤ªà¤²à¤Ĺ": 5893,
      "à¤ªà¤¦à¤ķ": 5894,
      "à¤£à¤ĸ": 5895,
      "Ġà¤ĺà¤¨à¤¤": 5896,
      "Ġà¤¹à¤°à¤«": 5897,
      "Ġà¤ıà¤®à¤ľ": 5898,
      "à¤¨à¤Ĺà¤°à¤¬": 5899,
      "Ġà¥¨à¥§à¥Ń": 5900,
      "à¤¶à¤¨à¤²à¤²": 5901,
      "Ġà¤ĸà¤²à¤Ļ": 5902,
      "à¤®à¤§à¤¨": 5903,
      "à¤¸à¤¤à¤ķ": 5904,
      "Ġà¤¸à¤¨à¤ķ": 5905,
      "à¤ªà¤Ń": 5906,
      "à¤µà¤ħà¤ĺ": 5907,
      "à¤·à¤¬à¤¹": 5908,
      "Ġà¤Ĩà¤Ĺà¤®à¤¨à¤®": 5909,
      "Ġà¤²à¤¹à¤²": 5910,
      "à¤°à¤®à¤ªà¤Ľ": 5911,
      "Ġà¤īà¤ªà¤ķà¤°à¤£à¤²": 5912,
      "à¤Ĩà¤¹": 5913,
      "à¤ĵà¤¹à¤°": 5914,
      "à¤°à¤ļà¤²à¤¨à¤²": 5915,
      "Ġà¤Īà¤ŀ": 5916,
      "à¤µà¤Ńà¤°à¤¬": 5917,
      "Ġà¤¹à¤Ļà¤ķà¤Ļà¤¬": 5918,
      "à¤¯à¤ľà¤¨à¤¬": 5919,
      "à¤ļà¤¥à¤°à¤®": 5920,
      "Ġà¤ģ": 5921,
      "Ġà¤Ĥ": 5922,
      "à¤¤à¤ĸà¤¤": 5923,
      "Ġà¤Ĺà¤ľà¤¬": 5924,
      "à¤ĩà¤¤à¤ķ": 5925,
      "à¤¨à¤®à¤²": 5926,
      "Ġà¤§à¤¨à¤µ": 5927,
      "Ġà¤®à¤¨à¤°": 5928,
      "à¥ªà¥©": 5929,
      "Ġà¤ĺà¤°à¤ĸà¤°": 5930,
      "à¤¹à¤¨à¤µ": 5931,
      "à¤®à¤¬à¤ľ": 5932,
      "Ġà¤Ĩà¤Īà¤ıà¤®": 5933,
      "Ġà¥§à¥¯à¥«à¥©": 5934,
      "Ġà¥§à¥¯à¥ªà¥®": 5935,
      "à¥ģà¥ģà¤ģ": 5936,
      "à¤ĩà¤®à¤®": 5937,
      "à¤°à¤¸à¤¯": 5938,
      "à¤ļà¤¨à¤¹à¤°": 5939,
      "Ġà¤¢à¤ķà¤®à¤ķ": 5940,
      "Ġà¤ħà¤Ĺà¤®": 5941,
      "Ġà¤®à¤¨à¤®à¤¸": 5942,
      "Ġà¤°à¤Ĺ": 5943,
      "à¤·à¤ļ": 5944,
      "à¤īà¤ªà¤ļ": 5945,
      "à¤ĩà¤ħà¤ķ": 5946,
      "Ġà¤ıà¤®à¤Ĩà¤°à¤ª": 5947,
      "à¤°à¤ľà¤¨à¤ķ": 5948,
      "à¤Łà¤°à¤¸à¤¹": 5949,
      "Ġà¥¨à¥¦à¥¨à¥¯": 5950,
      "à¤¨à¤¸à¤¨": 5951,
      "Ġà¤Ĩà¤¸à¤®": 5952,
      "Ġà¤ħà¤¨à¤µ": 5953,
      "à¤ķà¤®à¤¨": 5954,
      "à¤¸à¤¨à¤¹": 5955,
      "à¤¨à¤¨à¤¸à¤ķ": 5956,
      "Ġà¥¨à¥¦à¥Ńà¥¦à¥Ńà¥§": 5957,
      "à¤ľà¤Ĺà¤¢à¤ķ": 5958,
      "Ġà¤ķà¤µà¤°": 5959,
      "Ġà¤Ľà¤°à¤ªà¤¸": 5960,
      "Ġà¤Ĩà¤¹à¤¤": 5961,
      "Ġà¤ľà¤¯à¤¸": 5962,
      "à¤ļà¤¤à¤°": 5963,
      "à¤ĩà¤ĸ": 5964,
      "à¥¯à¥ª": 5965,
      "Ġà¤ıà¤ħà¤°à¤ª": 5966,
      "à¤²à¤¯à¤¸à¤¹": 5967,
      "Ġà¤ªà¤§": 5968,
      "à¤¦à¤īà¤¨": 5969,
      "Ġà¤¹à¤¬à¤²": 5970,
      "Ġà¤ľà¤ķà¤¡": 5971,
      "à¤ħà¤ĸ": 5972,
      "Ġà¤Ĩà¤īà¤¨à¤ķ": 5973,
      "Ġà¥¯à¥§à¥¦": 5974,
      "Ġà¤¦à¤²à¤¦à¤²à¤®": 5975,
      "Ġà¤°à¤ķà¤®à¤¸à¤¹": 5976,
      "Ġà¤®à¤¦à¤°à¤¸": 5977,
      "à¤µà¤ĸ": 5978,
      "à¤¶à¤²à¤ķ": 5979,
      "à¤Īà¤ĸ": 5980,
      "à¤¹à¤°à¤ª": 5981,
      "Ġà¤ĵà¤ıà¤¸": 5982,
      "Ġà¤¢à¤°": 5983,
      "Ġà¤ıà¤¸à¤¯": 5984,
      "Ġà¥§à¥Ńà¥©": 5985,
      "Ġà¤¤à¤²à¤¸à¤®": 5986,
      "Ġà¤Ĺà¤¨à¤°": 5987,
      "à¤Łà¤Ľ": 5988,
      "à¤Īà¤²à¤®": 5989,
      "à¤¡à¤Ł": 5990,
      "Ġà¤¬à¤¨à¤Ń": 5991,
      "Ġà¤ľà¤¨à¤¤à¤¨": 5992,
      "à¤²à¤ķà¤¸": 5993,
      "à¤ŀà¤¨": 5994,
      "à¤ªà¤®à¤¤à¤ķ": 5995,
      "à¤¸à¤¨à¤¸à¤¤": 5996,
      "à¥Įà¤ģà¤ĥ": 5997,
      "à¤°à¤ªà¤Łà¤ķ": 5998,
      "Ġà¥§à¥¨à¥Ń": 5999,
      "à¤µà¤ķà¤ªà¤¬": 6000,
      "Ġà¥¦à¥«à¥§": 6001,
      "à¤²à¤ªà¤®": 6002,
      "à¤ªà¤¸à¤¹à¤°": 6003,
      "à¤µà¤°à¤¦": 6004,
      "à¤Łà¤§": 6005,
      "à¤°à¤¹à¤¯": 6006,
      "Ġà¤Ĺà¤¤à¤¬à¤°": 6007,
      "à¤Ĩà¤ª": 6008,
      "à¤Ĩà¤¤à¤®": 6009,
      "à¤¦à¤°à¤ª": 6010,
      "Ġà¥§à¥¯à¥Ńà¥¬": 6011,
      "Ġà¥¨à¥Ńà¥¦": 6012,
      "Ġà¥¦à¥Ńà¥¬": 6013,
      "Ġà¤¹à¤¤à¤ķ": 6014,
      "à¤§à¤ľ": 6015,
      "à¤¥à¤Ńà¤¨": 6016,
      "à¤¶à¤¬à¤¨": 6017,
      "à¤¯à¤¸à¤ªà¤¶": 6018,
      "à¤Ŀà¤£": 6019,
      "à¤¨à¤¸à¤¯": 6020,
      "Ġà¥§à¥¬à¥¨": 6021,
      "à¤®à¤µà¤¤": 6022,
      "à¤Ĺà¤µà¤¨": 6023,
      "à¤ıà¤®à¤®": 6024,
      "à¤¬à¤¤à¤¬": 6025,
      "Ġà¤ľà¤²à¤¨": 6026,
      "Ġà¤¡à¤°à¤ķ": 6027,
      "à¤°à¤¸à¤µ": 6028,
      "Ġà¤ķà¤®à¤²à¤®à¤£": 6029,
      "Ġà¤ħà¤¸à¤°à¤¹à¤°": 6030,
      "Ġà¤Ńà¤ıà¤¬": 6031,
      "à¤²à¤¬à¤¦": 6032,
      "à¤«à¤²à¤¤": 6033,
      "Ġà¤ĸà¤ªà¤¤à¤ķ": 6034,
      "à¤ĺà¤Łà¤¨à¤ķ": 6035,
      "Ġà¥§à¥¯à¥ªà¥«": 6036,
      "Ġà¥¦à¥Ńà¥¨à¥Ńà¥©": 6037,
      "Ġà¤¬à¤¬à¤°à¤®à¤¹à¤²": 6038,
      "Ġà¤²à¤¹à¤²à¤¹": 6039,
      "à¤¿à¥ĥ": 6040,
      "à¤²à¤¸à¤²": 6041,
      "à¤®à¤ªà¤°": 6042,
      "à¤¦à¤ľ": 6043,
      "Ġà¤Ĺà¤¹à¤ķ": 6044,
      "à¤ıà¤Ń": 6045,
      "à¤¡à¤°à¤¬": 6046,
      "Ġà¤ıà¤ķà¤¹à¤ľ": 6047,
      "Ġà¤Ńà¤ıà¤Ŀ": 6048,
      "Ġà¤°à¤ķà¤®à¤¸à¤®": 6049,
      "Ġà¤¬à¤§à¤¶": 6050,
      "à¤°à¤ħà¤ĺ": 6051,
      "à¤¯à¤¶à¤¨": 6052,
      "à¤µà¤Łà¤®": 6053,
      "Ġà¤¨à¤¸à¤ļ": 6054,
      "Ġà¤Ńà¤¸": 6055,
      "à¤ľà¤®à¤ķ": 6056,
      "à¤§à¤Ĺà¤¯": 6057,
      "à¤°à¤¤à¤¨": 6058,
      "à¤ħà¤¶": 6059,
      "à¥«à¥Ń": 6060,
      "Ġà¤Ķà¤ķ": 6061,
      "à¤°à¤ļà¤²à¤¨à¤ķ": 6062,
      "à¤¡à¤®à¤Ľ": 6063,
      "à¤¡à¤°à¤Ĺ": 6064,
      "à¤µà¤¶à¤¤": 6065,
      "Ġà¤Ńà¤ľà¤¨à¤ķ": 6066,
      "à¤¡à¤ľà¤¸": 6067,
      "à¤Ļà¤¡": 6068,
      "à¤¤à¤²à¤¤": 6069,
      "Ġà¤¢à¤²à¤ķ": 6070,
      "à¤²à¤Ĺà¤¹à¤°": 6071,
      "à¤¹à¤¨à¤¤à¤²": 6072,
      "Ġà¥§à¥©à¥©": 6073,
      "Ġà¥ªà¥«à¥¬": 6074,
      "Ġà¤¡à¤²à¤°à¤¸à¤®": 6075,
      "à¤®à¤·": 6076,
      "à¤¸à¤ıà¤ķ": 6077,
      "à¤¹à¤Ĺ": 6078,
      "à¤ĺà¤¸à¤®": 6079,
      "Ġà¤¹à¤°à¤¸à¤®": 6080,
      "Ġà¤Īà¤Ļ": 6081,
      "Ġà¥§à¥ªà¥ª": 6082,
      "Ġà¤«à¤°à¤ķà¤®": 6083,
      "à¤Ĭà¤®": 6084,
      "à¤Ńà¤ªà¤¤à¤¨à¤ķ": 6085,
      "à¤®à¤¨à¤®": 6086,
      "Ġà¤¬à¤µ": 6087,
      "Ġà¤®à¤°à¤®": 6088,
      "à¤ĩà¤ħà¤¨": 6089,
      "Ġà¤ļà¤¹à¤²": 6090,
      "à¤¸à¤®à¤§": 6091,
      "à¤µà¤°à¤¨": 6092,
      "à¤Łà¤¨à¤°à¤²": 6093,
      "Ġà¤Ńà¤¯à¤Ń": 6094,
      "Ġà¤Ĩà¤¦à¤¤": 6095,
      "à¤Ĺà¤£à¤¤à¤¨": 6096,
      "à¤Ńà¤°à¤¤à¤ª": 6097,
      "à¥įà¥ĭ": 6098,
      "à¤®à¤¦à¤²": 6099,
      "à¤¸à¤ħà¤«": 6100,
      "à¤¹à¤¨à¤®": 6101,
      "Ġà¤¸à¤®à¤§": 6102,
      "à¤«à¤¯": 6103,
      "Ġà¤¯à¤¸à¤ĸ": 6104,
      "Ġà¤īà¤¨à¤¬": 6105,
      "Ġà¤¸à¤¡à¤ķà¤¸à¤®": 6106,
      "Ġà¥§à¥¯à¥§à¥¦": 6107,
      "Ġà¤Ĺà¤®à¤Ĺà¤¢": 6108,
      "à¤Ĩà¤Īà¤ı": 6109,
      "Ġà¤ľà¤¨à¤®à¤¤à¤¸": 6110,
      "Ġà¤ľà¤®à¤ĺà¤Łà¤®": 6111,
      "Ġà¤¸à¤¯à¤²": 6112,
      "Ġà¤¬à¤ķà¤°": 6113,
      "à¤ıà¤ļà¤ķ": 6114,
      "Ġà¤Ĩà¤°à¤¬": 6115,
      "à¤Īà¤¤à¤²": 6116,
      "à¤īà¤ªà¤¨": 6117,
      "Ġà¤¡à¤ļ": 6118,
      "à¤²à¤¨à¤¦": 6119,
      "à¤®à¤¨à¤Ĺà¤°à¤®": 6120,
      "à¥®à¥®": 6121,
      "Ġà¤¸à¤¤à¤ª": 6122,
      "à¤®à¤¸à¤Ļ": 6123,
      "à¤īà¤ªà¤Ń": 6124,
      "Ġà¤¨à¤ļà¤¢": 6125,
      "à¤ķà¤Ĺà¤¢": 6126,
      "à¤Łà¤īà¤ªà¤Ĺ": 6127,
      "Ġà¤¹à¤°à¤¦à¤®": 6128,
      "Ġà¤īà¤¸à¤¬": 6129,
      "à¤ĸà¤ªà¤¤": 6130,
      "à¤ĩà¤¤à¤°": 6131,
      "à¤¸à¤²à¤°": 6132,
      "à¥«à¥¨": 6133,
      "à¤¸à¤¦à¤¦": 6134,
      "à¤ļà¤²à¤¨à¤ķ": 6135,
      "Ġà¤ªà¤²à¤¹à¤°": 6136,
      "à¤Ĺà¤ªà¤ŀ": 6137,
      "à¤ĩà¤¨à¤ĸà¤¬à¤°à¤¸": 6138,
      "à¤¦à¤ļ": 6139,
      "Ġà¤¹à¤¦à¤®": 6140,
      "à¤¬à¤ĩ": 6141,
      "à¤·à¤ľà¤¸": 6142,
      "à¤ĺà¤¤": 6143,
      "Ġà¤¸à¤°à¤°": 6144,
      "Ġà¤ĵà¤ļ": 6145,
      "Ġà¤¸à¤¯à¤ľà¤¨": 6146,
      "Ġà¤ļà¤°à¤¨": 6147,
      "Ġà¤ħà¤ªà¤ļà¤²à¤¨": 6148,
      "Ġà¤ıà¤¨à¤ıà¤®": 6149,
      "à¤¸à¤¸à¤¹à¤°": 6150,
      "à¤¯à¤Łà¤¨à¤¸": 6151,
      "Ġà¤¨à¤Ńà¤ĩà¤ķà¤¨": 6152,
      "à¤®à¤ĺà¤°": 6153,
      "Ġà¤ĺà¤¤": 6154,
      "Ġà¤ħà¤°à¤¬à¤²": 6155,
      "à¤¶à¤ķà¤¦": 6156,
      "Ġà¤Ĩà¤°à¤ª": 6157,
      "à¤ıà¤¨à¤Ĩà¤°": 6158,
      "Ġà¤Ľà¤®à¤Ľà¤®": 6159,
      "à¤¸à¤°à¤Ń": 6160,
      "Ġà¤ªà¤ľ": 6161,
      "à¤¦à¤¯à¤¦": 6162,
      "Ġà¤Ĺà¤ıà¤¸": 6163,
      "Ġà¤®à¤Ĺà¤¨": 6164,
      "à¤£à¤Ń": 6165,
      "à¤ĩà¤®à¤²": 6166,
      "Ġà¤ħà¤¸à¤Ń": 6167,
      "à¤ļà¤¨à¤ħà¤ĺ": 6168,
      "à¤·à¤£à¤ħà¤¨": 6169,
      "Ġà¤ĺà¤°à¤Ńà¤¨": 6170,
      "Ġà¤Ĳà¤°à¤²": 6171,
      "Ġà¤īà¤¡à¤¡": 6172,
      "Ġà¥¦à¥«à¥¯": 6173,
      "à¤ķà¤µà¤°": 6174,
      "à¤¹à¤Ļà¤ķ": 6175,
      "Ġà¤°à¤®à¤¨": 6176,
      "Ġà¤ıà¤ķà¤¢": 6177,
      "Ġà¤¸à¤ķà¤²": 6178,
      "à¤²à¤¯à¤²à¤Ĺ": 6179,
      "Ġà¤¬à¤²à¤ª": 6180,
      "Ġà¤Ĩà¤ĩà¤¡à¤²à¤®": 6181,
      "Ġà¤ħà¤ªà¤ľà¤¸": 6182,
      "Ġà¥§à¥«à¥Ń": 6183,
      "Ġà¥§à¥¬à¥Ń": 6184,
      "à¤ĩà¤«à¤¸": 6185,
      "Ġà¥¦à¥Ńà¥ªà¥¦à¥Ńà¥«": 6186,
      "Ġà¤Ĺà¤ıà¤¨à¤¨": 6187,
      "à¤Ńà¤°à¤²": 6188,
      "à¤ĩà¤®à¤ķ": 6189,
      "Ġà¤ĸà¤¬à¤°à¤®": 6190,
      "Ġà¤īà¤¦à¤¯à¤°": 6191,
      "Ġà¤¸à¤¨à¤¸": 6192,
      "à¤§à¤¨à¤Ĺ": 6193,
      "Ġà¤ĺà¤°à¤Ĺ": 6194,
      "Ġà¤¤à¤ªà¤¶": 6195,
      "Ġà¤Ĩà¤®à¤ļ": 6196,
      "à¤ªà¤£à¤®": 6197,
      "à¤®à¤ªà¤¹": 6198,
      "Ġà¤¨à¤¬à¤¤": 6199,
      "Ġà¥¨à¥¦à¥ªà¥§": 6200,
      "à¥Ńà¥ªà¥Ńà¥«": 6201,
      "Ġà¥¦à¥«à¥¬": 6202,
      "Ġà¤²à¤ĸà¤¨à¤ī": 6203,
      "à¤¨à¤Ńà¤ıà¤ķ": 6204,
      "à¤ķà¤¸à¤ķ": 6205,
      "Ġà¤¸à¤ľà¤ķ": 6206,
      "Ġà¤¦à¤¸à¤ķ": 6207,
      "à¤ļà¤ĺà¤°à¤®": 6208,
      "Ġà¤ľà¤¨à¤ªà¤°": 6209,
      "Ġà¤®à¤¨à¤¶": 6210,
      "Ġà¤®à¤²à¤¦": 6211,
      "à¤°à¤ļà¤¨à¤ķ": 6212,
      "Ġà¥«à¥¦à¥¬à¥¦": 6213,
      "Ġà¤ıà¤²à¤ĩà¤¡": 6214,
      "Ġà¤ıà¤¨à¤Ĩà¤°à¤ıà¤¨à¤ıà¤²": 6215,
      "à¤¾à¥ĭ": 6216,
      "à¤¸à¤¢": 6217,
      "Ġà¤Ĺà¤«à¤®": 6218,
      "à¤¶à¤µà¤ª": 6219,
      "à¤ĩà¤ľà¤²": 6220,
      "Ġà¤ĸà¤°à¤¸": 6221,
      "Ġà¤Ńà¤ıà¤Ńà¤°à¤ķ": 6222,
      "à¤ķà¤¨à¤¹à¤°": 6223,
      "Ġà¥§à¥¯à¥Ńà¥¨": 6224,
      "à¤¨à¤Ĺà¤°à¤¸": 6225,
      "Ġà¥§à¥©à¥Ń": 6226,
      "Ġà¥§à¥ªà¥§à¥«": 6227,
      "Ġà¤Ĩà¤Īà¤ıà¤¨à¤ľ": 6228,
      "à¤¸à¤µà¤¹à¤°": 6229,
      "Ġà¤¡à¤²à¤°à¤Ńà¤¨": 6230,
      "Ġà¥§à¥¯à¥Ńà¥¯": 6231,
      "à¤¯à¤¬à¤°": 6232,
      "à¤¬à¤°à¤¸": 6233,
      "à¤¬à¤°à¤¹à¤°": 6234,
      "à¤¬à¤Ĺà¤°à¤®": 6235,
      "à¤¬à¤¤à¤¸": 6236,
      "à¤Īà¤ı": 6237,
      "à¤ĩà¤Ńà¤®": 6238,
      "Ġà¤ĸà¤¦": 6239,
      "à¤¸à¤®à¤°": 6240,
      "à¤²à¤®à¤ķ": 6241,
      "Ġà¤Ńà¤ıà¤Ľà¤¨": 6242,
      "à¤µà¤®à¤§": 6243,
      "à¥¯à¥§": 6244,
      "Ġà¤®à¤¤à¤¸à¤¹": 6245,
      "à¤ªà¤£à¤²": 6246,
      "Ġà¤¬à¤®à¤¬à¤¹": 6247,
      "Ġà¤Ĩà¤Ĩà¤«à¤¨": 6248,
      "Ġà¥§à¥¯à¥ªà¥¯": 6249,
      "à¤°à¤Ŀ": 6250,
      "à¤®à¤¬à¤°": 6251,
      "à¤ªà¤Łà¤¨": 6252,
      "Ġà¤¨à¤Ĩà¤Ī": 6253,
      "à¤¬à¤¨à¤²": 6254,
      "Ġà¤Ľà¤²à¤ķ": 6255,
      "à¤Īà¤²à¤ķ": 6256,
      "Ġà¤¸à¤®à¤¦": 6257,
      "à¤ĩà¤ªà¤®": 6258,
      "à¤²à¤®à¤¤": 6259,
      "à¤µà¤¨à¤µ": 6260,
      "à¤¤à¤¨à¤¹": 6261,
      "à¤ĵà¤Ńà¤°": 6262,
      "à¤µà¤ªà¤Ł": 6263,
      "Ġà¥¨à¥§à¥«": 6264,
      "à¤Ĭà¤¦": 6265,
      "Ġà¥¦à¥ªà¥Ń": 6266,
      "à¤²à¤Ĺà¤°à¤¹à¤°": 6267,
      "à¤¨à¤°à¤µà¤²": 6268,
      "à¤¹à¤¸à¤ķ": 6269,
      "à¤ľà¤¯à¤®": 6270,
      "Ġà¤µà¤·à¤°": 6271,
      "Ġà¤Ĩà¤łà¤®": 6272,
      "Ġà¤īà¤¤à¤°": 6273,
      "à¤°à¤®à¤¯": 6274,
      "Ġà¤¥à¤®à¤®": 6275,
      "à¤ĺà¤¬à¤¹": 6276,
      "Ġà¤°à¤¹à¤¨à¤ķ": 6277,
      "Ġà¤¯à¤¸à¤¦": 6278,
      "à¤ĵà¤¨à¤²": 6279,
      "Ġà¤ıà¤¸à¤ıà¤®": 6280,
      "Ġà¤¬à¤ļà¤¤à¤ķ": 6281,
      "Ġà¤°à¤®à¤Ŀà¤®": 6282,
      "à¤ķà¤¸à¤ª": 6283,
      "Ġà¤Ĩà¤ļà¤°à¤£à¤ķ": 6284,
      "Ġà¥§à¥¯à¥Ńà¥Ń": 6285,
      "à¥ĭà¥į": 6286,
      "à¤īà¤ŀ": 6287,
      "Ġà¤¸à¤®à¤ļ": 6288,
      "à¤¤à¤¨à¤§": 6289,
      "Ġà¤Ĩà¤Īà¤ıà¤²": 6290,
      "Ġà¤¨à¤Ĩà¤¤": 6291,
      "à¤µà¤¯à¤®à¤²": 6292,
      "à¤¼à¤¿": 6293,
      "à¤°à¤ħà¤°": 6294,
      "à¤ľà¤Ńà¤¨": 6295,
      "à¤¬à¤°à¤¤": 6296,
      "à¤²à¤®à¤®": 6297,
      "à¤¶à¤ķà¤¬": 6298,
      "à¤®à¤®à¤£": 6299,
      "Ġà¤ıà¤®à¤ıà¤®": 6300,
      "à¤²à¤¤à¤¸à¤®": 6301,
      "Ġà¥§à¥¬à¥©": 6302,
      "Ġà¥§à¥Ńà¥¨": 6303,
      "Ġà¤Ĩà¤ıà¤¦": 6304,
      "Ġà¥§à¥¯à¥®à¥©": 6305,
      "à¤§à¤¨à¤¸à¤¹": 6306,
      "à¤¡à¤ķà¤°": 6307,
      "Ġà¤Ĩà¤¯à¤¶": 6308,
      "à¤¸à¤²à¤§": 6309,
      "à¤·à¤£à¤Ńà¤°à¤®": 6310,
      "Ġà¥§à¥¨à¥ª": 6311,
      "Ġà¤Ĩà¤łà¤µ": 6312,
      "Ġà¥Ńà¥ªà¥ª": 6313,
      "à¤ķà¤¥à¤°": 6314,
      "Ġà¤ªà¤¥à¤²": 6315,
      "à¤¹à¤¤à¤°": 6316,
      "à¤Łà¤ĸ": 6317,
      "Ġà¤¦à¤ĸà¤²": 6318,
      "à¤ĩà¤¸à¤°": 6319,
      "à¥Įà¥Īà¤Ĥ": 6320,
      "à¤Ļà¤ľà¤¸": 6321,
      "Ġà¥§à¥¯à¥©à¥¦": 6322,
      "Ġà¤¨à¤Ńà¤ĩà¤¸à¤ķ": 6323,
      "Ġà¤Īà¤£": 6324,
      "à¤Łà¤°à¤ķà¤¨": 6325,
      "Ġà¥¦à¥¬à¥¬": 6326,
      "à¤Ķà¤·à¤§à¤¸à¤¹": 6327,
      "Ġà¤Ĩà¤°à¤ıà¤¸à¤Ĩà¤Ī": 6328,
      "à¤¨à¤¬à¤¨": 6329,
      "Ġà¤ªà¤µà¤¨à¤ķ": 6330,
      "Ġà¤ķà¤ªà¤¨": 6331,
      "à¤ļà¤¯à¤¨": 6332,
      "à¤Ńà¤£": 6333,
      "Ġà¤¶à¤µà¤¯": 6334,
      "Ġà¤ĸà¤Łà¤¨": 6335,
      "à¤ŀà¤¬": 6336,
      "Ġà¥«à¥§à¥¦": 6337,
      "Ġà¤Ĩà¤®à¤°": 6338,
      "Ġà¥¨à¥¦à¥Ńà¥¨à¥¦": 6339,
      "Ġà¥¨à¥§à¥®": 6340,
      "Ġà¥¬à¥«à¥¦": 6341,
      "Ġà¤ħà¤µà¤¶à¤°à¤®": 6342,
      "Ġà¤¸à¤Ĺà¤°": 6343,
      "à¤µà¤īà¤ª": 6344,
      "Ġà¤ķà¤ļà¤¨à¤ķ": 6345,
      "à¤¡à¤ķà¤ķ": 6346,
      "Ġà¤ħà¤§à¤°": 6347,
      "Ġà¤®à¤¨à¤ª": 6348,
      "Ġà¤¸à¤¦à¤¶": 6349,
      "à¤ľà¤Ĺà¤¦": 6350,
      "à¤²à¤¯à¤®à¤§": 6351,
      "Ġà¥§à¥¬à¥ª": 6352,
      "Ġà¤¨à¤Ĩà¤īà¤²": 6353,
      "à¤ĩà¤¬à¤²à¤®": 6354,
      "à¤ķà¤ħà¤ªà¤ķ": 6355,
      "à¤¹à¤¨à¤¸": 6356,
      "Ġà¤¹à¤¦à¤ķ": 6357,
      "à¤¬à¤ľà¤¸": 6358,
      "à¤Īà¤Łà¤²": 6359,
      "Ġà¤¸à¤®à¤¬à¤¨": 6360,
      "Ġà¤ıà¤®à¤ķ": 6361,
      "Ġà¤ªà¤°à¤²": 6362,
      "Ġà¤ıà¤ķà¤ĸ": 6363,
      "à¤°à¤¦à¤¶": 6364,
      "Ġà¤¸à¤¯à¤°": 6365,
      "à¤ķà¤¨à¤¬": 6366,
      "Ġà¤ıà¤¸à¤ıà¤¸": 6367,
      "Ġà¥«à¥¦à¥«à¥¦": 6368,
      "à¤°à¤¥à¤®à¤¤": 6369,
      "à¤ĩà¤ªà¤¬": 6370,
      "Ġà¥¯à¥¯à¥¯": 6371,
      "à¤¡à¤¹à¤²à¤®": 6372,
      "à¤Ĺà¤ı": 6373,
      "Ġà¤¨à¤°à¤¨": 6374,
      "Ġà¤¹à¤£": 6375,
      "à¤Īà¤¸à¤¹": 6376,
      "à¤£à¤ķà¤°": 6377,
      "à¤ľà¤¨à¤µ": 6378,
      "Ġà¤ıà¤ķà¤¬": 6379,
      "à¤µà¤ķà¤ªà¤²": 6380,
      "à¤ħà¤ļà¤²": 6381,
      "à¤°à¤¬à¤ľ": 6382,
      "Ġà¤ħà¤¬à¤¶": 6383,
      "Ġà¤ķà¤²à¤°à¤ķ": 6384,
      "Ġà¤¨à¤ľà¤°à¤¬à¤¨": 6385,
      "Ġà¥¨à¥«à¥©à¥¦": 6386,
      "Ġà¥©à¥¦à¥¦à¥¦": 6387,
      "Ġà¥§à¥©à¥¯": 6388,
      "Ġà¤Ĩà¤¸à¤¨à¤®": 6389,
      "Ġà¥¦à¥¬à¥¨à¥¬à¥©": 6390,
      "Ġà¥¯à¥®à¥«": 6391,
      "Ġà¤¯à¤®à¤¨à¤®": 6392,
      "à¤²à¤īà¤ªà¤°": 6393,
      "à¤¤à¤²à¤²": 6394,
      "à¤ľà¤²à¤ķ": 6395,
      "à¤Īà¤¬à¤¸": 6396,
      "à¤¡à¤µà¤¹à¤°": 6397,
      "à¤°à¤®à¤µ": 6398,
      "Ġà¤ĺà¤°à¤¸": 6399,
      "Ġà¤ĵà¤µ": 6400,
      "Ġà¤ķà¤¸à¤°à¤¤à¤®": 6401,
      "Ġà¤¹à¤°à¤ªà¤²": 6402,
      "Ġà¤Ĩà¤ĩà¤¤": 6403,
      "Ġà¤Ĩà¤ĩà¤¯": 6404,
      "Ġà¥§à¥¯à¥¨": 6405,
      "Ġà¤Ĩà¤¶à¤²": 6406,
      "à¥ĩà¤Ĥà¤ģ": 6407,
      "à¤Ĩà¤°à¤Ĩà¤°": 6408,
      "Ġà¤Ľà¤łà¤ªà¤°": 6409,
      "Ġà¤ħà¤ªà¤¹à¤°à¤£à¤ªà¤Ľ": 6410,
      "Ġà¥¦à¥«à¥ª": 6411,
      "à¤¤à¤²à¤¬": 6412,
      "à¤Ĺà¤Ĺà¤°": 6413,
      "à¤ĩà¤«à¤ķ": 6414,
      "Ġà¤ĸà¤°à¤ķ": 6415,
      "Ġà¤ħà¤¨à¤¸à¤¨à¤ķ": 6416,
      "Ġà¤ķà¤°à¤¸à¤®": 6417,
      "à¤ħà¤°à¤®": 6418,
      "à¤Ĺà¤¤à¤¬": 6419,
      "à¤¦à¤¨à¤¸à¤¹": 6420,
      "Ġà¤Ĩà¤Īà¤ªà¤°": 6421,
      "ĠĠĠĠĠĠĠĠĠĠĠĠĠĠĠĠĠĠĠĠ": 6422,
      "à¤Ńà¤Ĺà¤µà¤¤": 6423,
      "à¤Ńà¤²à¤ªà¤°": 6424,
      "Ġà¤¬à¤¥à¤¨": 6425,
      "Ġà¤®à¤ľà¤µ": 6426,
      "à¤§à¤Ĺ": 6427,
      "à¤Ńà¤Ī": 6428,
      "Ġà¤Ĩà¤ľà¤ªà¤¨": 6429,
      "à¤¡à¤®à¤§": 6430,
      "à¥Īà¤ģà¤Ĥ": 6431,
      "Ġà¤¨à¤¬à¤ľ": 6432,
      "Ġà¤¨à¤Ĺà¤¦à¤®": 6433,
      "Ġà¥¦à¥Ńà¥«à¥¦à¥Ńà¥¬": 6434,
      "Ġà¤¬à¤ª": 6435,
      "à¤ıà¤Ĩà¤°": 6436,
      "à¤ľà¤¤à¤ķ": 6437,
      "à¤ľà¤¸à¤²": 6438,
      "Ġà¤¹à¤ķà¤µ": 6439,
      "à¤ľà¤¨à¤¦": 6440,
      "à¤ľà¤¨à¤ªà¤Ľ": 6441,
      "à¤µà¤ķà¤¬": 6442,
      "Ġà¥§à¥®à¥§": 6443,
      "à¤¸à¤¬à¤®": 6444,
      "à¤ıà¤²à¤ıà¤¨": 6445,
      "à¤ĩà¤¬à¤²à¤ķ": 6446,
      "Ġà¥¦à¥¬à¥¦": 6447,
      "Ġà¤¯à¤®à¤¨à¤ķ": 6448,
      "Ġà¥¦à¥¦à¥Ń": 6449,
      "à¤°à¤¯à¤¸": 6450,
      "à¤¤à¤ĭà¤·": 6451,
      "à¤¸à¤¡à¤°": 6452,
      "à¤ªà¤ľà¤¸": 6453,
      "à¤µà¤£à¤²": 6454,
      "à¤§à¤µà¤²": 6455,
      "à¤°à¤£à¤¦": 6456,
      "à¤²à¤ķà¤¦": 6457,
      "à¤Ĩà¤ĵ": 6458,
      "à¤ĵà¤Ĩà¤°": 6459,
      "Ġà¥«à¥¦à¥¦à¥¦": 6460,
      "Ġà¥§à¥ªà¥¯": 6461,
      "Ġà¥§à¥Ńà¥¬": 6462,
      "à¤ĩà¤¨à¤ĸà¤¬à¤°à¤²": 6463,
      "Ġà¤¤à¤¡à¤ķà¤Ńà¤¡à¤ķ": 6464,
      "à¥įà¥Į": 6465,
      "à¤®à¤°à¤²": 6466,
      "à¤®à¤¹à¤²": 6467,
      "Ġà¤Ĺà¤ĩà¤¹": 6468,
      "Ġà¤¨à¤Ĺà¤£": 6469,
      "Ġà¤¯à¤²à¤®": 6470,
      "Ġà¤ĩà¤¨à¤²": 6471,
      "Ġà¤ļà¤²à¤ħà¤ļà¤²": 6472,
      "Ġà¤ķà¤²à¤µ": 6473,
      "à¤ĩà¤²à¤°": 6474,
      "à¤łà¤ķà¤¸": 6475,
      "à¤łà¤ķà¤¸à¤®": 6476,
      "Ġà¤ľà¤¨à¤¸à¤°à¤ķ": 6477,
      "Ġà¤ĭà¤£à¤¦": 6478,
      "Ġà¤ļà¤ķà¤ļà¤ķ": 6479,
      "Ġà¤¬à¤ļà¤¤à¤ªà¤¤": 6480,
      "Ġà¤²à¤¹à¤°à¤®": 6481,
      "Ġà¥¦à¥«à¥¨": 6482,
      "à¤Łà¤ľ": 6483,
      "Ġà¤¨à¤¥à¤ª": 6484,
      "à¤ıà¤ĩà¤ķ": 6485,
      "Ġà¤®à¤°à¤¹": 6486,
      "Ġà¤¹à¤¥": 6487,
      "à¤«à¤°à¤ª": 6488,
      "Ġà¤ªà¤°à¤¬": 6489,
      "Ġà¤«à¤¯": 6490,
      "à¤ĺà¤°à¤²": 6491,
      "à¤¯à¤¨à¤Ĺà¤°": 6492,
      "à¤Ĺà¤²à¤ª": 6493,
      "Ġà¤¬à¤°à¤«": 6494,
      "à¤¶à¤¨à¤¶": 6495,
      "Ġà¤īà¤łà¤¬à¤¸": 6496,
      "Ġà¥¦à¥¬à¥Ń": 6497,
      "à¤ķà¤¸à¤¨": 6498,
      "à¤¹à¤²à¤¯": 6499,
      "Ġà¤¨à¤Ńà¤°": 6500,
      "Ġà¤¬à¤¯à¤¸": 6501,
      "à¤ıà¤°à¤®": 6502,
      "à¤ıà¤¨à¤®": 6503,
      "Ġà¤¹à¤¬à¤ķ": 6504,
      "à¤°à¤£à¤¸à¤¹": 6505,
      "à¤°à¤¸à¤Ĺ": 6506,
      "à¤¨à¤¨à¤Ĺà¤°à¤®": 6507,
      "Ġà¤ĸà¤°à¤¨": 6508,
      "à¤µà¤°à¤£à¤¸à¤¹": 6509,
      "à¤¸à¤ł": 6510,
      "à¤ĸà¤µà¤°": 6511,
      "Ġà¤¯à¤®à¤¬à¤¹": 6512,
      "Ġà¤¸à¤®à¤¯à¤¤": 6513,
      "Ġà¤łà¤¨": 6514,
      "Ġà¥§à¥«à¥§à¥¬": 6515,
      "à¤¦à¤²à¤¹à¤°": 6516,
      "Ġà¥§à¥ªà¥§": 6517,
      "Ġà¥§à¥Ńà¥¯": 6518,
      "Ġà¤ľà¤¨à¤¸à¤¤": 6519,
      "Ġà¥§à¥¯à¥¬à¥Ń": 6520,
      "Ġà¥§à¥¯à¥¬à¥®": 6521,
      "Ġà¤°à¤ħ": 6522,
      "à¤ıà¤Łà¤°à¤ķ": 6523,
      "Ġà¤®à¤Ī": 6524,
      "Ġà¤µà¤¦à¤²": 6525,
      "à¤·à¤°à¤¶": 6526,
      "Ġà¤¤à¤ľà¤¬": 6527,
      "Ġà¤¶à¤¤à¤µ": 6528,
      "à¤¨à¤®à¤£": 6529,
      "à¤²à¤¨à¤¤": 6530,
      "Ġà¤Ńà¤°à¤¸à¤ķ": 6531,
      "Ġà¥§à¥¯à¥¨à¥¦": 6532,
      "Ġà¥¨à¥¬à¥¦": 6533,
      "Ġà¥¨à¥¬à¥«": 6534,
      "à¤°à¤¨à¤Ĺà¤°à¤¬": 6535,
      "Ġà¥§à¥¯à¥¬à¥«": 6536,
      "Ġà¤¬à¤£": 6537,
      "à¤ľà¤ľà¤¸": 6538,
      "à¤£à¤ķà¤²": 6539,
      "à¤ĩà¤ıà¤ªà¤¨": 6540,
      "à¤ĺà¤Ń": 6541,
      "à¤¦à¤¨à¤¹": 6542,
      "Ġà¥§à¥¯à¥Ńà¥©": 6543,
      "Ġà¤°à¤®à¤ľ": 6544,
      "Ġà¤Ĺà¤łà¤¨à¤ªà¤Ľ": 6545,
      "à¤Ĺà¤¸à¤Ļ": 6546,
      "Ġà¥«à¥§à¥¨": 6547,
      "Ġà¤°à¤¨à¤°à¤ħ": 6548,
      "Ġà¥Ģ": 6549,
      "à¤¸à¤ħà¤°": 6550,
      "à¤ªà¤¯à¤®": 6551,
      "à¤µà¤Īà¤®": 6552,
      "Ġà¤°à¤Ļà¤®": 6553,
      "à¤ľà¤¯à¤¸": 6554,
      "Ġà¤µà¤¦": 6555,
      "à¤¥à¤¨à¤²": 6556,
      "Ġà¤Ĩà¤ıà¤²à¤Ĺà¤¤": 6557,
      "à¤ĸà¤®à¤§": 6558,
      "Ġà¤ıà¤ŀ": 6559,
      "Ġà¤ıà¤ķà¤ł": 6560,
      "à¤¯à¤¤à¤µà¤¶": 6561,
      "à¤ķà¤®à¤®": 6562,
      "à¤ħà¤Ľ": 6563,
      "Ġà¤ħà¤ªà¤¶à¤¬": 6564,
      "Ġà¥§à¥®à¥¨": 6565,
      "Ġà¤ıà¤²à¤ı": 6566,
      "Ġà¥§à¥¯à¥«à¥¯": 6567,
      "Ġà¤ĺà¤Łà¤ķà¤¹à¤°": 6568,
      "à¤¨à¤°à¤¹à¤°": 6569,
      "à¤ķà¤¤à¤²": 6570,
      "à¤¹à¤°à¤¸": 6571,
      "à¤ĩà¤¸à¤²": 6572,
      "Ġà¤ļà¤ªà¤²": 6573,
      "Ġà¤ľà¤¨à¤Ĩà¤ķ": 6574,
      "Ġà¤ħà¤§à¤¬": 6575,
      "à¤Ĺà¤¤à¤Ńà¤¨": 6576,
      "à¤¤à¤®à¤¯": 6577,
      "Ġà¤Ĩà¤ĩà¤¬": 6578,
      "Ġà¥§à¥ªà¥©": 6579,
      "à¤Łà¤¤à¤¨": 6580,
      "à¤ľà¤¯à¤°": 6581,
      "à¤Īà¤¶": 6582,
      "à¤Īà¤Łà¤°": 6583,
      "Ġà¤ľà¤¨à¤īà¤¤": 6584,
      "Ġà¤ĩà¤¨à¤ķ": 6585,
      "Ġà¤ĵà¤¯": 6586,
      "à¤¡à¤ķà¤ªà¤®": 6587,
      "à¤Łà¤®à¤¬": 6588,
      "Ġà¤ıà¤¸à¤¸": 6589,
      "Ġà¤«à¤°à¤ķà¤ªà¤¨": 6590,
      "Ġà¤¸à¤ªà¤¥à¤Ĺ": 6591,
      "Ġà¤ıà¤¨à¤Ĩà¤°à¤Ł": 6592,
      "à¤®à¤°à¤£à¤¶à¤ķ": 6593,
      "Ġà¤ħà¤¹à¤®à¤¦à¤²": 6594,
      "à¤Łà¤Ńà¤°": 6595,
      "Ġà¤¹à¤²à¤¬": 6596,
      "à¤§à¤µà¤°": 6597,
      "à¤£à¤¯à¤¨": 6598,
      "Ġà¤«à¤®": 6599,
      "à¤ĺà¤°à¤¤": 6600,
      "Ġà¤Łà¤ªà¤ķ": 6601,
      "à¤ļà¤¨à¤ľà¤Ļ": 6602,
      "Ġà¥Ńà¥©à¥¦": 6603,
      "Ġà¥¨à¥¦à¥Ńà¥§à¥¦à¥Ńà¥¨": 6604,
      "Ġà¥§à¥«à¥§à¥«": 6605,
      "à¤¥à¤²à¤¤à¤°": 6606,
      "Ġà¤Ĩà¤ļà¤°à¤£à¤®": 6607,
      "à¤Ĩà¤Īà¤ıà¤¸": 6608,
      "Ġà¤ħà¤ľà¤¯à¤ķ": 6609,
      "à¥§à¥Ńà¥¨": 6610,
      "Ġà¤Ĩà¤ĩà¤ıà¤®à¤ĩ": 6611,
      "Ġà¤ħà¤Ĺà¤®à¤µà¤ķ": 6612,
      "à¤¾à¥ĥ": 6613,
      "à¤ķà¤Ĺà¤£": 6614,
      "à¤¦à¤¯à¤°": 6615,
      "à¤·à¤²à¤Ĺ": 6616,
      "à¤Ļà¤µà¤°à¤ķ": 6617,
      "Ġà¤ħà¤¹à¤Ļ": 6618,
      "Ġà¤ļà¤²à¤¨à¤ķ": 6619,
      "à¤¹à¤¨à¤°": 6620,
      "Ġà¤¸à¤¡à¤ķà¤¸": 6621,
      "Ġà¥§à¥«à¥¨": 6622,
      "à¤¨à¤ªà¤ŀ": 6623,
      "Ġà¥¬à¥¦à¥§": 6624,
      "Ġà¥«à¥«à¥«": 6625,
      "à¤ķà¤ªà¤Ľ": 6626,
      "à¥ģà¥Ĥ": 6627,
      "Ġà¤¸à¤°à¤®": 6628,
      "à¤Ĺà¤µà¤¶": 6629,
      "à¤¥à¤¦": 6630,
      "à¤ļà¤ķà¤¤": 6631,
      "Ġà¤¶à¤¶à¤ķ": 6632,
      "Ġà¤ıà¤ıà¤¨à¤ı": 6633,
      "à¤īà¤¨à¤¤": 6634,
      "à¤²à¤®à¤ĸ": 6635,
      "à¤¤à¤°à¤¯": 6636,
      "à¤¤à¤°à¤¸à¤°à¤ķ": 6637,
      "à¤¶à¤ķà¤°": 6638,
      "à¤®à¤ļà¤°": 6639,
      "Ġà¤¦à¤¶à¤µà¤Ł": 6640,
      "à¤°à¤ĸà¤£": 6641,
      "à¤¨à¤Ńà¤°à¤ķ": 6642,
      "Ġà¤¬à¤Ĺà¤²": 6643,
      "à¤·à¤ªà¤¨": 6644,
      "Ġà¤Ĩà¤¯à¤¤à¤¨": 6645,
      "à¤Ńà¤¡": 6646,
      "Ġà¤ĸà¤µà¤°à¤ķ": 6647,
      "Ġà¤ıà¤«à¤¬": 6648,
      "à¤łà¤¸à¤¹": 6649,
      "Ġà¤Ĩà¤°à¤Ĩà¤°": 6650,
      "à¤¨à¤Ĺà¤°à¤Ń": 6651,
      "à¤ıà¤®à¤¡à¤¬": 6652,
      "Ġà¥¨à¥§à¥¯": 6653,
      "à¤¨à¤¨à¤²": 6654,
      "à¤¹à¤Ń": 6655,
      "Ġà¤°à¤¥à¤ķ": 6656,
      "Ġà¤Ĩà¤Īà¤²": 6657,
      "Ġà¤ľà¤£": 6658,
      "à¥ģà¤ģà¤Ĥ": 6659,
      "à¤°à¤µà¤£à¤ķ": 6660,
      "Ġà¤¦à¤²à¤¸à¤®": 6661,
      "Ġà¤ıà¤¨à¤ıà¤«": 6662,
      "Ġà¥¨à¥¨à¥¨": 6663,
      "à¤Łà¤¬à¤²à¤¬": 6664,
      "à¤īà¤¸à¤«": 6665,
      "ĠĠĠĠĠĠĠĠĠĠĠĠĠĠĠĠĠĠĠĠĠ": 6666,
      "à¤ľà¤ªà¤Ľ": 6667,
      "à¤·à¤¤à¤®": 6668,
      "Ġà¤¥à¤¬": 6669,
      "à¤¸à¤®à¤¯à¤®": 6670,
      "à¤¨à¤®à¤ķ": 6671,
      "Ġà¤®à¤¹à¤Ĺ": 6672,
      "Ġà¤ľà¤¨à¤Ĺà¤£à¤¤à¤¨": 6673,
      "à¤°à¤¸à¤¤": 6674,
      "Ġà¤²à¤Ĺà¤ĩà¤¨": 6675,
      "à¤²à¤¨à¤Ĺà¤°": 6676,
      "à¤ĩà¤²à¤¨à¤®": 6677,
      "Ġà¤Ĺà¤łà¤¨à¤¸à¤®": 6678,
      "Ġà¤Ĩà¤Īà¤¡à¤²": 6679,
      "Ġà¥¨à¥Ńà¥ª": 6680,
      "Ġà¥Ńà¥ªà¥Ńà¥«": 6681,
      "Ġà¥¨à¥¦à¥¬à¥®à¥¬à¥¯": 6682,
      "Ġà¤Ĩà¤²à¤®à¤ķ": 6683,
      "à¥įà¥Ģà¥Ģ": 6684,
      "Ġà¤¸à¤¤à¤²": 6685,
      "à¤¹à¤ľà¤¸": 6686,
      "à¤Īà¤Łà¤ķ": 6687,
      "à¤Īà¤ªà¤²": 6688,
      "à¤ļà¤°à¤£à¤ķ": 6689,
      "à¤°à¤¤à¤¸à¤®": 6690,
      "Ġà¤«à¤Ļ": 6691,
      "à¤¸à¤ķà¤¬": 6692,
      "Ġà¤ıà¤ķà¤¸à¤°": 6693,
      "à¤°à¤¹à¤ª": 6694,
      "à¤¤à¤°à¤¹à¤°": 6695,
      "à¤Ŀà¤ª": 6696,
      "à¤°à¤¦à¤¹": 6697,
      "à¤ªà¤¤à¤®": 6698,
      "à¤·à¤ķà¤¸à¤®": 6699,
      "Ġà¤ĵà¤®à¤¬à¤¹": 6700,
      "à¤¥à¤²à¤¦": 6701,
      "Ġà¥§à¥®à¥¬": 6702,
      "Ġà¥¨à¥ªà¥§": 6703,
      "à¤¶à¤Ńà¤°à¤®": 6704,
      "à¤°à¤ĸà¤ķ": 6705,
      "à¤¤à¤ħà¤²": 6706,
      "Ġà¤ķà¤Łà¤ķ": 6707,
      "à¤Łà¤Ĺà¤¢": 6708,
      "Ġà¤¬à¤Ĺà¤¨": 6709,
      "Ġà¤ħà¤¥à¤°": 6710,
      "Ġà¤Ĩà¤Ļà¤¦": 6711,
      "Ġà¤Ĩà¤¦à¤¨à¤ª": 6712,
      "à¤Īà¤ıà¤¨": 6713,
      "à¤ĸà¤¨à¤µ": 6714,
      "à¤ĩà¤°à¤¸à¤²": 6715,
      "Ġà¤ıà¤ķà¤®à¤¹": 6716,
      "à¤ķà¤ķà¤¥": 6717,
      "Ġà¤¸à¤°à¤Ĺà¤°": 6718,
      "à¤®à¤¨à¤¦": 6719,
      "Ġà¤¹à¤°à¤°": 6720,
      "Ġà¤Ķà¤·à¤§à¤ķ": 6721,
      "à¥®à¥©": 6722,
      "à¤·à¤®à¤§": 6723,
      "à¤µà¤°à¤£à¤¸à¤®": 6724,
      "Ġà¤ĭà¤£à¤²": 6725,
      "à¥ģà¥ģà¥ģ": 6726,
      "Ġà¤īà¤ªà¤°à¤¥": 6727,
      "à¤§à¤¨à¤²à¤Ĺ": 6728,
      "Ġà¥§à¥¯à¥ªà¥¦": 6729,
      "Ġà¤¸à¤²à¤²": 6730,
      "à¤¹à¤ħà¤µà¤°": 6731,
      "Ġà¤°à¤¸à¤²": 6732,
      "à¤¥à¤¡": 6733,
      "Ġà¤¸à¤®à¤¤à¤²": 6734,
      "Ġà¤ıà¤ķà¤¹à¤ª": 6735,
      "à¤ĸà¤°à¤ļà¤¨": 6736,
      "à¥¯à¥«": 6737,
      "Ġà¤ıà¤®à¤µ": 6738,
      "à¤²à¤µà¤¹à¤°": 6739,
      "Ġà¤ķà¤²à¤®à¤ķ": 6740,
      "à¤¸à¤ı": 6741,
      "Ġà¤¸à¤°à¤¹à¤°": 6742,
      "à¤¦à¤ħà¤¨": 6743,
      "Ġà¤¨à¤°à¤ª": 6744,
      "à¤ıà¤Īà¤¬": 6745,
      "Ġà¤®à¤ĸà¤¨": 6746,
      "à¥Įà¥Ī": 6747,
      "Ġà¤ķà¤¸à¤ľ": 6748,
      "à¤°à¤Ńà¤²": 6749,
      "à¤Łà¤²à¤¸à¤®": 6750,
      "Ġà¤ªà¤¢à¤¦": 6751,
      "à¤¬à¤²à¤¤": 6752,
      "à¤°à¤ľà¤ª": 6753,
      "Ġà¥¨à¥«à¥¦à¥¦": 6754,
      "Ġà¥©à¥¦à¥¨": 6755,
      "à¤ķà¤Łà¤Ĺ": 6756,
      "à¥¨à¥¦à¥Ń": 6757,
      "Ġà¥¨à¥¯à¥®": 6758,
      "Ġà¤¤à¤²à¤¬à¤¬": 6759,
      "Ġà¥§à¥¯à¥¬à¥§": 6760,
      "Ġà¤ıà¤«à¤ıà¤®à¤®": 6761,
      "à¤ħà¤µà¤¸à¤°à¤®": 6762,
      "Ġà¤ıà¤¸à¤ĩà¤ĩ": 6763,
      "à¤¨à¤ı": 6764,
      "à¥ģà¥ĩ": 6765,
      "Ġà¥ŀ": 6766,
      "à¤·à¤ªà¤¤": 6767,
      "à¤¸à¤®à¤¸à¤ķ": 6768,
      "à¤ĩà¤¨à¤ĸà¤¬à¤°": 6769,
      "à¤·à¤ķà¤¦": 6770,
      "Ġà¥§à¥ªà¥¨": 6771,
      "à¤ľà¤¦à¤°à¤²": 6772,
      "à¤µà¤¯à¤¨à¤¬": 6773,
      "à¤ļà¤°à¤Ļ": 6774,
      "Ġà¤¨à¤²à¤¡": 6775,
      "Ġà¤¢à¤ķà¤¢à¤ķ": 6776,
      "Ġà¤ļà¤°à¤®à¤¸": 6777,
      "Ġà¤°à¤£à¤ľ": 6778,
      "à¤ķà¤¸à¤°": 6779,
      "à¤®à¤¸à¤ķ": 6780,
      "à¤¦à¤Ńà¤®": 6781,
      "Ġà¤¬à¤¨à¤®": 6782,
      "Ġà¤¬à¤°à¤¬": 6783,
      "à¤¬à¤¤à¤²": 6784,
      "à¤¡à¤ĸ": 6785,
      "Ġà¤ªà¤¹à¤²à¤²": 6786,
      "Ġà¤¬à¤¸à¤Ń": 6787,
      "à¤Łà¤®à¤¸": 6788,
      "Ġà¤ĺà¤°à¤Łà¤¹à¤°": 6789,
      "Ġà¤¦à¤¶à¤µà¤°": 6790,
      "Ġà¥§à¥®à¥©": 6791,
      "Ġà¥§à¥Ńà¥ª": 6792,
      "Ġà¤²à¤¹à¤¡": 6793,
      "Ġà¤²à¤Ńà¤¸": 6794,
      "Ġà¥§à¥¯à¥«à¥«": 6795,
      "Ġà¤Ŀà¤®à¤Ŀà¤®": 6796,
      "à¤¨à¤¥à¤²": 6797,
      "à¤¹à¤Łà¤®": 6798,
      "à¤¦à¤¸à¤¹": 6799,
      "à¤ľà¤²à¤®": 6800,
      "Ġà¤¹à¤°à¤¹": 6801,
      "à¤¸à¤®à¤¤": 6802,
      "à¤ĩà¤¨à¤¸à¤ķ": 6803,
      "à¤ħà¤«à¤®": 6804,
      "à¤°à¤µà¤®à¤¯": 6805,
      "Ġà¤¹à¤ľà¤°": 6806,
      "à¤¤à¤¨à¤¦": 6807,
      "Ġà¤ªà¤¤à¤¨à¤ķ": 6808,
      "à¤¶à¤¬à¤£": 6809,
      "Ġà¤ĵà¤®à¤¨à¤ķ": 6810,
      "Ġà¤¨à¤¯à¤¨à¤°": 6811,
      "à¤µà¤ªà¤¤": 6812,
      "Ġà¤¨à¤§": 6813,
      "Ġà¤¤à¤¬à¤²": 6814,
      "à¤ĺà¤²à¤Ĺ": 6815,
      "à¤®à¤¤à¤ª": 6816,
      "à¤µà¤²à¤ª": 6817,
      "Ġà¤Ĩà¤Ĺà¤¨à¤®": 6818,
      "à¤¯à¤ªà¤°à¤ķ": 6819,
      "Ġà¤µà¤¨à¤ľà¤Ļ": 6820,
      "à¤¸à¤µà¤Ł": 6821,
      "à¤¨à¤Ī": 6822,
      "à¤ķà¤¸à¤²": 6823,
      "à¤ķà¤ªà¤ķ": 6824,
      "à¤¤à¤µà¤²": 6825,
      "à¤¸à¤£": 6826,
      "à¤ıà¤ļà¤¸": 6827,
      "à¤§à¤¸à¤Ń": 6828,
      "à¤§à¤°à¤£à¤ķ": 6829,
      "à¤ĩà¤¶": 6830,
      "à¤¤à¤ķà¤¸à¤®": 6831,
      "à¤ķà¤°à¤°": 6832,
      "Ġà¤ħà¤®à¤°à¤ª": 6833,
      "à¤ķà¤°à¤£à¤¹à¤°": 6834,
      "à¤ıà¤¨à¤ıà¤®": 6835,
      "à¤Łà¤²à¤°à¤ķ": 6836,
      "à¤°à¤¨à¤ľ": 6837,
      "à¤¤à¤°à¤£à¤¸à¤®": 6838,
      "Ġà¤ħà¤¦à¤Ń": 6839,
      "Ġà¥§à¥®à¥§à¥¬": 6840,
      "à¤·à¤§à¤°à¤²": 6841,
      "Ġà¥§à¥Ńà¥Ń": 6842,
      "à¤®à¤£à¤¹à¤°": 6843,
      "Ġà¤ıà¤²à¤¡": 6844,
      "à¤ĩà¤ķà¤²à¤¬": 6845,
      "Ġà¥¦à¥Ńà¥©à¥¦à¥Ńà¥ª": 6846,
      "à¤²à¤µà¤¨": 6847,
      "à¤ıà¤ĩà¤®": 6848,
      "Ġà¤Ńà¤¡à¤ķ": 6849,
      "Ġà¤µà¤¶à¤®": 6850,
      "à¤¹à¤°à¤¬": 6851,
      "Ġà¤ĩà¤¤à¤°": 6852,
      "à¥¯à¥¬": 6853,
      "Ġà¤Ĩà¤ĩà¤ĵà¤¸": 6854,
      "Ġà¤°à¤®à¤Ŀ": 6855,
      "Ġà¤ıà¤ļà¤ª": 6856,
      "à¤°à¤ĵà¤Ł": 6857,
      "à¤¨à¤ľà¤°": 6858,
      "à¤ķà¤ªà¤¨": 6859,
      "à¤¯à¤°à¤µ": 6860,
      "à¤ıà¤¬à¤®": 6861,
      "à¤¶à¤¶": 6862,
      "à¤ķà¤ķà¤°": 6863,
      "à¤µà¤°à¤£à¤µ": 6864,
      "Ġà¤Ĺà¤£à¤²": 6865,
      "Ġà¤Ĩà¤Īà¤¬": 6866,
      "Ġà¥©à¥§à¥¦": 6867,
      "Ġà¤ªà¤ļà¤¹à¤¤": 6868,
      "à¤¯à¤ľà¤¨à¤¹à¤°": 6869,
      "à¤¯à¤£à¤Ĺà¤¢à¤¬": 6870,
      "à¤°à¤¡à¤®": 6871,
      "à¤°à¤ľà¤¨à¤®": 6872,
      "Ġà¤¨à¤ĺ": 6873,
      "Ġà¤ħà¤ªà¤ķ": 6874,
      "Ġà¤¹à¤«": 6875,
      "à¤¶à¤£": 6876,
      "Ġà¤¸à¤®à¤ªà¤¨": 6877,
      "à¤ĩà¤ıà¤«à¤ı": 6878,
      "à¤°à¤®à¤¬à¤¦": 6879,
      "à¤°à¤¤à¤ļ": 6880,
      "à¤ĺà¤¢": 6881,
      "à¤²à¤ķà¤¥": 6882,
      "à¤ªà¤®à¤¤": 6883,
      "à¤®à¤¨à¤¹à¤°": 6884,
      "à¤Ĩà¤ĩà¤Ł": 6885,
      "Ġà¤¹à¤°à¤«à¤¹à¤°": 6886,
      "Ġà¥§à¥¯à¥§à¥Ń": 6887,
      "Ġà¥§à¥§à¥¦à¥¦": 6888,
      "Ġà¤¨à¤Ńà¤¤": 6889,
      "à¤Ĺà¤łà¤¨à¤¸": 6890,
      "à¤Ĺà¤¬à¤¤": 6891,
      "Ġà¤¨à¤Ńà¤Īà¤ķà¤¨": 6892,
      "à¤¶à¤¹à¤°à¤®": 6893,
      "à¤¨à¤¤à¤ķ": 6894,
      "à¤¯à¤¦à¤ķ": 6895,
      "Ġà¤ķà¤£à¤¹à¤°": 6896,
      "Ġà¤Ńà¤°à¤¤à¤®": 6897,
      "à¤¬à¤µ": 6898,
      "Ġà¤īà¤Ł": 6899,
      "à¤ĸà¤¨à¤¬": 6900,
      "à¤¹à¤°à¤¹à¤°": 6901,
      "à¤¨à¤ķà¤ķ": 6902,
      "à¤Ŀà¤°": 6903,
      "à¤®à¤¤à¤¸à¤¹": 6904,
      "à¤Ĩà¤Īà¤®": 6905,
      "à¤¨à¤¸à¤ĸà¤£": 6906,
      "Ġà¤Ĩà¤ĩà¤ıà¤²": 6907,
      "Ġà¤¨à¤ľà¤°à¤¬": 6908,
      "Ġà¤Ĩà¤Īà¤¡à¤²à¤ķ": 6909,
      "Ġà¥¨à¥¯à¥«": 6910,
      "Ġà¥¨à¥¦à¥¬à¥¯à¥Ńà¥¦": 6911,
      "à¤¦à¤ķà¤ªà¤¦": 6912,
      "Ġà¤ĺà¤ļà¤ĺà¤ļ": 6913,
      "à¥°": 6914,
      "à¤¸à¤ªà¤¨": 6915,
      "Ġà¤Ĺà¤Ĺ": 6916,
      "à¤¬à¤Ŀ": 6917,
      "à¤·à¤¯à¤ª": 6918,
      "à¤§à¤ľà¤¸": 6919,
      "à¤¶à¤Ĺà¤°": 6920,
      "à¤Īà¤ªà¤Ľ": 6921,
      "à¤Īà¤Ńà¤°": 6922,
      "à¤Ńà¤ľ": 6923,
      "Ġà¤ıà¤Ĩà¤°": 6924,
      "à¤īà¤¨à¤¸": 6925,
      "Ġà¤ıà¤ķà¤ªà¤Łà¤ķà¤®": 6926,
      "à¤ķà¤®à¤£": 6927,
      "Ġà¤Ńà¤ıà¤¬à¤®": 6928,
      "Ġà¥©à¥Ńà¥«": 6929,
      "Ġà¤Ŀà¤ªà¤Ł": 6930,
      "à¤®à¤¨à¤µà¤®": 6931,
      "Ġà¤¸à¤¦à¤¨à¤¬": 6932,
      "Ġà¥¯à¥©à¥¦": 6933,
      "Ġà¤¸à¤¡à¤ķà¤¦": 6934,
      "Ġà¥©à¥¦à¥ªà¥¦": 6935,
      "à¤¹à¤¤à¤¸": 6936,
      "à¤ĸà¤ķà¤·": 6937,
      "Ġà¥ªà¥¦à¥«à¥¦": 6938,
      "Ġà¥¨à¥©à¥¨": 6939,
      "Ġà¤ĸà¤¬à¤°à¤ªà¤¤": 6940,
      "ĠĠĠĠĠĠĠĠĠĠĠĠĠĠĠĠĠĠĠĠĠĠ": 6941,
      "Ġà¤ıà¤ļà¤Ĩà¤°": 6942,
      "Ġà¤ıà¤¸à¤Īà¤Īà¤ķ": 6943,
      "Ġà¤¹à¤¤à¤ķà¤¡": 6944,
      "à¤¯à¤¬à¤²": 6945,
      "à¥ģà¤¿": 6946,
      "Ġà¤µà¤ļà¤¨à¤²": 6947,
      "à¤¬à¤ªà¤Ľ": 6948,
      "à¤¡à¤Ńà¤°": 6949,
      "à¤ĺà¤ľ": 6950,
      "à¤·à¤ķà¤¤": 6951,
      "à¤Ĺà¤®à¤¨à¤ķà¤°": 6952,
      "à¤ıà¤¨à¤ıà¤²": 6953,
      "Ġà¥¨à¥§à¥¬": 6954,
      "Ġà¤Ńà¤µà¤¨à¤Ń": 6955,
      "Ġà¤°à¤ľà¤¤à¤ª": 6956,
      "Ġà¥®à¥«à¥¦": 6957,
      "à¤ıà¤¨à¤ıà¤¨à¤²": 6958,
      "Ġà¥¦à¥«à¥«": 6959,
      "Ġà¤ķà¤ļà¤¨à¤ķà¤µà¤²": 6960,
      "à¤²à¤°à¤¸": 6961,
      "Ġà¤ķà¤°à¤£à¤²": 6962,
      "Ġà¤¤à¤£": 6963,
      "Ġà¤¦à¤ª": 6964,
      "Ġà¤ľà¤¦": 6965,
      "à¤ĸà¤ķà¤¸": 6966,
      "Ġà¤¶à¤µà¤¦": 6967,
      "Ġà¤ıà¤¨à¤ķ": 6968,
      "à¤¢à¤¦": 6969,
      "Ġà¤°à¤¹à¤¨à¤¸à¤¹": 6970,
      "à¤®à¤²à¤¤": 6971,
      "à¥¯à¥¨": 6972,
      "Ġà¤Ĳà¤ľ": 6973,
      "Ġà¥§à¥§à¥§à¥¨": 6974,
      "Ġà¤ıà¤¨à¤¡": 6975,
      "à¤¸à¤¹à¤°à¤ķ": 6976,
      "Ġà¤Ĩà¤Īà¤ĵ": 6977,
      "à¤¤à¤°à¤ķà¤²": 6978,
      "Ġà¤Ĩà¤¸à¤¯": 6979,
      "à¤£à¤ªà¤¦à¤ķ": 6980,
      "Ġà¤¡à¤²à¤°à¤²": 6981,
      "Ġà¤¦à¤®à¤ķà¤²à¤ķ": 6982,
      "Ġà¤¬à¤¬à¤°à¤®à¤¹à¤²à¤®": 6983,
      "à¥ĩà¥Ī": 6984,
      "à¤ªà¤Ńà¤¨": 6985,
      "Ġà¤¨à¤¢": 6986,
      "à¤ĩà¤¬à¤°à¤ķ": 6987,
      "Ġà¤Ĩà¤°à¤¨": 6988,
      "à¤ıà¤¨à¤Ł": 6989,
      "Ġà¤ıà¤¸à¤°": 6990,
      "Ġà¤§à¤¨à¤ªà¤¤": 6991,
      "Ġà¥§à¥¬à¥¦à¥¦": 6992,
      "Ġà¤īà¤¡à¤¨": 6993,
      "à¥¨à¥¦à¥Ńà¥§": 6994,
      "Ġà¤¸à¤¹à¤°à¤¬à¤ľ": 6995,
      "à¤Ĺà¤¸à¤Ĺ": 6996,
      "Ġà¥§à¥¯à¥«à¥ª": 6997,
      "à¤¨à¤°à¤¬": 6998,
      "à¤ķà¤ľà¤¨": 6999,
      "à¤®à¤¸à¤°": 7000,
      "à¤ľà¤²à¤²": 7001,
      "à¤¥à¤ħà¤¨": 7002,
      "à¤¶à¤Ĺ": 7003,
      "à¤¡à¤°à¤µ": 7004,
      "à¤ĸà¤²à¤Ĺ": 7005,
      "Ġà¤ĺà¤°à¤¤à¤°": 7006,
      "Ġà¤§à¤¨à¤¸": 7007,
      "à¤Ĺà¤°à¤¨": 7008,
      "à¤Ĺà¤°à¤¬": 7009,
      "Ġà¤ħà¤¸à¤Ļ": 7010,
      "à¤ļà¤¨à¤¤": 7011,
      "à¤¸à¤¨à¤ªà¤Ľ": 7012,
      "Ġà¤ľà¤¬à¤ľ": 7013,
      "à¥¨à¥¦à¥§à¥¬": 7014,
      "à¤®à¤£à¤ª": 7015,
      "Ġà¥®à¥®à¥¦": 7016,
      "Ġà¤Ĩà¤¸à¤¨à¤¬": 7017,
      "Ġà¤²à¤ĸà¤¨à¤īà¤®": 7018,
      "Ġà¤ĳ": 7019,
      "à¤¸à¤«à¤°à¤ķ": 7020,
      "Ġà¤°à¤¥à¤²": 7021,
      "Ġà¤¹à¤µà¤¨": 7022,
      "Ġà¤¹à¤ķà¤¹à¤°": 7023,
      "Ġà¤µà¤°à¤£": 7024,
      "à¤ĺà¤µ": 7025,
      "à¤¯à¤¸à¤¨à¤²": 7026,
      "à¤²à¤®à¤¸": 7027,
      "à¤¬à¤¨à¤¡": 7028,
      "à¤¤à¤¨à¤¸à¤®": 7029,
      "à¤Ĩà¤°à¤¬": 7030,
      "à¤¬à¤°à¤ª": 7031,
      "à¤ķà¤°à¤£à¤¤à¤°": 7032,
      "à¤²à¤Ĺà¤ĩà¤¨": 7033,
      "Ġà¤¬à¤²à¤Ńà¤¦": 7034,
      "Ġà¤®à¤¤à¤¬": 7035,
      "Ġà¤Ĳà¤¯": 7036,
      "Ġà¤¸à¤¡à¤ķà¤ħà¤¨": 7037,
      "Ġà¤ıà¤¸à¤ľ": 7038,
      "à¤·à¤¦à¤¹à¤°": 7039,
      "Ġà¤ıà¤¨à¤ĵà¤¸": 7040,
      "Ġà¤Ľà¤²à¤«à¤²à¤¹à¤°": 7041,
      "Ġà¥§à¥ªà¥¬": 7042,
      "Ġà¤Ĩà¤Īà¤ĵà¤¸": 7043,
      "Ġà¥¨à¥©à¥©": 7044,
      "Ġà¤¬à¤ķà¤ªà¤¤": 7045,
      "à¤Łà¤°à¤²à¤Ĺ": 7046,
      "Ġà¤µà¤¢à¤¨": 7047,
      "Ġà¤ľà¤¨à¤¸à¤®à¤°": 7048,
      "Ġà¤ħà¤µà¤¯à¤µà¤¹à¤°": 7049,
      "à¤®à¤¦à¤ķ": 7050,
      "à¤¤à¤ļà¤¨": 7051,
      "à¤¸à¤¹à¤ķ": 7052,
      "Ġà¤ķà¤Ń": 7053,
      "Ġà¤°à¤ļà¤¯": 7054,
      "Ġà¤ħà¤Ĺà¤°": 7055,
      "Ġà¤¤à¤Ľ": 7056,
      "à¤¥à¤²à¤Ĺ": 7057,
      "à¤¥à¤²à¤¸": 7058,
      "à¤ļà¤°à¤¨": 7059,
      "Ġà¤ľà¤¨à¤¹à¤°": 7060,
      "à¤°à¤²à¤¯": 7061,
      "à¤®à¤ķà¤¨": 7062,
      "Ġà¤īà¤¦à¤¯à¤²": 7063,
      "à¤§à¤¨à¤¦": 7064,
      "Ġà¤¦à¤²à¤µ": 7065,
      "à¤¨à¤µà¤¹": 7066,
      "à¤¨à¤µà¤¹à¤°": 7067,
      "Ġà¥¨à¥«à¥«": 7068,
      "à¤ªà¤Łà¤ķà¤ķ": 7069,
      "à¤ıà¤®à¤¡": 7070,
      "Ġà¤«à¤²à¤¹à¤°": 7071,
      "à¤ĸà¤¨à¤¨à¤ķ": 7072,
      "Ġà¤Ĩà¤īà¤Łà¤¸": 7073,
      "Ġà¤ĵà¤Ńà¤°à¤¡": 7074,
      "à¥ĩà¤¿": 7075,
      "à¤²à¤ĸà¤°": 7076,
      "Ġà¤¬à¤°à¤¹": 7077,
      "Ġà¤¹à¤²à¤²": 7078,
      "Ġà¤µà¤¨à¤¹à¤°": 7079,
      "à¤·à¤ľà¤¤": 7080,
      "à¤§à¤¶à¤®à¤¶": 7081,
      "Ġà¤¤à¤¬à¤®": 7082,
      "Ġà¤ľà¤¯à¤¦": 7083,
      "à¤Īà¤¸à¤°": 7084,
      "Ġà¤¸à¤®à¤¬": 7085,
      "Ġà¤ıà¤ļà¤¬": 7086,
      "à¤ħà¤ľ": 7087,
      "à¤¹à¤ķà¤µà¤°": 7088,
      "à¤ıà¤¸à¤ıà¤ķ": 7089,
      "à¥ģà¤Ĥà¤ģ": 7090,
      "à¤¯à¤Łà¤ķà¤¬": 7091,
      "Ġà¥¨à¥ªà¥«": 7092,
      "à¤¨à¤¦à¤¹": 7093,
      "Ġà¤ıà¤¨à¤Ĩà¤°à¤ıà¤¨à¤¹à¤°": 7094,
      "Ġà¤Ĩà¤ĩà¤¨à¤¸à¤ķ": 7095,
      "à¤¸à¤²à¤²": 7096,
      "Ġà¤Ńà¤°à¤£à¤ª": 7097,
      "Ġà¤Ľà¤°à¤ª": 7098,
      "à¤¡à¤°à¤¶": 7099,
      "à¤Ńà¤¹": 7100,
      "à¤ĸà¤¬à¤°à¤ķ": 7101,
      "à¤ĩà¤Ńà¤²": 7102,
      "à¤°à¤¤à¤¦": 7103,
      "à¤°à¤¹à¤¸à¤¨": 7104,
      "à¤Ĺà¤°à¤¸": 7105,
      "Ġà¤Ŀà¤²à¤®à¤²": 7106,
      "à¤²à¤¤à¤¹à¤°": 7107,
      "à¤ľà¤¨à¤ķà¤°": 7108,
      "à¤ĩà¤Ńà¤°à¤ķ": 7109,
      "Ġà¤ľà¤¯à¤¨à¤¨": 7110,
      "Ġà¥§à¥¯à¥¬à¥¯": 7111,
      "Ġà¤¸à¤ľà¤¨": 7112,
      "Ġà¤ķà¤µà¤¯": 7113,
      "Ġà¤¤à¤ķà¤¸": 7114,
      "à¤¶à¤²à¤Ĺ": 7115,
      "à¤Īà¤¨à¤¬": 7116,
      "à¤°à¤®à¤¤": 7117,
      "à¤Ļà¤Ľ": 7118,
      "à¥¦à¥¨": 7119,
      "Ġà¤¡à¤Ĺà¤®à¤Ĺ": 7120,
      "Ġà¥«à¥©à¥¦": 7121,
      "Ġà¤ħà¤®à¤°à¤ķ": 7122,
      "à¥®à¥§": 7123,
      "Ġà¤¸à¤Ļà¤ĸ": 7124,
      "Ġà¤Ńà¤°à¤¥": 7125,
      "Ġà¥§à¥¨à¥§à¥©": 7126,
      "à¤¸à¤¹à¤®à¤¤": 7127,
      "Ġà¤¨à¤ªà¤¸": 7128,
      "à¤ľà¤¦à¤£": 7129,
      "Ġà¤Ĩà¤Īà¤®": 7130,
      "Ġà¤®à¤¦à¤¨à¤²": 7131,
      "Ġà¤ħà¤ľà¤¯à¤®": 7132,
      "à¤¼à¥ĩ": 7133,
      "Ġà¤ªà¤²à¤²": 7134,
      "à¤¦à¤²à¤Ĺ": 7135,
      "Ġà¤ķà¤²à¤ķà¤²": 7136,
      "à¤Łà¤ĩà¤¨": 7137,
      "Ġà¤¨à¤¡": 7138,
      "Ġà¤Ľà¤¤à¤¬": 7139,
      "à¤¡à¤®à¤²": 7140,
      "à¤°à¤ķà¤°à¤£à¤¬": 7141,
      "à¤ĩà¤¨à¤«": 7142,
      "à¤Łà¤°à¤ªà¤¨": 7143,
      "Ġà¥ªà¥§à¥¦": 7144,
      "à¤¶à¤¨à¤µ": 7145,
      "à¥¯à¥©": 7146,
      "Ġà¤¸à¤¤à¤¹à¤ķ": 7147,
      "à¤Ĺà¤¬à¤®": 7148,
      "Ġà¥©à¥©à¥ª": 7149,
      "Ġà¤Ńà¤°à¤¤à¤¬à¤¹": 7150,
      "à¤ĩà¤¬à¤²à¤²": 7151,
      "Ġà¤®à¤ķà¤¹": 7152,
      "Ġà¤°à¤¹à¤°à¤ķ": 7153,
      "Ġà¥§à¥¯à¥¬à¥ª": 7154,
      "Ġà¥§à¥¯à¥«à¥Ń": 7155,
      "Ġà¥¨à¥¦à¥Ńà¥«à¥¦à¥©": 7156,
      "Ġà¥¦à¥©à¥¬": 7157,
      "Ġà¤ıà¤ħà¤°à¤ķ": 7158,
      "à¤¨à¤Ŀ": 7159,
      "à¤¦à¤Ńà¤¨": 7160,
      "à¤ľà¤¸à¤ķ": 7161,
      "Ġà¤ħà¤«à¤²": 7162,
      "à¤§à¤¡": 7163,
      "à¤ļà¤¸à¤¹": 7164,
      "à¤Ńà¤²à¤ª": 7165,
      "à¤µà¤¸à¤°": 7166,
      "à¤¤à¤°à¤Ĺà¤¯": 7167,
      "Ġà¤ĩà¤¦à¤ķ": 7168,
      "Ġà¤Ŀà¤µ": 7169,
      "à¤¨à¤¨à¤Ĺà¤°à¤ķ": 7170,
      "Ġà¤ħà¤®à¤°à¤¤": 7171,
      "Ġà¥®à¥©à¥¦": 7172,
      "Ġà¥§à¥¯à¥§": 7173,
      "Ġà¥§à¥«à¥ª": 7174,
      "Ġà¥§à¥«à¥¯": 7175,
      "Ġà¤ıà¤¸à¤ıà¤²": 7176,
      "à¤ĩà¤Łà¤¸": 7177,
      "Ġà¥¦à¥§à¥Ń": 7178,
      "à¤Ĭà¤°": 7179,
      "Ġà¤¨à¤Ĺà¤ı": 7180,
      "à¤ħà¤µà¤¸à¤°": 7181,
      "à¤®à¤µà¤¹": 7182,
      "à¤¦à¤ĸ": 7183,
      "à¤¦à¤ľà¤¸": 7184,
      "Ġà¤Ĩà¤Ļà¤¬": 7185,
      "à¤Īà¤ľà¤¸": 7186,
      "à¤ĸà¤¶": 7187,
      "à¤īà¤ªà¤ķ": 7188,
      "à¥ĥà¤¿": 7189,
      "Ġà¤ıà¤ķà¤¹": 7190,
      "à¤¤à¤°à¤īà¤¨": 7191,
      "à¤¯à¤¤à¤¹à¤ķ": 7192,
      "Ġà¤ķà¤®à¤²à¤²": 7193,
      "à¤µà¤ķà¤°à¤£": 7194,
      "Ġà¤¸à¤¨à¤«": 7195,
      "à¤¯à¤°à¤¸à¤®": 7196,
      "Ġà¤ªà¤¦à¤¬à¤¹": 7197,
      "Ġà¤Ľà¤²à¤«à¤²à¤¸à¤®": 7198,
      "Ġà¥§à¥Ńà¥§": 7199,
      "Ġà¤ıà¤«à¤Ł": 7200,
      "Ġà¤ľà¤¨à¤Ĺà¤£à¤¤": 7201,
      "à¤ķà¤«à¤°": 7202,
      "à¤¤à¤Ĺà¤¢": 7203,
      "à¤¦à¤°à¤µ": 7204,
      "à¤¥à¤ķà¤®": 7205,
      "Ġà¤²à¤Łà¤°à¤®": 7206,
      "Ġà¤ıà¤®à¤¨": 7207,
      "Ġà¤ľà¤¨à¤¸à¤®à¤ķ": 7208,
      "Ġà¤ľà¤¨à¤Ĩà¤¸": 7209,
      "à¤ļà¤¨à¤ħà¤¨": 7210,
      "Ġà¤Ĩà¤°à¤§à¤¨": 7211,
      "Ġà¤¹à¤°à¤ª": 7212,
      "à¤¸à¤¦à¤¸à¤®": 7213,
      "à¤¹à¤¨à¤Ĺà¤°": 7214,
      "Ġà¤Ĩà¤¦à¤®": 7215,
      "à¤ľà¤¯à¤ªà¤Ľ": 7216,
      "à¤¯à¤Łà¤ķà¤¸": 7217,
      "Ġà¥¨à¥¦à¥¬à¥Ńà¥¬à¥®": 7218,
      "Ġà¥¨à¥®à¥©": 7219,
      "Ġà¥¨à¥©à¥ª": 7220,
      "à¤Ķà¤ªà¤¨": 7221,
      "à¥¦à¥¦à¥Ńà¥§": 7222,
      "à¤¹à¤°à¤£à¤²": 7223,
      "à¤Ĭà¤ķ": 7224,
      "Ġà¥§à¥¯à¥ªà¥¨": 7225,
      "à¤¤à¤ĺ": 7226,
      "Ġà¤Ĺà¤°à¤°": 7227,
      "à¤ĩà¤«à¤®": 7228,
      "Ġà¤ĸà¤¤à¤®": 7229,
      "Ġà¤ıà¤¡à¤²": 7230,
      "à¤°à¤¤à¤µà¤°": 7231,
      "Ġà¤īà¤ªà¤®à¤¨": 7232,
      "Ġà¤ķà¤°à¤ª": 7233,
      "Ġà¤ĩà¤¹": 7234,
      "à¤µà¤ķà¤°à¤²": 7235,
      "à¤ħà¤Ŀ": 7236,
      "à¤Ĺà¤¤à¤°à¤¤": 7237,
      "à¤ķà¤ķà¤ķ": 7238,
      "Ġà¤ĸà¤°à¤ĸà¤ľ": 7239,
      "Ġà¤ħà¤Ŀà¤¸à¤®": 7240,
      "à¤¸à¤°à¤¸à¤®": 7241,
      "Ġà¤¦à¤¶à¤°": 7242,
      "à¤¯à¤¯à¤¨à¤¶": 7243,
      "Ġà¤ķà¤ªà¤Ł": 7244,
      "Ġà¤Ńà¤Īà¤¦": 7245,
      "à¤Łà¤°à¤®à¤§": 7246,
      "à¤¯à¤ľà¤¨à¤¸": 7247,
      "à¤¨à¤ħà¤Ĺ": 7248,
      "Ġà¤ķà¤ªà¤²": 7249,
      "à¤Ĺà¤Ľ": 7250,
      "à¤Ĺà¤ľà¤²": 7251,
      "à¤ļà¤ķà¤°": 7252,
      "à¤ļà¤ħà¤¨": 7253,
      "Ġà¤¥à¤¸": 7254,
      "Ġà¤ªà¤°à¤«": 7255,
      "à¤ŀà¤¸à¤¹": 7256,
      "à¤°à¤²à¤²": 7257,
      "Ġà¤²à¤Ĺà¤¨à¤Ĺ": 7258,
      "à¤ħà¤°à¤¬": 7259,
      "Ġà¤Ńà¤¯à¤Ļ": 7260,
      "Ġà¤ħà¤µà¤ļ": 7261,
      "à¤µà¤¤à¤¨à¤ķ": 7262,
      "Ġà¤Ĳà¤¨à¤¨": 7263,
      "Ġà¤ħà¤¦à¤®": 7264,
      "à¤·à¤¯à¤¸à¤®": 7265,
      "à¤ļà¤®à¤§": 7266,
      "Ġà¤°à¤¨à¤Ń": 7267,
      "Ġà¤Ĺà¤ıà¤Ľ": 7268,
      "Ġà¤ĵà¤Ńà¤°à¤²": 7269,
      "à¤µà¤Ĺà¤¤": 7270,
      "Ġà¤°à¤¸à¤ķ": 7271,
      "à¤¶à¤ªà¤¤": 7272,
      "à¤¶à¤ľà¤¸": 7273,
      "Ġà¤ľà¤¯à¤ľ": 7274,
      "à¤£à¤®à¤¨": 7275,
      "à¤īà¤ĺà¤°à¤®": 7276,
      "à¤ĩà¤ŀ": 7277,
      "à¤°à¤¹à¤£à¤®": 7278,
      "à¤ĩà¤¨à¤¸à¤®": 7279,
      "à¤°à¤µà¤¹à¤¨à¤ķ": 7280,
      "à¤¶à¤ķà¤¸à¤®": 7281,
      "Ġà¤īà¤¦à¤¯à¤®": 7282,
      "à¤Ĺà¤²à¤¤": 7283,
      "à¤¸à¤¦à¤Ń": 7284,
      "Ġà¤«à¤°à¤µà¤°": 7285,
      "Ġà¤¸à¤Ļà¤Ĺ": 7286,
      "Ġà¤¹à¤²à¤¸à¤®": 7287,
      "Ġà¥¨à¥¨à¥®": 7288,
      "Ġà¤²à¤¡à¤¨": 7289,
      "Ġà¤Ĺà¤¹à¤Ńà¤°": 7290,
      "à¤ªà¤Łà¤ªà¤ķ": 7291,
      "Ġà¤¬à¤¹à¤¸à¤ªà¤Ľ": 7292,
      "Ġà¥ªà¥©à¥«": 7293,
      "à¤īà¤¥à¤¹": 7294,
      "Ġà¤«à¤¨à¤«à¤¨": 7295,
      "à¤¹à¤¸à¤¹": 7296,
      "à¤ľà¤°à¤¹à¤°": 7297,
      "Ġà¤µà¤¡à¤²": 7298,
      "à¤īà¤¨à¤¤à¤°": 7299,
      "à¥¦à¥¬": 7300,
      "à¥¦à¥¯": 7301,
      "Ġà¤Łà¤¹à¤²": 7302,
      "à¤¾à¤Ĥà¤Ĥ": 7303,
      "Ġà¤Ŀà¤¸à¤Ļ": 7304,
      "à¥Īà¤Ĥà¤Ĥ": 7305,
      "Ġà¤ĵà¤Ĺ": 7306,
      "Ġà¤®à¤²à¤Ļ": 7307,
      "à¤ķà¤¨à¤¸à¤®": 7308,
      "Ġà¤§à¤¨à¤¤": 7309,
      "Ġà¤¡à¤²à¤°à¤¸": 7310,
      "Ġà¤¨à¤Ĺà¤¦à¤ķ": 7311,
      "Ġà¤ľà¤Ĺà¤¤à¤ª": 7312,
      "à¤²à¤Ľ": 7313,
      "à¤¸à¤µà¤¸": 7314,
      "Ġà¤ķà¤¹à¤°": 7315,
      "Ġà¤¬à¤ĺ": 7316,
      "Ġà¤¬à¤°à¤¬à¤°": 7317,
      "Ġà¤µà¤ļà¤¨à¤ķ": 7318,
      "à¤£à¤ĺ": 7319,
      "à¤ĸà¤¤à¤ķ": 7320,
      "Ġà¤ıà¤²à¤¨": 7321,
      "à¤Ļà¤ĺ": 7322,
      "Ġà¤Łà¤²à¤ķ": 7323,
      "à¤²à¤®à¤Ł": 7324,
      "à¤²à¤¯à¤Ĺà¤¤": 7325,
      "Ġà¤¨à¤Ĺà¤°à¤ªà¤²": 7326,
      "à¤µà¤ªà¤¦": 7327,
      "Ġà¤Ĺà¤£à¤®": 7328,
      "Ġà¤ĺà¤Łà¤¦": 7329,
      "Ġà¤Ĺà¤łà¤ľ": 7330,
      "Ġà¤ķà¤ķà¤¸à¤²": 7331,
      "Ġà¤¨à¤Ńà¤ıà¤¤": 7332,
      "Ġà¤¤à¤¬à¤°à¤²": 7333,
      "Ġà¥¦à¥Ńà¥§à¥Ńà¥¨": 7334,
      "Ġà¥¯à¥«à¥¦": 7335,
      "à¤°à¤Ĺà¤®à¤¨à¤ķ": 7336,
      "à¤¦à¤¶à¤ķ": 7337,
      "Ġà¤°à¤Ļà¤²": 7338,
      "Ġà¤¨à¤¬à¤°": 7339,
      "Ġà¤¬à¤Łà¤®": 7340,
      "à¤¶à¤²à¤²": 7341,
      "à¤Ńà¤ıà¤°": 7342,
      "à¤īà¤¸à¤¬": 7343,
      "à¤«à¤¸à¤®": 7344,
      "Ġà¤¬à¤¸à¤°": 7345,
      "Ġà¤ħà¤®à¤°à¤¬à¤¹": 7346,
      "Ġà¤ĩà¤¨à¤ª": 7347,
      "à¥¯à¥Ń": 7348,
      "à¤ĩà¤Łà¤¹": 7349,
      "à¤·à¤§à¤°à¤¤": 7350,
      "Ġà¤Ĺà¤łà¤¨à¤¸": 7351,
      "Ġà¤Ĩà¤¹à¤µ": 7352,
      "Ġà¤ĺà¤¨à¤ĺ": 7353,
      "à¤ªà¤Łà¤ªà¤®": 7354,
      "à¤¯à¤£à¤Ĺà¤¢à¤ķ": 7355,
      "Ġà¤ķà¤¦à¤°à¤ªà¤¤": 7356,
      "Ġà¤¬à¤ĸà¤¤à¤®": 7357,
      "Ġà¤Ŀà¤ķà¤Ŀà¤ķ": 7358,
      "à¤ķà¤ĸ": 7359,
      "à¤ķà¤¤à¤ķ": 7360,
      "à¤ķà¤¡à¤®": 7361,
      "à¤²à¤Ĺà¤²": 7362,
      "Ġà¤µà¤§à¤¶": 7363,
      "à¤·à¤ħà¤¨": 7364,
      "à¤¶à¤®à¤²": 7365,
      "Ġà¤ľà¤²à¤¸à¤®": 7366,
      "Ġà¤ľà¤¯à¤¸à¤µ": 7367,
      "à¤¡à¤Ľ": 7368,
      "à¤¡à¤¨à¤µ": 7369,
      "à¤°à¤®à¤¹": 7370,
      "Ġà¤ªà¤°à¤¸à¤®": 7371,
      "Ġà¤®à¤¨à¤¦": 7372,
      "Ġà¤ķà¤°à¤¹à¤°": 7373,
      "Ġà¤ªà¤ķà¤µ": 7374,
      "Ġà¤Ĩà¤ľà¤®": 7375,
      "Ġà¥ªà¥¦à¥¦à¥¦": 7376,
      "Ġà¥¨à¥®à¥«": 7377,
      "Ġà¤¶à¤¹à¤°à¤¬à¤ľ": 7378,
      "à¤Ĺà¤®à¤¨à¤¬": 7379,
      "à¤Ĩà¤Īà¤Ł": 7380,
      "ĠĠĠĠĠĠĠĠĠĠĠĠĠĠĠĠĠĠĠĠĠĠĠ": 7381,
      "Ġà¤Ĺà¤Īà¤¸à¤ķ": 7382,
      "Ġà¤ķà¤²à¤®à¤²": 7383,
      "à¤ıà¤¨à¤ıà¤ļà¤¸": 7384,
      "Ġà¥¦à¥«à¥Ń": 7385,
      "Ġà¥§à¥§à¥©à¥Ń": 7386,
      "Ġà¤ľà¤¯à¤¨à¤Ĺà¤°à¤ľà¤¨à¤ķà¤ª": 7387,
      "Ġà¤ľà¤¯à¤ľà¤¯à¤ķ": 7388,
      "Ġà¤ªà¤²à¤ķ": 7389,
      "Ġà¤¬à¤¶": 7390,
      "Ġà¤®à¤²à¤²": 7391,
      "à¤Īà¤¥à¤°": 7392,
      "Ġà¤īà¤§à¤®": 7393,
      "Ġà¤ļà¤¹à¤ķ": 7394,
      "Ġà¤ıà¤ķà¤¥": 7395,
      "à¤°à¤²à¤¯à¤ķ": 7396,
      "Ġà¤ĩà¤°à¤«": 7397,
      "Ġà¤ĺà¤°à¤ĸ": 7398,
      "Ġà¤ĺà¤°à¤¨à¤ľ": 7399,
      "Ġà¤Ĩà¤®à¤¹": 7400,
      "Ġà¤Ĺà¤¨à¤Ĺà¤¨": 7401,
      "à¤Ńà¤Ĺà¤µ": 7402,
      "Ġà¤ħà¤ľà¤¯à¤²": 7403,
      "Ġà¤Ĩà¤īà¤Łà¤¡": 7404,
      "Ġà¤ķà¤¦à¤®à¤¬": 7405,
      "à¤ªà¤¨à¤²à¤Ĺ": 7406,
      "Ġà¥§à¥¯à¥«à¥¬": 7407,
      "Ġà¤ħà¤¨à¤ķà¤¨": 7408,
      "à¤°à¤Ĩà¤²": 7409,
      "à¤²à¤·": 7410,
      "Ġà¤¸à¤ĸà¤°": 7411,
      "Ġà¤¸à¤īà¤²": 7412,
      "Ġà¤ķà¤ªà¤°": 7413,
      "Ġà¤°à¤°": 7414,
      "Ġà¤°à¤Ĺà¤¡": 7415,
      "à¤Łà¤ļà¤¨": 7416,
      "Ġà¤¨à¤ķà¤®": 7417,
      "à¤§à¤²à¤Ĺ": 7418,
      "Ġà¤Ĩà¤¶à¤¨": 7419,
      "Ġà¤ľà¤¯à¤®": 7420,
      "à¤Ľà¤¹": 7421,
      "à¤Ľà¤ª": 7422,
      "à¤°à¤®à¤ĸ": 7423,
      "Ġà¤¯à¤¸à¤ħà¤°": 7424,
      "à¤²à¤ķà¤ª": 7425,
      "Ġà¤ķà¤®à¤²à¤¸": 7426,
      "à¤µà¤°à¤Ń": 7427,
      "Ġà¤¬à¤ľà¤°": 7428,
      "Ġà¥¬à¥©à¥¦": 7429,
      "Ġà¤Ĩà¤®à¤¹à¤¡": 7430,
      "à¤ľà¤²à¤¸à¤®": 7431,
      "à¤¨à¤Ĺà¤°à¤µ": 7432,
      "à¤Ĺà¤²à¤¬à¤ľ": 7433,
      "Ġà¥¨à¥©à¥«": 7434,
      "à¤°à¤¸à¤®à¤£": 7435,
      "Ġà¥ªà¥ªà¥§": 7436,
      "Ġà¤ķà¤¦à¤®à¤®": 7437,
      "Ġà¤Ĩà¤Ļà¤Ľ": 7438,
      "Ġà¤ħà¤®à¤²à¤¦": 7439,
      "à¤¸à¤ıà¤¸": 7440,
      "à¤¸à¤°à¤¹à¤ķ": 7441,
      "à¤ªà¤²à¤¬": 7442,
      "Ġà¤°à¤«à¤¤": 7443,
      "Ġà¤Ĩà¤¸à¤ķ": 7444,
      "à¤ļà¤Ľ": 7445,
      "Ġà¤ħà¤¨à¤¶à¤¨à¤²": 7446,
      "Ġà¤§à¤Ļ": 7447,
      "Ġà¤§à¤¨à¤¨": 7448,
      "à¤°à¤¹à¤ªà¤Ľ": 7449,
      "Ġà¤ĩà¤ķà¤®à¤°": 7450,
      "à¥§à¥§à¥¦": 7451,
      "à¤Ĩà¤ļ": 7452,
      "Ġà¤¨à¤®à¤ľ": 7453,
      "à¤Łà¤²à¤°à¤²": 7454,
      "Ġà¤®à¤¤à¤ħà¤¨": 7455,
      "Ġà¤¨à¤¹à¤¸": 7456,
      "Ġà¤ıà¤¸à¤Ł": 7457,
      "à¤°à¤£à¤®à¤§": 7458,
      "Ġà¥¨à¥§à¥ª": 7459,
      "Ġà¥¨à¥¨à¥§": 7460,
      "Ġà¤ĸà¤¨à¤ľ": 7461,
      "Ġà¤ĸà¤¸à¤ĸà¤¸": 7462,
      "à¤µà¤°à¤²à¤Ĺ": 7463,
      "Ġà¤Ńà¤°à¤®à¤Ĺ": 7464,
      "à¥¨à¥¦à¥¬à¥®": 7465,
      "à¤¯à¤Ńà¤°": 7466,
      "Ġà¤¸à¤Ŀ": 7467,
      "à¤¹à¤¬à¤¹": 7468,
      "Ġà¤ķà¤Łà¤°": 7469,
      "Ġà¤¨à¤µà¤µ": 7470,
      "Ġà¤µà¤£": 7471,
      "à¤§à¤ľà¤¯à¤¨": 7472,
      "à¤¶à¤Ĺà¤¤": 7473,
      "Ġà¤ľà¤¶": 7474,
      "Ġà¤ľà¤Ĺà¤²": 7475,
      "à¤ļà¤Ļ": 7476,
      "à¤¹à¤°à¤£à¤®": 7477,
      "Ġà¤ĸà¤²à¤ķ": 7478,
      "Ġà¤ĺà¤°à¤¬à¤¹": 7479,
      "Ġà¤¸à¤¹à¤²": 7480,
      "à¤¤à¤ķà¤£": 7481,
      "Ġà¤ĵà¤Ńà¤²": 7482,
      "Ġà¤ħà¤µà¤¦": 7483,
      "Ġà¤ıà¤®à¤ıà¤²": 7484,
      "Ġà¤Ĳà¤¡": 7485,
      "Ġà¤Ńà¤ĩà¤°à¤¹à¤ķ": 7486,
      "Ġà¤Īà¤¦": 7487,
      "Ġà¤Īà¤µ": 7488,
      "Ġà¥§à¥ªà¥Ń": 7489,
      "Ġà¤¤à¤²à¤¦": 7490,
      "Ġà¤¬à¤Ĺà¤°à¤ķ": 7491,
      "Ġà¤¡à¤Łà¤ķà¤®à¤®": 7492,
      "à¤¸à¤¡à¤ķà¤®": 7493,
      "Ġà¤¨à¤ħà¤Ł": 7494,
      "à¥įà¤ģà¥ĩ": 7495,
      "à¤¹à¤Ńà¤¨": 7496,
      "Ġà¤ķà¤ļà¤ķ": 7497,
      "à¤¬à¤Ń": 7498,
      "Ġà¤¦à¤ľ": 7499,
      "à¤ĸà¤īà¤ªà¤ª": 7500,
      "Ġà¤ıà¤Ĩà¤°à¤Ł": 7501,
      "Ġà¤ªà¤°à¤¯": 7502,
      "à¤ĩà¤¨à¤¦": 7503,
      "à¤²à¤¨à¤Ń": 7504,
      "à¤Łà¤¨à¤ªà¤Ľ": 7505,
      "Ġà¤Ĩà¤°à¤Ł": 7506,
      "Ġà¥§à¥¦à¥§à¥§": 7507,
      "Ġà¤ªà¤¦à¤®à¤°": 7508,
      "Ġà¤¸à¤¤à¤¬": 7509,
      "Ġà¤°à¤¹à¤¨à¤¸à¤ķ": 7510,
      "Ġà¥©à¥¦à¥©à¥«": 7511,
      "Ġà¥§à¥®à¥ª": 7512,
      "Ġà¥§à¥®à¥¦à¥¦": 7513,
      "Ġà¤Ĩà¤Īà¤¨": 7514,
      "Ġà¥¨à¥¨à¥Ń": 7515,
      "Ġà¥¨à¥¯à¥¦": 7516,
      "à¤¤à¤¹à¤Łà¤²": 7517,
      "Ġà¥¦à¥¬à¥¨à¥¦à¥¬à¥©": 7518,
      "à¤¤à¤ķà¤®à¤§": 7519,
      "Ġà¤²à¤¹à¤¡à¤®": 7520,
      "Ġà¤Ľà¤°à¤ªà¤·": 7521,
      "à¤¦à¤Ļ": 7522,
      "à¤µà¤§à¤¨": 7523,
      "Ġà¤Ĺà¤±": 7524,
      "à¤ľà¤ĺ": 7525,
      "à¤¬à¤¸à¤²": 7526,
      "à¤·à¤Ŀ": 7527,
      "Ġà¤ľà¤«": 7528,
      "à¤ļà¤²à¤¸": 7529,
      "à¤ĸà¤Ĺà¤¨": 7530,
      "Ġà¤¥à¤®à¤¨": 7531,
      "à¤ªà¤°à¤¹à¤°": 7532,
      "à¤¨à¤®à¤¹": 7533,
      "Ġà¤ıà¤ķà¤¤à¤¨": 7534,
      "à¤®à¤¤à¤¸": 7535,
      "à¤Ĩà¤ı": 7536,
      "à¤°à¤¶à¤®": 7537,
      "Ġà¤¢à¤²à¤®": 7538,
      "Ġà¤ªà¤Łà¤ķà¤Ńà¤¨": 7539,
      "à¤¤à¤µà¤°à¤£": 7540,
      "à¤¤à¤°à¤£à¤¬": 7541,
      "Ġà¤ħà¤«à¤°à¤¹à¤°": 7542,
      "Ġà¥¨à¥«à¥¨à¥«": 7543,
      "à¤¦à¤®à¤¯": 7544,
      "à¤ıà¤®à¤ª": 7545,
      "Ġà¤¤à¤²à¤¤à¤²": 7546,
      "Ġà¥¨à¥¯à¥¬": 7547,
      "à¤Ĺà¤®à¤¨à¤ªà¤Ľ": 7548,
      "Ġà¥©à¥Ńà¥¦": 7549,
      "Ġà¤ıà¤®à¤ıà¤¡à¤¬": 7550,
      "à¤®à¤¨à¤Ĺà¤°à¤¸": 7551,
      "à¤°à¤¯à¤ķ": 7552,
      "à¤°à¤ħà¤¸": 7553,
      "à¤¤à¤¶à¤¤": 7554,
      "à¤¸à¤¯à¤®": 7555,
      "Ġà¤¸à¤²à¤¬à¤²": 7556,
      "à¤µà¤īà¤ªà¤ª": 7557,
      "Ġà¤Ĺà¤Ĺà¤¨à¤²": 7558,
      "à¤¬à¤ĩà¤®": 7559,
      "à¤§à¤¨à¤®à¤¨": 7560,
      "Ġà¤¦à¤¹à¤®": 7561,
      "à¤īà¤ªà¤Ľ": 7562,
      "Ġà¤ıà¤ıà¤¸": 7563,
      "à¤īà¤¨à¤ªà¤°": 7564,
      "Ġà¤¬à¤¨à¤¬": 7565,
      "Ġà¤§à¤°à¤®à¤ª": 7566,
      "à¤ªà¤¨à¤ªà¤Ľ": 7567,
      "Ġà¤ĩà¤²à¤®": 7568,
      "Ġà¥ªà¥©à¥¦": 7569,
      "à¤®à¤²à¤ª": 7570,
      "à¤ĵà¤¡": 7571,
      "à¥®à¥¯": 7572,
      "Ġà¥¯à¥¨à¥¦": 7573,
      "à¤°à¤®à¤£à¤¸": 7574,
      "à¤¦à¤²à¤¸": 7575,
      "Ġà¤Ĩà¤łà¤ªà¤¹à¤°": 7576,
      "à¤¸à¤µà¤¬": 7577,
      "Ġà¥©à¥§à¥«": 7578,
      "Ġà¥§à¥¯à¥¬à¥©": 7579,
      "Ġà¤Ĺà¤Ĺà¤¨à¤ļ": 7580,
      "Ġà¤µà¤ļà¤¨à¤¬à¤¦": 7581,
      "à¤ķà¤ħà¤ªà¤®": 7582,
      "Ġà¤ľà¤®à¤ĺà¤Łà¤ķ": 7583,
      "Ġà¤Ĩà¤®à¤¹à¤¡à¤¤": 7584,
      "à¤°à¤°à¤ķ": 7585,
      "à¤°à¤Ĺà¤®à¤¨": 7586,
      "à¤¨à¤¯à¤¬": 7587,
      "à¤¤à¤µà¤°": 7588,
      "Ġà¥ĥ": 7589,
      "à¤Łà¤Ļ": 7590,
      "Ġà¤®à¤°à¤ķ": 7591,
      "à¤·à¤ħà¤ª": 7592,
      "Ġà¤Ľà¤ļà¤²": 7593,
      "à¤Īà¤ıà¤«à¤ı": 7594,
      "à¤Ľà¤°à¤®": 7595,
      "à¤ĩà¤§": 7596,
      "à¤¯à¤ķà¤¸à¤®": 7597,
      "à¤Ļà¤®à¤¤": 7598,
      "à¤ªà¤°à¤°": 7599,
      "à¤ķà¤²à¤¨à¤²": 7600,
      "à¤·à¤£à¤¦": 7601,
      "à¤Ĩà¤ĩà¤ķ": 7602,
      "à¤¤à¤¬à¤¦": 7603,
      "à¤°à¤ľà¤Ļ": 7604,
      "Ġà¤ıà¤¨à¤Ĩà¤Īà¤¬": 7605,
      "à¤¯à¤Łà¤¨à¤¬": 7606,
      "Ġà¥¨à¥®à¥§": 7607,
      "Ġà¤¨à¤µà¤Ĺ": 7608,
      "Ġà¥¨à¥¬à¥¯": 7609,
      "à¤Łà¤¬à¤²à¤ª": 7610,
      "Ġà¤ĩà¤®à¤°à¤ľ": 7611,
      "Ġà¤ķà¤ļà¤¹à¤°": 7612,
      "à¤¼à¥ĭ": 7613,
      "à¤Īà¤¨à¤²à¤ķ": 7614,
      "Ġà¤°à¤£à¤Ń": 7615,
      "à¤ķà¤¨à¤¸": 7616,
      "à¤¸à¤ĸà¤°": 7617,
      "Ġà¤ķà¤¦à¤ķ": 7618,
      "à¤ıà¤¥": 7619,
      "Ġà¤ħà¤¡à¤ķ": 7620,
      "Ġà¤Ľà¤łà¤²": 7621,
      "à¤§à¤µà¤¨": 7622,
      "Ġà¤²à¤¦": 7623,
      "Ġà¤¸à¤®à¤Ń": 7624,
      "à¤ĩà¤ıà¤°": 7625,
      "à¤¯à¤ķà¤¦": 7626,
      "à¤Ļà¤ªà¤Ľ": 7627,
      "à¤ªà¤°à¤¯": 7628,
      "Ġà¤¸à¤¹à¤ĩà¤¨": 7629,
      "Ġà¤ķà¤®à¤²à¤¬à¤¹": 7630,
      "à¤µà¤°à¤«": 7631,
      "à¤ħà¤®à¤²": 7632,
      "à¤·à¤£à¤¸à¤¹": 7633,
      "à¥«à¥¦à¥¦": 7634,
      "à¥¬à¥¨": 7635,
      "à¤Ĺà¤®à¤¬": 7636,
      "Ġà¤¬à¤¹à¤¸à¤¹à¤°": 7637,
      "Ġà¤ħà¤ªà¤¸": 7638,
      "Ġà¤«à¤°à¤«": 7639,
      "à¤µà¤°à¤£à¤¸": 7640,
      "Ġà¤¨à¤ªà¤ļ": 7641,
      "Ġà¥¨à¥§à¥¨": 7642,
      "Ġà¤°à¤¹à¤°à¤®": 7643,
      "à¤Ńà¤ªà¤¤à¤¨à¤²": 7644,
      "Ġà¤¦à¤®à¤¨à¤¨": 7645,
      "à¤°à¤ĺà¤£": 7646,
      "à¤ħà¤«à¤Ĺ": 7647,
      "Ġà¤Ľà¤²à¤ķà¤ªà¤Ł": 7648,
      "à¤¨à¤µà¤¨": 7649,
      "à¤¸à¤¤à¤²": 7650,
      "à¤¦à¤¯à¤µ": 7651,
      "Ġà¤°à¤¤à¤¨à¤ª": 7652,
      "Ġà¤¬à¤ķà¤¸": 7653,
      "à¤ľà¤¤à¤°": 7654,
      "à¤ļà¤ļ": 7655,
      "à¤Ľà¤Ł": 7656,
      "à¤ĩà¤¬à¤ķ": 7657,
      "à¥¦à¥Ń": 7658,
      "Ġà¤ıà¤ķà¤²à¤ķ": 7659,
      "Ġà¤¸à¤¹à¤ħà¤Ń": 7660,
      "à¤¯à¤¤à¤¹à¤°": 7661,
      "à¤ªà¤®à¤§": 7662,
      "à¤·à¤ķà¤¶": 7663,
      "à¥®à¥¨": 7664,
      "Ġà¤¬à¤²à¤¶": 7665,
      "Ġà¤¹à¤¤à¤ªà¤¤": 7666,
      "à¤¯à¤Łà¤ķà¤®": 7667,
      "à¤ıà¤«à¤ıà¤²": 7668,
      "Ġà¤Ńà¤ĩà¤ķà¤¨": 7669,
      "à¤°à¤ľà¤¨à¤¸": 7670,
      "Ġà¤²à¤¨à¤Ł": 7671,
      "à¤°à¤¶à¤ķ": 7672,
      "à¤¤à¤¸à¤°": 7673,
      "Ġà¤®à¤²à¤¬": 7674,
      "à¤·à¤ļà¤¨": 7675,
      "Ġà¤ľà¤¨à¤²": 7676,
      "à¤£à¤¶à¤®à¤¶": 7677,
      "Ġà¤¤à¤°à¤¹à¤°": 7678,
      "Ġà¤ĩà¤¨à¤¸": 7679,
      "à¤¶à¤ķà¤¶": 7680,
      "Ġà¤Ĩà¤ĩà¤ıà¤¸à¤ķ": 7681,
      "Ġà¤¦à¤²à¤¦à¤²": 7682,
      "à¤ĩà¤²à¤Łà¤¹à¤°": 7683,
      "à¤¹à¤®à¤§": 7684,
      "Ġà¤ıà¤¨à¤ıà¤ļ": 7685,
      "Ġà¥¨à¥©à¥§": 7686,
      "Ġà¤ħà¤ĸà¤µ": 7687,
      "Ġà¤¤à¤®à¤ĺ": 7688,
      "à¤¨à¤Ńà¤°à¤®": 7689,
      "Ġà¤ĵà¤Ńà¤²à¤®": 7690,
      "Ġà¤ıà¤ķà¤ıà¤ķà¤µà¤Ł": 7691,
      "à¤°à¤¢": 7692,
      "à¤®à¤¶à¤®à¤¶": 7693,
      "Ġà¤¸à¤ĺà¤°": 7694,
      "Ġà¤°à¤¶à¤®": 7695,
      "Ġà¤°à¤¬à¤°à¤ķ": 7696,
      "Ġà¤¨à¤«à¤¸": 7697,
      "à¤ıà¤°à¤ķ": 7698,
      "Ġà¤Ńà¤¯à¤®": 7699,
      "Ġà¤Ńà¤Łà¤°": 7700,
      "Ġà¤Ľà¤ľà¤¨": 7701,
      "à¤§à¤Ļ": 7702,
      "Ġà¤²à¤ķà¤°": 7703,
      "à¤ļà¤Ł": 7704,
      "à¤ļà¤ªà¤Ľ": 7705,
      "à¤īà¤¨à¤Ń": 7706,
      "à¤°à¤¤à¤Ńà¤°": 7707,
      "à¤°à¤¤à¤ªà¤°à¤¸": 7708,
      "à¤Ļà¤¥": 7709,
      "Ġà¤ĺà¤¤à¤²": 7710,
      "Ġà¤ľà¤¨à¤ªà¤¦": 7711,
      "Ġà¤ķà¤®à¤²à¤µ": 7712,
      "Ġà¤łà¤Ĺà¤¹à¤°": 7713,
      "à¤µà¤¨à¤¬à¤¹": 7714,
      "à¤·à¤£à¤ª": 7715,
      "à¤°à¤§à¤°": 7716,
      "Ġà¤ªà¤ķà¤¡à¤®": 7717,
      "Ġà¤ĺà¤°à¤ĺà¤¡": 7718,
      "à¥®à¥ª": 7719,
      "Ġà¤ħà¤µà¤Ĺ": 7720,
      "Ġà¥«à¥¦à¥ª": 7721,
      "à¤µà¤¦à¤¤": 7722,
      "à¤ķà¤¸à¤¤": 7723,
      "à¤¤à¤°à¤®à¤¹": 7724,
      "à¤ĩà¤ķà¤²à¤¯": 7725,
      "Ġà¤ļà¤°à¤£à¤¸à¤®": 7726,
      "Ġà¤Ľà¤łà¤²à¤Ĺ": 7727,
      "Ġà¤ĸà¤¬à¤°à¤¬": 7728,
      "Ġà¤¶à¤°à¤¦à¤²": 7729,
      "Ġà¤²à¤ĸà¤¤à¤°": 7730,
      "Ġà¥§à¥¯à¥©à¥¯": 7731,
      "à¤¨à¤Ĺà¤łà¤¨": 7732,
      "à¤²à¤¸à¤°": 7733,
      "à¤ªà¤Łà¤®": 7734,
      "Ġà¤¬à¤°à¤ķ": 7735,
      "Ġà¤¬à¤°à¤®": 7736,
      "à¤ıà¤°à¤²": 7737,
      "Ġà¤®à¤µ": 7738,
      "Ġà¤µà¤¨à¤®à¤¨": 7739,
      "à¤£à¤Ńà¤¨": 7740,
      "à¤īà¤Łà¤ķ": 7741,
      "Ġà¤ıà¤ķà¤¤à¤²": 7742,
      "Ġà¤¯à¤¸à¤ħà¤Ĺ": 7743,
      "à¤Ŀà¤īà¤¨": 7744,
      "à¤Ŀà¤¨à¤²": 7745,
      "à¤Ŀà¤Łà¤¬": 7746,
      "Ġà¤¬à¤¢à¤µ": 7747,
      "Ġà¤łà¤¹à¤¯": 7748,
      "Ġà¤¸à¤®à¤¯à¤ħà¤Ĺ": 7749,
      "à¥®à¥¬": 7750,
      "Ġà¥¯à¥§à¥¨": 7751,
      "à¤°à¤ªà¤Ļ": 7752,
      "à¤²à¤¤à¤¸à¤®à¤ķ": 7753,
      "Ġà¤¹à¤¸à¤¨à¤²": 7754,
      "à¤¯à¤¯à¤¨à¤ħà¤§": 7755,
      "à¤ľà¤¯à¤¬": 7756,
      "Ġà¥¦à¥«à¥¦": 7757,
      "Ġà¤Ńà¤Īà¤°à¤¹à¤¨": 7758,
      "à¤ıà¤®à¤Ĩà¤°à¤²": 7759,
      "à¤ªà¤Łà¤¨à¤®": 7760,
      "à¤²à¤¨à¤²à¤Ĺ": 7761,
      "Ġà¤¬à¤¬à¤°à¤®à¤¹à¤²à¤¸": 7762,
      "à¤¹à¤£à¤²": 7763,
      "à¤µà¤ļà¤°": 7764,
      "Ġà¤Ĺà¤ĩà¤¯": 7765,
      "Ġà¤°à¤ħà¤ķ": 7766,
      "Ġà¤¬à¤¨à¤²": 7767,
      "à¤¥à¤ľ": 7768,
      "à¤¥à¤°à¤®": 7769,
      "à¤¶à¤¯à¤²": 7770,
      "Ġà¤ħà¤¨à¤ªà¤¢": 7771,
      "à¤¯à¤¤à¤¤": 7772,
      "à¤µà¤¨à¤ªà¤¦": 7773,
      "à¤ļà¤¨à¤µ": 7774,
      "à¤¤à¤®à¤°": 7775,
      "à¤Ĺà¤ķà¤µ": 7776,
      "Ġà¤¢à¤ķà¤¨": 7777,
      "Ġà¥¯à¥§à¥§": 7778,
      "à¤ķà¤ªà¤Łà¤ķ": 7779,
      "Ġà¤¦à¤²à¤ľ": 7780,
      "Ġà¤¦à¤²à¤¹à¤¨": 7781,
      "Ġà¥§à¥¨à¥§à¥«": 7782,
      "Ġà¤Īà¤Ļà¤²": 7783,
      "Ġà¤Īà¤Ĩà¤Īà¤ı": 7784,
      "à¤¯à¤£à¤¬à¤¹": 7785,
      "Ġà¤Ŀà¤¨à¤Ŀà¤¨": 7786,
      "Ġà¤ıà¤ªà¤¬": 7787,
      "Ġà¥©à¥®à¥¦": 7788,
      "Ġà¥¯à¥®à¥¦": 7789,
      "Ġà¤ľà¤ľà¤¸à¤²": 7790,
      "à¤¨à¤ħà¤Łà¤°": 7791,
      "Ġà¤ıà¤²à¤ıà¤²à¤¬": 7792,
      "à¤¾à¥ħ": 7793,
      "à¥ĭà¤¾": 7794,
      "Ġà¤¸à¤¸à¤ķ": 7795,
      "à¤¹à¤²à¤²": 7796,
      "à¤ªà¤ªà¤¤": 7797,
      "Ġà¤ķà¤¡à¤°": 7798,
      "Ġà¤Ĺà¤«à¤ķ": 7799,
      "à¤ıà¤¶à¤¨à¤²": 7800,
      "à¤Ńà¤°à¤¸": 7801,
      "à¤īà¤Łà¤°": 7802,
      "Ġà¤«à¤¸à¤²": 7803,
      "Ġà¤¸à¤¹à¤¸à¤®": 7804,
      "à¤®à¤ķà¤ķ": 7805,
      "à¤¦à¤¨à¤ªà¤¤": 7806,
      "à¤ķà¤¨à¤ªà¤Ľ": 7807,
      "Ġà¥¨à¥¬à¥ª": 7808,
      "Ġà¤¨à¤Ĺà¤ª": 7809,
      "à¤¯à¤«": 7810,
      "Ġà¤µà¤°à¤ķ": 7811,
      "à¤Īà¤ªà¤¨": 7812,
      "à¤ļà¤ĺà¤°": 7813,
      "à¤¡à¤µà¤ķ": 7814,
      "à¤¡à¤ĺà¤Ł": 7815,
      "à¤ĸà¤Ĺ": 7816,
      "à¤ĩà¤Ńà¤ķ": 7817,
      "à¤°à¤¤à¤Ń": 7818,
      "Ġà¤ĺà¤®à¤¨": 7819,
      "à¤²à¤ķà¤¨": 7820,
      "à¤°à¤¦à¤¶à¤¨": 7821,
      "à¤²à¤²à¤²": 7822,
      "à¤²à¤¨à¤ľ": 7823,
      "à¤Ĩà¤ĸ": 7824,
      "à¤Ĩà¤°à¤ľ": 7825,
      "à¤·à¤®à¤¯": 7826,
      "Ġà¤«à¤°à¤«à¤°": 7827,
      "à¤Īà¤ķà¤²à¤ķ": 7828,
      "à¤ıà¤®à¤Ł": 7829,
      "Ġà¤ıà¤ķà¤ªà¤Łà¤ķà¤ķ": 7830,
      "Ġà¥¯à¥©à¥Ń": 7831,
      "Ġà¥§à¥¯à¥«à¥§": 7832,
      "Ġà¤¸à¤¯à¤ķà¤¡": 7833,
      "à¤Łà¤ħà¤Ł": 7834,
      "à¤¨à¤¨à¤ķ": 7835,
      "à¤¨à¤Ĺà¤¨": 7836,
      "à¤¤à¤·": 7837,
      "à¤¤à¤Ĩà¤ł": 7838,
      "à¤¯à¤²à¤¯à¤¹à¤°": 7839,
      "à¤ªà¤¥à¤®": 7840,
      "à¤µà¤§à¤°": 7841,
      "Ġà¤°à¤Ľ": 7842,
      "Ġà¤®à¤°à¤£à¤ķ": 7843,
      "Ġà¤Ńà¤°à¤¤à¤²": 7844,
      "Ġà¤ħà¤ıà¤ķ": 7845,
      "à¤¡à¤µà¤²": 7846,
      "à¤ĸà¤¯": 7847,
      "à¤ĩà¤Ĩà¤ıà¤ķ": 7848,
      "à¤«à¤²à¤²": 7849,
      "Ġà¤¶à¤®à¤¸": 7850,
      "Ġà¤ĸà¤°à¤²": 7851,
      "Ġà¤ĸà¤²à¤ª": 7852,
      "Ġà¤«à¤²à¤²": 7853,
      "à¤ĺà¤°à¤¸": 7854,
      "à¤ħà¤®à¤°": 7855,
      "à¤ļà¤¨à¤¦": 7856,
      "à¤Ĺà¤²à¤Ń": 7857,
      "Ġà¤Ĩà¤ľà¤ªà¤°": 7858,
      "Ġà¤¬à¤²à¤°à¤²": 7859,
      "à¤¸à¤¹à¤ľ": 7860,
      "Ġà¥¨à¥¬à¥®": 7861,
      "à¤¸à¤¨à¤²à¤Ĺ": 7862,
      "à¤°à¤Ļà¤¬": 7863,
      "Ġà¤®à¤¦à¤¨à¤ª": 7864,
      "à¤ĩà¤ıà¤ħà¤¨": 7865,
      "à¤°à¤¨à¤Ĺà¤°à¤¸": 7866,
      "à¤¡à¤°à¤¸à¤Ł": 7867,
      "Ġà¤ķà¤¨à¤ķà¤®à¤£": 7868,
      "à¤°à¤°à¤£": 7869,
      "à¤¦à¤¯à¤¸": 7870,
      "à¤µà¤ľà¤ķ": 7871,
      "à¤µà¤Ńà¤ķ": 7872,
      "à¥Īà¥Īà¤Ĥ": 7873,
      "à¤Łà¤ľà¤¤": 7874,
      "Ġà¤¬à¤Łà¤°à¤«": 7875,
      "à¤ıà¤¹à¤°": 7876,
      "Ġà¤¤à¤¶": 7877,
      "à¤¶à¤°à¤®": 7878,
      "Ġà¤ľà¤¯à¤¬": 7879,
      "à¤īà¤¡à¤²": 7880,
      "à¤īà¤§à¤¨à¤ķ": 7881,
      "à¤ĩà¤¥": 7882,
      "Ġà¤ļà¤ļ": 7883,
      "Ġà¤¶à¤¦": 7884,
      "à¤¾à¤ģà¥Īà¤Ĥ": 7885,
      "à¤°à¤£à¤¬à¤¸": 7886,
      "à¤¸à¤ķà¤µà¤°": 7887,
      "à¤ªà¤¨à¤¹": 7888,
      "à¤ķà¤²à¤¹à¤°": 7889,
      "à¤łà¤®à¤¡": 7890,
      "à¤¯à¤²à¤¹à¤°": 7891,
      "à¤Ĩà¤¨à¤ķ": 7892,
      "à¤¤à¤²à¤¹à¤°à¤ķ": 7893,
      "à¤ĩà¤²à¤¸": 7894,
      "Ġà¥©à¥¦à¥«": 7895,
      "à¤°à¤¤à¤ķà¤¥": 7896,
      "Ġà¥§à¥®à¥Ń": 7897,
      "Ġà¤ľà¤²à¤ļà¤°": 7898,
      "Ġà¤¨à¤Ĩà¤ıà¤°": 7899,
      "Ġà¥¦à¥ªà¥¯": 7900,
      "Ġà¤Ĩà¤ĩà¤ĵà¤ıà¤®": 7901,
      "à¤¸à¤ıà¤ª": 7902,
      "Ġà¤¹à¤ķà¤¬": 7903,
      "Ġà¤Ĺà¤°à¤¨": 7904,
      "à¤Īà¤Ľ": 7905,
      "à¤Īà¤°à¤¸": 7906,
      "à¤¯à¤ķà¤¥": 7907,
      "Ġà¤ıà¤¨à¤²": 7908,
      "à¤¯à¤®à¤¨à¤®": 7909,
      "Ġà¤¡à¤¯": 7910,
      "Ġà¤¡à¤¨à¤ķ": 7911,
      "Ġà¤ĩà¤ĸ": 7912,
      "à¤¤à¤ķà¤¸": 7913,
      "à¤²à¤¨à¤µ": 7914,
      "Ġà¤ĵà¤łà¤ķ": 7915,
      "à¤ķà¤°à¤£à¤¦": 7916,
      "Ġà¤ıà¤®à¤«": 7917,
      "à¤µà¤¤à¤¬": 7918,
      "Ġà¤Ĳà¤¨à¤¬": 7919,
      "Ġà¤§à¤¨à¤ŀ": 7920,
      "à¤°à¤ľà¤¯à¤¨à¤Ĺà¤°": 7921,
      "Ġà¤Īà¤ľà¤°": 7922,
      "Ġà¥¨à¥ªà¥¯": 7923,
      "Ġà¤ľà¤¬à¤ľà¤ķ": 7924,
      "Ġà¤ľà¤¬à¤ľà¤¬": 7925,
      "à¤Ĺà¤¢à¤ķ": 7926,
      "ĠĠĠĠĠĠĠĠĠĠĠĠĠĠĠĠĠĠĠĠĠĠĠĠĠ": 7927,
      "à¤Łà¤µà¤²à¤¸": 7928,
      "Ġà¤°à¤¹à¤°à¤¹à¤°": 7929,
      "Ġà¥¯à¥®à¥ª": 7930,
      "Ġà¤ĸà¤µà¤°à¤¦": 7931,
      "à¤¦à¤²à¤¬": 7932,
[...]
