{
  "version": "1.0",
  "truncation": null,
  "padding": null,
  "added_tokens": [],
  "normalizer": null,
  "pre_tokenizer": {
    "type": "ByteLevel",
    "add_prefix_space": false,
    "trim_offsets": true,
    "use_regex": true
  },
  "post_processor": {
    "type": "ByteLevel",
    "add_prefix_space": true,
    "trim_offsets": false,
    "use_regex": true
  },
  "decoder": {
    "type": "ByteLevel",
    "add_prefix_space": true,
    "trim_offsets": true,
    "use_regex": true
  },
  "model": {
    "type": "BPE",
    "dropout": null,
    "unk_token": null,
    "continuing_subword_prefix": null,
    "end_of_word_suffix": null,
    "fuse_unk": false,
    "byte_fallback": false,
    "vocab": {
      "!": 0,
      "\"": 1,
      "#": 2,
      "$": 3,
      "%": 4,
      "&": 5,
      "'": 6,
      "(": 7,
      ")": 8,
      "*": 9,
      "+": 10,
      ",": 11,
      "-": 12,
      ".": 13,
      "/": 14,
      "0": 15,
      "1": 16,
      "2": 17,
      "3": 18,
      "4": 19,
      "5": 20,
      "6": 21,
      "7": 22,
      "8": 23,
      "9": 24,
      ":": 25,
      ";": 26,
      "<": 27,
      "=": 28,
      ">": 29,
      "?": 30,
      "@": 31,
      "A": 32,
      "B": 33,
      "C": 34,
      "D": 35,
      "E": 36,
      "F": 37,
      "G": 38,
      "H": 39,
      "I": 40,
      "J": 41,
      "K": 42,
      "L": 43,
      "M": 44,
      "N": 45,
      "O": 46,
      "P": 47,
      "Q": 48,
      "R": 49,
      "S": 50,
      "T": 51,
      "U": 52,
      "V": 53,
      "W": 54,
      "X": 55,
      "Y": 56,
      "Z": 57,
      "[": 58,
      "\\": 59,
      "]": 60,
      "^": 61,
      "_": 62,
      "`": 63,
      "a": 64,
      "b": 65,
      "c": 66,
      "d": 67,
      "e": 68,
      "f": 69,
      "g": 70,
      "h": 71,
      "i": 72,
      "j": 73,
      "k": 74,
      "l": 75,
      "m": 76,
      "n": 77,
      "o": 78,
      "p": 79,
      "q": 80,
      "r": 81,
      "s": 82,
      "t": 83,
      "u": 84,
      "v": 85,
      "w": 86,
      "x": 87,
      "y": 88,
      "z": 89,
      "{": 90,
      "|": 91,
      "}": 92,
      "~": 93,
      "¡": 94,
      "¢": 95,
      "£": 96,
      "¤": 97,
      "¥": 98,
      "¦": 99,
      "§": 100,
      "¨": 101,
      "©": 102,
      "ª": 103,
      "«": 104,
      "¬": 105,
      "®": 106,
      "¯": 107,
      "°": 108,
      "±": 109,
      "²": 110,
      "³": 111,
      "´": 112,
      "µ": 113,
      "¶": 114,
      "·": 115,
      "¸": 116,
      "¹": 117,
      "º": 118,
      "»": 119,
      "¼": 120,
      "½": 121,
      "¾": 122,
      "¿": 123,
      "À": 124,
      "Á": 125,
      "Â": 126,
      "Ã": 127,
      "Ä": 128,
      "Å": 129,
      "Æ": 130,
      "Ç": 131,
      "È": 132,
      "É": 133,
      "Ê": 134,
      "Ë": 135,
      "Ì": 136,
      "Í": 137,
      "Î": 138,
      "Ï": 139,
      "Ð": 140,
      "Ñ": 141,
      "Ò": 142,
      "Ó": 143,
      "Ô": 144,
      "Õ": 145,
      "Ö": 146,
      "×": 147,
      "Ø": 148,
      "Ù": 149,
      "Ú": 150,
      "Û": 151,
      "Ü": 152,
      "Ý": 153,
      "Þ": 154,
      "ß": 155,
      "à": 156,
      "á": 157,
      "â": 158,
      "ã": 159,
      "ä": 160,
      "å": 161,
      "æ": 162,
      "ç": 163,
      "è": 164,
      "é": 165,
      "ê": 166,
      "ë": 167,
      "ì": 168,
      "í": 169,
      "î": 170,
      "ï": 171,
      "ð": 172,
      "ñ": 173,
      "ò": 174,
      "ó": 175,
      "ô": 176,
      "õ": 177,
      "ö": 178,
      "÷": 179,
      "ø": 180,
      "ù": 181,
      "ú": 182,
      "û": 183,
      "ü": 184,
      "ý": 185,
      "þ": 186,
      "ÿ": 187,
      "Ā": 188,
      "ā": 189,
      "Ă": 190,
      "ă": 191,
      "Ą": 192,
      "ą": 193,
      "Ć": 194,
      "ć": 195,
      "Ĉ": 196,
      "ĉ": 197,
      "Ċ": 198,
      "ċ": 199,
      "Č": 200,
      "č": 201,
      "Ď": 202,
      "ď": 203,
      "Đ": 204,
      "đ": 205,
      "Ē": 206,
      "ē": 207,
      "Ĕ": 208,
      "ĕ": 209,
      "Ė": 210,
      "ė": 211,
      "Ę": 212,
      "ę": 213,
      "Ě": 214,
      "ě": 215,
      "Ĝ": 216,
      "ĝ": 217,
      "Ğ": 218,
      "ğ": 219,
      "Ġ": 220,
      "ġ": 221,
      "Ģ": 222,
      "ģ": 223,
      "Ĥ": 224,
      "ĥ": 225,
      "Ħ": 226,
      "ħ": 227,
      "Ĩ": 228,
      "ĩ": 229,
      "Ī": 230,
      "ī": 231,
      "Ĭ": 232,
      "ĭ": 233,
      "Į": 234,
      "į": 235,
      "İ": 236,
      "ı": 237,
      "Ĳ": 238,
      "ĳ": 239,
      "Ĵ": 240,
      "ĵ": 241,
      "Ķ": 242,
      "ķ": 243,
      "ĸ": 244,
      "Ĺ": 245,
      "ĺ": 246,
      "Ļ": 247,
      "ļ": 248,
      "Ľ": 249,
      "ľ": 250,
      "Ŀ": 251,
      "ŀ": 252,
      "Ł": 253,
      "ł": 254,
      "Ń": 255,
      "à¤": 256,
      "à¥": 257,
      "Ġà¤": 258,
      "à¤¾": 259,
      "à¥į": 260,
      "à¤°": 261,
      "à¤¨": 262,
      "à¤ķ": 263,
      "à¤¿": 264,
      "à¥ĩ": 265,
      "Ġ-": 266,
      "à¥ĭ": 267,
      "à¤²": 268,
      "à¤®": 269,
      "à¤¤": 270,
      "à¤¯": 271,
      "à¤¸": 272,
      "à¥ģ": 273,
      "à¥Ģ": 274,
      "à¤ª": 275,
      "Ġà¥": 276,
      "à¤¹": 277,
      "à¤µ": 278,
      "à¤¦": 279,
      "Ġà¤¸": 280,
      "à¤Ĺ": 281,
      "Ġà¥¤": 282,
      "Ġà¤ª": 283,
      "à¤¾-": 284,
      "à¤Ł": 285,
      "à¥Ī": 286,
      "à¤ı": 287,
      "Ġà¤ķ": 288,
      "Ġà¤Ĺ": 289,
      "à¤¬": 290,
      "à¤ľ": 291,
      "Ġà¤°": 292,
      "Ġà¤Ń": 293,
      "Ġà¤¨": 294,
      "Ġà¤¬": 295,
      "à¥ĭ-": 296,
      "à¤·": 297,
      "à¤§": 298,
      "Ġà¤®": 299,
      "Ġà¤Ĺà¤°": 300,
      "Ġà¤¹": 301,
      "Ġ?": 302,
      "Ġà¤Ľ": 303,
      "à¤¶": 304,
      "à¤¥": 305,
      "à¤Ń": 306,
      "à¤ļ": 307,
      "à¤ģ": 308,
      "à¤ī": 309,
      "à¤ıà¤ķ": 310,
      "Ġà¤ħ": 311,
      "à¤Ĥ": 312,
      "Ġà¤¤": 313,
      "à¤Ľ": 314,
      "à¤¡": 315,
      "à¤Ī": 316,
      "Ġà¤µ": 317,
      "à¤£": 318,
      "à¤ĸ": 319,
      "à¥Ģ-": 320,
      "Ġà¤¦": 321,
      "à¥ĩ-": 322,
      "à¥Ĥ": 323,
      "Ġà¤ľ": 324,
      "Ġà¤Ĩ": 325,
      "Ġà¤²": 326,
      "à¤¹à¤°": 327,
      "Ġà¤¯": 328,
      "à¤ĩ": 329,
      "Ġà¤ī": 330,
      "à¤ħ": 331,
      "à¤«": 332,
      "à¤°à¤ķ": 333,
      "à¤°à¤®": 334,
      "Ġà¤¸à¤®": 335,
      "à¥Į": 336,
      "à¤īà¤¨": 337,
      "à¤¿-": 338,
      "Ġà¤Ńà¤¨": 339,
      "Ġà¤ļ": 340,
      "Ġà¤¥": 341,
      "à¤¸à¤®": 342,
      "à¤¯à¤ķ": 343,
      "à¤ł": 344,
      "à¤Ĺà¤°": 345,
      "Ġà¤ªà¤¨": 346,
      "à¤¾à¤ģ": 347,
      "Ġà¤ı": 348,
      "Ġà¤ĸ": 349,
      "à¤°à¤¤": 350,
      "Ġà¤¶": 351,
      "à¥ĥ": 352,
      "à¤ªà¤°": 353,
      "Ġà¤Ńà¤ıà¤ķ": 354,
      "à¤ľà¤¨": 355,
      "à¥¦": 356,
      "à¤Ļ": 357,
      "à¤¸à¤ķ": 358,
      "à¤Ĩ": 359,
      "à¤°à¤£": 360,
      "à¥ģ-": 361,
      "à¤ĺ": 362,
      "à¤¨à¤ķ": 363,
      "Ġà¤ªà¤°": 364,
      "à¤¢": 365,
      "Ġà¤Ľà¤¨": 366,
      "à¥Ī-": 367,
      "Ġà¥§": 368,
      "Ġà¤«": 369,
      "Ġà¤ħà¤¨": 370,
      "à¤µà¤¸": 371,
      "à¤°à¤¹": 372,
      "Ġà¥¨": 373,
      "à¤ªà¤¨": 374,
      "Ġà¤¯à¤¸": 375,
      "čĊ": 376,
      "Ġà¤ıà¤ķ": 377,
      "Ġà¤°à¤¹": 378,
      "à¤ŀ": 379,
      "à¤®à¤¨": 380,
      "à¤²à¤ķ": 381,
      "Ġà¤ĺ": 382,
      "Ġà¤¬à¤¨": 383,
      "Ġà¤¤à¤¥": 384,
      "à¤¨à¤²": 385,
      "à¤¯à¤¸": 386,
      "Ġà¤§": 387,
      "Ġà¤ľà¤¨": 388,
      "à¤¤à¤°": 389,
      "à¤ªà¤Ľ": 390,
      "à¤Ŀ": 391,
      "à¤¯à¤®": 392,
      "ĠĠ": 393,
      "à¤ħà¤¨": 394,
      "Ġà¤Ł": 395,
      "à¤ªà¤¤": 396,
      "Ġà¥§à¥": 397,
      "à¤¯à¤¤": 398,
      "Ġà¤¤à¤°": 399,
      "à¤µà¤°": 400,
      "Ġà¤¸à¤ķ": 401,
      "à¤ĩà¤¨": 402,
      "à¥Įà¤Ĥ": 403,
      "Ġà¤Ĩà¤«": 404,
      "à¤°à¤¸": 405,
      "à¤Ľà¤¨": 406,
      "à¤²à¤®": 407,
      "à¤ıà¤°": 408,
      "à¤¬à¤¨": 409,
      "à¤Ńà¤¨": 410,
      "Ġà¤¡": 411,
      "à¤ķà¤®": 412,
      "Ġà¤®à¤¹": 413,
      "Ġà¤¸à¤¹": 414,
      "à¤ªà¤®": 415,
      "à¤°à¤¦": 416,
      "à¤²à¤¨": 417,
      "à¥¨": 418,
      "Ġà¤µà¤°": 419,
      "à¤²à¤¯": 420,
      "à¥į-": 421,
      "Ġà¤¬à¤¢": 422,
      "à¤°à¤²": 423,
      "à¥§": 424,
      "à¤¯à¤¨": 425,
      "à¤łà¤®": 426,
      "Ġà¤¬à¤¤": 427,
      "à¤ļà¤¨": 428,
      "à¤Ĺà¤¤": 429,
      "Ġà¤¸à¤°à¤ķ": 430,
      "à¥ģà¤ģ": 431,
      "Ġà¤ħà¤°": 432,
      "à¥Ĥ-": 433,
      "à¤¸à¤¨": 434,
      "à¤µà¤¨": 435,
      "à¤ķà¤°": 436,
      "Ġà¤ķà¤°": 437,
      "à¤ķà¤²": 438,
      "Ġà¤ł": 439,
      "à¤¯à¤µà¤¸": 440,
      "à¥«": 441,
      "à¤°à¤¹à¤°": 442,
      "Ġà¤ķà¤®": 443,
      "à¤®à¤¹": 444,
      "à¥Ń": 445,
      "à¤®à¤ķ": 446,
      "Ġà¤²à¤Ĺ": 447,
      "à¤Łà¤ķ": 448,
      "Ġà¤®à¤¨": 449,
      "Ġà¤¸à¤¬": 450,
      "à¤Ńà¤ıà¤ķ": 451,
      "à¤¾à¤Ĥ": 452,
      "Ġà¤ªà¤¹": 453,
      "Ġà¥©": 454,
      "à¤ħà¤§": 455,
      "Ġà¤ħà¤§": 456,
      "à¤°à¤µ": 457,
      "à¤¨à¤®": 458,
      "Ġà¤īà¤¨à¤²": 459,
      "à¤Łà¤¨": 460,
      "Ġà¤Ńà¤ı": 461,
      "ĠčĊ": 462,
      "à¤¸à¤°": 463,
      "Ġà¤īà¤ª": 464,
      "à¤·à¤£": 465,
      "à¤Łà¤°": 466,
      "à¤¤à¤ķ": 467,
      "Ġà¤Ĩà¤¯": 468,
      "à¤²à¤¬": 469,
      "à¤¸à¤²": 470,
      "Ġà¤¬à¤¸": 471,
      "à¤¶à¤ķ": 472,
      "à¥Įà¤Ĥ-": 473,
      "Ġà¥«": 474,
      "à¤®à¤¤": 475,
      "à¤µà¤ķ": 476,
      "à¤²à¤Ĺ": 477,
      "Ġà¤Ĺà¤¤": 478,
      "à¥Īà¤Ĥ": 479,
      "à¤¤à¤¨": 480,
      "Ġà¤ĩ": 481,
      "Ġà¤Ĩà¤ıà¤ķ": 482,
      "Ġà¤īà¤¨": 483,
      "à¥ª": 484,
      "à¤²à¤²": 485,
      "à¤¦à¤¨": 486,
      "à¤¬à¤°": 487,
      "à¤·à¤ķ": 488,
      "à¤¸à¤¹": 489,
      "à¤°à¤§": 490,
      "à¤°à¤¯": 491,
      "à¤ªà¤ķ": 492,
      "à¥¬": 493,
      "Ġà¥¨à¥¦": 494,
      "à¤¶à¤¨": 495,
      "à¥©": 496,
      "à¤§à¤¨": 497,
      "Ġà¤¹à¤ľ": 498,
      "Ġà¤¬à¤ľ": 499,
      "Ġà¥ª": 500,
      "à¤¤à¤®": 501,
      "Ġà¤Ŀ": 502,
      "à¤°à¤¬": 503,
      "à¤Ńà¤¯": 504,
      "à¥Įà¤ģ": 505,
      "Ġà¤Ĩà¤°": 506,
      "Ġà¤īà¤¤": 507,
      "à¤īà¤Ł": 508,
      "Ġà¤ħà¤¸": 509,
      "à¤¨à¤¨": 510,
      "à¤«à¤²": 511,
      "ĠĠĠĠ": 512,
      "à¤ľà¤ķ": 513,
      "Ġà¥¬": 514,
      "à¤īà¤ª": 515,
      "à¤¡à¤ķ": 516,
      "à¤°à¤®à¤®": 517,
      "à¤¸à¤¦": 518,
      "à¤°à¤¶": 519,
      "à¥®": 520,
      "à¥¨à¥¦": 521,
      "à¤¨à¤Ĺà¤°": 522,
      "Ġà¤ħà¤¹": 523,
      "Ġà¤ĵ": 524,
      "à¤Ĺà¤²": 525,
      "à¤¯à¤°": 526,
      "à¥¯": 527,
      "Ġà¤¸à¤¨": 528,
      "Ġà¤¨à¤¯": 529,
      "à¤¿à¤Ĥ": 530,
      "à¤®à¤²": 531,
      "à¤ĵ": 532,
      "Ġà¤ħà¤µà¤¸": 533,
      "à¤ĸà¤°": 534,
      "à¤ľà¤¸": 535,
      "à¤īà¤¦": 536,
      "Ġà¤¸à¤¯": 537,
      "Ġà¤īà¤¨à¤ķ": 538,
      "à¤¨à¤®à¤¨": 539,
      "Ġà¤ıà¤īà¤Ł": 540,
      "à¤¾à¤ģ-": 541,
      "à¤µà¤²": 542,
      "à¤¯à¤¹": 543,
      "Ġà¤Ńà¤¯": 544,
      "à¤ĩà¤°à¤¹": 545,
      "à¤µà¤¶": 546,
      "à¤ķà¤°à¤£": 547,
      "Ġà¤¨à¤Ĺà¤°": 548,
      "Ġà¥Ń": 549,
      "à¤¦à¤°": 550,
      "à¤ĥ": 551,
      "à¤¿à¤ģ": 552,
      "Ġà¤Ĩà¤ľ": 553,
      "Ġà¤¸à¤®à¤¯": 554,
      "à¤īà¤¤": 555,
      "à¤ĩà¤ıà¤ķ": 556,
      "Ġà¤¯à¤¹": 557,
      "à¤ķà¤ķ": 558,
      "Ġà¤ªà¤ķ": 559,
      "Ġà¤ħà¤¬": 560,
      "Ġà¤ħà¤Ń": 561,
      "Ġà¤¬à¤°": 562,
      "à¤°à¤Ń": 563,
      "Ġà¤¹à¤°": 564,
      "Ġà¤¤à¤¯": 565,
      "à¤Ĺà¤ķ": 566,
      "à¤Ĩà¤«": 567,
      "Ġà¤¸à¤¦": 568,
      "à¤¨à¤¸": 569,
      "Ġà¤ªà¤Ľ": 570,
      "à¤¯à¤²": 571,
      "Ġà¤ļà¤²": 572,
      "Ġà¤ľà¤¸": 573,
      "à¤ħà¤°": 574,
      "Ġà¤Ĩà¤§": 575,
      "à¤¬à¤¹": 576,
      "Ġà¤īà¤¦": 577,
      "Ġà¤ĸà¤°": 578,
      "Ġà¤¸à¤°": 579,
      "à¤ķà¤¤": 580,
      "Ġà¤ķà¤¤": 581,
      "Ġà¤īà¤ķ": 582,
      "Ġà¤ĺà¤°": 583,
      "Ġà¤ªà¤¤": 584,
      "Ġà¤¢": 585,
      "à¤¨à¤Ĺà¤°à¤ª": 586,
      "à¤®à¤®": 587,
      "à¤¶à¤¤": 588,
      "à¤ıà¤¨": 589,
      "à¤¹à¤ķ": 590,
      "Ġà¥®": 591,
      "Ġà¥§à¥¦": 592,
      "à¤µà¤¤": 593,
      "à¤Ńà¤°": 594,
      "Ġà¤ħà¤Ĺ": 595,
      "à¤¬à¤¤": 596,
      "Ġà¤¦à¤°": 597,
      "Ġà¤īà¤¹": 598,
      "à¤¹à¤¨": 599,
      "à¤¤à¤²": 600,
      "à¤¬à¤²": 601,
      "à¤ķà¤¨": 602,
      "Ġà¤ķà¤²": 603,
      "Ġà¥¯": 604,
      "à¤Ĺà¤®": 605,
      "à¤Łà¤®": 606,
      "Ġà¤¸à¤¹à¤¯": 607,
      "Ġà¤Ĩà¤īà¤¨": 608,
      "à¤ķà¤ª": 609,
      "à¤ļà¤²": 610,
      "Ġà¤¸à¤®à¤¸": 611,
      "à¤ħà¤ĺ": 612,
      "Ġà¤¯à¤¸à¤ķ": 613,
      "Ġà¤ľà¤¨à¤¤": 614,
      "à¤µà¤®": 615,
      "à¤®à¤§": 616,
      "Ġà¤®à¤²": 617,
      "à¤ħà¤Ń": 618,
      "Ġà¤Ķ": 619,
      "à¤ĩà¤²": 620,
      "à¤¤à¤ª": 621,
      "à¤°à¤®à¤£": 622,
      "Ġà¤ħà¤ĺ": 623,
      "à¤µà¤ľà¤¨": 624,
      "à¤¦à¤ķ": 625,
      "Ġà¤¸à¤ŀ": 626,
      "Ġà¤¸à¤¦à¤¸": 627,
      "Ġà¤ķà¤¸": 628,
      "à¤ħà¤¸": 629,
      "à¤¶à¤®": 630,
      "à¤¸à¤ŀ": 631,
      "à¤ıà¤ªà¤Ľ": 632,
      "à¤¯à¤µ": 633,
      "à¥Įà¤ģ-": 634,
      "Ġà¤Ĺà¤ıà¤ķ": 635,
      "Ġà¤¶à¤°": 636,
      "Ġà¤®à¤§": 637,
      "à¤ĩà¤¤": 638,
      "Ġà¤ħà¤®": 639,
      "Ġà¤Ĩà¤Ĺ": 640,
      "Ġà¤¥à¤ª": 641,
      "à¤£à¤¯": 642,
      "à¤·à¤®": 643,
      "à¤¸à¤°à¤ķ": 644,
      "Ġà¤¨à¤®": 645,
      "à¤Łà¤²": 646,
      "à¤ľà¤Ĺ": 647,
      "à¤ħà¤µà¤¸": 648,
      "Ġà¤Ĩà¤®": 649,
      "à¤ľà¤®": 650,
      "à¤®à¤ļ": 651,
      "à¤¸à¤¬": 652,
      "à¤¸à¤Ń": 653,
      "à¤²à¤¤": 654,
      "Ġà¤¦à¤²": 655,
      "Ġà¤¸à¤Ń": 656,
      "Ġà¤µà¤Ł": 657,
      "à¤¦à¤Ľ": 658,
      "à¤Ĩà¤°": 659,
      "à¤łà¤¨": 660,
      "-à¤¾": 661,
      "à¤ļà¤ķ": 662,
      "à¤µà¤°à¤£": 663,
      "Ġà¤ļà¤°": 664,
      "Ġà¤®à¤¤": 665,
      "à¤ªà¤¦": 666,
      "à¤ģ-": 667,
      "Ġà¤ªà¤Łà¤ķ": 668,
      "Ġà¤¯à¤¸à¤²": 669,
      "Ġà¤¸à¤¡à¤ķ": 670,
      "Ġà¤¤à¤ª": 671,
      "Ġà¤¬à¤²": 672,
      "à¤¾à¥ĩ": 673,
      "Ġà¤īà¤ļ": 674,
      "à¤ľà¤²": 675,
      "à¤ĵà¤µ": 676,
      "Ġà¤¨à¤¸à¤ķ": 677,
      "à¤¥à¤®": 678,
      "à¤°à¤ļ": 679,
      "Ġà¤Ńà¤°": 680,
      "Ġà¤ıà¤®": 681,
      "Ġà¤ªà¤¦": 682,
      "à¤¨à¤µ": 683,
      "Ġà¤¬à¤¹": 684,
      "à¤Ĩà¤¯": 685,
      "Ġà¤ĵà¤²": 686,
      "à¤ĩà¤¸à¤ķ": 687,
      "Ġà¤¸à¤«à¤²": 688,
      "à¤ªà¤²": 689,
      "à¤°à¤¨": 690,
      "Ġà¤°à¤¹à¤¨": 691,
      "à¤·à¤¤": 692,
      "à¤·à¤¯à¤®": 693,
      "Ġà¤Ńà¤ıà¤°": 694,
      "Ġà¤ħà¤µ": 695,
      "à¤ıà¤¸": 696,
      "à¤¬à¤¸": 697,
      "Ġà¤Ĩà¤¦": 698,
      "à¤¥à¤²": 699,
      "à¤«à¤¤": 700,
      "à¤ªà¤¹": 701,
      "Ġà¤¨à¤¹": 702,
      "Ġà¤µà¤¡": 703,
      "Ġà¤ħà¤Ŀ": 704,
      "à¤ıà¤®": 705,
      "à¤¤à¤°à¤£": 706,
      "Ġà¤°à¤ķà¤®": 707,
      "à¤¯à¤¤à¤ķ": 708,
      "Ġà¤«à¤°": 709,
      "à¤¡à¤²": 710,
      "à¤¨à¤°": 711,
      "Ġà¤ªà¤¢": 712,
      "Ġà¤ĺà¤Łà¤¨": 713,
      "à¤¯à¤¸à¤ķ": 714,
      "Ġà¤¸à¤ļ": 715,
      "Ġà¤¯à¤¤": 716,
      "Ġà¤¸à¤®à¤¯à¤®": 717,
      "à¤µà¤ª": 718,
      "à¤¬à¤¢": 719,
      "Ġà¥§à¥«": 720,
      "Ġà¥§à¥¨": 721,
      "Ġà¤ħà¤¤": 722,
      "à¤°à¤ªà¤¤": 723,
      "Ġà¤¨à¤¦": 724,
      "à¥¨à¥¦à¥Ń": 725,
      "à¤·à¤¯": 726,
      "Ġà¤¤à¤¹": 727,
      "Ġà¤ķà¤¹": 728,
      "à¤īà¤®": 729,
      "à¤¤à¤µ": 730,
      "à¤·à¤¦": 731,
      "à¤°à¤ª": 732,
      "Ġà¤¸à¤¤": 733,
      "Ġà¤īà¤²": 734,
      "Ġà¥§à¥§": 735,
      "à¤Ńà¤µ": 736,
      "Ġà¤Ĩà¤µ": 737,
      "à¤łà¤ķ": 738,
      "Ġà¤ľà¤®": 739,
      "à¤¦à¤µ": 740,
      "à¤ħà¤¹": 741,
      "à¤¯à¤¯à¤¨": 742,
      "à¤ĺà¤Łà¤¨": 743,
      "à¤ħà¤®": 744,
      "à¤®à¤¦": 745,
      "à¤Ļà¤ķ": 746,
      "à¤§à¤°": 747,
      "Ġà¤Ĩà¤µà¤¶": 748,
      "Ġà¤¨à¤Ń": 749,
      "à¤°à¤ľ": 750,
      "à¤Ķ": 751,
      "à¤¦à¤²": 752,
      "Ġà¤¸à¤µ": 753,
      "Ġà¤¹à¤¤": 754,
      "Ġà¤¤à¤¤": 755,
      "Ġà¤Ľà¤²": 756,
      "à¤¨à¤ª": 757,
      "Ġà¤Ĳ": 758,
      "à¤ªà¤¯": 759,
      "à¤®à¤°": 760,
      "à¤®à¤¹à¤¤": 761,
      "à¤®à¤¸": 762,
      "Ġà¤ħà¤²": 763,
      "à¤ĺà¤°": 764,
      "à¤¡à¤®": 765,
      "Ġà¤ħà¤ª": 766,
      "à¤¨à¤¸à¤ķ": 767,
      "ĠĠĠĠĠĠĠĠ": 768,
      "à¤ĩà¤Ł": 769,
      "Ġà¤īà¤®": 770,
      "Ġà¥§à¥¯": 771,
      "à¤¨à¤¤": 772,
      "à¤°à¤¦à¤°": 773,
      "à¤ªà¤Łà¤ķ": 774,
      "Ġà¤§à¤°": 775,
      "Ġà¥«à¥¦": 776,
      "Ġà¤īà¤ł": 777,
      "à¤¨à¤¬": 778,
      "à¤µà¤¯à¤¨": 779,
      "Ġà¤ıà¤¸": 780,
      "Ġà¤¸à¤Ļ": 781,
      "Ġà¤īà¤ªà¤ļ": 782,
      "à¤§à¤ķ": 783,
      "Ġà¤ĩà¤¨": 784,
      "à¤¹à¤²": 785,
      "Ġà¤§à¤¨": 786,
      "Ġà¤²à¤ķ": 787,
      "Ġà¤ħà¤¦": 788,
      "Ġà¤ľà¤°": 789,
      "Ġà¤ķà¤¸à¤°": 790,
      "Ġà¤Ĩà¤¨": 791,
      "Ġà¥¨à¥«": 792,
      "Ġà¤¸à¤¹à¤Ń": 793,
      "à¤ķà¤¸": 794,
      "à¤§à¤®": 795,
      "à¤ļà¤®": 796,
      "à¤ľà¤°": 797,
      "Ġà¤ıà¤µ": 798,
      "à¤ļà¤°": 799,
      "à¤¬à¤ľ": 800,
      "à¤ĩà¤¦": 801,
      "à¤Ĺà¤¦": 802,
      "Ġà¤Ĩà¤¶": 803,
      "Ġà¤¨à¤Ńà¤ıà¤ķ": 804,
      "à¤ľà¤¯": 805,
      "Ġà¥©à¥¦": 806,
      "à¤Ńà¤ķ": 807,
      "à¤¤à¤¤": 808,
      "Ġà¤®à¤°": 809,
      "Ġà¤¦à¤¶": 810,
      "à¤Ĩà¤¨": 811,
      "à¤¹à¤¤": 812,
      "à¤²à¤¸": 813,
      "à¤Ĩà¤µà¤¶": 814,
      "à¤¯à¤ª": 815,
      "à¤¸à¤ļ": 816,
      "Ġà¤ħà¤«": 817,
      "Ġà¤¬à¤ļ": 818,
      "à¤ĺà¤ķ": 819,
      "à¥ģà¤Ĥ": 820,
      "à¤®à¤¬": 821,
      "à¤¦à¤®": 822,
      "-à¥į": 823,
      "à¤µà¤¯": 824,
      "-à¤¿": 825,
      "à¤§à¤¤": 826,
      "Ġà¤Ńà¤ıà¤ªà¤Ľ": 827,
      "Ġà¤¸à¤ľ": 828,
      "-à¥Ģ": 829,
      "à¤¯à¤Łà¤ķ": 830,
      "à¤Īà¤²": 831,
      "Ġà¤¨à¤ľ": 832,
      "Ġà¤Ĩà¤ī": 833,
      "Ġà¤ªà¤¶": 834,
      "Ġà¤ľà¤Ĺ": 835,
      "à¤¸à¤Ļ": 836,
      "à¤¸à¤µ": 837,
      "à¤¹à¤¸": 838,
      "Ġà¤¨à¤ª": 839,
      "à¤ķà¤Ł": 840,
      "à¥Īà¤ģ": 841,
      "Ġà¤ĺà¤°à¤®": 842,
      "Ġà¤¯à¤¦": 843,
      "à¤¯à¤¸à¤®": 844,
      "Ġà¤ļà¤°à¤£": 845,
      "Ġà¤Ĩà¤ķ": 846,
      "Ġà¤ķà¤ª": 847,
      "Ġà¥§à¥©": 848,
      "à¤¯à¤£": 849,
      "à¤īà¤²": 850,
      "Ġà¤Ľà¤²à¤«à¤²": 851,
      "à¤¬à¤¦": 852,
      "à¤°à¤¹à¤¨": 853,
      "à¤ĩà¤ķ": 854,
      "Ġà¤¸à¤¹à¤®à¤¤": 855,
      "à¤ħà¤ª": 856,
      "à¤²à¤¨à¤®": 857,
      "Ġà¤Ńà¤ĩà¤°à¤¹": 858,
      "à¤°à¤·": 859,
      "à¤ľà¤§": 860,
      "Ġà¤¨à¤°": 861,
      "Ġà¤¶à¤ķ": 862,
      "à¤·à¤®à¤¤": 863,
      "Ġà¤Ńà¤¦": 864,
      "Ġà¤ªà¤ł": 865,
      "Ġà¥§à¥ª": 866,
      "à¤ľà¤¦": 867,
      "Ġà¥§à¥®": 868,
      "à¤°à¤ļà¤¨": 869,
      "à¤Īà¤¨": 870,
      "à¤«à¤°": 871,
      "Ġà¤ıà¤ķà¤¤": 872,
      "Ġà¤ľà¤¸à¤²": 873,
      "Ġà¤¸à¤¹à¤ľ": 874,
      "à¤°à¤¤à¤ķ": 875,
      "à¤²à¤µ": 876,
      "à¤¯à¤¸à¤ªà¤Ľ": 877,
      "Ġà¤ľà¤¤": 878,
      "à¤²à¤°": 879,
      "Ġà¥§à¥¬": 880,
      "à¤Īà¤ķ": 881,
      "Ġà¤¯à¤¸à¤°": 882,
      "Ġà¤īà¤¸à¤²": 883,
      "Ġà¤ĺà¤Ł": 884,
      "Ġà¤ıà¤¨": 885,
      "à¤ĩà¤°": 886,
      "Ġà¤¨à¤Ĺà¤°à¤ª": 887,
      "Ġà¥¨à¥§": 888,
      "à¤ªà¤¶": 889,
      "à¤¸à¤¹à¤°": 890,
      "à¤µà¤¦": 891,
      "à¤Ĩà¤¤": 892,
      "à¤µà¤§": 893,
      "à¤¸à¤¸": 894,
      "Ġà¥¨à¥¦à¥Ń": 895,
      "à¤·à¤§": 896,
      "à¤Ńà¤ı": 897,
      "Ġà¤īà¤ªà¤²à¤¬": 898,
      "à¤īà¤¹": 899,
      "à¤Ĺà¤¨": 900,
      "à¤¯à¤Łà¤¨": 901,
      "à¤Ĥ-": 902,
      "à¤ªà¤£": 903,
      "Ġà¤«à¤°à¤ķ": 904,
      "Ġà¤Ī": 905,
      "Ġà¤Ńà¤Ī": 906,
      "à¤¶à¤²": 907,
      "à¤¨à¤¯": 908,
      "à¤Ĩà¤§": 909,
      "à¥Į-": 910,
      "Ġà¤Ĺà¤£": 911,
      "Ġà¤ľà¤¹": 912,
      "Ġà¤ķà¤¥": 913,
      "à¤§à¤¬": 914,
      "à¤ĩà¤ı": 915,
      "Ġà¤Ĺà¤łà¤¨": 916,
      "Ġà¤°à¤®": 917,
      "à¤ħà¤Ĺ": 918,
      "à¤£à¤ķ": 919,
      "Ġà¤ĭ": 920,
      "Ġà¤ħà¤ªà¤°": 921,
      "Ġà¤¤à¤¹à¤ķ": 922,
      "à¤Ĺà¤£": 923,
      "à¤ħà¤¤": 924,
      "à¤¸à¤®à¤¸": 925,
      "à¤Ĺà¤łà¤¨": 926,
      "Ġà¤®à¤¹à¤¤": 927,
      "à¤¯à¤¹à¤°": 928,
      "Ġà¥¦": 929,
      "à¤¯à¤ķà¤°": 930,
      "à¤¯à¤¸à¤²": 931,
      "à¤Ĺà¤ł": 932,
      "Ġà¥§à¥Ń": 933,
      "à¤µà¤µ": 934,
      "à¤īà¤¨à¤²": 935,
      "à¤¯à¤ķà¤¤": 936,
      "à¤¡à¤°": 937,
      "à¤ĩà¤®": 938,
      "Ġà¤¯à¤¸à¤®": 939,
      "Ġà¤¸à¤¹à¤ķ": 940,
      "Ġà¥¨à¥¦à¥§": 941,
      "à¤ľà¤µ": 942,
      "à¤ķà¤¹": 943,
      "à¤ĸà¤ķ": 944,
      "à¤ĩà¤ª": 945,
      "à¤Ļà¤²": 946,
      "à¤¸à¤¤": 947,
      "à¤Ĩà¤®": 948,
      "Ġà¤Ŀà¤¨": 949,
      "à¤°à¤ļà¤£": 950,
      "Ġà¤¹à¤Ł": 951,
      "Ġà¤ĸà¤¡": 952,
      "Ġà¤ķà¤µ": 953,
      "à¤Ĺà¤²à¤¬": 954,
      "Ġà¤Ĭ": 955,
      "à¤µà¤¤à¤¨": 956,
      "à¤¨à¤¦": 957,
      "à¤¯à¤µà¤¹": 958,
      "à¤ļà¤²à¤ļ": 959,
      "Ġà¥¨à¥ª": 960,
      "Ġà¤īà¤¡": 961,
      "Ġà¤¦à¤ķ": 962,
      "à¤¯à¤®à¤¨": 963,
      "Ġà¥¨à¥¨": 964,
      "Ġà¤ľà¤¬": 965,
      "à¤ķà¤²à¤¨": 966,
      "à¤ĸà¤¨": 967,
      "à¥¦à¥¦": 968,
      "à¤ªà¤¸": 969,
      "à¤ĩà¤¨à¤²": 970,
      "Ġà¤¤à¤²": 971,
      "Ġà¤Ĩà¤¤": 972,
      "Ġà¤°à¤ķ": 973,
      "à¤Ńà¤ĩà¤°à¤¹": 974,
      "à¥ĩà¤Ĥ": 975,
      "Ġà¤Ĩà¤ľà¤ķ": 976,
      "à¤ĩà¤¸": 977,
      "Ġà¤Ĳà¤¨": 978,
      "Ġà¤µà¤¨": 979,
      "à¤ªà¤·": 980,
      "à¤ĩà¤¤à¤¬": 981,
      "à¤Ĩà¤Ī": 982,
      "Ġà¤ķà¤ķ": 983,
      "Ġà¤®à¤¤à¤¦": 984,
      "Ġà¤¹à¤²": 985,
      "à¥¨à¥¦à¥§": 986,
      "à¤Ĺà¤¢": 987,
      "à¤¸à¤ª": 988,
      "à¤¹à¤®": 989,
      "à¤°à¤£à¤²": 990,
      "Ġà¤ĸà¤¨": 991,
      "à¤¸à¤¹à¤¯": 992,
      "à¤¸à¤¹à¤Ń": 993,
      "Ġà¤īà¤¸à¤ķ": 994,
      "Ġà¤¦à¤²à¤ķ": 995,
      "Ġà¥¨à¥®": 996,
      "à¤¹à¤ľ": 997,
      "à¤°à¤ĸ": 998,
      "à¤Ĺà¤®à¤¨": 999,
      "à¤®à¤£": 1000,
      "Ġà¤¶à¤¨": 1001,
      "à¤¯à¤¦": 1002,
      "à¤ĩà¤ľ": 1003,
      "à¤²à¤¯à¤ķ": 1004,
      "Ġà¤Ńà¤µà¤¨": 1005,
      "à¤®à¤Ĺ": 1006,
      "à¤īà¤ķ": 1007,
      "Ġà¥ªà¥¦": 1008,
      "Ġà¤ħà¤µà¤¸à¤°": 1009,
      "Ġà¥¨à¥Ń": 1010,
      "à¤īà¤µ": 1011,
      "Ġà¤®à¤¸": 1012,
      "Ġà¥¨à¥©": 1013,
      "Ġà¤ļà¤²à¤ļ": 1014,
      "à¤Ĩà¤ıà¤ķ": 1015,
      "Ġà¤Ńà¤Ł": 1016,
      "à¤µà¤Ł": 1017,
      "Ġà¥¨à¥¯": 1018,
      "Ġà¤µà¤¸": 1019,
      "Ġà¤¶à¤¬": 1020,
      "à¤ĸà¤²": 1021,
      "Ġà¤ķà¤®à¤ľ": 1022,
      "Ġà¤¸à¤²": 1023,
      "à¤ĩà¤¡": 1024,
      "à¤¸à¤¦à¤¸": 1025,
      "Ġà¤¯à¤¸à¤ħà¤ĺ": 1026,
      "à¤Łà¤¬à¤²": 1027,
      "Ġà¤ħà¤µà¤§": 1028,
      "à¤ľà¤¨à¤ķ": 1029,
      "à¥ĩà¤ģ": 1030,
      "Ġà¤ľà¤µ": 1031,
      "à¤¬à¤®": 1032,
      "Ġà¤ħà¤µà¤¸à¤°à¤®": 1033,
      "à¤¤à¤°à¤ķ": 1034,
      "Ġà¤¶à¤¹à¤°": 1035,
      "à¤ªà¤ļ": 1036,
      "Ġà¤Ńà¤µ": 1037,
      "à¤ªà¤°à¤®": 1038,
      "Ġà¤«à¤²": 1039,
      "à¤£à¤¸": 1040,
      "à¤łà¤²": 1041,
      "Ġà¤Ńà¤ĩà¤¸à¤ķ": 1042,
      "à¤ķà¤¹à¤°": 1043,
      "Ġà¤ļà¤¨": 1044,
      "Ġà¤¨à¤ķ": 1045,
      "Ġà¤ªà¤°à¤®": 1046,
      "à¤ħà¤²": 1047,
      "Ġà¥¨à¥¬": 1048,
      "à¤¡à¤¨": 1049,
      "à¤°à¤µà¤ķ": 1050,
      "Ġà¤Ĺà¤®": 1051,
      "Ġà¤Ńà¤ıà¤¨": 1052,
      "Ġà¤Ĩà¤ł": 1053,
      "à¤¥à¤¨": 1054,
      "à¤¨à¤¹à¤°": 1055,
      "à¤Łà¤°à¤¨": 1056,
      "Ġà¤¤à¤¸": 1057,
      "à¤ıà¤²": 1058,
      "Ġà¤īà¤ªà¤¯": 1059,
      "Ġà¤ªà¤¸": 1060,
      "Ġà¤Ĩà¤Ī": 1061,
      "à¤¯à¤¬": 1062,
      "à¤ľà¤ª": 1063,
      "à¤¬à¤°à¤ķ": 1064,
      "Ġà¤²à¤¡": 1065,
      "à¤īà¤¨à¤ķ": 1066,
      "à¤·à¤²": 1067,
      "Ġà¤ķà¤Ł": 1068,
      "à¤¤à¤µà¤¨": 1069,
      "Ġà¤¸à¤ªà¤¨": 1070,
      "Ġà¤Ĩà¤²": 1071,
      "à¤ªà¤¢": 1072,
      "à¤¥à¤ķ": 1073,
      "à¤«à¤¬": 1074,
      "à¤ķà¤µ": 1075,
      "Ġà¤¨à¤¤": 1076,
      "Ġà¤¨à¤µ": 1077,
      "à¤µà¤ķà¤ª": 1078,
      "Ġà¤¤à¤¹à¤®": 1079,
      "à¤łà¤ķà¤²": 1080,
      "Ġà¤¸à¤®à¤°": 1081,
      "à¤¹à¤°à¤£": 1082,
      "Ġà¤¸à¤®à¤¨": 1083,
      "à¥§à¥¯": 1084,
      "-à¥ĩ": 1085,
      "Ġà¤Ĺà¤ıà¤°": 1086,
      "Ġà¤Ĺà¤¯": 1087,
      "Ġà¤ĭà¤£": 1088,
      "Ġà¤®à¤¦": 1089,
      "Ġà¤Ķà¤·à¤§": 1090,
      "à¤Ńà¤£": 1091,
      "à¤ľà¤¨à¤¤": 1092,
      "à¤īà¤ªà¤²à¤¬": 1093,
      "Ġà¤¯à¤¸à¤¬": 1094,
      "à¤®à¤ª": 1095,
      "à¤¨à¤¹": 1096,
      "à¤Ĺà¤¤à¤ķ": 1097,
      "à¤ĸà¤®": 1098,
      "à¤Ńà¤®": 1099,
      "Ġà¥¬à¥¦": 1100,
      "à¤°à¤Ĺà¤¤": 1101,
      "Ġà¤ľà¤²": 1102,
      "à¤ľà¤¤": 1103,
      "à¤¤à¤¥": 1104,
      "Ġà¤¬à¤®": 1105,
      "Ġà¤īà¤ľ": 1106,
      "Ġà¤ĸà¤¸": 1107,
      "à¤°à¤°": 1108,
      "à¤·à¤°": 1109,
      "Ġà¤ļà¤°à¤£à¤®": 1110,
      "à¤²à¤¸à¤®": 1111,
      "Ġà¤ħà¤¸à¤°": 1112,
      "à¤Ŀà¤¨": 1113,
      "à¤Ĭ": 1114,
      "à¤ĥ-": 1115,
      "Ġà¤¬à¤Ĺ": 1116,
      "Ġà¤ķà¤¡": 1117,
      "à¤°à¤¥à¤®": 1118,
      "Ġà¤ħà¤ķ": 1119,
      "Ġà¤ĸà¤¬à¤°": 1120,
      "à¤¤à¤¬": 1121,
      "Ġà¤¸à¤§": 1122,
      "Ġà¤¸à¤«": 1123,
      "Ġà¤ĩà¤¤": 1124,
      "Ġà¥©à¥§": 1125,
      "Ġà¤¹à¤¸": 1126,
      "à¤Ļà¤®": 1127,
      "à¥ģà¤ĥ": 1128,
      "à¤²à¤¯à¤²": 1129,
      "à¤¶à¤¬": 1130,
      "Ġà¤°à¤¸": 1131,
      "à¤¤à¤¹à¤°": 1132,
      "Ġà¤ªà¤²": 1133,
      "à¤¥à¤°": 1134,
      "Ġà¤Ńà¤¤": 1135,
      "à¤¦à¤Ľà¤¨": 1136,
      "Ġà¤¸à¤¹à¤°": 1137,
      "Ġà¤¸à¤¸": 1138,
      "à¤Ĺà¤¤à¤®": 1139,
      "Ġà¤Ĺà¤²": 1140,
      "à¤Łà¤µ": 1141,
      "Ġà¤Ńà¤£": 1142,
      "à¤łà¤ķà¤®": 1143,
      "à¥¨à¥¦à¥Ńà¥«": 1144,
      "à¤ļà¤¨à¤ª": 1145,
      "à¤¨à¤¸à¤®": 1146,
      "Ġà¤Ĺà¤²à¤¤": 1147,
      "Ġà¤ľà¤¸à¤ķ": 1148,
      "Ġà¤¸à¤¡": 1149,
      "Ġà¤ĩà¤²": 1150,
      "à¤¶à¤¸à¤Ń": 1151,
      "Ġà¤Ĩà¤ª": 1152,
      "Ġà¤Ĩà¤ĩà¤¤à¤¬": 1153,
      "à¤§à¤µ": 1154,
      "à¤²à¤¯à¤®": 1155,
      "à¤ªà¤Ł": 1156,
      "à¤Ĩà¤ķ": 1157,
      "à¤Ńà¤Ł": 1158,
      "à¤ķà¤¤à¤¨": 1159,
      "à¤µà¤¡": 1160,
      "Ġà¤ķà¤ł": 1161,
      "à¤¦à¤¶": 1162,
      "à¤īà¤ł": 1163,
      "à¤Ńà¤Ĺ": 1164,
      "Ġà¤¸à¤ª": 1165,
      "Ġà¤°à¤¨": 1166,
      "à¤Łà¤¨à¤Ĺà¤°": 1167,
      "Ġà¤Ĺà¤ł": 1168,
      "à¤ļà¤¯": 1169,
      "à¤Ĩà¤īà¤¨": 1170,
      "à¤ĸà¤£": 1171,
      "à¤°à¤¬à¤¹": 1172,
      "Ġà¤Ĩà¤ķà¤°": 1173,
      "à¥Īà¤Ĥ-": 1174,
      "à¤°à¤¤à¤²": 1175,
      "à¤¶à¤°": 1176,
      "à¤²à¤ª": 1177,
      "à¤¬à¤ķ": 1178,
      "à¤īà¤¸": 1179,
      "à¥¦à¥Ń": 1180,
      "Ġà¤īà¤ªà¤¸": 1181,
      "à¤¶à¤¸": 1182,
      "Ġà¤Ĩà¤ļ": 1183,
      "à¤Ńà¤ĩà¤¸à¤ķ": 1184,
      "Ġà¤¦à¤¬": 1185,
      "à¤Łà¤¬": 1186,
      "Ġà¤Ńà¤ķ": 1187,
      "à¤ıà¤ľ": 1188,
      "à¤¤à¤¸": 1189,
      "à¤§à¤¨à¤ķ": 1190,
      "Ġà¤Ĩà¤ı": 1191,
      "Ġà¤¨à¤²": 1192,
      "à¤²à¤Ń": 1193,
      "à¤µà¤Ń": 1194,
      "à¤¯à¤°à¤¤": 1195,
      "à¤°à¤Ĺ": 1196,
      "à¤ĩà¤ķà¤²": 1197,
      "Ġà¤ĺà¤£": 1198,
      "à¥¨à¥¦à¥Ńà¥ª": 1199,
      "Ġà¤ħà¤¡": 1200,
      "Ġà¤ķà¤¨": 1201,
      "Ġà¥©à¥«": 1202,
      "Ġà¤¸à¤«à¤²à¤¤": 1203,
      "à¤īà¤°": 1204,
      "à¤¯à¤¯": 1205,
      "Ġà¤Ńà¤ıà¤ªà¤¨": 1206,
      "Ġà¤ĸà¤Ł": 1207,
      "à¤ªà¤ł": 1208,
      "à¤īà¤ªà¤®": 1209,
      "Ġà¤Ĩà¤ıà¤°": 1210,
      "à¤īà¤¡": 1211,
      "Ġà¤ªà¤¦à¤®": 1212,
      "à¤²à¤¨à¤ķ": 1213,
      "à¤ķà¤®à¤²": 1214,
      "à¤¥à¤µ": 1215,
      "à¤Ĩà¤µ": 1216,
      "à¤Ĩà¤¦": 1217,
      "ĠĠĠ": 1218,
      "à¤ħà¤¦": 1219,
      "à¤īà¤ªà¤Ń": 1220,
      "à¤Ĳ": 1221,
      "à¤ĩà¤¯": 1222,
      "à¤īà¤ªà¤¸": 1223,
      "à¤Ĺà¤¬": 1224,
      "Ġà¤Ńà¤Ĺ": 1225,
      "Ġà¤¦à¤²à¤¹à¤°": 1226,
      "à¤Ĩà¤ī": 1227,
      "Ġà¤®à¤Ĺà¤°": 1228,
      "à¤ıà¤¨à¤¨": 1229,
      "à¤¨à¤Ńà¤¨": 1230,
      "Ġà¤¨à¤Ńà¤Ī": 1231,
      "Ġà¤Ĩà¤«à¤¨": 1232,
      "à¤¨à¤¸à¤Ń": 1233,
      "à¤°à¤®à¤ķ": 1234,
      "à¤Ĩà¤¶": 1235,
      "à¤¹à¤¦": 1236,
      "Ġà¤Ĺà¤¨": 1237,
      "Ġà¤ļà¤¢": 1238,
      "à¤ħà¤ªà¤°": 1239,
      "Ġà¤¡à¤²à¤°": 1240,
      "à¤®à¤²à¤µ": 1241,
      "à¤°à¤¥": 1242,
      "Ġà¤ªà¤¹à¤²": 1243,
      "Ġà¤īà¤¸": 1244,
      "à¤Ĺà¤ľ": 1245,
      "Ġà¤¨à¤Ĺà¤¦": 1246,
      "à¤īà¤ªà¤®à¤¹": 1247,
      "à¤Īà¤®": 1248,
      "Ġà¤¸à¤¡à¤ķà¤®": 1249,
      "Ġà¤¦à¤¸": 1250,
      "à¤¯à¤¸à¤¬": 1251,
      "Ġà¤ľà¤¸à¤®": 1252,
      "à¤īà¤ļ": 1253,
      "à¤ľà¤¨à¤ª": 1254,
      "à¤¦à¤¤": 1255,
      "Ġà¤Ĺà¤ı": 1256,
      "Ġà¥ªà¥«": 1257,
      "Ġà¤ıà¤µà¤®": 1258,
      "Ġà¤ĺà¤°à¤ķ": 1259,
      "Ġà¤¨à¤Ńà¤ı": 1260,
      "à¥¨à¥¦à¥¬": 1261,
      "Ġà¤¤à¤°à¤ķ": 1262,
      "Ġà¥Ńà¥¦": 1263,
      "à¥ģà¥ģ": 1264,
      "Ġà¤¢à¤ķ": 1265,
      "à¤·à¤ħà¤ĺ": 1266,
      "à¤Ĺà¤°à¤ķ": 1267,
      "à¤¥à¤¤à¤¨": 1268,
      "à¤°à¤¤à¤®": 1269,
      "Ġà¤ıà¤²": 1270,
      "Ġà¥©à¥¨": 1271,
      "à¤ªà¤ŀ": 1272,
      "à¤ħà¤µ": 1273,
      "Ġà¤¸à¤®à¤Ĺ": 1274,
      "à¤«à¤ķ": 1275,
      "à¤µà¤¨à¤ķ": 1276,
      "Ġà¥®à¥¦": 1277,
      "Ġà¤²à¤®": 1278,
      "à¤¹à¤®à¤¨": 1279,
      "à¤®à¤¹à¤°": 1280,
      "Ġà¤ªà¤¦à¤ķ": 1281,
      "Ġà¤Ŀà¤£": 1282,
      "à¤¤à¤°à¤®": 1283,
      "Ġà¤¨à¤ªà¤°": 1284,
      "à¤°à¤«": 1285,
      "à¤¨à¤ľ": 1286,
      "à¤¶à¤¹à¤°": 1287,
      "Ġà¤®à¤¹à¤¸": 1288,
      "Ġà¤ķà¤®à¤²": 1289,
      "Ġà¤¹à¤ķ": 1290,
      "à¤Ĺà¤łà¤¬à¤¨": 1291,
      "à¤Łà¤°à¤¸": 1292,
      "à¤¸à¤¨à¤²": 1293,
      "Ġà¤ħà¤ĸ": 1294,
      "Ġà¥¨à¥¦à¥¬": 1295,
      "à¤Ńà¤²": 1296,
      "à¤µà¤¨à¤®": 1297,
      "Ġà¥¨à¥¦à¥¦": 1298,
      "Ġà¤ıà¤ķà¤²": 1299,
      "à¥Ĥà¤ģ": 1300,
      "à¤Ĺà¤°à¤®": 1301,
      "Ġà¤ĸà¤¤": 1302,
      "à¤°à¤®à¤£à¤ķ": 1303,
      "Ġà¤®à¤¨à¤®": 1304,
      "à¤ķà¤ŀ": 1305,
      "à¤¤à¤°à¤¤": 1306,
      "Ġà¤ıà¤ª": 1307,
      "à¤ªà¤¦à¤£": 1308,
      "à¤¾à¥ĩ-": 1309,
      "à¤µà¤¹": 1310,
      "Ġà¤¦à¤¶à¤®à¤²à¤µ": 1311,
      "à¤ĺà¤²": 1312,
      "à¤ľà¤¨à¤¸": 1313,
      "à¥§à¥¦": 1314,
      "à¤Łà¤µà¤²": 1315,
      "Ġà¤ĸà¤¤à¤°": 1316,
      "à¤ħà¤«": 1317,
      "à¤°à¤¹à¤£": 1318,
      "à¤īà¤ªà¤¯": 1319,
      "Ġà¤ľà¤¡": 1320,
      "Ġà¤ľà¤¨à¤ķ": 1321,
      "à¤īà¤ªà¤ļ": 1322,
      "Ġà¤Ĩà¤ĩ": 1323,
      "Ġà¤īà¤°": 1324,
      "à¤°à¤ķà¤°": 1325,
      "Ġà¤ļà¤²à¤¨": 1326,
      "à¤ĺà¤¨": 1327,
      "Ġà¤ļà¤°à¤£à¤ķ": 1328,
      "à¤ıà¤«": 1329,
      "à¤¸à¤¹à¤ķ": 1330,
      "Ġà¤ħà¤¨à¤²": 1331,
      "à¤¯à¤¥": 1332,
      "à¤ħà¤µà¤§": 1333,
      "à¤¸à¤¨à¤ķ": 1334,
      "à¤ħà¤·": 1335,
      "Ġà¤®à¤ŀ": 1336,
      "à¤¡à¤¬": 1337,
      "Ġà¤¤à¤®": 1338,
      "à¤ŀà¤ª": 1339,
      "Ġà¤ľà¤¨à¤ľ": 1340,
      "Ġà¤¶à¤µ": 1341,
      "à¤ķà¤¬": 1342,
      "Ġà¤ħà¤¥à¤µ": 1343,
      "Ġà¤Ĩà¤¹": 1344,
      "à¤Ķà¤·à¤§": 1345,
      "Ġà¥©à¥©": 1346,
      "Ġà¤¤à¤¨": 1347,
      "-à¥Ī": 1348,
      "à¤£à¤¨": 1349,
      "Ġà¤īà¤ªà¤¤": 1350,
      "à¤Ńà¤ıà¤ªà¤Ľ": 1351,
      "à¤ĸà¤¤": 1352,
      "Ġà¤ıà¤ľ": 1353,
      "Ġà¤¦à¤¶à¤ķ": 1354,
      "à¤īà¤ľ": 1355,
      "à¤°à¤Ļ": 1356,
      "Ġà¤¨à¤¬": 1357,
      "Ġà¤ĸà¤£": 1358,
      "Ġà¥Ńà¥«": 1359,
      "ĠĠĠĠĠĠĠĠĠĠĠĠĠĠĠĠ": 1360,
      "Ġà¤Ĭà¤°": 1361,
      "Ġà¤¬à¤¡": 1362,
      "Ġà¤Ńà¤ıà¤®": 1363,
      "à¤ıà¤īà¤Ł": 1364,
      "à¤¤à¤¹": 1365,
      "Ġà¤ļà¤ķ": 1366,
      "Ġà¤¹à¤ª": 1367,
      "Ġà¤ľà¤¸à¤°": 1368,
      "Ġà¤¸à¤°à¤¸": 1369,
      "à¤¸à¤®à¤¯": 1370,
      "à¤£à¤®": 1371,
      "Ġà¤ħà¤¶": 1372,
      "à¤£à¤¤": 1373,
      "à¤¦à¤¯": 1374,
      "à¤Ĩà¤ª": 1375,
      "à¤¶à¤µ": 1376,
      "à¤£à¤ªà¤¤": 1377,
      "à¤°à¤µà¤¦": 1378,
      "à¤ľà¤²à¤µ": 1379,
      "Ġà¤¤à¤²à¤¬": 1380,
      "à¤ľà¤¬": 1381,
      "Ġà¤²à¤²": 1382,
      "à¤·à¤¸à¤®": 1383,
      "Ġà¤ļà¤¯à¤¨": 1384,
      "-à¥ĭ": 1385,
      "à¤Ĩà¤ľ": 1386,
      "à¤ªà¤ķà¤®à¤²": 1387,
      "à¤Ĩà¤Ĺ": 1388,
      "à¤ĺà¤Ł": 1389,
      "Ġà¤Ĩà¤¸": 1390,
      "à¥ĭà¥ĩ": 1391,
      "Ġà¤¯à¤¥": 1392,
      "Ġà¤¨à¤Ńà¤ıà¤°": 1393,
      "à¤¦à¤µà¤²": 1394,
      "Ġà¤®à¤£": 1395,
      "Ġà¤ıà¤ķà¤ľà¤¨": 1396,
      "à¤²à¤¤à¤²": 1397,
      "à¤¡à¤¸": 1398,
      "à¤¨à¤¸à¤°": 1399,
      "à¤²à¤¤à¤®": 1400,
      "Ġà¤ĩà¤®": 1401,
      "à¤Łà¤ª": 1402,
      "à¤®à¤¯": 1403,
      "à¤°à¤¬à¤¨": 1404,
      "à¤¬à¤ļ": 1405,
      "Ġà¤¡à¤°": 1406,
      "Ġà¤ħà¤µà¤°": 1407,
      "à¤®à¤°à¤£": 1408,
      "à¤īà¤ªà¤°": 1409,
      "à¤Ĩà¤ĩ": 1410,
      "Ġà¥¯à¥¦": 1411,
      "à¤Ńà¤¤": 1412,
      "Ġà¤®à¤¹à¤°": 1413,
      "à¤¯à¤¤à¤²": 1414,
      "à¤²à¤¦": 1415,
      "Ġà¤ªà¤ŀ": 1416,
      "Ġà¤Ĺà¤¹": 1417,
      "à¤ħà¤ķ": 1418,
      "à¤Ĩà¤°à¤ıà¤¨": 1419,
      "à¤Ĺà¤¶": 1420,
      "à¤¨à¤¤à¤®": 1421,
      "Ġà¤īà¤ªà¤Ń": 1422,
      "Ġà¤§à¤®": 1423,
      "à¤Ŀà¤¦": 1424,
      "à¥§à¥§": 1425,
      "à¤°à¤®à¤¶": 1426,
      "Ġà¤¹à¤µ": 1427,
      "à¤¨à¤ļ": 1428,
      "à¤¿à¤ĥ": 1429,
      "ĠĠčĊ": 1430,
      "à¤ªà¤¥": 1431,
      "Ġà¤ħà¤ļ": 1432,
      "Ġà¤īà¤Ń": 1433,
      "à¤īà¤£": 1434,
      "Ġà¤ĺà¤¨": 1435,
      "à¥¨à¥¦à¥Ńà¥©": 1436,
      "à¤ĺà¤£": 1437,
      "à¤¸à¤¹à¤®à¤¤": 1438,
      "Ġà¤µà¤ķ": 1439,
      "à¤Ĺà¤ķà¤°": 1440,
      "Ġà¤°à¤µ": 1441,
      "Ġà¥«à¥«": 1442,
      "Ġà¤Ŀà¤°": 1443,
      "à¥§à¥«": 1444,
      "Ġà¤¬à¤¦à¤²": 1445,
      "Ġà¤«à¤¸": 1446,
      "Ġà¤¸à¤®à¤¯à¤ķ": 1447,
      "Ġà¤ĩà¤ļ": 1448,
      "à¤Łà¤¸": 1449,
      "à¤ĸà¤¦": 1450,
      "Ġà¤¦à¤®": 1451,
      "à¤ļà¤¨à¤®": 1452,
      "à¤Ĩà¤ļ": 1453,
      "Ġà¤Ńà¤Ĺà¤µ": 1454,
      "âĢ": 1455,
      "Ġà¤Ńà¤°à¤¤": 1456,
      "à¥§à¥¨": 1457,
      "à¤®à¤¬à¤¹": 1458,
      "Ġà¤¹à¤Ļà¤ķ": 1459,
      "à¤¯à¤¸à¤°": 1460,
      "Ġà¤ħà¤²à¤Ĺ": 1461,
      "Ġà¤łà¤Ĺ": 1462,
      "Ġà¤ķà¤ªà¤¡": 1463,
      "Ġà¤ĩà¤¸": 1464,
      "Ġà¤Ĩà¤ıà¤ªà¤Ľ": 1465,
      "à¤Ĩà¤ĩà¤ª": 1466,
      "à¤°à¤£à¤®": 1467,
      "à¤Ĳà¤¤": 1468,
      "à¤µà¤ļ": 1469,
      "à¤¥à¤®à¤¨": 1470,
      "à¤¯à¤§": 1471,
      "à¤Łà¤¹à¤°": 1472,
      "Ġà¤ķà¤¸à¤²": 1473,
      "à¤ıà¤¸à¤ª": 1474,
      "à¤Łà¤°à¤ķ": 1475,
      "à¥©à¥¦": 1476,
      "à¤Ĺà¤¡": 1477,
      "à¤ķà¤°à¤£à¤ķ": 1478,
      "à¤®à¤µ": 1479,
      "Ġà¤¸à¤¡à¤ķà¤ķ": 1480,
      "Ġà¤¬à¤¹à¤¸": 1481,
      "Ġà¤Ĩà¤ĩà¤ª": 1482,
      "à¤²à¤¹à¤°": 1483,
      "Ġà¤¦à¤²à¤²": 1484,
      "à¤Īà¤ıà¤ķ": 1485,
      "-à¥ģ": 1486,
      "Ġà¤¨à¤°à¤¹": 1487,
      "Ġà¤Ľà¤°": 1488,
      "à¤Ĺà¤¹à¤°": 1489,
      "Ġà¥¨à¥¦à¥Ńà¥«": 1490,
      "Ġà¤¸à¤¶à¤¸": 1491,
      "à¤·à¤ªà¤Ľ": 1492,
      "à¤¦à¤Ĺ": 1493,
      "à¤¡à¤«": 1494,
      "à¤Ĺà¤¸": 1495,
      "à¤°à¤ŀ": 1496,
      "à¤²à¤ĸ": 1497,
      "à¤īà¤ªà¤ª": 1498,
      "à¤¶à¤¨à¤²": 1499,
      "à¤Łà¤ĺ": 1500,
      "-à¤ģ": 1501,
      "à¤¸à¤®à¤°": 1502,
      "Ġà¥©à¥¬": 1503,
      "Ġà¤ħà¤Ļ": 1504,
      "à¤īà¤ªà¤¤": 1505,
      "Ġà¤°à¤ļà¤¨": 1506,
      "Ġà¤ħà¤ªà¤¨": 1507,
      "Ġà¤Ľà¤²à¤«": 1508,
      "à¤·à¤¯à¤ķ": 1509,
      "à¤²à¤ªà¤¤": 1510,
      "Ġà¤ħà¤¬à¤ķ": 1511,
      "Ġà¤łà¤¹à¤°": 1512,
      "Ġà¤ªà¤¸à¤²": 1513,
      "à¤¸à¤¦à¤°à¤®": 1514,
      "Ġà¤ħà¤¸à¤«à¤²": 1515,
      "Ġà¤Ĩà¤Ĩà¤«": 1516,
      "à¥Ģà¤ģ": 1517,
      "Ġà¤Ńà¤²": 1518,
      "à¤Ĩà¤ĩà¤¤à¤¬": 1519,
      "Ġà¤²à¤Ĺà¤Ńà¤Ĺ": 1520,
      "à¤¤à¤¯": 1521,
      "à¤°à¤®à¤£à¤®": 1522,
      "Ġà¤°à¤Ĺà¤¤": 1523,
      "Ġà¤ķà¤¬": 1524,
      "Ġà¤ıà¤£": 1525,
      "à¤Ńà¤¦": 1526,
      "Ġà¥¨à¥¦à¥Ńà¥ª": 1527,
      "Ġà¤ħà¤Ł": 1528,
      "à¤Ńà¤µà¤¤": 1529,
      "Ġà¥©à¥ª": 1530,
      "à¤µà¤¯à¤®": 1531,
      "Ġà¤ľà¤¨à¤ķà¤ª": 1532,
      "à¤°à¤¶à¤¸": 1533,
      "à¤¥à¤²à¤®": 1534,
      "Ġà¤ıà¤¶": 1535,
      "à¤ļà¤¸": 1536,
      "à¤¤à¤µà¤®": 1537,
      "à¤¶à¤Ńà¤°": 1538,
      "à¥Īà¤ģ-": 1539,
      "à¤¯à¤¸à¤ħà¤ĺ": 1540,
      "Ġà¤ľà¤Ł": 1541,
      "âĢĬ": 1542,
      "à¤Īà¤¤": 1543,
      "Ġà¥¬à¥«": 1544,
      "à¤²à¤¤à¤ķ": 1545,
      "Ġà¤ıà¤ķà¤¦à¤®": 1546,
      "à¤µà¤²à¤ªà¤°": 1547,
      "Ġà¤¤à¤¹à¤²": 1548,
      "Ġà¤°à¤£à¤¨": 1549,
      "à¤®à¤¶": 1550,
      "à¤ļà¤¨à¤ķ": 1551,
      "à¤¸à¤¦à¤®": 1552,
      "Ġà¤®à¤ľà¤¦": 1553,
      "à¤ħà¤¸à¤¨": 1554,
      "à¤ŀà¤µ": 1555,
      "à¤°à¤ķà¤Ł": 1556,
      "à¤¸à¤¦à¤¹à¤°": 1557,
      "à¤µà¤ľ": 1558,
      "à¤¯à¤Ł": 1559,
      "Ġà¤¸à¤Ł": 1560,
      "à¤ĵà¤¸": 1561,
      "à¥¨à¥¦à¥¦": 1562,
      "Ġà¤¤à¤¬": 1563,
      "à¤īà¤Ľ": 1564,
      "à¤ĺà¤¸": 1565,
      "à¥Ńà¥«": 1566,
      "Ġà¤ıà¤«": 1567,
      "à¤¦à¤¨à¤¶": 1568,
      "à¤°à¤¸à¤®": 1569,
      "à¤ĩà¤ļ": 1570,
      "à¤ĺà¤°à¤®": 1571,
      "Ġà¤Ĩà¤¨à¤¨": 1572,
      "à¤ľà¤¨à¤®": 1573,
      "à¤·à¤ľ": 1574,
      "à¤·à¤¯à¤²": 1575,
      "à¤µà¤¸à¤ķ": 1576,
      "à¤ĩà¤Ń": 1577,
      "à¥¨à¥«": 1578,
      "Ġà¤ľà¤²à¤µ": 1579,
      "à¤°à¤£à¤ķ": 1580,
      "à¤ľà¤¹": 1581,
      "à¤²à¤Ĺà¤¤": 1582,
      "Ġà¤¡à¤Ł": 1583,
      "Ġà¥¨à¥¦à¥«": 1584,
      "Ġà¤¨à¤¸": 1585,
      "Ġà¤Ĺà¤łà¤¬à¤¨": 1586,
      "Ġà¤¢à¤²": 1587,
      "Ġà¤ĺà¤°à¤¬": 1588,
      "à¤ķà¤¥": 1589,
      "à¤£à¤ª": 1590,
      "Ġà¥ªà¥¨": 1591,
      "Ġà¤¦à¤°à¤¬": 1592,
      "à¤¦à¤¸": 1593,
      "à¤ĩà¤¨à¤¨": 1594,
      "Ġà¤ľà¤¨à¤¸": 1595,
      "à¤¯à¤°à¤ķ": 1596,
      "à¤¨à¤Ń": 1597,
      "à¤®à¤¤à¤¦": 1598,
      "à¤°à¤®à¤¹à¤°": 1599,
      "à¤ĩà¤¨à¤²à¤®": 1600,
      "à¤¿à¤ģ-": 1601,
      "à¤¯à¤ľ": 1602,
      "à¤°à¤ľà¤¨": 1603,
      "Ġà¤Ĺà¤ľ": 1604,
      "Ġà¥«à¥§": 1605,
      "Ġà¤®à¤Ļ": 1606,
      "à¤ģà¥ģ": 1607,
      "à¤ĵà¤²": 1608,
      "à¤Łà¤°à¤®": 1609,
      "Ġà¤ªà¤Łà¤ķà¤ªà¤Łà¤ķ": 1610,
      "à¤Ĩà¤²": 1611,
      "Ġ-à¥": 1612,
      "à¤µà¤°à¤²": 1613,
      "Ġà¤¸à¤¦à¤°à¤®": 1614,
      "Ġ-à¥¤": 1615,
      "Ġà¤¬à¤ķ": 1616,
      "à¤¶à¤¨à¤ķ": 1617,
      "Ġà¤¸à¤°à¤²": 1618,
      "à¤Ĺà¤£à¤¨": 1619,
      "Ġà¤¡à¤²": 1620,
      "Ġà¥©à¥®": 1621,
      "à¤ħà¤ĸ": 1622,
      "à¤ħà¤¨à¤²": 1623,
      "à¤µà¤ķà¤°": 1624,
      "Ġà¤¯à¤¸à¤ªà¤Łà¤ķ": 1625,
      "à¤Ĩà¤ķà¤°": 1626,
      "Ġà¤¥à¤°": 1627,
      "Ġà¤¸à¤®à¤¯à¤¦": 1628,
      "Ġà¤ªà¤Ł": 1629,
      "à¤ĸà¤¡": 1630,
      "Ġà¤Łà¤¨": 1631,
      "à¤µà¤¹à¤°": 1632,
      "Ġà¤ħà¤¸à¤²": 1633,
      "Ġà¥©à¥Ń": 1634,
      "à¤¤à¤¡": 1635,
      "à¤Ĺà¤£à¤¤à¤¨": 1636,
      "à¤Īà¤¦": 1637,
      "Ġà¤®à¤ķ": 1638,
      "Ġà¤ĩà¤°": 1639,
      "à¤·à¤£à¤ķ": 1640,
      "Ġà¤ħà¤ŀ": 1641,
      "à¤Īà¤Ł": 1642,
      "à¤®à¤ľ": 1643,
      "à¤Īà¤µà¤Ł": 1644,
      "à¤ªà¤°à¤°": 1645,
      "à¤µà¤°à¤ķ": 1646,
      "Ġà¥§à¥¯à¥¯": 1647,
      "à¤µà¤°à¤®": 1648,
      "Ġà¤¦à¤«": 1649,
      "Ġà¤¨à¤·": 1650,
      "à¤¥à¤Ĺ": 1651,
      "Ġà¤ķà¤¦à¤®": 1652,
      "Ġà¤¬à¤ļà¤¤": 1653,
      "à¥§à¥®": 1654,
      "à¤¸à¤®à¤ķ": 1655,
      "Ġà¤µà¤¹": 1656,
      "Ġà¤¸à¤°à¤¸à¤«": 1657,
      "à¤¦à¤¨à¤®": 1658,
      "à¤¸à¤«": 1659,
      "à¤¹à¤ª": 1660,
      "Ġà¤ıà¤ķà¤¦": 1661,
      "à¤¨à¤Ńà¤ıà¤ķ": 1662,
      "Ġà¤Ĩà¤ĩà¤°à¤¹": 1663,
      "à¤¯à¤¶": 1664,
      "Ġà¤Ĩà¤ĸ": 1665,
      "à¤Ķà¤ªà¤ļ": 1666,
      "à¤¯à¤°à¤²": 1667,
      "à¤·à¤¬": 1668,
      "à¤ªà¤¬": 1669,
      "à¤°à¤ªà¤¶": 1670,
      "à¤°à¤¯à¤¤": 1671,
      "Ġà¥ªà¥®": 1672,
      "à¤¯à¤¬à¤¸": 1673,
      "Ġà¤Ķà¤ªà¤ļ": 1674,
      "à¤§à¤²": 1675,
      "Ġà¥ªà¥©": 1676,
      "Ġà¤¨à¤ĸ": 1677,
      "Ġà¤¹à¤ķà¤®": 1678,
      "à¤ĩà¤¬": 1679,
      "à¤°à¤ļà¤²à¤¨": 1680,
      "ĠĠĠčĊ": 1681,
      "à¤¹à¤Ł": 1682,
      "Ġà¤°à¤Ļ": 1683,
      "Ġà¥ªà¥ª": 1684,
      "Ġà¤łà¤ķ": 1685,
      "à¥¨à¥¦à¥Ńà¥¨": 1686,
      "Ġà¤īà¤ªà¤ķà¤°à¤£": 1687,
      "à¤¨à¤¥": 1688,
      "à¤°à¤¤à¤¬": 1689,
      "Ġà¤ĵà¤°": 1690,
      "à¤¡à¤ª": 1691,
      "à¥§à¥¬": 1692,
      "Ġà¥§à¥¦à¥¦": 1693,
      "à¤¸à¤¡à¤ķ": 1694,
      "à¤ķà¤¦": 1695,
      "Ġà¤ĵà¤Ń": 1696,
      "à¤¨à¤µà¤Ł": 1697,
      "à¤ľà¤¶": 1698,
      "ĉĠčĊ": 1699,
      "Ġà¤¶à¤¤": 1700,
      "à¤¯à¤®à¤¬": 1701,
      "Ġà¤īà¤ªà¤°": 1702,
      "Ġà¥¨à¥¦à¥ª": 1703,
      "à¤Łà¤«": 1704,
      "à¤²à¤ķà¤²": 1705,
      "à¤¤à¤¦": 1706,
      "Ġà¤®à¤¦à¤¨": 1707,
      "Ġà¥«à¥¬": 1708,
      "Ġà¤ķà¤ŀ": 1709,
      "à¤Ĺà¤ıà¤ķ": 1710,
      "Ġà¤īà¤ªà¤¹": 1711,
      "Ġà¤¦à¤°à¤²": 1712,
      "Ġà¤§à¤¨à¤Ĺà¤¢": 1713,
      "à¤¤à¤®à¤²": 1714,
      "à¤Īà¤°à¤¹": 1715,
      "à¤¸à¤Ĺà¤°": 1716,
      "à¤¶à¤¨à¤®": 1717,
      "à¤°à¤¨à¤Ĺà¤°": 1718,
      "Ġà¤¬à¤¯": 1719,
      "à¥§à¥ª": 1720,
      "à¤ľà¤¨à¤ķà¤ª": 1721,
      "Ġà¤¨à¤ļ": 1722,
      "à¥ĭà¤Ĥ": 1723,
      "à¤ļà¤¬": 1724,
      "à¤²à¤¡": 1725,
      "à¤¡à¤ªà¤°": 1726,
      "Ġà¤ĩà¤ķ": 1727,
      "Ġà¤īà¤ªà¤¨": 1728,
      "à¤¸à¤¨à¤®": 1729,
      "Ġà¤ıà¤¡": 1730,
      "à¤¦à¤£": 1731,
      "à¥§à¥Ń": 1732,
      "à¤ħà¤Ļ": 1733,
      "à¤īà¤ªà¤¨": 1734,
      "à¤Ķà¤¦": 1735,
      "à¤µà¤Ńà¤°": 1736,
      "à¤«à¤®": 1737,
      "Ġà¤¹à¤®": 1738,
      "à¤®à¤ļà¤¨": 1739,
      "à¤¥à¤ª": 1740,
      "Ġà¤Ĳà¤¤": 1741,
      "Ġà¤¸à¤ĺ": 1742,
      "Ġà¥©à¥¯": 1743,
      "Ġà¤ħà¤ľ": 1744,
      "Ġà¤µà¤²": 1745,
      "à¤Ĩà¤«à¤¨": 1746,
      "à¤Īà¤¹à¤°": 1747,
      "à¤Ĺà¤Ł": 1748,
      "Ġà¤°à¤¤": 1749,
      "à¤°à¤µà¤°": 1750,
      "Ġà¤ľà¤¨à¤¶à¤ķ": 1751,
      "à¤¯à¤¨à¤¸": 1752,
      "à¤¸à¤¦à¤ķ": 1753,
      "Ġà¥¦à¥Ń": 1754,
      "à¤¯à¤ľà¤¨": 1755,
      "Ġà¥«à¥¨": 1756,
      "Ġà¤ªà¤ļ": 1757,
      "Ġà¤ļà¤®": 1758,
      "à¤¶à¤Ń": 1759,
      "à¤¹à¤¦à¤°à¤¬": 1760,
      "à¤¹à¤£": 1761,
      "à¤¬à¤Ī": 1762,
      "Ġà¤Ńà¤ĩ": 1763,
      "Ġà¥ªà¥§": 1764,
      "à¤¬à¤°à¤®": 1765,
      "à¥¨à¥¦à¥§à¥®": 1766,
      "Ġà¤Ńà¤°à¤®": 1767,
      "à¤Łà¤²à¤®": 1768,
      "à¥«à¥¦": 1769,
      "Ġà¤®à¤ľ": 1770,
      "à¤®à¤Ĺà¤°": 1771,
      "Ġà¤¨à¤¬à¤¨": 1772,
      "à¤²à¤ļ": 1773,
      "Ġà¤¤à¤¸à¤°": 1774,
      "à¤Ľà¤²": 1775,
      "Ġà¤ħà¤µà¤²": 1776,
      "Ġà¤Ĺà¤£à¤¤à¤¨": 1777,
      "Ġà¤ıà¤¸à¤ª": 1778,
      "à¤¸à¤ľ": 1779,
      "à¤¦à¤¥": 1780,
      "à¤¸à¤®à¤¯à¤®": 1781,
      "à¤²à¤ķà¤ķ": 1782,
      "à¤¤à¤ļ": 1783,
      "Ġà¤Ńà¤°à¤¤à¤ª": 1784,
      "Ġà¤¯à¤¸à¤ª": 1785,
      "Ġà¥«à¥©": 1786,
      "Ġà¤°à¤¨à¤ķ": 1787,
      "Ġà¤Łà¤°": 1788,
      "Ġà¤Ľà¤ķ": 1789,
      "à¤«à¤²à¤¤": 1790,
      "Ġà¥«à¥®": 1791,
      "à¤¤à¤°à¤¦": 1792,
      "à¤¡à¤¯à¤¨": 1793,
      "Ġà¤Īà¤¶": 1794,
      "Ġ-?": 1795,
      "à¤ĩà¤«": 1796,
      "Ġà¥ªà¥¬": 1797,
      "à¤ªà¤ª": 1798,
      "à¤ķà¤®à¤ľ": 1799,
      "à¤²à¤¬à¤²": 1800,
      "à¥§à¥©": 1801,
      "à¤°à¤«à¤²": 1802,
      "Ġà¤ªà¤µ": 1803,
      "à¤ıà¤ļ": 1804,
      "Ġà¤Ńà¤ĩà¤¨": 1805,
      "à¤·à¤ķà¤ķ": 1806,
      "à¤²à¤Ĺà¤ŀ": 1807,
      "à¤°à¤®à¤²": 1808,
      "à¤¸à¤®à¤Ŀà¤¦": 1809,
      "à¤®à¤ªà¤¨": 1810,
      "Ġà¤ĩà¤ľ": 1811,
      "Ġà¥¨à¥¦à¥§à¥®": 1812,
      "Ġà¥®à¥«": 1813,
      "Ġà¤¹à¤¦": 1814,
      "Ġà¥¬à¥ª": 1815,
      "à¤¾à¤¾": 1816,
      "Ġà¥«à¥Ń": 1817,
      "à¤¿-à¤ģ": 1818,
      "Ġà¥¬à¥©": 1819,
      "à¤ķà¤¡": 1820,
      "à¤Ļà¤Ĺ": 1821,
      "Ġà¤ıà¤¨à¤Ĩà¤°à¤ıà¤¨": 1822,
      "à¤¨à¤¡": 1823,
      "à¤ħà¤µà¤°": 1824,
      "à¤¨à¤Ńà¤°": 1825,
      "Ġà¤Ĩà¤¦à¤°": 1826,
      "à¥¨à¥¦à¥«": 1827,
      "Ġà¤Ĩà¤ªà¤¤": 1828,
      "Ġà¤¬à¤²à¤®": 1829,
      "Ġà¤Ľà¤µ": 1830,
      "à¤Ĺà¤łà¤¨à¤ķ": 1831,
      "Ġà¤ħà¤µà¤¶": 1832,
      "à¤Īà¤¸": 1833,
      "Ġà¤Ĺà¤¹à¤¨": 1834,
      "Ġà¤²à¤Ĺà¤¤": 1835,
      "à¤°à¤Ĩà¤µ": 1836,
      "ĠĠĠĠĠ": 1837,
      "Ġà¤¸à¤¶à¤ķ": 1838,
      "à¤ľà¤¨à¤²": 1839,
      "à¤²à¤µà¤¸": 1840,
      "Ġà¥«à¥ª": 1841,
      "à¤ĭ": 1842,
      "à¥ĥà¤Ĥ": 1843,
      "à¤ħà¤«à¤Ĺ": 1844,
      "à¤Ĺà¤®à¤²": 1845,
      "Ġà¤¨à¤¨": 1846,
      "Ġà¤Ĩà¤¸à¤ª": 1847,
      "à¤łà¤Ń": 1848,
      "Ġà¤ıà¤ķà¤ªà¤Łà¤ķ": 1849,
      "à¤¤à¤µà¤¨à¤ķ": 1850,
      "à¤£à¤²": 1851,
      "Ġà¤Ĩà¤Ń": 1852,
      "à¤£à¤µ": 1853,
      "à¥Ģà¤Ĥ": 1854,
      "à¤·à¤¹à¤°": 1855,
      "Ġà¤ķà¤°à¤ķ": 1856,
      "Ġà¥ªà¥¯": 1857,
      "Ġà¤ľà¤¨à¤®": 1858,
      "à¤¾à¥Ī": 1859,
      "à¤ıà¤¶": 1860,
      "Ġà¤Ĩà¤ªà¤¸": 1861,
      "à¤¸à¤°à¤®": 1862,
      "à¤ħà¤¬": 1863,
      "à¤¿à¥į": 1864,
      "à¤Łà¤µà¤°": 1865,
      "à¤¯à¤¸à¤Ń": 1866,
      "Ġà¤°à¤¹à¤°": 1867,
      "Ġà¥ªà¥Ń": 1868,
      "à¤¯à¤°à¤®": 1869,
      "Ġà¤Ľà¤ł": 1870,
      "à¤¸à¤°à¤¸": 1871,
      "Ġà¤ķà¤°à¤£": 1872,
      "Ġà¤®à¤¨à¤ķ": 1873,
      "à¤ŀà¤¹à¤°": 1874,
      "à¤²à¤¬à¤ķ": 1875,
      "à¤¸à¤®à¤¨": 1876,
      "à¥¨à¥¬": 1877,
      "à¥ĩà¥į": 1878,
      "Ġà¤Ĺà¤ıà¤ªà¤Ľ": 1879,
      "Ġà¤¸à¤¹à¤¸à¤ļ": 1880,
      "à¤µà¤¨à¤¸": 1881,
      "à¤łà¤ķà¤ķ": 1882,
      "Ġà¤¬à¤Ł": 1883,
      "à¤¶à¤°à¤£": 1884,
      "Ġà¥¨à¥¦à¥Ńà¥¨": 1885,
      "à¤¨à¤ķà¤°": 1886,
      "Ġà¤¬à¤§": 1887,
      "à¤·à¤ķà¤²": 1888,
      "à¤ħà¤ªà¤¨": 1889,
      "Ġà¥Ńà¥¨": 1890,
      "à¤Ľà¤²à¤«à¤²": 1891,
      "à¤°à¤§à¤¨": 1892,
      "à¤Ĩà¤ĩà¤°à¤¹": 1893,
      "Ġà¤ħà¤°à¤¬": 1894,
      "à¤·à¤Ń": 1895,
      "à¤¦à¤¬": 1896,
      "Ġà¤¹à¤¨": 1897,
      "à¤µà¤¸à¤®": 1898,
      "Ġà¤ķà¤ļ": 1899,
      "à¤¨à¤µà¤ħà¤§": 1900,
      "Ġà¤¥à¤²": 1901,
      "à¤Ĩà¤īà¤Ł": 1902,
      "à¤ľà¤¨à¤ľ": 1903,
      "Ġà¤ĩà¤ľà¤²": 1904,
      "Ġà¤īà¤ĸ": 1905,
      "Ġà¤Ľà¤²à¤«à¤²à¤®": 1906,
      "à¤¼": 1907,
      "à¤¯à¤¤à¤®": 1908,
      "à¥¨à¥¦à¥ª": 1909,
      "à¤µà¤¬": 1910,
      "à¤¡à¤µ": 1911,
      "à¤ľà¤Ĺà¤¢": 1912,
      "Ġà¤ķà¤«": 1913,
      "à¤ķà¤¤à¤®": 1914,
      "Ġà¤²à¤ĺ": 1915,
      "à¤¤à¤ķà¤ķ": 1916,
      "à¤°à¤ļà¤²": 1917,
      "à¤ıà¤ª": 1918,
      "à¤°à¤®à¤¨": 1919,
      "Ġà¥¬à¥¨": 1920,
      "à¤¸à¤¯": 1921,
      "Ġà¤Ĩà¤¬à¤¦": 1922,
      "à¤ıà¤¨à¤Ĩà¤°à¤ıà¤¨": 1923,
      "à¤°à¤Ĺà¤¨": 1924,
      "à¤ıà¤Ī": 1925,
      "Ġà¤ĵà¤®": 1926,
      "à¤īà¤ªà¤ķ": 1927,
      "à¤Ĺà¤®à¤ķ": 1928,
      "Ġà¤ħà¤µà¤ķ": 1929,
      "Ġà¤¦à¤¹": 1930,
      "Ġà¤ĵà¤Ł": 1931,
      "à¤°à¤¹à¤µ": 1932,
      "à¤²à¤Ļ": 1933,
      "à¤¦à¤¹à¤°": 1934,
      "Ġà¤¸à¤Ĺ": 1935,
      "à¤Ńà¤°à¤¤": 1936,
      "Ġà¤ļà¤°à¤®": 1937,
      "à¤ľà¤°à¤ķ": 1938,
      "Ġà¤ħà¤¸à¤®": 1939,
      "à¤Ŀà¤£": 1940,
      "Ġà¤«à¤²à¤«": 1941,
      "à¤Ĺà¤²à¤®": 1942,
      "Ġà¥«à¥¯": 1943,
      "à¤¹à¤µ": 1944,
      "à¤ıà¤ªà¤¨": 1945,
      "à¤¸à¤¹à¤ľ": 1946,
      "Ġà¤¹à¤Ļà¤ķà¤Ļ": 1947,
      "à¤§à¤¨à¤®": 1948,
      "à¥Ńà¥¬": 1949,
      "à¤¸à¤«à¤²à¤¤": 1950,
      "à¤ľà¤¨à¤¶à¤ķ": 1951,
      "Ġà¤§à¤¨à¤ķ": 1952,
      "à¤Łà¤°à¤«": 1953,
      "à¥¨à¥¨": 1954,
      "à¤ĸà¤¸": 1955,
      "Ġà¤ĺà¤¡": 1956,
      "Ġà¤Ŀà¤²": 1957,
      "à¥Ģà¤ģ-": 1958,
      "Ġà¤µà¤¤": 1959,
      "Ġà¤¦à¤®à¤ķ": 1960,
      "Ġà¤¸à¤®à¤¯à¤¸à¤®": 1961,
      "à¤¯à¤¤à¤¯": 1962,
      "Ġà¤¨à¤Ĺà¤°à¤ķ": 1963,
      "Ġà¥¬à¥Ń": 1964,
      "à¤ľà¤¤à¤¨": 1965,
      "à¤°à¤Ńà¤°": 1966,
      "Ġà¥¨à¥¦à¥Ńà¥©": 1967,
      "à¤ľà¤¹à¤°": 1968,
      "à¤¯à¤ķà¤ķ": 1969,
      "Ġà¥Ńà¥ª": 1970,
      "Ġà¥¬à¥¬": 1971,
      "Ġà¤ħà¤µà¤¤": 1972,
      "à¤¨à¤µà¤²à¤ªà¤°": 1973,
      "Ġà¤Ĺà¤£à¤¨": 1974,
      "à¤°à¤Ĺà¤ŀ": 1975,
      "à¤ľà¤¦à¤°": 1976,
      "Ġà¤ĵà¤Ŀ": 1977,
      "Ġà¥¦à¥¬": 1978,
      "Ġà¤§à¤ķ": 1979,
      "à¤ıà¤¸à¤¨": 1980,
      "Ġà¤¤à¤¨à¤¹": 1981,
      "Ġà¤ĵà¤Ńà¤°à¤®": 1982,
      "Ġà¥¯à¥«": 1983,
      "à¤ļà¤¤": 1984,
      "à¤®à¤¦à¤¤": 1985,
      "à¤¯à¤¨à¤ķ": 1986,
      "Ġà¤®à¤¨à¤¸": 1987,
      "Ġà¤ĭà¤·": 1988,
      "à¤·à¤Ĺà¤°": 1989,
      "à¤²à¤Ĺà¤¨": 1990,
      "Ġà¤ľà¤Ĺà¤¤": 1991,
      "Ġà¤ĩà¤Łà¤¹à¤°": 1992,
      "à¤°à¤¸à¤°": 1993,
      "Ġà¤Ĺà¤Ī": 1994,
      "Ġà¤¦à¤µ": 1995,
      "à¤Ĩà¤¬": 1996,
      "Ġà¥Ńà¥¬": 1997,
      "à¤¸à¤ķà¤¹à¤°": 1998,
      "à¤¨à¤¯à¤¨": 1999,
      "à¤¦à¤¨à¤ķ": 2000,
      "Ġà¥¬à¥®": 2001,
      "Ġà¥Ńà¥®": 2002,
      "Ġà¤ľà¤¯": 2003,
      "à¤¯à¤®à¤ķ": 2004,
      "à¤ļà¤¯à¤ªà¤¤": 2005,
      "à¥ģà¥į": 2006,
      "à¤¬à¤¡": 2007,
      "à¤®à¤Ļ": 2008,
      "à¤¹à¤¬": 2009,
      "à¥Ńà¥ª": 2010,
      "à¤²à¤ĺ": 2011,
      "Ġà¥¨à¥¦à¥§à¥Ń": 2012,
      "à¤ķà¤¶": 2013,
      "à¤¤à¤ľ": 2014,
      "Ġà¤¬à¤¦": 2015,
      "Ġà¤¸à¤®à¤ķ": 2016,
      "Ġà¥¬à¥§": 2017,
      "Ġà¤¶à¤¹à¤°à¤®": 2018,
      "à¤§à¤¨à¤²": 2019,
      "à¤°à¤¸à¤°à¤ķ": 2020,
      "Ġà¤²à¤¨": 2021,
      "à¤¯à¤¦à¤²": 2022,
      "à¤Łà¤°à¤²": 2023,
      "Ġà¤ħà¤ļà¤®": 2024,
      "Ġà¤ĸà¤²": 2025,
      "Ġà¤ħà¤Ľ": 2026,
      "à¤ħà¤µà¤¸à¤°à¤®": 2027,
      "Ġà¤¨à¤µà¤°": 2028,
      "à¤¡à¤¡": 2029,
      "à¥§à¥¯à¥¯": 2030,
      "à¥¨à¥¦à¥§à¥Ń": 2031,
      "à¤®à¤ŀ": 2032,
      "à¤¥à¤²à¤ķ": 2033,
      "à¤īà¤Ń": 2034,
      "à¤¤à¤¸à¤®": 2035,
      "à¤ĸà¤¬à¤°": 2036,
      "Ġà¤Ĺà¤ľà¤²": 2037,
      "Ġà¤¸à¤Ĺà¤°à¤®": 2038,
      "Ġà¤ĸà¤ªà¤¤": 2039,
      "à¤ľà¤ķà¤¤": 2040,
      "Ġ?-": 2041,
      "à¤·à¤£à¤®": 2042,
      "à¤¦à¤°à¤²": 2043,
      "Ġà¤Ĺà¤ĩà¤°à¤¹": 2044,
      "à¤µà¤¸à¤¨": 2045,
      "à¤²à¤¯à¤¹à¤°": 2046,
      "Ġà¤²à¤®à¤ľ": 2047,
      "Ġà¤ıà¤ķà¤®": 2048,
      "à¤¸à¤¦à¤²": 2049,
      "Ġà¤ĺà¤²": 2050,
      "à¤ĵà¤¬": 2051,
      "Ġà¥Ńà¥©": 2052,
      "Ġà¤Ĳà¤¨à¤ķ": 2053,
      "à¤¡à¤¤": 2054,
      "à¤ıà¤ķà¤¤": 2055,
      "Ġà¤ķà¤®à¤°": 2056,
      "à¤·à¤¯à¤¹à¤°": 2057,
      "Ġà¥Ńà¥Ń": 2058,
      "à¤¤à¤ľà¤¨": 2059,
      "à¤¤à¤¨à¤ķ": 2060,
      "à¤µà¤£": 2061,
      "Ġà¥«à¥¦à¥¦": 2062,
      "à¤²à¤¬à¤¹": 2063,
      "à¤¯à¤¯à¤¨à¤°à¤¤": 2064,
      "Ġà¤Ĩà¤īà¤Ł": 2065,
      "Ġà¤¦à¤£": 2066,
      "Ġà¤ªà¤ª": 2067,
      "Ġà¤ħà¤¨à¤¶à¤¨": 2068,
      "Ġà¤īà¤ªà¤ª": 2069,
      "Ġà¤Īà¤¨": 2070,
      "Ġà¥¤-": 2071,
      "à¤¨à¤ľà¤¨": 2072,
      "à¤«à¤°à¤ķ": 2073,
      "à¤īà¤¥": 2074,
      "Ġà¤·": 2075,
      "Ġà¤¨à¤Ĺ": 2076,
      "Ġà¤īà¤ªà¤®": 2077,
      "Ġà¤Ĺà¤¦": 2078,
      "à¤Ľà¤°": 2079,
      "Ġà¤¹à¤²à¤®": 2080,
      "Ġà¤Ĩà¤µà¤¦": 2081,
      "Ġà¤ıà¤ļ": 2082,
      "Ġà¤ªà¤°à¤°": 2083,
      "Ġà¤ªà¤¹à¤²à¤®": 2084,
      "Ġà¤¶à¤¹": 2085,
      "Ġà¥®à¥®": 2086,
      "Ġà¤ĩà¤Ł": 2087,
      "à¤²à¤Ł": 2088,
      "Ġà¤µà¤ľ": 2089,
      "Ġà¤ķà¤¦": 2090,
      "à¤Ĺà¤ļ": 2091,
      "à¤īà¤¸à¤²": 2092,
      "Ġà¥¯à¥¯": 2093,
      "à¤ıà¤²à¤¸": 2094,
      "à¤¹à¤ķà¤¹à¤°": 2095,
      "à¤¨à¤ªà¤°": 2096,
      "Ġà¤°à¤¦": 2097,
      "à¤Ĺà¤¬à¤¹": 2098,
      "Ġà¤Ķà¤¦": 2099,
      "Ġà¤ĵà¤¸": 2100,
      "Ġà¤¸à¤¹à¤¨": 2101,
      "Ġà¤ĥ": 2102,
      "Ġà¤ħà¤®à¤°": 2103,
      "Ġà¤ľà¤¬à¤ķ": 2104,
      "Ġà¤ıà¤Ł": 2105,
      "Ġà¤Ĩà¤ĩà¤¸à¤ķ": 2106,
      "à¤°à¤¤à¤¸": 2107,
      "à¤¬à¤Ĺ": 2108,
      "Ġà¤ıà¤°": 2109,
      "à¥¨à¥§": 2110,
      "à¤¨à¤ªà¤Ľ": 2111,
      "Ġà¤µà¤¸à¤¨": 2112,
      "Ġà¤ħà¤ªà¤¹à¤°à¤£": 2113,
      "à¤Łà¤¬à¤²à¤ķ": 2114,
      "à¥¨à¥ª": 2115,
      "Ġà¤°à¤¹à¤¸": 2116,
      "Ġà¤ħà¤²à¤ªà¤¤": 2117,
      "à¤¤à¤¹à¤¤": 2118,
      "Ġà¤ªà¤£": 2119,
      "Ġà¤Ŀà¤Ĺà¤¡": 2120,
      "ĠĠĠĠĠĠĠĠĠĠĠĠ": 2121,
      "à¤¸à¤Ł": 2122,
      "Ġà¤ıà¤¨à¤¸": 2123,
      "à¤°à¤£à¤¸à¤Ń": 2124,
      "à¤¤à¤ķà¤²": 2125,
      "à¤µà¤²à¤®": 2126,
      "Ġà¤ķà¤·": 2127,
      "Ġà¤µà¤¢": 2128,
      "à¤īà¤Ľà¤¨": 2129,
      "à¤¾à¥Īà¤Ĥ-": 2130,
      "à¤ĺà¤®": 2131,
      "à¤®à¤ķà¤µ": 2132,
      "à¤ĸà¤²à¤¢": 2133,
      "à¤ĸà¤¬": 2134,
      "à¤ľà¤¬à¤°": 2135,
      "à¤Īà¤ľ": 2136,
      "à¤°à¤µà¤Ł": 2137,
      "à¤¦à¤Ń": 2138,
      "à¤°à¤¸à¤Ļ": 2139,
      "Ġà¤®à¤¨à¤ªà¤°": 2140,
      "Ġà¥¬à¥¯": 2141,
      "à¤¥à¤¸": 2142,
      "à¥¨à¥®": 2143,
      "à¤¨à¤Ľ": 2144,
      "à¤¤à¤Ĺà¤¤": 2145,
      "Ġà¥¨à¥¦à¥§à¥¬": 2146,
      "à¤¶à¤¦": 2147,
      "à¤ªà¤¡": 2148,
      "Ġà¤ħà¤ªà¤®": 2149,
      "à¤¯à¤Łà¤ķà¤ķ": 2150,
      "à¤¨à¤Ĺà¤°à¤ķ": 2151,
      "Ġà¤Ńà¤ıà¤¸": 2152,
      "Ġà¥®à¥ª": 2153,
      "à¤¹à¤¨à¤¤": 2154,
      "à¤ĩà¤Ļ": 2155,
      "Ġà¤ľà¤¨à¤µà¤°": 2156,
      "à¤§à¤¨à¤Ĺà¤¢": 2157,
      "Ġà¤ħà¤¸à¤¨": 2158,
      "à¤°à¤ķà¤°à¤£": 2159,
      "Ġà¤Ķà¤¸à¤¤": 2160,
      "à¥¨à¥©": 2161,
      "à¤¶à¤ķà¤¹à¤°": 2162,
      "à¥¨à¥Ń": 2163,
      "Ġà¤²à¤¹": 2164,
      "Ġà¤ķà¤²à¤®": 2165,
      "Ġà¤°à¤ķà¤®à¤ķ": 2166,
      "Ġà¤Ńà¤µà¤¨à¤®": 2167,
      "à¤µà¤¨à¤²": 2168,
      "Ġà¤¸à¤®à¤Ŀà¤¦": 2169,
      "à¥ģà¤ģ-": 2170,
      "à¤µà¤¨à¤¶": 2171,
      "à¤ıà¤¨à¤ı": 2172,
      "Ġà¤Ĩà¤¬": 2173,
      "Ġà¤ıà¤¯à¤°": 2174,
      "à¤ľà¤°à¤²": 2175,
      "Ġà¤°à¤ľ": 2176,
      "à¤ĩà¤¨à¤®": 2177,
      "Ġà¥®à¥©": 2178,
      "Ġà¤®à¤¤à¤Ĺà¤£à¤¨": 2179,
      "Ġà¤¥à¤ķ": 2180,
      "Ġà¤¡à¤°à¤²": 2181,
      "Ġà¤Ĩà¤¯à¤²": 2182,
      "à¤ħà¤¶": 2183,
      "à¤¤à¤°à¤²": 2184,
      "Ġà¤īà¤¦à¤¯à¤ª": 2185,
      "Ġà¤¨à¤Ńà¤¨": 2186,
      "à¤ľà¤¡": 2187,
      "Ġà¤¯à¤®": 2188,
      "à¤¯à¤Ļ": 2189,
      "Ġà¤®à¤¨à¤²": 2190,
      "Ġà¤ľà¤¬à¤°": 2191,
      "Ġà¤Ĩà¤Ĺà¤²": 2192,
      "à¤ªà¤¨à¤ķ": 2193,
      "Ġà¤Ĺà¤«": 2194,
      "à¤ĩà¤ŀ": 2195,
      "à¤Ļà¤¬": 2196,
      "Ġà¤Ĳà¤¨à¤®": 2197,
      "à¤ªà¤µ": 2198,
      "Ġà¤ªà¤¸à¤²à¤®": 2199,
      "à¤¦à¤¦": 2200,
      "Ġà¤®à¤ļ": 2201,
      "à¤¨à¤Ĺ": 2202,
      "Ġà¤¦à¤¶à¤®": 2203,
      "à¤ĩà¤¬à¤°": 2204,
      "Ġà¤ľà¤¨à¤µ": 2205,
      "à¥¨à¥¦à¥§à¥¬": 2206,
      "à¤Ľà¤¦": 2207,
      "Ġà¥Ńà¥§": 2208,
      "Ġà¤¨à¤µà¤²à¤ªà¤°": 2209,
      "à¤ħà¤¡": 2210,
      "Ġà¤ļà¤Ł": 2211,
      "à¤¨à¤ħà¤ĺ": 2212,
      "à¤µà¤¤à¤ķ": 2213,
      "à¤ªà¤°à¤¬": 2214,
      "à¤°à¤£à¤¨": 2215,
      "à¤ķà¤ł": 2216,
      "à¤ľà¤ķà¤²": 2217,
      "à¤¯à¤Ń": 2218,
      "à¤¬à¤Ļ": 2219,
      "Ġà¤®à¤ľà¤¬": 2220,
      "à¤ľà¤¨à¤¯": 2221,
      "à¤·à¤¸": 2222,
      "à¤Ĭà¤°": 2223,
      "Ġà¤²à¤¸": 2224,
      "à¤®à¤ľà¤¦": 2225,
      "à¤ķà¤Łà¤ķ": 2226,
      "à¤°à¤Ļà¤ķ": 2227,
      "Ġà¤¡à¤²à¤°à¤ķ": 2228,
      "à¤¸à¤¶à¤¸": 2229,
      "à¤ļà¤¢": 2230,
      "Ġà¤Ńà¤¬": 2231,
      "Ġà¤ľà¤¨à¤®à¤¤": 2232,
      "Ġà¤Ĩà¤°à¤ķ": 2233,
      "à¤·à¤ķà¤¹à¤°": 2234,
      "Ġà¤Ĩà¤µà¤ķ": 2235,
      "à¤¶à¤ķà¤²": 2236,
      "Ġà¤¢à¤Ļ": 2237,
      "à¤·à¤¯à¤µà¤¸": 2238,
      "à¤§à¤ª": 2239,
      "Ġà¤ľà¤Ļ": 2240,
      "à¤ıà¤Ł": 2241,
      "à¤Ĩà¤Īà¤ľ": 2242,
      "à¤Ńà¤ıà¤¨": 2243,
      "Ġà¤¸à¤¬à¤²": 2244,
      "à¤Ĺà¤µ": 2245,
      "à¤«à¤¸": 2246,
      "Ġà¤¦à¤¯": 2247,
      "à¤ĩà¤£": 2248,
      "Ġà¤®à¤¹à¤¶": 2249,
      "Ġà¤Ĩà¤ĩà¤¸": 2250,
      "Ġà¤®à¤Ĺà¤°à¤²": 2251,
      "à¤¤à¤¹à¤Ł": 2252,
      "Ġà¤¬à¤¸à¤¨": 2253,
      "Ġà¤ıà¤ķà¤ıà¤ķ": 2254,
      "à¤¦à¤°à¤¤": 2255,
      "Ġà¤¸à¤°à¤¹": 2256,
      "Ġà¤¨à¤Ńà¤ıà¤ªà¤Ľ": 2257,
      "Ġà¤¨à¤¹à¤°": 2258,
      "Ġà¤²à¤¹à¤°": 2259,
      "Ġà¤¸à¤¬à¤Ńà¤¨": 2260,
      "à¤¯à¤²à¤¯": 2261,
      "à¤ĸà¤¹à¤°": 2262,
      "Ġà¤Ńà¤µà¤¨à¤ķ": 2263,
      "à¤£à¤°": 2264,
      "Ġà¤²à¤£": 2265,
      "à¤¯à¤£à¤Ĺà¤¢": 2266,
      "à¤µà¤ķà¤²": 2267,
      "à¤ļà¤¥à¤°": 2268,
      "à¤Īà¤ı": 2269,
      "à¤²à¤®à¤²": 2270,
      "à¤Īà¤ľà¤¨": 2271,
      "Ġà¤¦à¤°à¤¬à¤¨": 2272,
      "Ġà¤ªà¤Łà¤ķà¤ķ": 2273,
      "à¤¸à¤¤à¤®": 2274,
      "à¤¤à¤°à¤Ĺà¤¤": 2275,
      "à¤¦à¤µà¤ķ": 2276,
      "à¤Ĩà¤¹": 2277,
      "à¥ªà¥«": 2278,
      "à¤łà¤¨à¤ª": 2279,
      "à¤¸à¤Ĺ": 2280,
      "à¤ıà¤¡": 2281,
      "à¤Ĺà¤¹": 2282,
      "à¤īà¤¨à¤®": 2283,
      "à¤¶à¤¤à¤²": 2284,
      "Ġà¤¸à¤¹à¤°à¤®": 2285,
      "à¥ĭ-à¥ĩ": 2286,
      "Ġà¤¨à¤Ľ": 2287,
      "Ġà¥¯à¥®": 2288,
      "à¤·à¤¯à¤¤": 2289,
      "à¤īà¤¬": 2290,
      "Ġà¥¦à¥«": 2291,
      "à¤¯à¤¯à¤¨à¤ķ": 2292,
      "à¤²à¤¨à¤²": 2293,
      "Ġà¤ķà¤¯": 2294,
      "à¤ľà¤¯à¤ķ": 2295,
      "Ġà¤ħà¤¯": 2296,
      "Ġà¤ľà¤®à¤°": 2297,
      "Ġà¥®à¥¬": 2298,
      "à¤²à¤¶": 2299,
      "Ġà¤łà¤ª": 2300,
      "à¤¯à¤Łà¤ķà¤¹à¤°": 2301,
      "à¤¸à¤Ĺà¤°à¤®": 2302,
      "Ġà¥Ńà¥¯": 2303,
      "Ġà¤ľà¤¯à¤¨": 2304,
      "à¤Ĺà¤²à¤µ": 2305,
      "-à¥Ģ-": 2306,
      "à¤ªà¤ªà¤Ľ": 2307,
      "Ġà¤ĩà¤ľà¤°": 2308,
      "à¤²à¤ľ": 2309,
      "Ġà¤ªà¤¯": 2310,
      "à¤ĩà¤¤à¤µ": 2311,
      "Ġà¤¹à¤®à¤²": 2312,
      "Ġà¤ķà¤¸à¤ķ": 2313,
      "Ġà¤¹à¤ķà¤ª": 2314,
      "Ġà¥¯à¥©": 2315,
      "Ġà¤Ĩà¤ªà¤¸à¤®": 2316,
      "à¥¦à¥¬": 2317,
      "à¤¬à¤ľà¤¨": 2318,
      "à¤¯à¤®à¤®": 2319,
      "Ġà¤¸à¤²à¤®": 2320,
      "Ġà¤ħà¤·": 2321,
      "à¤¦à¤°à¤Ĺ": 2322,
      "à¤ĩà¤°à¤¹à¤¨": 2323,
      "Ġà¤¹à¤¦à¤¸à¤®": 2324,
      "à¤¯à¤®à¤²": 2325,
      "à¤¦à¤¶à¤ķ": 2326,
      "Ġà¤ªà¤¬": 2327,
      "Ġà¥¨à¥¦à¥©": 2328,
      "à¤¦à¤°à¤¬": 2329,
      "Ġà¤ľà¤¨à¤ļ": 2330,
      "à¤²à¤¯à¤¨": 2331,
      "Ġà¥®à¥¨": 2332,
      "à¤īà¤ªà¤ķà¤°à¤£": 2333,
      "Ġà¥®à¥Ń": 2334,
      "à¤ªà¤°à¤ķ": 2335,
      "Ġà¤¨à¤Ĩà¤ıà¤ķ": 2336,
      "Ġà¥¯à¥ª": 2337,
      "Ġà¤ªà¤®": 2338,
      "à¤ĵà¤ĸà¤²à¤¢": 2339,
      "Ġà¥¯à¥¬": 2340,
      "Ġà¤¶à¤¹à¤°à¤ķ": 2341,
      "à¤°à¤ķà¤²": 2342,
      "à¤¡à¤²à¤ķ": 2343,
      "Ġà¤Ĩà¤Ĺà¤®à¤¨": 2344,
      "à¤ĩà¤°à¤²": 2345,
      "à¤µà¤°à¤£à¤®": 2346,
      "à¤®à¤ĺ": 2347,
      "Ġà¤¸à¤¤à¤°": 2348,
      "Ġà¥§à¥¯à¥®": 2349,
      "à¤¤à¤°à¤°": 2350,
      "à¤²à¤¹": 2351,
      "à¤ıà¤®à¤¬": 2352,
      "à¤¶à¤Ńà¤°à¤ķ": 2353,
      "à¤ªà¤¯à¤²": 2354,
      "Ġà¤Ĩà¤°à¤®": 2355,
      "à¤®à¤¤à¤ķ": 2356,
      "Ġà¤²à¤¤": 2357,
      "-à¤ĥ-": 2358,
      "Ġà¤¬à¤Ŀ": 2359,
      "à¤Ĩà¤ı": 2360,
      "Ġà¥¯à¥§": 2361,
      "à¤®à¤¸à¤®": 2362,
      "Ġà¤ħà¤£": 2363,
      "à¤Īà¤¨à¤²": 2364,
      "à¤ªà¤ķà¤°": 2365,
      "à¥¨à¥¯": 2366,
      "Ġà¤ļà¤ª": 2367,
      "Ġà¤ıà¤ķà¤¸": 2368,
      "à¤¯à¤¨à¤ľà¤°": 2369,
      "Ġà¤ļà¤²à¤ĸ": 2370,
      "à¤¨à¤¶": 2371,
      "à¤²à¤§": 2372,
      "Ġà¤®à¤®": 2373,
      "à¤Ļà¤¸": 2374,
      "à¤Ŀà¤Ł": 2375,
      "à¤¯à¤ķà¤²": 2376,
      "à¤ªà¤¹à¤°": 2377,
      "Ġà¤łà¤®": 2378,
      "Ġà¤Ńà¤°à¤ªà¤°": 2379,
      "à¤¬à¤²à¤ķ": 2380,
      "Ġà¤°à¤ľà¤¤": 2381,
      "Ġà¥¨à¥¦à¥§à¥«": 2382,
      "Ġà¤°à¤¨à¤®": 2383,
      "Ġà¤Ĩà¤īà¤¦": 2384,
      "à¤¥à¤²à¤Ĺà¤¤": 2385,
      "à¤·à¤¯à¤Ĺà¤¤": 2386,
      "à¤ĩà¤ľà¤°": 2387,
      "Ġà¤ľà¤¨à¤¯": 2388,
      "Ġà¤Ńà¤Īà¤°à¤¹": 2389,
      "à¤Ńà¤Ĺà¤µ": 2390,
      "à¤ªà¤ĸ": 2391,
      "à¤ĩà¤¨à¤ķ": 2392,
      "à¤«à¤¦": 2393,
      "à¤Ĺà¤°à¤£": 2394,
      "Ġà¤Ĩà¤ľà¤¸à¤®": 2395,
      "à¤ĩà¤Łà¤¹à¤°": 2396,
      "à¤Łà¤¤": 2397,
      "à¤ĩà¤µ": 2398,
      "à¤²à¤¬à¤¨": 2399,
      "Ġà¤Ĺà¤Ĺà¤¨": 2400,
      "Ġà¤«à¤¨": 2401,
      "à¥¨à¥¦à¥Ńà¥ªà¥Ńà¥«": 2402,
      "Ġà¤Ńà¤Ĺà¤µà¤¤": 2403,
      "à¤¯à¤²à¤ķ": 2404,
      "Ġà¤¯à¤ķ": 2405,
      "Ġà¤¨à¤ľà¤°": 2406,
      "à¤Ĩà¤Īà¤¸": 2407,
      "Ġà¤Ĩà¤ľà¤¦": 2408,
      "à¤Ĩà¤ıà¤ªà¤Ľ": 2409,
      "à¤¶à¤ª": 2410,
      "Ġà¤«à¤¡": 2411,
      "Ġà¤ĵà¤ªà¤¨": 2412,
      "à¤ĸà¤¨à¤¨": 2413,
      "à¤ĩà¤²à¤Ł": 2414,
      "Ġà¤ĩà¤¶": 2415,
      "à¤Ĥà¤ģ": 2416,
      "Ġà¤Ĩà¤¸à¤¨": 2417,
      "à¥¦à¥¦à¥¦": 2418,
      "à¤¡à¤¹à¤°": 2419,
      "à¤Ĩà¤Ĺà¤²": 2420,
      "à¤¤à¤°à¤µ": 2421,
      "à¤Łà¤²à¤ķ": 2422,
      "à¤·à¤ķà¤®": 2423,
      "à¤Īà¤¬": 2424,
      "Ġà¤Ĳà¤¨à¤²": 2425,
      "à¤°à¤ªà¤Ľ": 2426,
      "à¤ķà¤Łà¤®": 2427,
      "à¤Ńà¤²à¤ªà¤®": 2428,
      "à¤ľà¤¨à¤Ĩà¤¨": 2429,
      "à¤ķà¤®à¤ķ": 2430,
      "Ġà¥®à¥§": 2431,
      "Ġà¥¯à¥Ń": 2432,
      "Ġà¤ħà¤«à¤°": 2433,
      "à¤ķà¤Ńà¤°": 2434,
      "Ġà¤¯à¤ľ": 2435,
      "Ġà¥®à¥¯": 2436,
      "Ġà¤²à¤ľ": 2437,
      "à¤Ļà¤ķà¤Ļ": 2438,
      "à¤¯à¤ķà¤®": 2439,
      "à¤īà¤¤à¤²": 2440,
      "Ġà¤®à¤ķà¤µ": 2441,
      "Ġà¤¸à¤ĸ": 2442,
      "à¤ķà¤ľ": 2443,
      "à¤¯à¤¸à¤¨": 2444,
      "Ġà¤ħà¤µà¤²à¤®": 2445,
      "à¤ĺà¤°à¤ªà¤°": 2446,
      "à¤¿à¤¾": 2447,
      "à¤¹à¤Ļà¤ķà¤Ļ": 2448,
      "à¤¥à¤¤": 2449,
      "à¤ıà¤¯à¤°à¤²": 2450,
      "à¤²à¤ķà¤¹à¤°": 2451,
      "Ġà¤ħà¤Ĺà¤¸": 2452,
      "Ġà¤ĸà¤¬": 2453,
      "Ġà¤Łà¤¸": 2454,
      "Ġà¤°à¤¬": 2455,
      "Ġà¤°à¤ļ": 2456,
      "à¤Ĩà¤Ĩà¤«": 2457,
      "Ġà¤¤à¤Ł": 2458,
      "à¤µà¤¤à¤ľ": 2459,
      "à¤Ľà¤¤": 2460,
      "Ġà¤Ĩà¤µà¤®": 2461,
      "à¤¥à¤¶": 2462,
      "à¥©à¥«": 2463,
      "Ġà¤¸à¤¤à¤¹": 2464,
      "à¥¦à¥Ńà¥«": 2465,
      "à¤ıà¤¤": 2466,
      "à¤·à¤°à¤¤": 2467,
      "à¤¶à¤¯": 2468,
      "à¤¹à¤°à¤£à¤ķ": 2469,
      "à¤ķà¤°à¤£à¤²": 2470,
      "à¤°à¤ľà¤¨à¤¨": 2471,
      "à¤ļà¤°à¤£": 2472,
      "à¤ģà¤Ĥ": 2473,
      "à¤¤à¤ķà¤°": 2474,
      "à¤¯à¤ķà¤µ": 2475,
      "Ġà¤Łà¤ª": 2476,
      "à¤ķà¤¬à¤¹": 2477,
      "à¤Īà¤¡": 2478,
      "Ġà¤¶à¤Ļ": 2479,
      "Ġà¤¨à¤¶": 2480,
      "Ġà¤¶à¤ªà¤¥": 2481,
      "Ġà¤¶à¤¶": 2482,
      "à¤°à¤¸à¤ŀ": 2483,
      "Ġà¥¨à¥¦à¥§à¥ª": 2484,
      "Ġà¤¦à¤®à¤¨": 2485,
      "Ġà¤ĺà¤°à¤ĺà¤°à¤®": 2486,
      "à¤ľà¤Ļ": 2487,
      "Ġà¤¶à¤°à¤¦": 2488,
      "à¤¤à¤®à¤ķ": 2489,
      "à¤¦à¤¶à¤¨": 2490,
      "à¤ĵà¤°": 2491,
      "à¤¶à¤ķà¤ķ": 2492,
      "Ġà¤ķà¤£": 2493,
      "à¤ªà¤¤à¤ķ": 2494,
      "à¤ĸà¤Ł": 2495,
      "Ġà¤ĺà¤°à¤¹à¤°": 2496,
      "à¥ī": 2497,
      "à¤¨à¤ĸ": 2498,
      "Ġà¤ħà¤ł": 2499,
      "à¥ĥ-": 2500,
      "à¤Łà¤¸à¤®": 2501,
      "à¤®à¤ĸ": 2502,
      "Ġà¤¨à¤µà¤¨": 2503,
      "à¤ħà¤µà¤²": 2504,
      "à¤Ŀà¤ķ": 2505,
      "à¤µà¤ķà¤ªà¤®": 2506,
      "Ġà¤Ĩà¤®à¤¨": 2507,
      "à¤Ŀà¤®": 2508,
      "Ġà¤Ĺà¤Ńà¤°": 2509,
      "Ġà¤¤à¤¹à¤¬": 2510,
      "à¤ıà¤ķà¤ħà¤°": 2511,
      "Ġà¥¯à¥¨": 2512,
      "Ġà¤ªà¤¦à¤¬": 2513,
      "à¤Ĩà¤ĩà¤ľ": 2514,
      "Ġà¤Ľà¤²à¤«à¤²à¤ķ": 2515,
      "Ġà¤ĩà¤Ń": 2516,
      "à¤Ĺà¤ĩà¤°à¤¹": 2517,
      "à¤¶à¤®à¤¨": 2518,
      "à¤Ńà¤¬": 2519,
      "à¤¯à¤®à¤¹à¤°": 2520,
      "Ġà¤ħà¤¬à¤¸": 2521,
      "à¤¯à¤¬à¤¹": 2522,
      "à¤Ļà¤¦": 2523,
      "à¤Ĺà¤²à¤ķ": 2524,
      "à¤Īà¤ª": 2525,
      "à¥ªà¥¦": 2526,
      "à¤¤à¤¹à¤¤à¤ķ": 2527,
      "à¤¹à¤ķà¤²": 2528,
      "à¤¦à¤ª": 2529,
      "à¤Ĩà¤®à¤¨": 2530,
      "ĠĠĠĠĠĠ": 2531,
      "à¤Łà¤¯": 2532,
      "Ġà¤®à¤¤à¤ªà¤¤": 2533,
      "Ġà¤¶à¤°à¤£": 2534,
      "Ġà¤Ľà¤¤": 2535,
      "à¥¬à¥¦": 2536,
      "Ġà¤«à¤°à¤ķà¤«à¤°à¤ķ": 2537,
      "à¤Īà¤ļ": 2538,
      "à¤¸à¤®à¤¯à¤¸à¤®": 2539,
      "à¤Ĩà¤¸": 2540,
      "à¤ķà¤ħà¤ª": 2541,
      "à¥¨à¥¦à¥Ńà¥§": 2542,
      "à¤¤à¤ķà¤®": 2543,
      "à¤¤à¤Ńà¤°": 2544,
      "à¤Ńà¤ªà¤¤": 2545,
      "Ġà¤ķà¤¦à¤°": 2546,
      "Ġà¤¨à¤Ĩà¤īà¤¨": 2547,
      "Ġà¤²à¤Ń": 2548,
      "à¤ħà¤ŀ": 2549,
      "Ġà¤°à¤ĺ": 2550,
      "Ġà¥¨à¥¦à¥¦à¥Ń": 2551,
      "à¤ķà¤¸à¤°": 2552,
      "Ġà¤¸à¤¦à¤¨": 2553,
      "Ġà¤Ĩà¤ķà¤¸": 2554,
      "à¤¯à¤¸à¤¤": 2555,
      "à¤µà¤ªà¤¶": 2556,
      "Ġà¤®à¤¨à¤Ĺ": 2557,
      "Ġà¤īà¤ªà¤ķ": 2558,
      "Ġà¤¸à¤¹à¤°à¤ķ": 2559,
      "Ġà¤®à¤¤à¤²": 2560,
      "à¤ħà¤ľ": 2561,
      "à¤¸à¤§": 2562,
      "Ġà¤ħà¤µà¤¤à¤°à¤£": 2563,
      "à¤Ľà¤¡": 2564,
      "à¤¡à¤¦": 2565,
      "Ġà¤«à¤ķ": 2566,
      "Ġà¥Ĳ": 2567,
      "Ġà¤¸à¤®à¤¯à¤²": 2568,
      "Ġà¤ıà¤®à¤¬": 2569,
      "Ġà¤ıà¤ķà¤ľ": 2570,
      "à¤¶à¤¤à¤ķ": 2571,
      "à¥¦à¥Ńà¥ª": 2572,
      "à¤¾à¤ĥ": 2573,
      "à¥ĩà¤ģ-": 2574,
      "Ġà¥¨à¥¦à¥Ńà¥¦": 2575,
      "à¤¯à¤Łà¤ķà¤²": 2576,
      "Ġà¤¹à¤¡": 2577,
      "à¤Ŀà¤²": 2578,
      "à¤²à¤ķà¤£": 2579,
      "Ġà¤ĵà¤Ńà¤°": 2580,
      "à¤°à¤µà¤¨": 2581,
      "à¤Ĺà¤łà¤¨à¤²": 2582,
      "à¤ªà¤¨à¤ªà¤¤": 2583,
      "Ġà¤Łà¤ķ": 2584,
      "Ġà¤ħà¤µà¤¸à¤°à¤ķ": 2585,
      "à¤ıà¤¨à¤Ĩà¤°à¤ıà¤¨à¤ı": 2586,
      "à¤¸à¤²à¤®": 2587,
      "à¤Łà¤ķà¤°": 2588,
      "à¤Īà¤°": 2589,
      "à¤¾à¥į": 2590,
      "à¤¤à¤µà¤Ł": 2591,
      "à¥¨à¥¦à¥§à¥«": 2592,
      "Ġà¤ħà¤¨à¤¸à¤¨": 2593,
      "Ġà¤īà¤ªà¤¦": 2594,
      "à¤°à¤Ńà¤¨": 2595,
      "Ġà¤²à¤¯": 2596,
      "Ġà¤ªà¤ĸ": 2597,
      "Ġà¤§à¤°à¤¹à¤°": 2598,
      "Ġà¤µà¤¨à¤ķ": 2599,
      "à¤ľà¤¨à¤¸à¤Ļ": 2600,
      "Ġà¤ħà¤¨à¤®": 2601,
      "Ġà¤ıà¤¸à¤ıà¤²à¤¸": 2602,
      "Ġà¥¦à¥ª": 2603,
      "Ġà¤ĵà¤²à¤®": 2604,
      "Ġà¤¦à¤¶à¤ķà¤®": 2605,
      "à¤Ĩà¤Īà¤ª": 2606,
      "à¤¤à¤°à¤¬": 2607,
      "Ġà¤¨à¤Ł": 2608,
      "à¤ĩà¤°à¤¸": 2609,
      "à¤ķà¤®à¤°": 2610,
      "ĠĠĠĠčĊ": 2611,
      "à¤ıà¤®à¤Ī": 2612,
      "Ġà¤¬à¤Ļ": 2613,
      "à¤¦à¤¹": 2614,
      "à¤Ĺà¤ª": 2615,
      "à¤¯à¤¸à¤ļ": 2616,
      "Ġà¤Ńà¤ıà¤¤": 2617,
      "à¤ļà¤¨à¤²": 2618,
      "à¤¯à¤ªà¤¤": 2619,
      "à¤¢à¤ķ": 2620,
      "Ġà¤ĵà¤Ĺà¤Ł": 2621,
      "Ġà¤ľà¤¥": 2622,
      "Ġà¤ıà¤Ńà¤°": 2623,
      "à¤ıà¤®à¤ıà¤¸": 2624,
      "à¤·à¤Ńà¤°": 2625,
      "à¤¶à¤®à¤¶": 2626,
      "à¤¯à¤Łà¤¨à¤ķ": 2627,
      "Ġà¤Ńà¤ıà¤Ľ": 2628,
      "à¤ķà¤°à¤£à¤®": 2629,
      "à¤Ĩà¤¨à¤¨": 2630,
      "Ġà¤ľà¤¸à¤¬": 2631,
      "à¤Ńà¤ĩ": 2632,
      "à¤°à¤ķà¤®": 2633,
      "à¤¤à¤ķà¤¹à¤°": 2634,
      "à¤ĵà¤ķ": 2635,
      "Ġà¤Ĩà¤Īà¤¸": 2636,
      "Ġà¤Ĩà¤ıà¤¨": 2637,
      "Ġà¤Ĩà¤ĩà¤¤à¤µ": 2638,
      "à¤ħà¤Ł": 2639,
      "à¤¤à¤°à¤ª": 2640,
      "à¤¯à¤®à¤¶": 2641,
      "à¤¾à¥Īà¤Ĥ": 2642,
      "à¤ļà¤ª": 2643,
      "à¤Īà¤¸à¤ķ": 2644,
      "Ġà¤ľà¤²à¤¸": 2645,
      "Ġà¤ħà¤¨à¤¨": 2646,
      "à¤°à¤ªà¤¸": 2647,
      "Ġà¤®à¤¸à¤²": 2648,
      "Ġà¤¬à¤¸à¤ª": 2649,
      "Ġà¤¸à¤®à¤¯à¤ªà¤Ľ": 2650,
      "à¤¯à¤¤à¤¨": 2651,
      "Ġà¤®à¤¹à¤¤à¤²": 2652,
      "à¥Ńà¥©": 2653,
      "Ġà¥¦à¥¦à¥¦": 2654,
      "Ġà¤¡à¤®": 2655,
      "à¤Ĺà¤®à¤¨à¤ķ": 2656,
      "Ġà¤¬à¤¦à¤°": 2657,
      "à¤ļà¤²à¤¨": 2658,
      "ĠĠĠĠĠĠĠĠĠĠĠĠĠĠĠĠĠĠĠĠĠĠĠĠ": 2659,
      "Ġà¤¬à¤¸à¤®": 2660,
      "Ġà¤ĸà¤ª": 2661,
      "à¤¨à¤¬à¤¹": 2662,
      "à¤īà¤¸à¤ķ": 2663,
      "à¤ħà¤Ŀ": 2664,
      "à¤Łà¤ķà¤ķ": 2665,
      "Ġà¤¨à¤ļà¤²": 2666,
      "à¤²à¤¯à¤¬": 2667,
      "-à¥ĩ-": 2668,
      "-à¥Į": 2669,
      "à¤ĩà¤ıà¤¨": 2670,
      "à¤·à¤¦à¤ķ": 2671,
      "à¤¯à¤¸à¤ª": 2672,
      "à¤Łà¤¬à¤²à¤®": 2673,
      "Ġà¤¦à¤°à¤®": 2674,
      "Ġà¤¤à¤°à¤²à¤¤": 2675,
      "à¥¨à¥¦à¥§à¥ª": 2676,
      "à¥¨à¥¦à¥Ńà¥«à¥Ńà¥¬": 2677,
      "à¤Ńà¤ªà¤¤à¤¨": 2678,
      "à¤¤à¤°à¤£à¤ķ": 2679,
      "à¤¯à¤£à¤ķ": 2680,
      "à¤¨à¤Ł": 2681,
      "à¤¸à¤ªà¤¨": 2682,
      "à¤ľà¤¯à¤¨": 2683,
      "à¤£à¤¬": 2684,
      "Ġà¤ıà¤¬": 2685,
      "à¤°à¤¸à¤¨": 2686,
      "à¥Ģà¤Ĥ-": 2687,
      "à¤Ńà¤Īà¤°à¤¹": 2688,
      "à¤¸à¤®à¤®": 2689,
      "Ġà¤ĺà¤°à¤¦": 2690,
      "ĠĠĠĠĠčĊ": 2691,
      "Ġà¤Ĺà¤¢": 2692,
      "Ġà¤¶à¤®": 2693,
      "Ġà¤Ĺà¤łà¤¨à¤ķ": 2694,
      "à¤¸à¤°à¤¸à¤«": 2695,
      "Ġà¤®à¤Ĺ": 2696,
      "à¤ĩà¤Ńà¤°": 2697,
      "à¤ľà¤¨à¤¶": 2698,
      "à¤¯à¤°à¤§à¤¨": 2699,
      "à¤ħà¤µà¤¸à¤°": 2700,
      "à¥§à¥¯à¥®": 2701,
      "Ġà¤¨à¤Ńà¤ıà¤¸à¤®": 2702,
      "à¥Ńà¥¦": 2703,
      "Ġà¤ıà¤¸à¤ıà¤¸à¤ª": 2704,
      "à¤ĸà¤¸à¤®": 2705,
      "à¤¡à¤ķà¤ª": 2706,
      "à¤¦à¤°à¤¬à¤¨": 2707,
      "Ġà¤Ķà¤ļ": 2708,
      "à¤ļà¤µ": 2709,
      "à¤£à¤¯à¤²": 2710,
      "Ġà¤¦à¤°à¤ķ": 2711,
      "à¤µà¤ķà¤ªà¤ķ": 2712,
      "Ġà¤īà¤§": 2713,
      "Ġà¥©à¥¦à¥¦": 2714,
      "à¤¨à¤µà¤¤": 2715,
      "Ġà¤Ŀà¤°à¤¨": 2716,
      "Ġà¥§à¥«à¥¦": 2717,
      "Ġà¤¬à¤¦à¤¨": 2718,
      "Ġà¤²à¤°": 2719,
      "à¤«à¤²à¤«": 2720,
      "à¤ªà¤°à¤µ": 2721,
      "à¤īà¤ªà¤¸à¤Ń": 2722,
      "Ġà¤¬à¤¬": 2723,
      "à¤Īà¤ķà¤²": 2724,
      "Ġà¤ĩà¤¨à¤°": 2725,
      "Ġà¤¹à¤Ļà¤ķà¤Ļà¤ķ": 2726,
      "Ġà¤ĭà¤¤": 2727,
      "Ġà¤Ĩà¤Īà¤ª": 2728,
      "Ġà¤īà¤¦à¤¯": 2729,
      "Ġà¤¤à¤¹à¤¸à¤®": 2730,
      "à¤ĸà¤ķà¤²": 2731,
      "Ġà¤ħà¤¸à¤¹à¤®à¤¤": 2732,
      "à¤ľà¤¨à¤¸à¤®": 2733,
      "Ġà¤īà¤ªà¤¸à¤ļ": 2734,
      "à¤ĵà¤²à¤®": 2735,
      "Ġà¤Īà¤®": 2736,
      "à¤®à¤¥": 2737,
      "à¤µà¤²à¤²": 2738,
      "à¤¸à¤µà¤ķ": 2739,
      "à¤²à¤¬à¤®": 2740,
      "à¤Ĩà¤ĩà¤¸": 2741,
      "à¤°à¤¹à¤ķ": 2742,
      "à¤°à¤¸à¤¹": 2743,
      "Ġà¤®à¤Ŀ": 2744,
      "Ġà¤ħà¤ľà¤¯": 2745,
      "à¤°à¤ķà¤°à¤£à¤®": 2746,
      "Ġà¤¨à¤²à¤Ĺ": 2747,
      "à¤·à¤¡": 2748,
      "Ġà¤¹à¤ķà¤ķ": 2749,
      "à¤°à¤®à¤£à¤²": 2750,
      "à¤¯à¤¸à¤¤à¤°": 2751,
      "à¥įà¥į": 2752,
      "Ġà¤¬à¤¸à¤ķ": 2753,
      "Ġà¤®à¤®à¤¤": 2754,
      "Ġà¤īà¤ªà¤µ": 2755,
      "Ġà¤ıà¤ķà¤ķ": 2756,
      "Ġà¤ľà¤¨à¤¹": 2757,
      "Ġà¤Īà¤²": 2758,
      "à¤Łà¤°à¤¹à¤°": 2759,
      "Ġà¤¸à¤¹à¤ľà¤¤": 2760,
      "à¥¨à¥¦à¥Ńà¥©à¥Ńà¥ª": 2761,
      "Ġà¤®à¤¡": 2762,
      "à¤Īà¤Ń": 2763,
      "Ġà¤Łà¤¹à¤°": 2764,
      "à¥©à¥¯": 2765,
      "Ġà¤°à¤ŀ": 2766,
      "à¤Ĥà¥Ī": 2767,
      "Ġà¤Ĩà¤£à¤µ": 2768,
      "à¤Ĺà¤łà¤¨à¤¹à¤°": 2769,
      "à¥įà¥ĩ": 2770,
      "Ġà¤®à¤ĸ": 2771,
      "à¤īà¤ªà¤µ": 2772,
      "Ġà¤ĵà¤ª": 2773,
      "Ġà¤¦à¤¶à¤®à¤²à¤¬": 2774,
      "Ġà¤¬à¤ĸà¤¤": 2775,
      "Ġà¤µà¤ļà¤¨": 2776,
      "à¤ĩà¤²à¤®": 2777,
      "à¤Īà¤¶": 2778,
      "Ġà¤µà¤°à¤ªà¤°": 2779,
      "Ġà¤Ķà¤²": 2780,
      "à¤¾-à¥ĩ": 2781,
      "à¤Ńà¤¸": 2782,
      "Ġà¤Ĩà¤ĩà¤¡": 2783,
      "à¥Į-à¤Ĥ": 2784,
      "Ġà¥¨à¥¦à¥§à¥¦": 2785,
      "à¤ªà¤¸à¤®": 2786,
      "Ġà¤µà¤ŀ": 2787,
      "à¤ħà¤²à¤Ĺ": 2788,
      "Ġà¤®à¤¤à¤²à¤¬": 2789,
      "à¤Ĺà¤¬à¤¨": 2790,
      "à¤·à¤ª": 2791,
      "Ġà¤ħà¤¸à¤¹à¤ľ": 2792,
      "Ġà¤ľà¤ª": 2793,
      "à¤ĵà¤Ł": 2794,
      "Ġà¤¨à¤¬à¤¢": 2795,
      "à¤ľà¤¸à¤®": 2796,
      "Ġà¤¨à¤°à¤®": 2797,
      "Ġà¤ħà¤¥": 2798,
      "Ġà¥¨à¥¦à¥Ńà¥§": 2799,
      "à¥¨à¥¦à¥¬à¥©": 2800,
      "Ġà¤°à¤Ĺà¤¤à¤ķ": 2801,
      "à¤īà¤ĸ": 2802,
      "à¤Ĺà¤®à¤¤": 2803,
      "à¤°à¤¬à¤¦": 2804,
      "ĠĠĠĠĠĠĠ": 2805,
      "à¤Ńà¤ıà¤ªà¤¨": 2806,
      "à¤Ĥà¤Ĥ": 2807,
      "à¤ķà¤°à¤²": 2808,
      "à¤ĩà¤Łà¤®": 2809,
      "à¤Łà¤ķà¤®": 2810,
      "Ġà¤īà¤¬": 2811,
      "à¤µà¤ķà¤ķ": 2812,
      "Ġà¤Ĩà¤¡à¤®": 2813,
      "Ġà¤²à¤ĸ": 2814,
      "Ġà¤Ŀà¤Ł": 2815,
      "à¤¬à¤¦à¤²": 2816,
      "à¤®à¤¨à¤¸": 2817,
      "Ġà¤Īà¤¸": 2818,
      "à¤ļà¤Ĺ": 2819,
      "Ġà¤®à¤¨à¤¨": 2820,
      "Ġà¤Ńà¤ľà¤¨": 2821,
      "à¤Ĩà¤ľà¤ķ": 2822,
      "à¤ķà¤²à¤ķ": 2823,
      "Ġà¤ĸà¤®": 2824,
      "à¤ľà¤ªà¤¤": 2825,
      "à¤¡à¤¨à¤ķ": 2826,
      "Ġà¤Ńà¤°à¤ª": 2827,
      "Ġà¤µà¤¨à¤¸": 2828,
      "Ġà¤ľà¤¨à¤°à¤²": 2829,
      "Ġà¤Ĺà¤ļ": 2830,
      "-à¥į-": 2831,
      "à¤°à¤ĺ": 2832,
      "Ġà¤¡à¤¬à¤²": 2833,
      "à¤¾à¤Ĥà¥Ī": 2834,
      "Ġà¤¸à¤ľà¤Ĺ": 2835,
      "à¤¬à¤¹à¤°": 2836,
      "Ġà¤¨à¤¬à¤¸": 2837,
      "à¤Īà¤®à¤§": 2838,
      "à¥¬à¥¬": 2839,
      "Ġà¤Ĩà¤ľà¤¬": 2840,
      "Ġà¤°à¤¨à¤²": 2841,
      "à¤ĩà¤¹à¤°": 2842,
      "à¤°à¤µà¤¹à¤¨": 2843,
      "à¤¬à¤°à¤£": 2844,
      "à¤¹à¤²à¤ª": 2845,
      "à¤ĭà¤·": 2846,
      "à¥ĩà¤Ĥ-": 2847,
      "à¤µà¤²à¤ķ": 2848,
      "Ġà¤ľà¤Ĺà¤¦": 2849,
      "Ġà¤ıà¤ķà¤Ľ": 2850,
      "à¤§à¤¨à¤¹à¤°": 2851,
      "à¤ľà¤Ńà¤£": 2852,
      "à¥©à¥§": 2853,
      "à¤ķà¤ªà¤¡": 2854,
      "Ġà¤Ńà¤ĩà¤°à¤¹à¤¨": 2855,
      "Ġà¤¸à¤¡à¤ķà¤²": 2856,
      "à¤Łà¤¨à¤ķ": 2857,
      "Ġà¥¨à¥¦à¥§à¥©": 2858,
      "à¤®à¤«": 2859,
      "Ġà¤¦à¤²à¤¬": 2860,
      "à¤¦à¤ķà¤¤": 2861,
      "à¤£à¤¹à¤°": 2862,
      "Ġà¥¨à¥¦à¥§à¥§": 2863,
      "à¥¨à¥¦à¥¬à¥®": 2864,
      "Ġà¤ĸà¤¤à¤°à¤¨": 2865,
      "à¤ĩà¤¨à¤°": 2866,
      "à¤¨à¤¨à¤Ĺà¤°": 2867,
      "Ġà¥¨à¥¦à¥¬à¥ª": 2868,
      "Ġ-à¥¤-": 2869,
      "à¤²à¤ĸà¤£": 2870,
      "à¥įà¥ģ": 2871,
      "à¤¶à¤Ńà¤ķ": 2872,
      "Ġà¤¤à¤²à¤ķ": 2873,
      "à¤ĸà¤Ĺ": 2874,
      "Ġà¤ıà¤ķà¤ªà¤Ľ": 2875,
      "à¤Łà¤°à¤¬": 2876,
      "à¤īà¤¦à¤¯à¤ª": 2877,
      "Ġà¤¸à¤¯à¤Ńà¤¨": 2878,
      "Ġà¤Ĩà¤ªà¤°": 2879,
      "Ġà¤°à¤®à¤£": 2880,
      "à¤Ĳà¤¨": 2881,
      "-à¥Įà¤Ĥ-": 2882,
      "à¤¦à¤¶à¤®": 2883,
      "Ġà¤īà¤Ĺ": 2884,
      "Ġà¤ĩà¤ª": 2885,
      "à¤ªà¤¹à¤²": 2886,
      "à¤¯à¤¯à¤¨à¤²": 2887,
      "à¥¨à¥¦à¥§à¥©": 2888,
      "à¤ıà¤«à¤¸": 2889,
      "à¤ıà¤¨à¤¸": 2890,
      "à¥©à¥¬": 2891,
      "à¤¦à¤¶à¤®à¤²à¤µ": 2892,
      "à¥įà¤¾": 2893,
      "à¤¤à¤Ń": 2894,
      "à¤¤à¤¨à¤²": 2895,
      "Ġà¤¬à¤²à¤°": 2896,
      "à¤¯à¤°à¤¬": 2897,
      "Ġà¤ªà¤µà¤¨": 2898,
      "Ġà¤ĸà¤Ĺ": 2899,
      "à¤ªà¤¸à¤²": 2900,
      "Ġà¤¦à¤¨": 2901,
      "Ġà¤¯à¤¶": 2902,
      "Ġà¥¨à¥¦à¥¨à¥¦": 2903,
      "à¤īà¤ªà¤¸à¤®": 2904,
      "Ġà¤ıà¤«à¤ıà¤®": 2905,
      "à¤Ĺà¤Ń": 2906,
      "à¤¢à¤²": 2907,
      "Ġà¤ĵà¤¢": 2908,
      "Ġà¤¸à¤ªà¤¥": 2909,
      "à¤Ńà¤°à¤¤à¤ª": 2910,
      "Ġà¤ħà¤¸à¤¹": 2911,
      "Ġà¤Ńà¤ıà¤¨à¤¨": 2912,
      "à¤¸à¤µà¤®": 2913,
      "à¤ªà¤¨à¤®": 2914,
      "à¤®à¤²à¤ķ": 2915,
      "à¤Ĺà¤¦à¤°": 2916,
      "Ġà¤¨à¤®à¤¸": 2917,
      "à¤ķà¤Łà¤²": 2918,
      "à¤¬à¤Ł": 2919,
      "à¤ļà¤µà¤Ł": 2920,
      "à¤ħà¤¯": 2921,
      "à¤łà¤¹à¤°": 2922,
      "à¤¯à¤®à¤¯": 2923,
      "à¤Ńà¤ļ": 2924,
      "Ġà¤¨à¤Ńà¤ĩ": 2925,
      "Ġà¤¯à¤¨": 2926,
      "à¤Ĩà¤°à¤ķ": 2927,
      "Ġà¤°à¤¹à¤¦": 2928,
      "Ġà¤®à¤¤à¤ķ": 2929,
      "à¤ŀà¤¤": 2930,
      "à¤¸à¤ĺ": 2931,
      "à¤ıà¤¯à¤°": 2932,
      "Ġà¥¨à¥¦à¥§à¥¨": 2933,
      "à¤ķà¤¨à¤ķ": 2934,
      "Ġà¤°à¤¥": 2935,
      "Ġà¤¤à¤µà¤°à¤²": 2936,
      "Ġà¥ªà¥¦à¥¦": 2937,
      "à¤®à¤Ń": 2938,
      "à¤°à¤¹à¤®": 2939,
      "Ġà¤ĺà¤°à¤Ń": 2940,
      "à¤°à¤ļà¤¢": 2941,
      "à¤ıà¤«à¤ª": 2942,
      "à¤°à¤Ĩà¤®": 2943,
      "à¤¯à¤ļ": 2944,
      "à¥Īà¥Ī": 2945,
      "à¤ĸà¤°à¤®": 2946,
      "à¤Ķà¤ļ": 2947,
      "à¤°à¤¬à¤°": 2948,
      "à¤¯à¤¨à¤²": 2949,
      "Ġà¤ªà¤¡": 2950,
      "Ġà¤¬à¤ŀ": 2951,
      "à¤¸à¤«à¤°": 2952,
      "à¤®à¤¨à¤®": 2953,
      "à¤Łà¤µà¤²à¤®": 2954,
      "à¤¤à¤ĸ": 2955,
      "à¤īà¤¡à¤ķ": 2956,
      "Ġà¤Ĩà¤Ļ": 2957,
      "Ġà¤ľà¤¬à¤¸à¤®": 2958,
      "Ġà¤µà¤¨à¤®": 2959,
      "Ġà¤¯à¤¸à¤ªà¤Ľ": 2960,
      "Ġà¤īà¤ªà¤¸à¤®": 2961,
      "Ġà¤®à¤¦à¤¤": 2962,
      "à¤¸à¤µà¤°": 2963,
      "Ġà¤®à¤Ĺà¤°à¤ķ": 2964,
      "à¥©à¥©": 2965,
      "à¤£à¤¯à¤ķ": 2966,
      "à¤Ĩà¤ł": 2967,
      "à¤¿à¤Ĥ-": 2968,
      "à¤°à¤ªà¤¥": 2969,
      "à¤¤à¤ªà¤¤": 2970,
      "à¤ıà¤Ľ": 2971,
      "à¤ľà¤¨à¤µ": 2972,
      "à¤Łà¤°à¤Ł": 2973,
      "à¥¨à¥¦à¥Ńà¥¦": 2974,
      "à¤Ńà¤°à¤ķ": 2975,
      "Ġà¤ıà¤Ń": 2976,
      "Ġà¤ĺà¤°à¤§": 2977,
      "Ġà¤Ŀà¤¡": 2978,
      "à¤£à¤¯à¤¹à¤°": 2979,
      "à¤Ńà¤ıà¤¸": 2980,
      "Ġà¤ħà¤ªà¤¡": 2981,
      "Ġà¤ĵà¤¬": 2982,
      "à¤ľà¤²à¤¸": 2983,
      "à¤¦à¤²à¤¹à¤°": 2984,
      "à¤ľà¤¬à¤°à¤ľà¤¸": 2985,
      "à¤¨à¤°à¤®": 2986,
      "Ġà¤Ĩà¤īà¤Ľ": 2987,
      "Ġà¤¡à¤ķ": 2988,
      "à¤°à¤¬à¤²": 2989,
      "Ġà¤¸à¤¦à¤¨à¤®": 2990,
      "Ġà¤¸à¤¡à¤ķà¤ĸà¤£": 2991,
      "à¤«à¤¨": 2992,
      "Ġà¤īà¤ªà¤ľ": 2993,
      "à¥¨à¥¦à¥¬à¥ª": 2994,
      "à¤ķà¤°à¤ķ": 2995,
      "Ġà¤°à¤¨à¤°": 2996,
      "Ġà¤īà¤·": 2997,
      "à¤ªà¤Łà¤ª": 2998,
      "Ġà¥¨à¥¦à¥¬à¥®": 2999,
      "à¤·à¤ľà¤¨à¤ķ": 3000,
      "à¤Ŀà¤°": 3001,
      "à¤¨à¤ªà¤¤": 3002,
      "Ġà¤Ľà¤ª": 3003,
      "à¤Ńà¤ķà¤°": 3004,
      "Ġà¤¥à¤¨": 3005,
      "Ġà¤ıà¤ķà¤ħà¤°": 3006,
      "Ġà¤ľà¤¨à¤¸à¤®": 3007,
      "à¤¤à¤µà¤¨à¤®": 3008,
      "à¤µà¤²à¤¨": 3009,
      "à¤Ĺà¤¯": 3010,
      "Ġà¥§à¥¯à¥«": 3011,
      "Ġà¤Ŀà¤²à¤¨": 3012,
      "à¥ĭà¤ģ": 3013,
      "à¤Īà¤¯": 3014,
      "Ġà¤īà¤ªà¤²à¤µ": 3015,
      "Ġà¤¨à¤µà¤ľ": 3016,
      "à¤·à¤§à¤°": 3017,
      "Ġà¤ªà¤°à¤¦": 3018,
      "Ġà¤īà¤ªà¤¸à¤Ń": 3019,
      "à¤ķà¤Ĺ": 3020,
      "Ġà¤Ľà¤Ł": 3021,
      "à¤°à¤®à¤¸": 3022,
      "Ġà¤¸à¤¯à¤ķ": 3023,
      "à¤ĩà¤ªà¤²": 3024,
      "à¤ħà¤¸à¤®": 3025,
      "à¤łà¤Ĺ": 3026,
      "à¤ķà¤£": 3027,
      "à¤¤à¤¬à¤¹": 3028,
      "à¤ĩà¤Ĺ": 3029,
      "Ġà¤Ŀà¤¡à¤ª": 3030,
      "à¤µà¤Ĺ": 3031,
      "Ġà¤ķà¤Ńà¤°": 3032,
      "Ġà¤ľà¤¨à¤¨": 3033,
      "à¤®à¤Ŀ": 3034,
      "à¤¸à¤¶à¤ķ": 3035,
      "à¤£à¤¬à¤¹": 3036,
      "à¤ıà¤¤à¤ķ": 3037,
      "à¤ĸà¤Ńà¤¨": 3038,
      "à¤°à¤®à¤ľ": 3039,
      "Ġà¤ľà¤¨à¤ª": 3040,
      "à¤ıà¤¸à¤¬": 3041,
      "à¤¾à¤ģà¥Ī": 3042,
      "à¤¸à¤ķà¤²": 3043,
      "à¤ªà¤łà¤¨à¤ª": 3044,
      "Ġà¤Ķà¤ľ": 3045,
      "Ġà¤ıà¤¨à¤Ĩà¤°à¤ıà¤¨à¤ı": 3046,
      "à¤¹à¤ķà¤ķ": 3047,
      "à¤ıà¤Ńà¤°": 3048,
      "à¤ĩà¤ķà¤°": 3049,
      "à¤¿-à¤Ĥ": 3050,
      "Ġà¤Ĩà¤ĩà¤«": 3051,
      "à¤²à¤£": 3052,
      "Ġà¤Ĺà¤¸": 3053,
      "à¤¬à¤§": 3054,
      "Ġà¤ıà¤ĺ": 3055,
      "à¤®à¤Ł": 3056,
      "Ġà¥¨à¥¦à¥¦à¥®": 3057,
      "Ġà¤¯à¤¸à¤µà¤°": 3058,
      "Ġà¤§à¤®à¤²": 3059,
      "à¤ĵà¤Ńà¤°": 3060,
      "à¤²à¤µà¤ķ": 3061,
      "à¤ªà¤¦à¤®": 3062,
      "Ġà¤ĭà¤£à¤ķ": 3063,
      "Ġà¤ľà¤¸à¤®à¤§": 3064,
      "Ġà¤Ĩà¤ĩà¤ªà¤°": 3065,
      "à¤²à¤¤à¤¬": 3066,
      "à¤¯à¤ªà¤¶": 3067,
      "Ġà¤Ĩà¤Īà¤¤à¤¬": 3068,
      "Ġà¤Ĩà¤ļà¤°à¤£": 3069,
      "à¤¸à¤¡à¤ķà¤ĸà¤£": 3070,
      "à¤®à¤°à¤¤": 3071,
      "à¤Łà¤ļ": 3072,
      "à¤ħà¤ļà¤®": 3073,
      "à¤Ĭà¤¨": 3074,
      "à¤Ĺà¤¨à¤®": 3075,
      "à¤ħà¤£": 3076,
      "à¤°à¤¤à¤°": 3077,
      "Ġà¤ĵà¤¹": 3078,
      "Ġà¤¦à¤°à¤ĸ": 3079,
      "à¤ķà¤¸à¤®": 3080,
      "Ġà¤Ĺà¤ľà¤²à¤ķ": 3081,
      "à¤ıà¤¸à¤®": 3082,
      "Ġà¤Ńà¤Īà¤¸à¤ķ": 3083,
      "Ġà¤²à¤¬": 3084,
      "Ġà¤ħà¤Ĺà¤·": 3085,
      "à¤ªà¤Łà¤ķà¤ªà¤Łà¤ķ": 3086,
      "Ġà¤Ĩà¤ľà¤Ń": 3087,
      "Ġà¤¤à¤ªà¤¸": 3088,
      "Ġà¥¨à¥¦à¥¬à¥©": 3089,
      "à¤½": 3090,
      "à¤Ĺà¤²à¤²": 3091,
      "Ġà¤ħà¤ªà¤²": 3092,
      "à¤Ľà¤ķ": 3093,
      "Ġà¤¦à¤¤": 3094,
      "Ġà¤Ļ": 3095,
      "à¤Łà¤¨à¤®": 3096,
      "à¤§à¤¸": 3097,
      "à¤¡à¤²à¤²": 3098,
      "à¥®à¥¦": 3099,
      "Ġà¤ĺà¤°à¤ªà¤°": 3100,
      "-à¤Ĥ": 3101,
      "à¤īà¤Ĺ": 3102,
      "à¤²à¤®à¤ľ": 3103,
      "à¤°à¤ħ": 3104,
      "à¤¡à¤¹": 3105,
      "Ġà¤īà¤Ľ": 3106,
      "Ġà¤ĩà¤£": 3107,
      "à¤ľà¤®à¤£": 3108,
      "à¤ıà¤¸à¤ľ": 3109,
      "Ġà¤¨à¤Ļ": 3110,
      "à¤¡à¤¨à¤®": 3111,
      "à¤ľà¤ķà¤ķ": 3112,
      "à¤Łà¤µà¤²à¤ķ": 3113,
      "Ġà¤Ńà¤¡": 3114,
      "Ġà¤¸à¤®à¤¯à¤¸": 3115,
      "à¥¨à¥¦à¥¬à¥¯": 3116,
      "à¤¨à¤µà¤°": 3117,
      "à¤§à¤°à¤£": 3118,
      "à¤§à¤°à¤²": 3119,
      "à¤²à¤°à¤ķ": 3120,
      "à¤¹à¤¯": 3121,
      "à¤¡à¤°à¤²": 3122,
      "Ġà¤¸à¤®à¤¤": 3123,
      "à¤ľà¤¨à¤ļ": 3124,
      "à¤¸à¤ķà¤ķ": 3125,
      "à¤Ĩà¤ªà¤¤": 3126,
      "à¥¨à¥¦à¥§à¥§": 3127,
      "Ġà¤ıà¤¯à¤°à¤ķ": 3128,
      "Ġà¤¨à¤Ĺà¤°à¤¸à¤Ń": 3129,
      "Ġà¤°à¤ķà¤®à¤²": 3130,
      "Ġà¤Ńà¤ĩà¤¹": 3131,
      "à¤łà¤ķà¤¹à¤°": 3132,
      "à¤µà¤®à¤¨": 3133,
      "à¤ľà¤¥": 3134,
      "à¤¥à¤ķà¤¤": 3135,
      "à¤ļà¤Ł": 3136,
      "à¤£à¤¯à¤®": 3137,
      "à¤¥à¤¹à¤°": 3138,
      "à¤¡à¤Ń": 3139,
      "Ġà¤¯à¤¸à¤¸": 3140,
      "Ġà¤°à¤ķà¤®à¤®": 3141,
      "à¤¡à¤²à¤®": 3142,
      "à¤łà¤ķà¤¬": 3143,
      "Ġà¤ªà¤łà¤¨à¤ª": 3144,
      "à¤Ĩà¤ĸ": 3145,
      "Ġà¤ĵà¤¡": 3146,
      "à¤®à¤¸à¤¤": 3147,
      "à¤¬à¤²à¤®": 3148,
      "à¥©à¥ª": 3149,
      "à¤®à¤¶à¤°à¤£": 3150,
      "à¤Ļà¤Ł": 3151,
      "à¤µà¤¨à¤Ńà¤°": 3152,
      "à¥©à¥®": 3153,
      "à¤¹à¤¤à¤ķ": 3154,
      "à¤¥à¤¯": 3155,
      "à¤Ľà¤µ": 3156,
      "à¤ªà¤°à¤¸": 3157,
      "à¤Ĩà¤¦à¤°": 3158,
      "à¤ıà¤¨à¤ľ": 3159,
      "Ġà¤Ĩà¤µà¤§": 3160,
      "à¤Łà¤¨à¤°": 3161,
      "Ġà¤¨à¤ľà¤°à¤®": 3162,
      "Ġà¤īà¤¨à¤®": 3163,
      "Ġà¤ªà¤¦à¤¯": 3164,
      "à¥¨à¥¦à¥Ńà¥ªà¥¦à¥Ńà¥«": 3165,
      "à¤¨à¤¢": 3166,
      "à¤²à¤ªà¤Ľ": 3167,
      "Ġà¤¬à¤²à¤ķ": 3168,
      "Ġà¥¨à¥¦à¥ªà¥¬": 3169,
      "Ġà¤¬à¤¹à¤¨": 3170,
      "à¤¥à¤¬": 3171,
      "à¤¥à¤¨à¤®": 3172,
      "à¤Ĩà¤ĩà¤¸à¤ķ": 3173,
      "à¥©à¥¨": 3174,
      "à¥¨à¥¦à¥§à¥¨": 3175,
      "à¤®à¤ķà¤¥": 3176,
      "à¤·à¤£à¤²": 3177,
      "Ġà¤¡à¤Łà¤ķà¤®": 3178,
      "Ġà¤ĸà¤¡à¤ķ": 3179,
      "à¤°à¤£à¤¬": 3180,
      "à¤¸à¤¹à¤¸à¤ļ": 3181,
      "à¤Ńà¤°à¤ª": 3182,
      "à¤Ĩà¤Īà¤¬": 3183,
      "à¤Łà¤¡": 3184,
      "à¤°à¤£à¤¹à¤°": 3185,
      "Ġà¥¨à¥¦à¥§à¥¯": 3186,
      "à¤Ńà¤µà¤¨": 3187,
      "à¤¦à¤¯à¤ĺ": 3188,
      "Ġà¤ªà¤¥": 3189,
      "à¤µà¤°à¤¹à¤°": 3190,
      "Ġà¤¸à¤¤à¤¹à¤®": 3191,
      "Ġà¤°à¤Ĺà¤¤à¤®": 3192,
      "Ġà¤®à¤²à¤ķ": 3193,
      "Ġà¤ļà¤¤": 3194,
      "Ġà¤ıà¤ķà¤°": 3195,
      "à¥¬à¥«": 3196,
      "Ġà¤¡à¤¨": 3197,
      "Ġà¤¡à¤¬": 3198,
      "à¤µà¤¨à¤¯": 3199,
      "à¤ĸà¤ķà¤ķ": 3200,
      "-à¤ĥ": 3201,
      "Ġà¤Ĺà¤ĩà¤¸à¤ķ": 3202,
      "Ġà¤ħà¤ĸà¤£": 3203,
      "à¥§à¥¦à¥¦": 3204,
      "Ġà¤¸à¤¯à¤ªà¤¤": 3205,
      "à¤ħà¤ªà¤¹à¤°à¤£": 3206,
      "Ġà¥¨à¥¦à¥¦à¥¬": 3207,
      "Ġà¤ĺà¤°à¤²": 3208,
      "Ġà¤¡à¤¡": 3209,
      "à¤°à¤µà¤²": 3210,
      "à¤µà¤°à¤£à¤ķ": 3211,
      "à¤¦à¤¦à¤°": 3212,
      "à¤¶à¤Ļ": 3213,
      "à¤Ļà¤ľ": 3214,
      "à¤°à¤¸à¤²": 3215,
      "à¤°à¤µà¤ļà¤¨": 3216,
      "à¥¨à¥¦à¥¨à¥¦": 3217,
      "à¥¨à¥¦à¥¦à¥Ń": 3218,
      "à¤µà¤²à¤ª": 3219,
      "Ġà¤Ĳà¤°": 3220,
      "à¤°à¤¸à¤ķ": 3221,
      "à¤¸à¤°à¤¹": 3222,
      "Ġà¤¨à¤°à¤¹à¤¨": 3223,
      "à¥¦à¥Ńà¥¬": 3224,
      "à¤¹à¤¹à¤°": 3225,
      "à¤¦à¤¨à¤²": 3226,
      "à¤ıà¤Īà¤ķ": 3227,
      "à¤ģà¥Ī": 3228,
      "Ġà¤ľà¤Ĺà¤¤à¤®": 3229,
      "Ġà¤®à¤¹à¤¨": 3230,
      "à¤ĵà¤®": 3231,
      "Ġ+": 3232,
      "à¤°à¤®à¤¬": 3233,
      "à¤¯à¤¸à¤¯à¤¤": 3234,
      "à¤¤à¤µà¤¨à¤²": 3235,
      "Ġà¤ĩà¤ŀ": 3236,
      "Ġà¥¨à¥¦à¥¦à¥¯": 3237,
      "à¤ıà¤ļà¤ķ": 3238,
      "Ġà¤Ĩà¤ĩà¤¨": 3239,
      "à¤¤à¤¨à¤Ĺà¤°": 3240,
      "à¥¨à¥¦à¥¦à¥®": 3241,
      "Ġà¤¦à¤°à¤µ": 3242,
      "Ġà¤ľà¤²à¤®": 3243,
      "Ġà¤®à¤¤à¤Ń": 3244,
      "à¤µà¤ħà¤§": 3245,
      "Ġà¤¸à¤¦à¤°": 3246,
      "à¤īà¤ªà¤²à¤ķ": 3247,
      "Ġà¤Ĩà¤ľà¤ķà¤²": 3248,
      "à¤ĺà¤°à¤§": 3249,
      "Ġà¤¸à¤¡à¤ķà¤¬": 3250,
      "Ġà¥¨à¥¦à¥¬à¥¯": 3251,
      "à¤ıà¤ķà¤¦": 3252,
      "Ġà¤ħà¤²à¤®à¤²": 3253,
      "à¤°à¤ķà¤ķ": 3254,
      "à¤¹à¤²à¤ªà¤¹à¤²": 3255,
      "à¤Īà¤ªà¤Łà¤ķ": 3256,
      "Ġà¤Ĺà¤¤à¤µà¤°": 3257,
      "Ġà¤Ŀà¤®": 3258,
      "à¤¡à¤¬à¤¡": 3259,
      "à¤¨à¤§": 3260,
      "à¤ļà¤¹à¤°": 3261,
      "Ġà¤ľà¤ĺà¤¨": 3262,
      "Ġà¤¬à¤¢à¤¨": 3263,
      "Ġà¤ıà¤¯à¤°à¤²": 3264,
      "Ġà¤¬à¤¹à¤°": 3265,
      "à¤¢à¤¤": 3266,
      "Ġà¤ħà¤¹à¤®": 3267,
      "à¤¯à¤¦à¤²à¤²": 3268,
      "à¥ĩà¥ĩ": 3269,
      "Ġà¤ħà¤®à¤²": 3270,
      "Ġà¤īà¤ªà¤²": 3271,
      "à¤¯à¤¯à¤¨à¤®": 3272,
      "Ġà¥¨à¥«à¥¦": 3273,
      "à¤ĭà¤£": 3274,
      "à¤Ĺà¤ªà¤¤": 3275,
      "à¤ĸà¤¨à¤ķ": 3276,
      "Ġà¤«à¤£": 3277,
      "à¥«à¥«": 3278,
      "à¤¨à¤µà¤¨": 3279,
      "à¤Ńà¤ŀ": 3280,
      "à¤Ĩà¤µà¤¤à¤ľ": 3281,
      "à¤²à¤ķà¤¬": 3282,
      "à¤ķà¤²à¤¨à¤ķ": 3283,
      "à¤Łà¤°à¤ª": 3284,
      "à¤ıà¤¯à¤°à¤ª": 3285,
      "-à¥Ī-": 3286,
      "à¤®à¤¡": 3287,
      "à¤Ĺà¤¹à¤¨": 3288,
      "Ġà¤ķà¤²à¤ķ": 3289,
      "à¤²à¤¬à¤ļ": 3290,
      "à¥ªà¥®": 3291,
      "à¤ķà¤Łà¤¤à¤®": 3292,
      "Ġà¤¨à¤ķà¤Ĩà¤īà¤Ł": 3293,
      "à¤Łà¤¬à¤¨": 3294,
      "à¤ĸà¤¨à¤®": 3295,
      "Ġà¤²à¤ĸà¤¨": 3296,
      "Ġà¤ªà¤ķà¤¡": 3297,
      "Ġà¤Ĩà¤®à¤°à¤£": 3298,
      "à¤ıà¤¸à¤Ł": 3299,
      "Ġà¥§à¥§à¥¦": 3300,
      "Ġà¤ħà¤«à¤Ĺ": 3301,
      "à¤Ĺà¤ľà¤ªà¤¤": 3302,
      "à¤¯à¤ªà¤¹": 3303,
      "à¤¦à¤²à¤²": 3304,
      "Ġà¤®à¤²à¤®": 3305,
      "à¤īà¤¡à¤®": 3306,
      "Ġà¤Ĩà¤ĩà¤Ł": 3307,
      "ĠĠĠĠĠĠčĊ": 3308,
      "à¤¤à¤°à¤¹": 3309,
      "à¤²à¤¨à¤°à¤¤": 3310,
      "Ġà¤µà¤°à¤ªà¤°à¤ķ": 3311,
      "à¤ıà¤®à¤ı": 3312,
      "Ġà¤Īà¤ª": 3313,
      "Ġà¤¦à¤¶à¤ķà¤¦": 3314,
      "à¤ĩà¤²à¤ķ": 3315,
      "à¤ķà¤Łà¤¤": 3316,
      "à¤¨à¤¸à¤¹": 3317,
      "à¤ĩà¤¹": 3318,
      "à¤µà¤°à¤¬": 3319,
      "à¤īà¤ªà¤¹": 3320,
      "Ġà¤ĺà¤°à¤ľà¤Ĺ": 3321,
      "Ġà¤ªà¤¤à¤¨": 3322,
      "Ġà¤¬à¤²à¤²": 3323,
      "à¤ľà¤Ĺà¤ŀ": 3324,
      "à¤®à¤¥à¤²": 3325,
      "à¤Īà¤¬à¤°": 3326,
      "à¥¯à¥®": 3327,
      "à¤ıà¤ļà¤¡": 3328,
      "à¤ķà¤«": 3329,
      "Ġà¤Ĩà¤īà¤²": 3330,
      "Ġà¤Łà¤®": 3331,
      "à¤¤à¤¨à¤ª": 3332,
      "à¤Ĳà¤¶": 3333,
      "Ġà¤ľà¤¬à¤°à¤ľà¤¸": 3334,
      "-à¤¿à¤ģ": 3335,
      "Ġà¤¸à¤¨à¤®": 3336,
      "Ġà¤¦à¤²à¤®": 3337,
      "à¥Ĥà¥Ĥ": 3338,
      "à¤ħà¤µà¤²à¤®": 3339,
      "Ġà¥¦à¥Ńà¥ª": 3340,
      "à¤®à¤¨à¤ķ": 3341,
      "Ġà¤ķà¤ªà¤ķ": 3342,
      "à¤§à¤¯": 3343,
      "à¤ļà¤°à¤£à¤®": 3344,
      "à¤ıà¤ķà¤ľà¤¨": 3345,
      "à¤Īà¤«": 3346,
      "Ġà¤²à¤ļ": 3347,
      "Ġà¤¬à¤¹à¤¸à¤ķ": 3348,
      "à¤¯à¤ªà¤°": 3349,
      "à¤¦à¤²à¤ķ": 3350,
      "Ġà¤ħà¤¢": 3351,
      "Ġà¤ľà¤¨à¤Ĺà¤£à¤¨": 3352,
      "à¤ľà¤¯à¤ª": 3353,
      "Ġà¤ķà¤¥à¤¨": 3354,
      "à¤¯à¤Ĺ": 3355,
      "à¤°à¤¸à¤°à¤¤": 3356,
      "Ġà¤īà¤¦à¤ĺ": 3357,
      "Ġà¤¯à¤®à¤°": 3358,
      "Ġà¤¶à¤²": 3359,
      "-à¤¾-": 3360,
      "à¤¸à¤®à¤¯à¤¸": 3361,
      "à¤¸à¤¸à¤®": 3362,
      "à¤Ĩà¤¤à¤Ļ": 3363,
      "à¤ħà¤ļ": 3364,
      "à¤ĺà¤°à¤ķ": 3365,
      "à¤¤à¤°à¤£à¤®": 3366,
      "Ġà¥§à¥¯à¥¯à¥¦": 3367,
      "Ġ-?-": 3368,
      "à¤¤à¤²à¤®": 3369,
      "Ġà¤Ĩà¤ıà¤®": 3370,
      "Ġà¤¬à¤¢à¤¦": 3371,
      "à¤®à¤¤à¤²": 3372,
      "à¤¹à¤¡": 3373,
      "Ġà¤Ĩà¤µà¤¸": 3374,
      "à¤°à¤µà¤£": 3375,
      "à¤²à¤¬à¤°": 3376,
      "-à¤¿à¤Ĥ": 3377,
      "à¤ļà¤¤à¤®": 3378,
      "Ġà¤¤à¤²à¤®": 3379,
      "à¤Īà¤ĺ": 3380,
      "à¤¸à¤¹à¤¨": 3381,
      "à¤ħà¤µà¤¶": 3382,
      "à¤®à¤¨à¤²": 3383,
      "à¤²à¤¬à¤¸": 3384,
      "à¤ķà¤ļ": 3385,
      "à¤¬à¤°à¤²": 3386,
      "à¤®à¤¤à¤Ĺà¤£à¤¨": 3387,
      "à¤®à¤ľà¤¯à¤¨": 3388,
      "à¤¶à¤²à¤¤": 3389,
      "à¤¨à¤°à¤¸": 3390,
      "à¤ľà¤¸à¤°": 3391,
      "Ġà¤®à¤¨à¤¹à¤°": 3392,
      "Ġà¤ªà¤°à¤¨": 3393,
      "à¥¨à¥¦à¥§à¥¦": 3394,
      "âĢ¯": 3395,
      "à¤ªà¤°à¤²": 3396,
      "Ġà¤®à¤¹à¤µ": 3397,
      "à¤¬à¤¸à¤ª": 3398,
      "à¤Ĩà¤Īà¤Ń": 3399,
      "Ġà¤¹à¤Ļà¤ķà¤Ļà¤®": 3400,
      "à¤Ĺà¤ľà¤®": 3401,
      "à¤Ľà¤Ł": 3402,
      "à¤²à¤µà¤²": 3403,
      "Ġà¤µà¤¯": 3404,
      "Ġà¤ľà¤«à¤¤": 3405,
      "Ġà¤īà¤ªà¤§": 3406,
      "à¤Ĺà¤®à¤ŀ": 3407,
      "à¥īà¤Ĥ": 3408,
      "à¥ĩà¤¾": 3409,
      "Ġà¤Ĺà¤¡": 3410,
      "Ġà¤µà¤¯à¤¸": 3411,
      "Ġà¤Ĩà¤µà¤¤à¤ľ": 3412,
      "Ġà¤¥à¤ªà¤²": 3413,
      "Ġà¤¤à¤¬à¤¸à¤®": 3414,
      "à¤°à¤¶à¤¨": 3415,
      "Ġà¤Ľà¤¡": 3416,
      "à¤¤à¤¹à¤¤à¤®": 3417,
      "à¤µà¤¤à¤®": 3418,
      "à¤¾-à¤ģ": 3419,
      "à¤ħà¤¬à¤¸": 3420,
      "à¤¯à¤¤à¤¥": 3421,
      "à¤łà¤®à¤£": 3422,
      "à¤ªà¤¦à¤¯": 3423,
      "Ġà¤ħà¤ªà¤µ": 3424,
      "à¤ķà¤·": 3425,
      "à¤ıà¤¬": 3426,
      "à¤ıà¤£": 3427,
      "Ġà¤Ĺà¤Ļ": 3428,
      "Ġà¤¹à¤¨à¤¨": 3429,
      "à¤²à¤ķà¤°": 3430,
      "à¤¯à¤¸à¤¹": 3431,
      "à¤¯à¤¸à¤µ": 3432,
      "à¤Ŀà¤Ĺà¤¡": 3433,
      "à¤°à¤¸à¤¸": 3434,
      "Ġà¤Ńà¤ıà¤¦": 3435,
      "à¤ªà¤¦à¤¸": 3436,
      "Ġà¤ĺà¤¨à¤¶": 3437,
      "Ġà¤¤à¤¹à¤¹à¤°": 3438,
      "à¤¨à¤«": 3439,
      "à¤¤à¤Ĺ": 3440,
      "Ġà¤¸à¤ĺà¤¨": 3441,
      "à¤¯à¤¨à¤®": 3442,
      "Ġà¤ªà¤¹à¤°": 3443,
      "Ġà¤¯à¤¸à¤ªà¤Łà¤ķà¤ķ": 3444,
      "à¤§à¤µà¤ķ": 3445,
      "à¤ļà¤¦": 3446,
      "à¤¸à¤®à¤µ": 3447,
      "Ġà¤®à¤¹à¤µà¤ª": 3448,
      "à¤·à¤Ńà¤¨": 3449,
      "Ġà¤¹à¤ķà¤¹": 3450,
      "à¤¡à¤ľ": 3451,
      "à¥ĩ-à¤ģ": 3452,
      "à¤ıà¤¸à¤ıà¤²à¤¸": 3453,
      "Ġà¤Īà¤ķ": 3454,
      "à¤®à¤Ĺà¤łà¤¬à¤¨": 3455,
      "Ġà¤°à¤£à¤µ": 3456,
      "Ġà¤ħà¤¶à¤ķ": 3457,
      "à¤Ĩà¤ķà¤¸": 3458,
      "Ġà¤łà¤Ł": 3459,
      "Ġà¤Ĩà¤Īà¤°à¤¹": 3460,
      "à¤Łà¤¨à¤²": 3461,
      "à¤ĩà¤Łà¤ķ": 3462,
      "à¤ĩà¤®à¤°": 3463,
      "à¤Ĺà¤Ļ": 3464,
      "Ġà¤ªà¤Łà¤¨": 3465,
      "Ġà¤Ĺà¤°à¤ķ": 3466,
      "à¤Ļà¤Łà¤¨": 3467,
      "à¤°à¤¹à¤¦": 3468,
      "à¤°à¤¬à¤¦à¤²": 3469,
      "Ġà¤¸à¤®à¤¯à¤ħà¤ĺ": 3470,
      "à¤ĩà¤ıà¤²": 3471,
      "Ġà¤¸à¤Łà¤¹": 3472,
      "à¥įà¥Ĥ": 3473,
      "à¤ķà¤Ń": 3474,
      "à¤ķà¤°à¤®": 3475,
      "Ġà¤¸à¤°à¤¦à¤°": 3476,
      "à¤īà¤¸à¤®": 3477,
      "Ġà¤¤à¤°à¤²": 3478,
      "Ġà¥¬à¥¦à¥¦": 3479,
      "Ġà¤ķà¤¸à¤°à¤¤": 3480,
      "à¤¨à¤ľà¤¨à¤ķ": 3481,
      "à¤²à¤«": 3482,
      "Ġà¤Ľà¤¦": 3483,
      "à¤łà¤¶": 3484,
      "Ġà¤¦à¤¶à¤ķà¤ķ": 3485,
      "à¥ĩ-à¤Ĥ": 3486,
      "Ġà¤ħà¤ĸà¤¬": 3487,
      "à¤¹à¤ľà¤¨à¤ķ": 3488,
      "à¤Ĺà¤µà¤¤": 3489,
      "Ġà¤¤à¤²à¤µ": 3490,
      "à¤¹à¤°à¤ķ": 3491,
      "Ġà¤¸à¤®à¤²": 3492,
      "à¤Ĺà¤¸à¤®": 3493,
      "Ġà¤Ńà¤¯à¤ķ": 3494,
      "à¤ĩà¤ıà¤ªà¤Ľ": 3495,
      "à¤®à¤ķà¤°à¤£": 3496,
      "à¤°à¤®à¤£à¤¬": 3497,
      "Ġà¤Ńà¤ĩà¤¦": 3498,
      "Ġà¤¬à¤ĸ": 3499,
      "Ġà¤ĩà¤Ļ": 3500,
      "Ġà¥§à¥¯à¥¬": 3501,
      "à¤ªà¤°à¤®à¤ª": 3502,
      "à¤ıà¤¶à¤¨": 3503,
      "à¤ıà¤ķà¤¦à¤®": 3504,
      "à¤«à¤Ł": 3505,
      "à¤²à¤Ĺà¤¢": 3506,
      "Ġà¤¬à¤¹à¤¸à¤®": 3507,
      "à¤Ĩà¤ªà¤¸à¤®": 3508,
      "à¤¬à¤Ĺà¤°": 3509,
      "à¤ķà¤°à¤¹à¤°": 3510,
      "à¤µà¤¤à¤²": 3511,
      "à¤²à¤Ńà¤°": 3512,
      "à¤¯à¤²à¤®": 3513,
      "à¤¦à¤²à¤¯": 3514,
      "à¤ļà¤°à¤£à¤ķ": 3515,
      "Ġà¥§à¥¯à¥¯à¥®": 3516,
      "à¤ªà¤¸à¤ķ": 3517,
      "Ġà¤¬à¤¸à¤²": 3518,
      "Ġà¤ľà¤Ĺà¤®": 3519,
      "à¤µà¤¸à¤¤": 3520,
      "Ġà¤ħà¤µà¤Ĺà¤¤": 3521,
      "Ġà¤«à¤²à¤¦": 3522,
      "Ġà¤¯à¤¸à¤¤à¤°": 3523,
      "Ġà¤¡à¤¢": 3524,
      "à¥¨à¥¦à¥ªà¥¬": 3525,
      "à¤²à¤¸à¤¹": 3526,
      "à¤ªà¤²à¤ķ": 3527,
      "Ġà¤®à¤Ł": 3528,
      "Ġà¤¡à¤¸": 3529,
      "Ġà¥§à¥¯à¥Ń": 3530,
      "Ġà¤Īà¤¤": 3531,
      "Ġà¤·à¤¡": 3532,
      "à¤µà¤°à¤¤": 3533,
      "Ġà¤Ĺà¤¥": 3534,
      "à¤ħà¤µà¤¤": 3535,
      "à¤¨à¤²à¤®": 3536,
      "Ġà¤ĸà¤¬à¤°à¤²": 3537,
      "à¤¥à¤°à¤ķ": 3538,
      "Ġà¤¹à¤Ļà¤ķà¤Ļà¤²": 3539,
      "à¥¨à¥¬à¥©": 3540,
      "à¤¯à¤²à¤²": 3541,
      "à¤ıà¤Ĺ": 3542,
      "à¤ļà¤ľà¤¨": 3543,
      "Ġà¤®à¤¨à¤®à¤¨": 3544,
      "à¥ªà¥¯": 3545,
      "Ġà¤Īà¤¯": 3546,
      "Ġà¤§à¤¨à¤®": 3547,
      "Ġà¤ıà¤¸à¤Ī": 3548,
      "Ġà¤ıà¤¨à¤Ĩà¤°": 3549,
      "à¤Ĩà¤ĩà¤Ń": 3550,
      "Ġà¤¡à¤²à¤°à¤®": 3551,
      "à¤²à¤ħà¤¨": 3552,
      "Ġà¤¥à¤®": 3553,
      "à¤ĵà¤Ľ": 3554,
      "Ġà¤ªà¤°à¤®à¤ª": 3555,
      "à¤®à¤¦à¤¨": 3556,
      "Ġà¤¨à¤Ĩ": 3557,
      "à¤Ńà¤ıà¤°": 3558,
      "à¤¤à¤¨à¤¹": 3559,
      "Ġà¤ľà¤²à¤ľà¤²": 3560,
      "Ġà¤ıà¤«à¤ı": 3561,
      "Ġà¥¦à¥Ńà¥©": 3562,
      "à¤ľà¤¸à¤®à¤§": 3563,
      "à¤¾à¤¿": 3564,
      "Ġà¤¸à¤¡à¤ķà¤¹à¤°": 3565,
      "à¤Ĩà¤¯à¤°à¤²": 3566,
      "à¥ľ": 3567,
      "à¤¯à¤ľà¤¨à¤ķ": 3568,
      "à¤¬à¤¬": 3569,
      "Ġà¤¹à¤ļ": 3570,
      "à¤«à¤²à¤¸": 3571,
      "Ġà¤°à¤ķà¤®à¤¬": 3572,
      "Ġà¤īà¤ªà¤¦à¤«": 3573,
      "Ġà¤¹à¤¡à¤¤": 3574,
      "Ġà¤Ĩà¤ĩà¤ľ": 3575,
      "Ġà¤¯à¤°": 3576,
      "à¤°à¤¤à¤¤": 3577,
      "à¤ĺà¤°à¤Ń": 3578,
      "à¤°à¤¹à¤¸": 3579,
      "à¤ľà¤®à¤°": 3580,
      "à¤ıà¤®à¤¸": 3581,
      "à¤²à¤ł": 3582,
      "Ġà¤ķà¤°à¤¦": 3583,
      "Ġà¤īà¤«": 3584,
      "Ġà¤ķà¤²à¤°": 3585,
      "Ġà¤¦à¤¶à¤°à¤¥": 3586,
      "à¤¹à¤°à¤²": 3587,
      "à¥¦à¥«": 3588,
      "Ġà¤¨à¤Ńà¤ıà¤®": 3589,
      "à¤Ĺà¤£à¤¤": 3590,
      "Ġà¤¬à¤ļà¤¨": 3591,
      "à¤·à¤¨": 3592,
      "à¤°à¤®à¤¦": 3593,
      "Ġà¤ļà¤¹": 3594,
      "Ġà¤§à¤¨à¤°": 3595,
      "à¤ĩà¤¨à¤¬": 3596,
      "Ġà¤ħà¤¬à¤¸à¤°à¤®": 3597,
      "à¤¤à¤ļà¤°": 3598,
      "à¤µà¤ĺ": 3599,
      "à¤Łà¤¹": 3600,
      "à¤Łà¤¦": 3601,
      "à¤§à¤°à¤ķ": 3602,
      "à¤Īà¤ĵ": 3603,
      "à¤ĩà¤Łà¤²": 3604,
      "à¤¤à¤°à¤¸à¤®": 3605,
      "à¤¹à¤¦à¤°à¤µ": 3606,
      "à¤¸à¤ĸ": 3607,
      "Ġà¤ĸà¤µà¤°": 3608,
      "à¥¨à¥¦à¥Ńà¥¨à¥Ńà¥©": 3609,
      "Ġà¤ĩà¤¯": 3610,
      "à¤°à¤Ľ": 3611,
      "Ġà¤²à¤µ": 3612,
      "à¤ķà¤°à¤¬": 3613,
      "Ġà¥¨à¥¦à¥¬à¥«": 3614,
      "à¤ıà¤Łà¤°": 3615,
      "Ġà¤¨à¤¸à¤°": 3616,
      "Ġà¤¶à¤®à¤¶": 3617,
      "à¤ĩà¤¬à¤²": 3618,
      "à¤Ļà¤µ": 3619,
      "à¤Ĩà¤°à¤Ĩà¤Ī": 3620,
      "Ġà¤Ĩà¤ıà¤ªà¤¨": 3621,
      "à¤¸à¤¸à¤²": 3622,
      "à¥Ģà¥ĩ": 3623,
      "Ġà¤¨à¤Ĺà¤°à¤®": 3624,
      "Ġà¤®à¤¯": 3625,
      "à¤ĺà¤¡": 3626,
      "Ġà¤«à¤Ł": 3627,
      "Ġà¤ķà¤®à¤¸": 3628,
      "à¥©à¥Ń": 3629,
      "à¤§à¤¨à¤¬": 3630,
      "à¤ħà¤²à¤ªà¤¤": 3631,
      "à¥¨à¥¦à¥Ńà¥«à¥¦": 3632,
      "à¤£à¤ªà¤¨": 3633,
      "à¤¸à¤®à¤Ĺ": 3634,
      "Ġà¤Ĩà¤¶à¤¯": 3635,
      "à¤¯à¤¸à¤®à¤§": 3636,
      "Ġà¤ħà¤¸à¤«à¤²à¤¤": 3637,
      "Ġà¤®à¤ĸà¤®à¤²": 3638,
      "à¤¸à¤¡": 3639,
      "à¤¹à¤²à¤®": 3640,
      "à¤¦à¤ĺ": 3641,
      "Ġà¤ıà¤¬à¤®": 3642,
      "à¤¨à¤²à¤Ĺ": 3643,
      "Ġà¥§à¥¦à¥®": 3644,
      "à¤īà¤¤à¤ķ": 3645,
      "Ġà¤¨à¤Ńà¤ıà¤ªà¤¨": 3646,
      "à¤¨à¤Ńà¤ı": 3647,
      "à¤®à¤µà¤°": 3648,
      "à¤¶à¤¤à¤®": 3649,
      "à¤¥à¤²à¤¬": 3650,
      "Ġà¤ħà¤¬à¤°": 3651,
      "à¤ĩà¤·": 3652,
      "Ġà¤ļà¤®à¤ķ": 3653,
      "Ġà¤ļà¤®à¤¤": 3654,
      "à¤Ĩà¤°à¤®": 3655,
      "Ġà¤Ĩà¤Ĺà¤ľà¤¨": 3656,
      "à¤¤à¤¹à¤Łà¤ķ": 3657,
      "à¤¹à¤¨à¤ķ": 3658,
      "à¤¥à¤ķà¤°": 3659,
      "à¤¯à¤¸à¤ªà¤Łà¤ķ": 3660,
      "Ġà¥®à¥¦à¥¦": 3661,
      "à¤ıà¤¸à¤¸": 3662,
      "à¥¨à¥¦à¥¬à¥«": 3663,
      "à¤¨à¤¯à¤¤": 3664,
      "Ġà¤¨à¤īà¤ł": 3665,
      "à¤·à¤µ": 3666,
      "Ġà¤ħà¤²à¤®": 3667,
      "à¤µà¤¯à¤¨à¤ķ": 3668,
      "Ġà¤Ĩà¤ĩà¤¡à¤²": 3669,
      "à¤¨à¤°à¤²": 3670,
      "à¤ıà¤Īà¤®": 3671,
      "à¤ĸà¤¤à¤°": 3672,
      "à¤ĺà¤°à¤¬": 3673,
      "à¤¨à¤Ĺà¤°à¤²": 3674,
      "à¤µà¤¯à¤¨à¤®": 3675,
      "à¤Ĩà¤ĩà¤¬": 3676,
      "Ġà¤¸à¤¶": 3677,
      "à¤ļà¤¶": 3678,
      "à¤²à¤¨à¤ª": 3679,
      "Ġà¤īà¤ªà¤²à¤ķ": 3680,
      "Ġà¤ĵà¤Ľ": 3681,
      "Ġà¤Ĩà¤ķà¤²à¤¨": 3682,
      "à¤ıà¤²à¤ķ": 3683,
      "à¤¶à¤¹": 3684,
      "Ġà¤¦à¤¯à¤¨": 3685,
      "Ġà¤²à¤ł": 3686,
      "Ġà¤ªà¤¸à¤²à¤ķ": 3687,
      "Ġà¤¿": 3688,
      "à¤¾à¥Ī-": 3689,
      "à¤¨à¤Ĺà¤°à¤®": 3690,
      "à¤Ĺà¤Łà¤¨": 3691,
      "à¤·à¤¦à¤°": 3692,
      "à¤¡à¤°à¤ķ": 3693,
      "Ġà¤ĸà¤ļ": 3694,
      "à¥¦à¥Ńà¥©": 3695,
      "à¤Łà¤²à¤²": 3696,
      "à¤Ńà¤°à¤®": 3697,
      "Ġà¤ļà¤ķà¤²": 3698,
      "à¥ªà¥Ń": 3699,
      "à¤¨à¤¤à¤°": 3700,
      "à¤ķà¤Ľ": 3701,
      "à¤ķà¤²à¤®": 3702,
      "Ġà¤Ĺà¤¡à¤¬à¤¡": 3703,
      "à¤¡à¤§": 3704,
      "Ġà¤Ĩà¤·": 3705,
      "Ġà¤ıà¤ķà¤¤à¤°": 3706,
      "à¤Ńà¤Ĺà¤µà¤¤": 3707,
      "à¤§à¤¹à¤°": 3708,
      "à¤ļà¤ĸ": 3709,
      "à¥ªà¥¬": 3710,
      "à¥¨à¥¦à¥§à¥¯": 3711,
      "à¤ĺà¤Łà¤¸": 3712,
      "Ġà¤¦à¤®à¤ķà¤²": 3713,
      "à¤¤à¤¶": 3714,
      "Ġà¤ªà¤łà¤¨": 3715,
      "à¤ļà¤²à¤ķ": 3716,
      "Ġà¤¤à¤¦à¤°": 3717,
      "Ġà¤ıà¤ıà¤«à¤¸": 3718,
      "à¤ªà¤¨à¤²": 3719,
      "Ġà¤Ĩà¤¤à¤Ļ": 3720,
      "à¤Ĺà¤¬à¤£": 3721,
      "à¤ħà¤ªà¤®": 3722,
      "à¤Ĩà¤ĩà¤¡": 3723,
      "à¤¾à¤Ĥà¥Ī-": 3724,
      "à¤Łà¤²à¤¹à¤°": 3725,
      "Ġà¤ľà¤®à¤ĺà¤Ł": 3726,
      "Ġà¤¶à¤¹à¤°à¤¹à¤°": 3727,
      "à¥¨à¥¦à¥Ńà¥«à¥¦à¥Ńà¥¬": 3728,
      "Ġà¤Ĩà¤ĩà¤ıà¤®à¤Ī": 3729,
      "ĠĠĠĠĠĠĠĠĠĠĠĠĠĠĠĠĠĠĠĠĠĠĠĠĠĠĠĠ": 3730,
      "à¤®à¤Ĺà¤°à¤²": 3731,
      "à¤·à¤£à¤¹à¤°": 3732,
      "à¤¸à¤¹à¤ķà¤°": 3733,
      "à¤¯à¤¦à¤²à¤ķ": 3734,
      "à¤ľà¤¸à¤²": 3735,
      "à¤Ńà¤µà¤²": 3736,
      "Ġà¤Ŀà¤¸": 3737,
      "Ġà¤¦à¤²à¤¸": 3738,
      "Ġà¤ªà¤¦à¤¹à¤°": 3739,
      "Ġà¥¨à¥¦à¥ªà¥®": 3740,
      "Ġà¤¤à¤Łà¤¬à¤¨": 3741,
      "Ġà¤¾": 3742,
      "Ġà¤°à¤ľà¤¨": 3743,
      "à¤łà¤¤": 3744,
      "à¤¤à¤®à¤¬": 3745,
      "Ġà¤ıà¤¸à¤ıà¤®à¤ıà¤¸": 3746,
      "à¤®à¤¸à¤®à¤°": 3747,
      "à¤°à¤¹à¤²": 3748,
      "à¤µà¤¶à¤ķ": 3749,
      "Ġà¤ħà¤¸à¤ķ": 3750,
      "à¤ĩà¤ĵ": 3751,
      "à¤Ĩà¤¸à¤ª": 3752,
      "Ġà¤ıà¤ķà¤ļ": 3753,
      "Ġà¤¸à¤¨à¤°": 3754,
      "Ġà¥§à¥¨à¥¦": 3755,
      "Ġà¤°à¤£": 3756,
      "à¤Ńà¤µà¤ķ": 3757,
      "à¤¡à¤°à¤¸": 3758,
      "Ġà¤²à¤¯à¤®": 3759,
      "Ġà¤¸à¤®à¤ķà¤ķ": 3760,
      "Ġà¤¸à¤¹à¤ķà¤°": 3761,
      "à¤ıà¤¸à¤ıà¤¸à¤ª": 3762,
      "Ġà¤ķà¤¹à¤²": 3763,
      "Ġà¤Ĩà¤īà¤ľ": 3764,
      "à¥ģà¤¾": 3765,
      "Ġà¤¨à¤°à¤¸": 3766,
      "à¤ĸà¤²à¤¨": 3767,
      "à¤¸à¤®à¤²": 3768,
      "à¤®à¤¹à¤¸": 3769,
      "à¥¨à¥¦à¥¦à¥¯": 3770,
      "Ġà¥¨à¥¦à¥«à¥®": 3771,
      "à¤ľà¤¬à¤¹": 3772,
      "à¤ªà¤°à¤¦": 3773,
      "à¤µà¤¯à¤ķ": 3774,
      "Ġà¤ıà¤Ĺ": 3775,
      "à¤ĺà¤ļ": 3776,
      "à¤®à¤¤à¤¸à¤®": 3777,
      "Ġà¤ĩà¤®à¤°": 3778,
      "à¤ĺà¤°à¤ľà¤Ĺ": 3779,
      "à¤®à¤ªà¤¤": 3780,
      "Ġà¤«à¤²à¤¸": 3781,
      "à¥Į-à¤ģ": 3782,
      "à¤ĸà¤ķà¤¹à¤°": 3783,
      "Ġà¤Ńà¤µà¤¨à¤¹à¤°": 3784,
      "Ġà¤Ĩà¤Īà¤ľ": 3785,
      "Ġà¥¦à¥Ńà¥¨": 3786,
      "à¤¸à¤¯à¤ªà¤¤": 3787,
      "Ġà¤°à¤Ļà¤ķ": 3788,
      "Ġà¤¤à¤ķ": 3789,
      "à¤²à¤ķà¤®": 3790,
      "Ġà¤ħà¤°à¤¨": 3791,
      "à¤¯à¤ľà¤¸": 3792,
      "à¤ıà¤¨à¤ķ": 3793,
      "à¤Ńà¤¡": 3794,
      "Ġà¤ļà¤¹à¤²à¤ªà¤¹à¤²": 3795,
      "Ġà¤ĸà¤ľ": 3796,
      "à¤ĺà¤°à¤¦": 3797,
      "à¥«à¥¬": 3798,
      "Ġà¥¦à¥¦": 3799,
      "Ġà¥¦à¥Ńà¥«": 3800,
      "Ġà¤£": 3801,
      "à¤¯à¤¡": 3802,
      "à¤¯à¤ªà¤¦": 3803,
      "Ġà¤¬à¤Ĺà¤°": 3804,
      "Ġà¤ľà¤Ĺà¤¤à¤ķ": 3805,
      "Ġà¤ļà¤¸": 3806,
      "à¤¯à¤®à¤¨à¤ķ": 3807,
      "ĠĠĠĠĠĠĠĠĠ": 3808,
      "à¤°à¤¡": 3809,
      "à¤ªà¤ķà¤²": 3810,
      "à¤ıà¤ıà¤«à¤ª": 3811,
      "à¤¬à¤Īà¤®": 3812,
      "Ġà¤¤à¤¦": 3813,
      "à¤Ĩà¤ľà¤¦": 3814,
      "Ġà¥§à¥¯à¥«à¥¦": 3815,
      "à¤Ĩà¤ľà¤¸à¤®": 3816,
      "à¥¨à¥¦à¥¦à¥¬": 3817,
      "à¥¨à¥¦à¥«à¥®": 3818,
      "-à¥Įà¤ģ-": 3819,
      "à¤¤à¤¨à¤®": 3820,
      "Ġà¤Ĺà¤ĩà¤¨": 3821,
      "à¤¾à¤Ĥà¤ģ": 3822,
      "à¤Łà¤ħà¤ª": 3823,
      "à¤¥à¤Ĺà¤¨": 3824,
      "Ġà¤®à¤¹à¤²": 3825,
      "Ġà¤ĵà¤®à¤ª": 3826,
      "à¤¥à¤²à¤¹à¤°": 3827,
      "Ġà¥¨à¥¦à¥«à¥¯": 3828,
      "à¤¸à¤°à¤²": 3829,
      "à¤Łà¤Ł": 3830,
      "à¤ĸà¤ļ": 3831,
      "Ġà¤ıà¤ķà¤¸à¤¯": 3832,
      "à¤²à¤¨à¤¬": 3833,
      "Ġà¤ıà¤¨à¤ľ": 3834,
      "Ġà¤ĭà¤£à¤®": 3835,
      "Ġà¤Ĺà¤²à¤ķ": 3836,
      "à¤ľà¤¤à¤²": 3837,
      "à¤¸à¤¹à¤ª": 3838,
      "Ġà¤ĵà¤ķ": 3839,
      "Ġà¥Ńà¥¦à¥¦": 3840,
      "Ġà¤Ķà¤§": 3841,
      "à¤īà¤¡à¤°": 3842,
      "à¤ħà¤µà¤ķ": 3843,
      "à¥«à¥¦à¥¦": 3844,
      "Ġà¤¨à¤Ĩà¤ı": 3845,
      "à¤ĩà¤ķà¤¨": 3846,
      "à¤¼à¥į": 3847,
      "à¤®à¤µà¤°à¤£": 3848,
      "Ġà¤°à¤¶": 3849,
      "à¤·à¤¡à¤¯à¤¨": 3850,
      "Ġà¤®à¤ł": 3851,
      "à¤Ŀà¤¬": 3852,
      "Ġà¤¸à¤ķà¤¸": 3853,
      "à¤°à¤ļà¤²à¤¨à¤®": 3854,
      "Ġà¥ĩ": 3855,
      "à¤°à¤Ĺà¤¢": 3856,
      "à¤ªà¤²à¤²": 3857,
      "Ġà¤ħà¤¸à¤¹à¤¯": 3858,
      "à¤Īà¤Ĺ": 3859,
      "Ġà¤Ĩà¤ĺ": 3860,
      "à¤¨à¤®à¤¸": 3861,
      "à¤Ĳà¤ķ": 3862,
      "Ġà¥¨à¥¦à¥¦à¥ª": 3863,
      "Ġà¤®à¤Ļà¤ª": 3864,
      "à¤¨à¤µà¤ķ": 3865,
      "Ġà¤Ĩà¤¯à¤ķ": 3866,
      "à¤ŀà¤°": 3867,
      "à¤ŀà¤ķ": 3868,
      "Ġà¤¤à¤°à¤Ļ": 3869,
      "à¤ıà¤¸à¤ıà¤®": 3870,
      "à¤Łà¤ªà¤Łà¤ķ": 3871,
      "Ġà¤ķà¤°à¤®": 3872,
      "Ġà¤¹à¤¬": 3873,
      "à¤ļà¤°à¤²": 3874,
      "à¤īà¤ľà¤°": 3875,
      "à¤¾à¤Ĥ-": 3876,
      "Ġà¤ªà¤Łà¤ķà¤¸à¤®": 3877,
      "Ġà¤¸à¤¯à¤®": 3878,
      "à¤Ĺà¤®à¤¨à¤®": 3879,
      "à¤µà¤Ńà¤°à¤ķ": 3880,
      "à¤¨à¤°à¤ķ": 3881,
      "à¤²à¤Ĺà¤°": 3882,
      "à¤ľà¤Ł": 3883,
      "Ġà¤¨à¤µà¤²à¤ª": 3884,
      "Ġà¤µà¤¨à¤²": 3885,
      "Ġà¤µà¤°à¤¦": 3886,
      "à¤ĩà¤Ĺà¤°": 3887,
      "à¤¨à¤¬à¤®": 3888,
      "Ġà¤Ĩà¤Īà¤Ł": 3889,
      "à¥§à¥¯à¥¬": 3890,
      "à¤°à¤ľà¤¸": 3891,
      "à¤²à¤Ŀ": 3892,
      "à¤¶à¤¤à¤ª": 3893,
      "à¤¸à¤®à¤ķà¤ķ": 3894,
      "Ġà¤ªà¤°à¤¶": 3895,
      "Ġà¥¨à¥¦à¥¦à¥¦": 3896,
      "Ġà¤ıà¤®à¤ı": 3897,
      "à¤ļà¤ķà¤¨": 3898,
      "Ġà¤¯à¤®à¤ª": 3899,
      "Ġà¤ļà¤¯à¤¨à¤ķ": 3900,
      "à¤®à¤¨à¤Ĺà¤°": 3901,
      "à¤ķà¤¡à¤Ń": 3902,
      "Ġà¥ģ": 3903,
      "à¤°à¤°à¤¤": 3904,
      "à¤µà¤¦à¤²": 3905,
      "à¤Ĺà¤ŀ": 3906,
      "à¤ĸà¤ª": 3907,
      "à¤¯à¤®à¤£": 3908,
      "Ġà¤¨à¤¹à¤Ł": 3909,
      "à¤¯à¤£à¤¹": 3910,
      "à¤·à¤¯à¤°": 3911,
      "Ġà¤ªà¤°à¤¸": 3912,
      "Ġà¤ĵà¤ł": 3913,
      "à¤Ĺà¤łà¤¨à¤®": 3914,
      "à¤ħà¤°à¤¬": 3915,
      "à¤Ĩà¤°à¤¸": 3916,
      "à¤¢à¤Ļ": 3917,
      "à¤µà¤¨à¤¬": 3918,
      "à¥¦à¥Ńà¥§": 3919,
      "à¤²à¤¢": 3920,
      "à¤µà¤¦à¤¨": 3921,
      "Ġà¤°à¤¡": 3922,
      "à¥ģ-à¥ģ": 3923,
      "Ġà¤łà¤¡": 3924,
      "à¤Łà¤¨à¤Ĺà¤°à¤®": 3925,
      "à¤ľà¤ķà¤¹à¤°": 3926,
      "à¤ĵà¤¹": 3927,
      "à¤¯à¤ĺ": 3928,
      "à¤Łà¤«à¤°": 3929,
      "à¤ıà¤ķà¤ªà¤Łà¤ķ": 3930,
      "à¤ĩà¤ľà¤¨": 3931,
      "à¤łà¤°": 3932,
      "Ġà¤ķà¤°à¤¬": 3933,
      "Ġà¤Īà¤ļ": 3934,
      "Ġà¤ķà¤¦à¤®à¤²": 3935,
      "à¤Ĺà¤§à¤¨": 3936,
      "Ġà¤ħà¤¨à¤°": 3937,
      "à¤µà¤¸à¤¹": 3938,
      "à¤¤à¤°à¤Ļ": 3939,
      "à¤¯à¤®à¤ªà¤ŀ": 3940,
      "à¤·à¤¦à¤²": 3941,
      "Ġà¤ħà¤²à¤Ĺà¤ħà¤²à¤Ĺ": 3942,
      "à¤®à¤¦à¤°": 3943,
      "à¥Īà¥į": 3944,
      "Ġà¤ķà¤¸à¤®": 3945,
      "à¤¬à¤ĸà¤¤": 3946,
      "à¤ĩà¤ľà¤²": 3947,
      "à¤¯à¤ķà¤¹à¤°": 3948,
      "Ġà¤ıà¤ķà¤¥à¤°": 3949,
      "Ġà¤ħà¤¬à¤¦": 3950,
      "Ġà¥§à¥¬à¥¦": 3951,
      "à¤¨à¤Ńà¤ıà¤¸à¤®": 3952,
      "à¤¨à¤ļà¤°": 3953,
      "à¤¸à¤ªà¤°": 3954,
      "à¤ľà¤¯à¤²": 3955,
      "Ġà¤Ľà¤łà¤ķ": 3956,
      "à¤ħà¤®à¤²": 3957,
      "à¤¾à¤ģà¥Ī-": 3958,
      "Ġà¤Ĩà¤°à¤ľ": 3959,
      "Ġà¤Ŀà¤¡à¤ªà¤®": 3960,
      "à¤¬à¤¤à¤ķ": 3961,
      "à¤Ńà¤°à¤£": 3962,
      "à¤¡à¤ªà¤¤": 3963,
      "Ġà¥¦à¥®": 3964,
      "à¤Ĩà¤ĩà¤¸à¤²": 3965,
      "à¤°à¤Ł": 3966,
      "à¤Łà¤ªà¤Ľ": 3967,
      "à¤¬à¤¦à¤¨": 3968,
      "Ġà¤Ĩà¤¯à¤Ĩà¤°": 3969,
      "à¤īà¤ªà¤¸à¤ļ": 3970,
      "Ġà¤ĵà¤ĩà¤°": 3971,
      "à¤¤à¤°à¤¤à¤°": 3972,
      "à¥¨à¥¦à¥Ńà¥©à¥¦à¥Ńà¥ª": 3973,
      "à¤¤à¤ľà¤¨à¤¹à¤°": 3974,
      "Ġà¤¸à¤°à¤¦": 3975,
      "à¤ıà¤Ľà¤¨": 3976,
      "Ġà¤ķà¤ªà¤®": 3977,
      "Ġà¤¨à¤Ĩà¤ī": 3978,
      "Ġà¤¬à¤¦à¤®": 3979,
      "Ġà¤µà¤ľà¤¨": 3980,
      "à¤Ĩà¤¬à¤¦": 3981,
      "Ġà¤Ŀà¤²à¤ķ": 3982,
      "à¤īà¤ªà¤¡": 3983,
      "à¥¯à¥¦": 3984,
      "à¤Ĩà¤¯à¤Ĩà¤°": 3985,
      "Ġà¤ķà¤Łà¤¹à¤°": 3986,
      "Ġà¥¨à¥¦à¥¦à¥¨": 3987,
      "à¥ħ": 3988,
      "Ġà¤²à¤®à¤¹": 3989,
      "Ġà¤«à¤¤": 3990,
      "à¤²à¤®à¤£": 3991,
      "Ġà¤ıà¤¯à¤°à¤ª": 3992,
      "à¤ķà¤°à¤¦": 3993,
      "à¤¡à¤¸à¤®": 3994,
      "Ġà¤Ĩà¤°à¤¤": 3995,
      "Ġà¤¸à¤¹à¤ļ": 3996,
      "à¤Ĺà¤¤à¤¦": 3997,
      "à¤ľà¤¦à¤°à¤®": 3998,
      "à¤®à¤ł": 3999,
      "Ġà¤¬à¤®à¤ķ": 4000,
      "à¤Ńà¤Ī": 4001,
      "à¤£à¤Ĺ": 4002,
      "Ġà¤ľà¤¨à¤¸à¤Ļ": 4003,
      "Ġà¤¸à¤¦à¤Ń": 4004,
      "ĠĠĠĠĠĠĠĠĠĠ": 4005,
      "Ġà¤ħà¤ªà¤¨à¤¤": 4006,
      "Ġà¥¨à¥¦à¥ªà¥Ń": 4007,
      "à¤½à¤½": 4008,
      "à¤¾à¥Īà¤ģ-": 4009,
      "à¤²à¤¥": 4010,
      "à¤ľà¤«": 4011,
      "à¤ľà¤ķà¤®": 4012,
      "Ġà¤®à¤ķà¤°": 4013,
      "à¤¶à¤ľ": 4014,
      "à¤¶à¤¯à¤¯": 4015,
      "Ġà¤µà¤¹à¤¨": 4016,
      "Ġà¤²à¤Ł": 4017,
      "Ġà¤ħà¤¨à¤Ĺ": 4018,
      "Ġà¤ĺà¤Łà¤ķ": 4019,
      "à¤¨à¤²à¤¹à¤°": 4020,
      "à¤īà¤ªà¤¦": 4021,
      "à¤Ĺà¤²à¤¸": 4022,
      "Ġà¤¤à¤¹à¤¸": 4023,
      "à¤¦à¤ķà¤°": 4024,
      "Ġà¤ªà¤Ĺ": 4025,
      "Ġà¤Ĺà¤°à¤Ĺà¤¹à¤¨": 4026,
      "Ġà¤¹à¤µà¤²": 4027,
      "Ġà¤ľà¤¯à¤ª": 4028,
      "Ġà¤ħà¤°à¤¬à¤ķ": 4029,
      "Ġà¤īà¤ªà¤¶": 4030,
      "Ġà¤¸à¤¯à¤¦": 4031,
      "à¥¨à¥¦à¥¦à¥ª": 4032,
      "Ġà¤ĸà¤¬à¤°à¤¦": 4033,
      "à¤Ńà¤Īà¤¸à¤ķ": 4034,
      "à¤¾à¤ģà¤Ĥ": 4035,
      "à¤ªà¤°à¤¨": 4036,
      "à¤°à¤£à¤µ": 4037,
      "à¤¯à¤¨à¤¹à¤°": 4038,
      "à¥ªà¥ª": 4039,
      "à¤ıà¤²à¤Ĺà¤¤": 4040,
      "à¤¨à¤¤à¤²": 4041,
      "à¤ķà¤ľà¤¸": 4042,
      "à¤¸à¤¤à¤°": 4043,
      "Ġà¤ªà¤°à¤ķ": 4044,
      "Ġà¤ľà¤¨à¤Ĩà¤¨": 4045,
      "à¤°à¤¬à¤ķ": 4046,
      "Ġà¤¸à¤¦à¤¨à¤ķ": 4047,
      "Ġà¤ıà¤¸à¤ĩ": 4048,
      "à¤¸à¤«à¤²": 4049,
      "Ġà¤¨à¤Ĺà¤ıà¤ķ": 4050,
      "à¤ļà¤°à¤ķ": 4051,
      "à¤ģà¥ĩ": 4052,
      "Ġà¤ĩà¤·": 4053,
      "Ġà¤¯à¤®à¤ªà¤ŀ": 4054,
      "Ġà¤¨à¤¥": 4055,
      "à¤§à¤¶à¤¤à¤ķ": 4056,
      "à¤ľà¤¨à¤®à¤¤": 4057,
      "Ġà¤ıà¤ķà¤Ĩà¤ªà¤¸à¤®": 4058,
      "Ġà¥§à¥¦à¥«": 4059,
      "à¤ľà¤Ĺà¤¨": 4060,
      "Ġà¤ªà¤¦à¤¸": 4061,
      "Ġà¥¨à¥¦à¥¬à¥Ń": 4062,
      "Ġà¤µà¤®": 4063,
      "Ġà¤¦à¤Ļ": 4064,
      "Ġà¤īà¤ªà¤ķà¤°à¤£à¤ķ": 4065,
      "à¤ıà¤¸à¤ıà¤®à¤ıà¤¸": 4066,
      "Ġà¥§à¥¨à¥«": 4067,
      "Ġà¤ļà¤°à¤£à¤¬": 4068,
      "Ġà¥§à¥¬à¥«": 4069,
      "Ġà¤īà¤ªà¤®à¤¹": 4070,
      "Ġà¤Ľà¤Łà¤ªà¤Ł": 4071,
      "à¤¨à¤ħà¤¨": 4072,
      "à¤²à¤°à¤®": 4073,
      "à¤¸à¤°à¤£": 4074,
      "à¤Ĺà¤¨à¤ķ": 4075,
      "Ġà¤¨à¤«": 4076,
      "Ġà¤¸à¤ķà¤°": 4077,
      "à¥¬à¥¯": 4078,
      "à¤¨à¤Ĺà¤°à¤µ": 4079,
      "à¥§à¥¯à¥«": 4080,
      "à¤®à¤Ľ": 4081,
      "à¤¦à¤°à¤ķ": 4082,
      "Ġà¤¸à¤µà¤²": 4083,
      "à¤ļà¤£": 4084,
      "à¤ļà¤®à¤¤": 4085,
      "Ġà¤°à¤¹à¤ķ": 4086,
      "à¤Ĺà¤¤à¤µà¤°": 4087,
      "à¤¸à¤¦à¤¬": 4088,
      "à¤ĵà¤ª": 4089,
      "Ġà¤¨à¤Ĺà¤°à¤²": 4090,
      "à¥¨à¥¦à¥¬à¥¬": 4091,
      "à¤¸à¤Ĺà¤¢": 4092,
      "à¤µà¤ªà¤Ľ": 4093,
      "à¤¦à¤¬à¤¹": 4094,
      "à¤ľà¤Ĺà¤¤": 4095,
      "à¤ĸà¤§à¤°": 4096,
      "Ġà¤īà¤¸à¤®": 4097,
      "à¤ħà¤Ľ": 4098,
      "à¤īà¤ªà¤Ĺ": 4099,
      "à¤¹à¤¦à¤¸à¤®": 4100,
      "à¤®à¤°à¤ķ": 4101,
      "à¤¯à¤¬à¤¦": 4102,
      "à¤Łà¤ķà¤²": 4103,
      "Ġà¤ķà¤¶": 4104,
      "Ġà¤ľà¤¸à¤ħà¤¨": 4105,
      "à¤łà¤ķà¤ªà¤Ľ": 4106,
      "à¥§à¥Ńà¥¨": 4107,
      "à¥Ĭ": 4108,
      "à¤¨à¤¬à¤¤": 4109,
      "à¤¸à¤¸à¤ķ": 4110,
      "à¥ģà¥ģ-": 4111,
      "Ġà¤ªà¤¥à¤°": 4112,
      "à¤ıà¤µ": 4113,
      "à¤Īà¤µ": 4114,
      "Ġà¤ľà¤ķ": 4115,
      "Ġà¤Ĩà¤ĩà¤²": 4116,
      "Ġà¤ıà¤²à¤ª": 4117,
      "Ġà¤¶à¤¯": 4118,
      "à¤ħà¤¸à¤«à¤²à¤¤": 4119,
      "Ġà¤Ĳà¤²": 4120,
      "à¤®à¤²à¤²": 4121,
      "Ġà¤°à¤«": 4122,
      "Ġà¤ļà¤¡": 4123,
      "à¤ľà¤¨à¤µà¤°": 4124,
      "Ġà¤§à¤ª": 4125,
      "à¤²à¤¬à¤ľ": 4126,
      "Ġà¤ħà¤¹à¤®à¤¦": 4127,
      "Ġà¤ĭà¤ļ": 4128,
      "à¥¨à¥¦à¥¬à¥Ń": 4129,
      "Ġà¥¨à¥¦à¥¦à¥«": 4130,
      "Ġà¤¦à¤®à¤ķà¤ķ": 4131,
      "à¥§à¥¯à¥¯à¥®": 4132,
      "à¤°à¤Ļà¤®": 4133,
      "à¤¶à¤ķà¤®": 4134,
      "à¤ĩà¤¶": 4135,
      "à¤ĩà¤µà¤Ł": 4136,
      "Ġà¤ıà¤¯à¤°à¤¬": 4137,
      "Ġà¤®à¤¹à¤²à¤ķ": 4138,
      "à¥Ńà¥®": 4139,
      "à¤ıà¤¸à¤ı": 4140,
      "ĠĠĠĠĠĠĠĠĠĠĠ": 4141,
      "Ġà¤ıà¤¨à¤ıà¤®à¤¬": 4142,
      "à¥¨à¥¦à¥¬à¥¨": 4143,
      "à¤¾à¥Īà¤ģ": 4144,
      "à¤¨à¤¯à¤®": 4145,
      "Ġà¤Ĺà¤ĩ": 4146,
      "Ġà¤Ĺà¤ıà¤®": 4147,
      "à¤ıà¤ķà¤²": 4148,
      "à¤Ĩà¤ĩà¤¤à¤µ": 4149,
      "à¤ıà¤¸à¤ıà¤²": 4150,
      "à¤Ĺà¤ıà¤°": 4151,
      "à¤ıà¤ľà¤¸": 4152,
      "Ġà¤ķà¤¨à¤ķ": 4153,
      "à¤¬à¤ŀ": 4154,
      "Ġà¤Ĩà¤²à¤®": 4155,
      "Ġà¤ĺà¤°à¤§à¤¨": 4156,
      "Ġà¤ķà¤®à¤¸à¤²": 4157,
      "à¥ªà¥§": 4158,
      "Ġà¥¯à¥¦à¥¦": 4159,
      "à¤ľà¤Ĺà¤¦": 4160,
      "à¤¨à¤ªà¤Łà¤ķ": 4161,
      "Ġà¤¨à¤ªà¤¢": 4162,
      "à¤°à¤ĸà¤°": 4163,
      "à¤ĺà¤¬": 4164,
      "à¤²à¤ķà¤¦à¤®": 4165,
      "à¤ħà¤¨à¤¶à¤¨": 4166,
      "à¤°à¤¦à¤¤": 4167,
      "à¤Ńà¤°à¤ªà¤°": 4168,
      "à¤ħà¤ªà¤¹à¤°à¤£à¤ķ": 4169,
      "à¤Ĩà¤ľà¤Ń": 4170,
      "Ġà¤Ĩà¤ĩà¤°à¤¹à¤¨": 4171,
      "à¤Ĺà¤ľà¤ķ": 4172,
      "à¤¬à¤¸à¤¨": 4173,
      "Ġà¤ıà¤¤": 4174,
      "à¤®à¤¨à¤ªà¤°": 4175,
      "à¥ªà¥¨": 4176,
      "Ġà¤ħà¤¬à¤¸à¤°": 4177,
      "Ġà¤ªà¤¦à¤Ń": 4178,
      "à¤°à¤¡à¤ķ": 4179,
      "à¤Ĺà¤¥": 4180,
      "Ġà¤Ľà¤¬": 4181,
      "Ġà¤Ĩà¤¡": 4182,
      "à¤°à¤ķà¤°à¤£à¤ķ": 4183,
      "à¤°à¤¹à¤¤": 4184,
      "à¤®à¤ķà¤¤": 4185,
      "à¤¹à¤ķà¤ª": 4186,
      "Ġà¤¨à¤ªà¤ł": 4187,
      "Ġà¥¨à¥¦à¥¬à¥§": 4188,
      "à¤¿à¥ĩ": 4189,
      "à¤¯à¤°à¤µ": 4190,
      "Ġà¤¬à¤®à¤²": 4191,
      "Ġà¤¤à¤µ": 4192,
      "à¤Ľà¤¸": 4193,
      "Ġà¤ļà¤£": 4194,
      "à¤Ļà¤¯": 4195,
      "à¤°à¤£à¤¯": 4196,
      "Ġà¥¨à¥¦à¥©à¥¦": 4197,
      "Ġà¤ªà¤¸à¤²à¤¹à¤°": 4198,
      "Ġà¤ķà¤¦à¤®à¤ķ": 4199,
      "à¤¨à¤ľà¤¸": 4200,
      "à¤®à¤ķà¤°": 4201,
      "Ġà¤Ĺà¤Īà¤°à¤¹": 4202,
      "Ġà¤µà¤§": 4203,
      "à¤¨à¤²à¤²": 4204,
      "à¤ļà¤ķà¤¹à¤°": 4205,
      "Ġà¤¸à¤¤à¤¹à¤¬": 4206,
      "Ġà¥§à¥®à¥¦": 4207,
      "à¤ĩà¤«à¤²": 4208,
      "Ġà¤Ńà¤ıà¤ľà¤¸": 4209,
      "Ġà¤ĩà¤Łà¤²": 4210,
      "Ġà¥§à¥¨à¥®": 4211,
      "à¥¨à¥¦à¥¬à¥¦": 4212,
      "à¤ħà¤µà¤¤à¤°à¤£": 4213,
      "Ġà¤ħà¤²à¤®à¤²à¤®": 4214,
      "à¤¨à¤¯à¤ķ": 4215,
      "à¤¯à¤Ĺà¤¤": 4216,
      "à¤Ĺà¤Ńà¤°": 4217,
      "Ġà¤ĸà¤Ĺà¤°": 4218,
      "à¤Ĩà¤Ĺà¤¨": 4219,
      "à¤µà¤°à¤ľà¤¸": 4220,
      "Ġà¤¡à¤£": 4221,
      "Ġà¤¸à¤¹à¤ª": 4222,
      "Ġà¤ĵà¤¶": 4223,
      "Ġà¤§à¤¨à¤¬à¤¹": 4224,
      "Ġà¤ħà¤¨à¤¶à¤¨à¤°à¤¤": 4225,
      "Ġà¤ıà¤¸à¤Īà¤Ī": 4226,
      "à¤ķà¤²à¤¨à¤®": 4227,
      "à¤Łà¤¸à¤²": 4228,
      "à¤§à¤ķà¤°": 4229,
      "à¤Ĺà¤°à¤²": 4230,
      "à¤ĩà¤¨à¤ĸà¤¬à¤°": 4231,
      "Ġà¤ĵà¤ĸà¤°": 4232,
      "Ġà¤ħà¤µà¤¸à¤°à¤²": 4233,
      "à¤ªà¤²à¤Ł": 4234,
      "Ġà¥¨à¥¦à¥¬à¥¬": 4235,
      "à¤¨à¤²à¤ķ": 4236,
      "à¤ķà¤Ļ": 4237,
      "à¤¸à¤¸à¤¹": 4238,
      "à¤Ĺà¤ħà¤¨": 4239,
      "Ġà¤ķà¤°à¤²": 4240,
      "à¤ıà¤ķà¤Ľ": 4241,
      "Ġà¤Ĩà¤ĩà¤ķ": 4242,
      "à¤ħà¤¸à¤¹à¤®à¤¤": 4243,
      "ĠĠĠĠĠĠĠčĊ": 4244,
      "à¤¯à¤µà¤§": 4245,
      "à¤¨à¤µà¤ľ": 4246,
      "à¤²à¤²à¤Ĺ": 4247,
      "à¤Ĺà¤¸à¤¹": 4248,
      "Ġà¤ķà¤Ļ": 4249,
      "à¤¬à¤ªà¤¤": 4250,
      "Ġà¤¸à¤®à¤¥à¤°": 4251,
      "à¤¸à¤¨à¤¬": 4252,
      "Ġà¤Ľà¤²à¤«à¤²à¤ªà¤Ľ": 4253,
      "à¤Ńà¤ıà¤Ľ": 4254,
      "Ġà¤ĵà¤ªà¤¨à¤°": 4255,
      "à¤®à¤¬à¤²": 4256,
      "à¤¬à¤Ŀ": 4257,
      "Ġà¤¹à¤ķà¤²": 4258,
      "Ġà¤¶à¤¸à¤¸": 4259,
      "à¤ĩà¤²à¤¹à¤°": 4260,
      "à¤£à¤¯à¤¬": 4261,
      "Ġà¤ªà¤¢à¤¨": 4262,
      "Ġà¤Ĩà¤ĩà¤°à¤¨": 4263,
      "Ġà¥¨à¥¦à¥«à¥¨": 4264,
      "à¥¨à¥¦à¥ªà¥®": 4265,
      "Ġà¥¦à¥ªà¥¬": 4266,
      "à¤Łà¤Ĩà¤īà¤Ł": 4267,
      "à¤ľà¤ªà¤°": 4268,
      "à¤ĩà¤Łà¤°": 4269,
      "à¤ħà¤ĸà¤£": 4270,
      "Ġà¤ľà¤¨à¤§à¤¨à¤ķ": 4271,
      "Ġà¤¸à¤¹à¤¸": 4272,
      "à¤°à¤ľà¤¹": 4273,
      "à¤¯à¤µà¤°": 4274,
      "Ġà¤ħà¤Łà¤²": 4275,
      "Ġà¤¸à¤®à¤µ": 4276,
      "Ġà¤ħà¤¨à¤µà¤°à¤¤": 4277,
      "à¤¸à¤¨à¤°": 4278,
      "à¤īà¤ªà¤²à¤µ": 4279,
      "à¥®à¥«": 4280,
      "Ġà¤Ĩà¤¶à¤Ļ": 4281,
      "à¤µà¤¦à¤¹": 4282,
      "Ġà¥¨à¥¦à¥¦à¥©": 4283,
      "Ġà¥¨à¥¦à¥«à¥§": 4284,
      "Ġà¤Ĩà¤¬à¤¶": 4285,
      "à¤¨à¤µà¤²": 4286,
      "à¤²à¤ľà¤¸": 4287,
      "à¤Ĺà¤ıà¤ªà¤Ľ": 4288,
      "Ġà¤¬à¤¬à¤Ī": 4289,
      "Ġà¤ľà¤¯à¤°": 4290,
      "à¤īà¤¨à¤¦": 4291,
      "à¤®à¤¹à¤²": 4292,
      "à¤¬à¤²à¤¤": 4293,
      "à¤¯à¤Łà¤¨à¤®à¤¨": 4294,
      "Ġà¤Ĩà¤łà¤µà¤Ł": 4295,
      "Ġà¤¦à¤®à¤ķà¤®": 4296,
      "à¤¤à¤«": 4297,
      "à¤ıà¤¸à¤ķ": 4298,
      "Ġà¤Ĺà¤Ľ": 4299,
      "Ġà¤¤à¤µà¤°à¤¬": 4300,
      "à¤ĩà¤¡à¤°": 4301,
      "à¤¸à¤ķà¤°": 4302,
      "Ġà¤¸à¤ķà¤Ńà¤°": 4303,
      "à¥Ńà¥Ń": 4304,
      "Ġà¤ķà¤łà¤ĺà¤°": 4305,
      "à¤ªà¤§": 4306,
      "Ġà¤¨à¤°à¤ķ": 4307,
      "à¤ļà¤¡": 4308,
      "Ġà¤Ĩà¤¯à¤®": 4309,
      "à¤¤à¤°à¤Ĩà¤§": 4310,
      "Ġà¥¨à¥¦à¥¬à¥¦": 4311,
      "à¤ħà¤ĸà¤¬": 4312,
      "Ġà¤Ĩà¤¯à¤¸": 4313,
      "Ġà¤Ĩà¤®à¤®": 4314,
      "Ġà¤ıà¤ķà¤ªà¤²": 4315,
      "Ġà¤Ķà¤¸à¤¤à¤®": 4316,
      "à¤µà¤°à¤£à¤²": 4317,
      "à¤²à¤°à¤²": 4318,
      "à¤ªà¤°à¤¤": 4319,
      "à¤¦à¤°à¤ĸ": 4320,
      "Ġà¥¨à¥¦à¥¬à¥¨": 4321,
      "Ġà¥¨à¥¦à¥¦à¥§": 4322,
      "à¥§à¥¯à¥¯à¥¦": 4323,
      "à¤°à¤¨à¤®": 4324,
      "à¤²à¤¤à¤°": 4325,
      "à¤µà¤ŀ": 4326,
      "Ġà¤®à¤¤à¤ª": 4327,
      "Ġà¤ħà¤ķà¤¸": 4328,
      "à¤Łà¤¨à¤Ĺà¤°à¤ķ": 4329,
      "à¤§à¤¨à¤µ": 4330,
      "Ġà¤ķà¤²à¤¶": 4331,
      "Ġà¤ªà¤¦à¤ª": 4332,
      "à¤Ĩà¤Īà¤ıà¤¸": 4333,
      "à¤¤à¤²à¤¬": 4334,
      "à¤¸à¤°à¤¤": 4335,
      "à¤µà¤ļà¤¨": 4336,
      "à¤¦à¤°à¤®": 4337,
      "à¤Łà¤Ń": 4338,
      "à¤ıà¤«à¤ķ": 4339,
      "Ġà¤¨à¤ķà¤°": 4340,
      "à¤¡à¤Ńà¤¨": 4341,
      "à¤ĩà¤¬à¤¹": 4342,
      "à¤°à¤ķà¤µ": 4343,
      "à¤ľà¤¨à¤Ńà¤¨": 4344,
      "à¤¸à¤¨à¤¹à¤¸": 4345,
      "Ġà¤¨à¤Ĺà¤°à¤µ": 4346,
      "à¤Ĩà¤°à¤ª": 4347,
      "à¤®à¤·": 4348,
      "Ġà¤¨à¤µà¤¯": 4349,
      "Ġà¤¨à¤°à¤¬à¤¹": 4350,
      "à¤ļà¤¯à¤ķ": 4351,
      "à¤ļà¤¯à¤ķà¤°": 4352,
      "à¤°à¤¤à¤¤à¤°": 4353,
      "à¥Ńà¥§": 4354,
      "à¤ªà¤ķà¤¤": 4355,
      "Ġà¥¨à¥¦à¥¨à¥¨": 4356,
      "Ġà¤ħà¤¬à¤§": 4357,
      "Ġà¤ĵà¤Ńà¤°à¤ķ": 4358,
      "à¤µà¤Łà¤ķ": 4359,
      "à¤Ĺà¤®à¤®": 4360,
      "Ġà¤Ńà¤Ļ": 4361,
      "à¤ħà¤¥à¤µ": 4362,
      "à¤ħà¤²à¤®à¤²": 4363,
      "à¤Ĺà¤¤à¤²": 4364,
      "Ġà¤ĩà¤¬": 4365,
      "à¥¨à¥¦à¥¨à¥¨": 4366,
      "Ġà¤¸à¤®à¤¯à¤¸à¤®à¤¯à¤®": 4367,
      "Ġà¤ħà¤²à¤µ": 4368,
      "à¤¦à¤²à¤®": 4369,
      "à¤¾-à¤ĥ-": 4370,
      "à¤¥à¤ķà¤¹à¤°": 4371,
      "Ġà¤Ĩà¤ıà¤¸": 4372,
      "à¤ĩà¤ıà¤®": 4373,
      "à¤ħà¤¥": 4374,
      "à¤Ļà¤°": 4375,
      "à¤Ļà¤ļ": 4376,
      "à¤§à¤¨à¤¸": 4377,
      "Ġà¤ħà¤¸à¤°à¤²": 4378,
      "à¥¨à¥¦à¥¦à¥¦": 4379,
      "Ġà¤ĵà¤¨à¤¸à¤°": 4380,
      "Ġà¤ħà¤µà¤¸à¤°à¤¹à¤°": 4381,
      "à¤Ĩà¤Īà¤¤à¤¬": 4382,
      "Ġà¤®à¤¦à¤¨à¤ķ": 4383,
      "Ġà¤ıà¤«à¤¸": 4384,
      "-à¤ģ-": 4385,
      "à¤¸à¤¶": 4386,
      "Ġà¤¨à¤Ĩà¤ıà¤ªà¤Ľ": 4387,
      "Ġà¤ħà¤¥à¤ķ": 4388,
      "Ġà¤¤à¤Łà¤¸": 4389,
      "Ġà¤¸à¤®à¤·": 4390,
      "à¤ªà¤°à¤¹": 4391,
      "Ġà¤ıà¤ķà¤¨": 4392,
      "à¤¬à¤¨à¤®": 4393,
      "Ġà¤ĩà¤¡": 4394,
      "à¤ªà¤ķà¤ķ": 4395,
      "à¤ĵà¤Ŀ": 4396,
      "Ġà¤Ĩà¤ľà¤Ńà¤¨": 4397,
      "à¤Ńà¤°à¤Ļ": 4398,
      "Ġà¤Ĩà¤¦à¤°à¤£": 4399,
      "à¤¦à¤ķà¤ª": 4400,
      "à¤ļà¤¥à¤°à¤ķ": 4401,
      "à¤īà¤§": 4402,
      "à¤īà¤¹à¤°": 4403,
      "Ġà¤Ĩà¤¯à¤ķà¤°": 4404,
      "Ġà¤®à¤¹à¤Ļ": 4405,
      "Ġà¤ħà¤°à¤µ": 4406,
      "Ġà¤ĩà¤¯à¤°": 4407,
      "à¥¯à¥¯": 4408,
      "à¤ķà¤¸à¤Ń": 4409,
      "à¤²à¤°à¤¹": 4410,
      "Ġà¤¸à¤Ī": 4411,
      "Ġà¤Ĺà¤®à¤²": 4412,
      "à¤ĩà¤¥": 4413,
      "à¤Ļà¤ª": 4414,
      "Ġà¤²à¤Ĺà¤¨à¤¶": 4415,
      "à¤®à¤¤à¤ªà¤¤": 4416,
      "Ġà¥§à¥©à¥¦": 4417,
      "Ġà¤¨à¤Ĺà¤¦à¤¸à¤¹": 4418,
      "à¥¦à¥Ńà¥ªà¥Ńà¥«": 4419,
      "à¤¨à¤ľà¤°": 4420,
      "à¤ķà¤§": 4421,
      "à¤¯à¤µà¤¶": 4422,
      "Ġà¤ªà¤Ļ": 4423,
      "Ġà¤¬à¤Łà¤¨": 4424,
      "Ġà¤¹à¤ł": 4425,
      "Ġà¤Ľà¤¤à¤®": 4426,
      "à¤£à¤¤à¤°": 4427,
      "à¤«à¤¡": 4428,
      "à¤µà¤¸à¤²": 4429,
      "à¤¤à¤¨à¤¶": 4430,
      "Ġà¤ĵà¤ľ": 4431,
      "Ġà¤ĺà¤°à¤¸à¤®": 4432,
      "Ġà¥§à¥¦à¥§": 4433,
      "Ġà¤®à¤²à¤ľà¤²": 4434,
      "Ġà¤¹à¤²à¤ļà¤²": 4435,
      "Ġà¤ħà¤ĸà¤¡": 4436,
      "-à¥Ĥ": 4437,
      "à¥įà¤¿": 4438,
      "Ġà¤ĩà¤¦": 4439,
      "à¤Ĺà¤®à¤¸": 4440,
      "Ġà¤Ĩà¤Ĺà¤¨": 4441,
      "à¤ħà¤µà¤¸à¤°à¤¹à¤°": 4442,
      "à¥įà¥Ģ": 4443,
      "à¤¸à¤ªà¤Ľ": 4444,
      "à¤Ĺà¤¬à¤ľ": 4445,
      "à¤·à¤¶": 4446,
      "à¤§à¤Ńà¤¤": 4447,
      "à¥Ī-à¤Ĥ": 4448,
      "à¤¸à¤¹à¤¸": 4449,
      "à¥®à¥®": 4450,
      "Ġà¤ıà¤¨à¤Ĩà¤Īà¤¸": 4451,
      "Ġà¤Īà¤°": 4452,
      "à¤Ĺà¤łà¤µà¤¨": 4453,
      "à¤ıà¤¥": 4454,
      "à¤°à¤®à¤°": 4455,
      "Ġà¤ıà¤ļà¤ķ": 4456,
      "à¤Ĩà¤ªà¤°": 4457,
      "Ġà¤¸à¤¬à¤ķ": 4458,
      "à¤ıà¤Ŀ": 4459,
      "Ġà¤²à¤Ļ": 4460,
      "à¤ĩà¤ªà¤°": 4461,
      "à¤ħà¤¸à¤®à¤Ŀà¤¦": 4462,
      "Ġà¤ıà¤²à¤°": 4463,
      "Ġà¤«à¤°à¤µ": 4464,
      "Ġà¤ħà¤°à¤¬à¤®": 4465,
      "à¤°à¤µà¤¤": 4466,
      "Ġà¥¦à¥¯": 4467,
      "à¤ķà¤¸à¤¹": 4468,
      "à¤ļà¤²à¤®": 4469,
      "à¤Ļà¤¤": 4470,
      "à¤Ĩà¤µà¤¦": 4471,
      "Ġà¤Łà¤²": 4472,
      "Ġà¥§à¥§à¥«": 4473,
      "Ġà¤ľà¤Ĺà¤ľ": 4474,
      "Ġà¤ıà¤«à¤ª": 4475,
      "Ġà¥¨à¥¦à¥«à¥¬": 4476,
      "Ġà¤¸à¤°à¤¹à¤ķ": 4477,
      "à¤²à¤¯à¤¸": 4478,
      "à¤¤à¤ľà¤¨à¤ķ": 4479,
      "à¤¡à¤Łà¤ķà¤®": 4480,
      "à¤łà¤ª": 4481,
      "à¤®à¤¤à¤ª": 4482,
      "Ġà¤ıà¤®à¤¸": 4483,
      "à¤¸à¤®à¤¯à¤ħà¤ĺ": 4484,
      "Ġà¤Ĩà¤ªà¤¤à¤ķ": 4485,
      "à¤¹à¤°à¤®": 4486,
      "Ġà¤¸à¤®à¤¯à¤ħà¤¨": 4487,
      "Ġà¤Ĩà¤®à¤¸à¤Ń": 4488,
      "Ġà¤Ĳà¤¶": 4489,
      "Ġà¤¹à¤ķà¤¦": 4490,
      "à¤ªà¤¬à¤¹": 4491,
      "à¤¡à¤°à¤®": 4492,
      "Ġà¤Ĩà¤µà¤°à¤£à¤®": 4493,
      "Ġà¤¯à¤®à¤¨": 4494,
      "Ġà¤ĸà¤ķ": 4495,
      "à¤Ļà¤¹": 4496,
      "à¤ªà¤ķà¤¡": 4497,
      "Ġà¤ħà¤µà¤¹": 4498,
      "à¤ľà¤¦à¤°à¤¬": 4499,
      "-à¤¿-": 4500,
      "à¤¹à¤®à¤¦": 4501,
      "Ġà¤ķà¤ľ": 4502,
      "Ġà¤Ńà¤Īà¤¨": 4503,
      "à¤°à¤¶à¤®à¤¶": 4504,
      "Ġà¤ĵà¤ĸà¤²à¤¢": 4505,
      "Ġà¤¸à¤¨à¤¸à¤¨": 4506,
      "Ġà¤¦à¤°à¤°": 4507,
      "ĠĠĠĠĠĠĠĠĠĠĠĠĠ": 4508,
      "Ġà¥¦à¥§": 4509,
      "Ġà¤ľà¤²à¤ª": 4510,
      "à¥¨à¥¦à¥«à¥¯": 4511,
      "à¤Łà¤¬à¤ľ": 4512,
      "à¤¡à¤ķà¤²": 4513,
      "à¤¡à¤¬à¤²": 4514,
      "à¤ħà¤¸à¤¹": 4515,
      "Ġà¥¨à¥¨à¥¦": 4516,
      "Ġà¤§à¤¡": 4517,
      "Ġà¤Ńà¤ıà¤¯à¤¤": 4518,
      "Ġà¤¸à¤®à¤¯à¤Ń": 4519,
      "à¤¯à¤£à¤Ĺ": 4520,
      "à¥¨à¥¦à¥¬à¥¨à¥¬à¥©": 4521,
      "Ġà¥¨à¥¦à¥ªà¥¯": 4522,
      "à¤Ĺà¤«": 4523,
      "Ġà¤ħà¤ļà¤²": 4524,
      "à¤£à¤§": 4525,
      "Ġà¤¦à¤ĸ": 4526,
      "Ġà¤¶à¤µà¤ķ": 4527,
      "Ġà¤Ńà¤ıà¤¸à¤®": 4528,
      "Ġà¤ħà¤¸à¤¤": 4529,
      "Ġà¤ªà¤Łà¤ķà¤®": 4530,
      "Ġà¤ıà¤ļà¤¡": 4531,
      "à¤ªà¤ľ": 4532,
      "à¤¹à¤£à¤ķ": 4533,
      "à¤µà¤Ī": 4534,
      "Ġà¤Ĺà¤§": 4535,
      "à¤ľà¤°à¤®": 4536,
      "Ġà¤¨à¤°à¤¹à¤°": 4537,
      "Ġà¤ļà¤Łà¤ķ": 4538,
      "à¤Ĩà¤µà¤¸": 4539,
      "Ġà¤°à¤¹à¤²": 4540,
      "Ġà¤ķà¤®à¤²à¤°": 4541,
      "à¤īà¤ªà¤¶": 4542,
      "Ġà¤Īà¤Ł": 4543,
      "Ġà¤¦à¤¶à¤ķà¤ħà¤ĺ": 4544,
      "à¤²à¤®à¤¨": 4545,
      "à¤ªà¤Łà¤¨": 4546,
      "à¤ıà¤Ń": 4547,
      "Ġà¤¨à¤¯à¤¨": 4548,
      "à¤¡à¤Ĺ": 4549,
      "Ġà¤¥à¤°à¤ķ": 4550,
      "à¤Ĩà¤ĩà¤²": 4551,
      "à¤ıà¤¨à¤ª": 4552,
      "à¤ħà¤ªà¤µ": 4553,
      "à¥¦à¥Ńà¥¨": 4554,
      "Ġà¤¦à¤¶à¤ķà¤ªà¤Ľ": 4555,
      "Ġà¥¨à¥¦à¥«à¥¦": 4556,
      "à¥¨à¥¦à¥«à¥¨": 4557,
      "à¤¯à¤°à¤¬à¤ľ": 4558,
      "à¤Ľà¤Łà¤ªà¤Ł": 4559,
      "à¤¨à¤Ĺà¤¦": 4560,
      "à¤£à¤¸à¤Ń": 4561,
      "Ġà¤¦à¤Ĺ": 4562,
      "à¥¨à¥¦à¥©à¥¦": 4563,
      "à¤®à¤²à¤Ł": 4564,
      "Ġà¥§à¥¯à¥¯à¥Ń": 4565,
      "à¤¼à¤¾": 4566,
      "Ġà¤ıà¤ļà¤Ĩà¤Īà¤Ń": 4567,
      "à¤Ńà¤ĩà¤¹": 4568,
      "à¤¨à¤°à¤¬à¤¹": 4569,
      "à¤¯à¤Łà¤°": 4570,
      "à¤ªà¤Ļ": 4571,
      "à¤Łà¤¸à¤¹": 4572,
      "Ġà¤¹à¤Ļ": 4573,
      "à¤¡à¤·": 4574,
      "à¤Īà¤ľà¤¹": 4575,
      "à¤£à¤µà¤¤": 4576,
      "à¤ĸà¤ľ": 4577,
      "à¤ħà¤°à¤ķ": 4578,
      "à¤°à¤¦à¤²": 4579,
      "Ġà¤ķà¤®à¤ķ": 4580,
      "à¥Ńà¥¯": 4581,
      "à¤²à¤Ĺà¤®": 4582,
      "à¤ĵà¤ıà¤¸": 4583,
      "Ġà¤ıà¤ļà¤Ĩà¤ĩà¤Ń": 4584,
      "à¤īà¤¨à¤¬": 4585,
      "à¥Įà¤Ĥ-à¤ĥ-": 4586,
      "Ġà¥§à¥¦à¥¨": 4587,
      "Ġà¤¤à¤¹à¤®à¤§": 4588,
      "Ġà¤¯à¤¸à¤®à¤§": 4589,
      "Ġà¤Ĩà¤ĩà¤¡à¤²à¤ķ": 4590,
      "à¤ķà¤¦à¤°": 4591,
      "à¤ªà¤¯à¤ķ": 4592,
      "à¤Ĺà¤ľà¤²": 4593,
      "Ġà¤°à¤¨à¤µ": 4594,
      "à¤ĺà¤¨à¤¤": 4595,
      "Ġà¤«à¤²à¤¤": 4596,
      "à¤¤à¤°à¤ĺ": 4597,
      "à¤¯à¤®à¤¤": 4598,
      "à¤ĩà¤¨à¤¸": 4599,
      "Ġà¥§à¥§à¥§": 4600,
      "Ġà¤ľà¤Ĺà¤¨": 4601,
      "Ġà¤Ĳà¤¨à¤ħà¤¨": 4602,
      "à¤Ĩà¤Īà¤¡": 4603,
      "à¤²à¤ħà¤§": 4604,
      "Ġà¤¹à¤²à¤ķ": 4605,
      "à¤ļà¤µà¤°": 4606,
      "Ġà¤Ĩà¤Ĺà¤®": 4607,
      "Ġà¤ļà¤Ļ": 4608,
      "à¤¯à¤¸à¤Ńà¤¨": 4609,
      "à¤¯à¤¤à¤¬": 4610,
      "à¥¬à¥ª": 4611,
      "à¥§à¥¯à¥«à¥¦": 4612,
      "à¥¨à¥¦à¥¬à¥§": 4613,
      "à¤Ĩà¤ĩà¤«": 4614,
      "à¥¨à¥¦à¥¦à¥©": 4615,
      "à¤¦à¤ķà¤²": 4616,
      "Ġà¤Ńà¤Łà¤®": 4617,
      "Ġà¤¹à¤¯": 4618,
      "à¤¶à¤µà¤°": 4619,
      "à¤Ľà¤ł": 4620,
      "Ġà¤¶à¤µà¤²": 4621,
      "à¤ľà¤¨à¤¸à¤¹à¤Ń": 4622,
      "à¤Ļà¤¹à¤°": 4623,
      "Ġà¤¸à¤¹à¤ľà¤°": 4624,
      "à¥Ńà¥¨": 4625,
      "Ġà¥¨à¥¦à¥¨à¥«": 4626,
      "Ġà¤ħà¤¸à¤ľ": 4627,
      "à¤¨à¤Ĺà¤°à¤¬": 4628,
      "à¤¥à¤²à¤ª": 4629,
      "à¤¸à¤¸à¤¸": 4630,
      "à¤¨à¤Ĺà¤¢": 4631,
      "à¤ıà¤ħà¤¨": 4632,
      "à¤£à¤¨à¤Ĺà¤°": 4633,
      "Ġà¤¶à¤°à¤£à¤®": 4634,
      "Ġà¤°à¤¹à¤¯": 4635,
      "à¤²à¤¨à¤¸": 4636,
      "Ġà¥§à¥¦à¥¯": 4637,
      "à¤¸à¤¸à¤ıà¤ıà¤«à¤ª": 4638,
      "Ġà¤ľà¤Ĺà¤¤à¤²": 4639,
      "à¤¯à¤¶à¤ķ": 4640,
      "Ġà¤ħà¤ªà¤¹": 4641,
      "à¤¯à¤®à¤°": 4642,
      "à¤ıà¤ļà¤Ĩà¤Īà¤Ń": 4643,
      "à¤¤à¤£": 4644,
      "à¤¤à¤¸à¤°": 4645,
      "à¤¦à¤®à¤ķ": 4646,
      "à¤¬à¤Ńà¤¨": 4647,
      "Ġà¤¨à¤«à¤°": 4648,
      "Ġà¤¨à¤µà¤¦": 4649,
      "Ġà¤¨à¤Ĺà¤¨": 4650,
      "à¤«à¤µ": 4651,
      "Ġà¤¶à¤¸à¤ķ": 4652,
      "Ġà¤«à¤²à¤ķ": 4653,
      "Ġà¤§à¤¨à¤²": 4654,
      "Ġà¤ĵà¤¤": 4655,
      "à¤ªà¤¦à¤ª": 4656,
      "Ġà¥¨à¥«à¥¬": 4657,
      "à¤ĩà¤ķà¤²à¤®": 4658,
      "à¤Īà¤¨à¤²à¤®": 4659,
      "à¤¦à¤¯à¤ķ": 4660,
      "à¤¬à¤Īà¤ķ": 4661,
      "à¤§à¤¶": 4662,
      "à¤Ļà¤ķà¤¨": 4663,
      "à¤¯à¤¸à¤¦": 4664,
      "Ġà¤īà¤ªà¤Ĺ": 4665,
      "à¤²à¤¬à¤¹à¤°": 4666,
      "Ġà¤Ŀà¤ķ": 4667,
      "à¤Ńà¤ıà¤²à¤Ĺà¤¤": 4668,
      "Ġà¤ªà¤¸à¤²à¤¬": 4669,
      "Ġà¤¦à¤®à¤¨à¤ķ": 4670,
      "Ġà¥¨à¥¦à¥«à¥ª": 4671,
      "Ġà¥¦à¥Ńà¥¦": 4672,
      "à¤Ĺà¤²à¤®à¤¯": 4673,
      "à¤¨à¤µà¤¶": 4674,
      "Ġ-à¤ĥ": 4675,
      "à¤ļà¤ķà¤ķ": 4676,
      "Ġà¤ĺà¤®": 4677,
      "à¤ļà¤¨à¤°": 4678,
      "Ġà¤¸à¤¦à¤¨à¤²": 4679,
      "Ġà¤ªà¤Łà¤ķà¤¥": 4680,
      "Ġà¤¤à¤¹à¤¸à¤¨à¤¹à¤¸": 4681,
      "Ġà¥§à¥©à¥¨": 4682,
      "à¤ªà¤¥à¤°": 4683,
      "à¤¹à¤Ĺà¤¤": 4684,
      "Ġà¤Ĩà¤ĩà¤°": 4685,
      "Ġà¤²à¤ŀ": 4686,
      "Ġà¤ıà¤Ĩà¤Īà¤ľ": 4687,
      "Ġà¤¯à¤¸à¤Ńà¤¨": 4688,
      "Ġà¤§à¤ľ": 4689,
      "à¤ħà¤¨à¤ª": 4690,
      "à¤Ńà¤¨à¤®": 4691,
      "à¤ļà¤¨à¤¬": 4692,
      "Ġà¤Ńà¤ıà¤²à¤Ĺà¤¤": 4693,
      "à¥ªà¥©": 4694,
      "à¤§à¤¨à¤ªà¤Ľ": 4695,
      "Ġà¤°à¤¹à¤¨à¤¸à¤¹à¤¨": 4696,
      "à¥¨à¥¦à¥Ńà¥¨à¥¦à¥Ńà¥©": 4697,
      "à¤¶à¤¹à¤°à¤¹à¤°": 4698,
      "Ġà¤°à¤Ĺà¤¤à¤²": 4699,
      "Ġà¤¡à¤Łà¤ķà¤®à¤ķ": 4700,
      "à¥¨à¥¦à¥ªà¥Ń": 4701,
      "à¤ıà¤Īà¤²": 4702,
      "à¤Īà¤ķà¤¨": 4703,
      "Ġà¤ľà¤²à¤¬": 4704,
      "Ġà¤Ĩà¤Ĭ": 4705,
      "Ġà¤Łà¤¯": 4706,
      "à¤¶à¤¨à¤¬": 4707,
      "à¤¿à¤Ĥà¤ģ": 4708,
      "à¤īà¤¦à¤²": 4709,
      "Ġà¤Ķà¤°à¤¹": 4710,
      "Ġà¥§à¥¯à¥¯à¥¯": 4711,
      "à¤¯à¤ªà¤ķ": 4712,
      "Ġà¥Ĥ": 4713,
      "à¤Ĺà¤¨à¤²": 4714,
      "Ġà¤¶à¤¤à¤ķ": 4715,
      "à¤īà¤¦à¤Ľ": 4716,
      "Ġà¥§à¥ªà¥¦": 4717,
      "Ġà¤Ĩà¤Īà¤¤à¤µ": 4718,
      "à¥¨à¥¦à¥«à¥¬": 4719,
      "Ġà¤ıà¤¨à¤Ĩà¤°à¤ıà¤¨à¤ķ": 4720,
      "Ġà¤°à¤¤à¤¨": 4721,
      "à¤£à¤¦": 4722,
      "à¤Ĩà¤ĩà¤¨": 4723,
      "Ġà¤«à¤¹à¤°": 4724,
      "Ġà¤«à¤Ĺà¤¤": 4725,
      "Ġà¤ĺà¤®à¤£": 4726,
      "à¤¯à¤®à¤¸": 4727,
      "à¥«à¥ª": 4728,
      "à¤Łà¤°à¤¸à¤®": 4729,
      "Ġà¥§à¥¯à¥¦": 4730,
      "Ġà¥¨à¥¦à¥«à¥«": 4731,
      "à¤¦à¤¶à¤ķà¤ħà¤ĺ": 4732,
      "à¤¨à¤Ĩà¤īà¤¨": 4733,
      "à¤®à¤°à¤®": 4734,
      "à¤¤à¤²à¤ķ": 4735,
      "à¤¦à¤ķà¤ķ": 4736,
      "à¤·à¤¤à¤°": 4737,
      "Ġà¤ħà¤ķà¤²": 4738,
      "à¤¡à¤£": 4739,
      "à¤Īà¤¨à¤®": 4740,
      "Ġà¤¦à¤°à¤Ń": 4741,
      "Ġà¤Ĩà¤¶à¤®": 4742,
      "à¤ªà¤°à¤Ń": 4743,
      "à¤°à¤²à¤Ĺ": 4744,
      "à¥§à¥¦à¥¦à¥¦": 4745,
      "à¤µà¤ķà¤¹à¤°": 4746,
      "Ġà¥§à¥¦à¥¦à¥¦": 4747,
      "Ġà¤®à¤¤à¤ªà¤°": 4748,
      "Ġà¤ıà¤²à¤ľ": 4749,
      "à¥¨à¥¦à¥¦à¥¨": 4750,
      "ĠĠĠĠĠĠĠĠĠĠĠĠĠĠĠĠĠĠĠĠĠĠĠĠĠĠĠĠĠ": 4751,
      "Ġà¤ķà¤²à¤ķà¤¤": 4752,
      "à¤±": 4753,
      "à¤ķà¤¨à¤®": 4754,
      "à¤¤à¤¸à¤ŀ": 4755,
      "à¤¯à¤Ńà¤¨": 4756,
      "à¤ªà¤Ĺ": 4757,
      "Ġà¤Ĩà¤ĩà¤ıà¤ķ": 4758,
      "Ġà¤ħà¤¨à¤¶à¤¨à¤®": 4759,
      "Ġà¤¸à¤¬à¤¸": 4760,
      "à¤Ķà¤ªà¤¨": 4761,
      "à¤²à¤µà¤¹": 4762,
      "Ġà¤Ĩà¤ıà¤¨à¤¨": 4763,
      "à¤¡à¤°à¤¸à¤Ł": 4764,
      "à¤¨à¤Ľà¤¨": 4765,
      "à¤¨à¤µà¤®": 4766,
      "à¤ķà¤ĺ": 4767,
      "à¤ķà¤Łà¤¨": 4768,
      "à¥ĭà¤ĥ": 4769,
      "à¤µà¤µà¤°": 4770,
      "à¤¦à¤¯à¤®": 4771,
      "à¤Ĺà¤¸à¤¬": 4772,
      "Ġà¤°à¤Ł": 4773,
      "à¤ħà¤µà¤®": 4774,
      "Ġà¤ıà¤®à¤¡": 4775,
      "Ġà¤Ĭà¤¸": 4776,
      "à¤Ĩà¤Īà¤ı": 4777,
      "à¤¯à¤Łà¤¨à¤²": 4778,
      "Ġà¤ľà¤¨à¤®à¤¤à¤ķ": 4779,
      "Ġà¤·à¤¡à¤¯à¤¨": 4780,
      "Ġà¤¨à¤¹à¤°à¤®": 4781,
      "Ġà¤Ńà¤ĩà¤°": 4782,
      "Ġà¤®à¤¶": 4783,
      "Ġà¤®à¤¦à¤°": 4784,
      "à¤ĩà¤µà¤°": 4785,
      "à¤ĩà¤¤à¤®": 4786,
      "à¤¯à¤¸à¤¸": 4787,
      "à¤¸à¤°à¤¬": 4788,
      "à¤ıà¤¸à¤¨à¤ķ": 4789,
      "à¥§à¥«à¥¦": 4790,
      "Ġà¤īà¤ªà¤ķà¤°à¤£à¤¹à¤°": 4791,
      "à¤ĭà¤¤": 4792,
      "à¤ľà¤Ĺà¤¢à¤®": 4793,
      "Ġà¥į": 4794,
      "à¤°à¤ªà¤¨": 4795,
      "à¤¯à¤¯à¤®": 4796,
      "Ġà¤Ľà¤¨à¤ķ": 4797,
      "Ġà¤ħà¤®à¤¨": 4798,
      "à¤ĩà¤Łà¤¨": 4799,
      "Ġà¤ĸà¤¹à¤°": 4800,
      "Ġà¤ĸà¤²à¤²": 4801,
      "Ġà¤ªà¤°à¤µ": 4802,
      "Ġà¤¸à¤®à¤¯à¤¯à¤¤": 4803,
      "à¤°à¤Ńà¤°à¤ķ": 4804,
      "Ġà¤Ĩà¤®à¤ľà¤¨à¤¤": 4805,
      "à¥¨à¥¦à¥¦à¥«": 4806,
      "à¤¹à¤²à¤¤": 4807,
      "Ġà¤°à¤ľà¤¸": 4808,
      "Ġà¤®à¤°à¤£": 4809,
      "Ġà¤ħà¤Ńà¤¯": 4810,
      "à¤ľà¤¨à¤¬": 4811,
      "à¤Ĩà¤Ļ": 4812,
      "à¤Ĩà¤ĩà¤ı": 4813,
      "Ġà¤«à¤ľ": 4814,
      "à¤¤à¤°à¤ľ": 4815,
      "à¤Ŀà¤ªà¤ĸ": 4816,
      "à¤µà¤ķà¤¤": 4817,
      "à¥¯à¥«": 4818,
      "Ġà¤ĺà¤°à¤ĺà¤°": 4819,
      "à¤¶à¤¤à¤¸à¤®": 4820,
      "à¤ıà¤¨à¤ıà¤¨": 4821,
      "Ġà¤¦à¤²à¤Ĺà¤¤": 4822,
      "Ġà¤ıà¤®à¤ª": 4823,
      "à¤Ĩà¤Īà¤Ł": 4824,
      "Ġà¤°à¤¹à¤°à¤²": 4825,
      "à¤²à¤Ńà¤¨": 4826,
      "Ġà¤ķà¤®à¤¨": 4827,
      "à¤¬à¤¶": 4828,
      "à¤¶à¤ļà¤¨": 4829,
      "à¤°à¤¤à¤µ": 4830,
      "à¤¤à¤°à¤ªà¤¶": 4831,
      "à¤ħà¤¨à¤®": 4832,
      "Ġà¤ĺà¤°à¤ª": 4833,
      "Ġà¤Ĩà¤īà¤¨à¤¸à¤ķ": 4834,
      "à¤Ĩà¤°à¤Ł": 4835,
      "à¤ķà¤Łà¤¹à¤°": 4836,
      "Ġà¥¨à¥ªà¥¦": 4837,
      "Ġà¤Ĺà¤ľà¤¬à¤ķ": 4838,
      "à¤°à¤ĸà¤¨": 4839,
      "à¤²à¤ļà¤¨": 4840,
      "Ġà¤¨à¤ĩ": 4841,
      "Ġà¤¹à¤°à¤£": 4842,
      "Ġà¤¯à¤®à¤²": 4843,
      "Ġà¤¸à¤®à¤ª": 4844,
      "à¤¸à¤¨à¤¸": 4845,
      "à¤¬à¤°à¤¬": 4846,
      "à¤ļà¤²à¤ĸ": 4847,
      "Ġà¤Īà¤ľ": 4848,
      "Ġà¥¦à¥¨": 4849,
      "Ġà¥©à¥«à¥¦": 4850,
      "Ġà¤Ĩà¤ĩà¤Łà¤®": 4851,
      "Ġà¤Ľà¤²à¤«à¤²à¤¬": 4852,
      "-à¥ģ-": 4853,
      "à¥ŀ": 4854,
      "à¤¤à¤ªà¤Ľ": 4855,
      "Ġà¤¨à¤¸à¤®": 4856,
      "à¤Īà¤µà¤°": 4857,
      "à¤īà¤¨à¤¸à¤ķ": 4858,
      "à¤Ļà¤ĸ": 4859,
      "Ġà¤ıà¤ķà¤¡": 4860,
      "à¤ħà¤¨à¤¨": 4861,
      "à¥¨à¥¦à¥¨à¥«": 4862,
      "à¤ļà¤²à¤°": 4863,
      "à¤ħà¤®à¤°": 4864,
      "Ġà¤¦à¤¶à¤ķà¤¸à¤®": 4865,
      "à¥įà¤Ĥ": 4866,
      "à¤µà¤¥": 4867,
      "à¥Īà¤ĥ": 4868,
      "à¤ıà¤®à¤ķ": 4869,
      "Ġà¤¨à¤®à¤¨": 4870,
      "Ġà¤¹à¤¸à¤¨": 4871,
      "à¤ĩà¤Ľ": 4872,
      "Ġà¤ĸà¤µ": 4873,
      "à¤ľà¤¨à¤ħà¤ª": 4874,
      "Ġà¤ĺà¤°à¤µ": 4875,
      "à¤µà¤¨à¤°à¤ķ": 4876,
      "à¤·à¤£à¤¬": 4877,
      "Ġà¤ĩà¤«": 4878,
      "à¤¦à¤¨à¤¨": 4879,
      "à¥¬à¥§": 4880,
      "à¤µà¤¤à¤¯": 4881,
      "à¤°à¤ªà¤ŀ": 4882,
      "Ġà¤ıà¤¸à¤ıà¤¸à¤¬": 4883,
      "Ġà¥¦à¥©": 4884,
      "Ġà¤Ľà¤²à¤«à¤²à¤²": 4885,
      "Ġà¥§à¥¯à¥¯à¥ª": 4886,
      "Ġà¥§à¥¯à¥¯à¥¬": 4887,
      "Ġà¤°à¤¨à¤°à¤ħà¤ª": 4888,
      "à¤¬à¤¨à¤ķ": 4889,
      "Ġà¤¨à¤µà¤®": 4890,
      "à¤§à¤ĸ": 4891,
      "Ġà¤®à¤¥": 4892,
      "à¤ļà¤°à¤®": 4893,
      "à¤ĸà¤°à¤ķ": 4894,
      "à¤«à¤Ľ": 4895,
      "à¤ªà¤®à¤¤": 4896,
      "Ġà¤Ńà¤ıà¤ħà¤¨": 4897,
      "à¥¬à¥®": 4898,
      "Ġà¤¬à¤ľà¤Ĺ": 4899,
      "Ġà¥§à¥¦à¥ª": 4900,
      "à¤·à¤¯à¤¬à¤¸": 4901,
      "Ġà¤¤à¤¹à¤Ĺà¤¤": 4902,
      "Ġà¤ħà¤²à¤Ĩà¤īà¤Ł": 4903,
      "Ġà¥¨à¥¦à¥«à¥©": 4904,
      "à¥¨à¥¦à¥ªà¥¯": 4905,
      "à¥¦à¥Ńà¥©à¥Ńà¥ª": 4906,
      "à¤ķà¤·à¤£": 4907,
      "à¤ıà¤¥à¤²": 4908,
      "à¤ľà¤²à¤®": 4909,
      "Ġà¤¬à¤«": 4910,
      "à¤ĸà¤µà¤°": 4911,
      "à¤ħà¤¬à¤°": 4912,
      "à¤łà¤¸": 4913,
      "à¤°à¤£à¤¤à¤¯": 4914,
      "à¤¯à¤¸à¤µà¤°": 4915,
      "à¤¸à¤¹à¤®à¤¹": 4916,
      "Ġà¤ħà¤¸à¤°à¤ķ": 4917,
      "à¤¨à¤Ĺà¤°à¤¸à¤Ń": 4918,
      "à¤ĵà¤¤": 4919,
      "à¤¤à¤²à¤¹à¤°": 4920,
      "Ġà¤Ĺà¤łà¤µà¤¨": 4921,
      "à¤²à¤Ĺà¤¨à¤¶": 4922,
      "Ġà¤ľà¤²à¤®à¤Ĺ": 4923,
      "à¤°à¤ªà¤°": 4924,
      "à¤¸à¤¬à¤°": 4925,
      "à¤¬à¤ª": 4926,
      "à¤¥à¤ķà¤²": 4927,
      "Ġà¤ħà¤¸à¤®à¤°": 4928,
      "Ġà¤¤à¤Ĺ": 4929,
      "à¤¡à¤¯": 4930,
      "Ġà¤¶à¤¤à¤ª": 4931,
      "à¤²à¤ķà¤¤": 4932,
      "Ġà¤ľà¤¨à¤ªà¤ķ": 4933,
      "Ġà¤¤à¤°à¤ªà¤¨": 4934,
      "à¥¬à¥©": 4935,
      "Ġà¤Ĩà¤Īà¤ıà¤®à¤Ī": 4936,
      "à¤¶à¤¹à¤°à¤®": 4937,
      "à¤ĺà¤¨à¤¶": 4938,
      "Ġà¥¨à¥¦à¥«à¥Ń": 4939,
      "Ġà¤ŀ": 4940,
      "à¤¬à¤®à¤ķ": 4941,
      "Ġà¤°à¤ĸ": 4942,
      "à¤Ńà¤§": 4943,
      "à¤ıà¤ķà¤®": 4944,
      "à¤łà¤¡": 4945,
      "à¤ªà¤°à¤ľ": 4946,
      "à¤¨à¤²à¤¬": 4947,
      "Ġà¤¸à¤¹à¤¦": 4948,
      "Ġà¤īà¤ªà¤ľà¤ķ": 4949,
      "à¤¯à¤²à¤¯à¤®": 4950,
      "à¤Łà¤¬à¤²à¤°": 4951,
      "Ġà¤¬à¤Ĺà¤°à¤®": 4952,
      "Ġà¤Ĺà¤ľà¤²à¤®": 4953,
      "à¤¡à¤¯à¤¨à¤®à¤¨": 4954,
      "ĠĠĠĠĠĠĠĠĠĠĠĠĠĠ": 4955,
      "Ġà¤ıà¤¯à¤°à¤¬à¤¸": 4956,
      "à¤¸à¤ľà¤¨": 4957,
      "à¤ļà¤ªà¤¦à¤¸": 4958,
      "à¤Īà¤Ļ": 4959,
      "Ġà¤¦à¤®à¤¦": 4960,
      "à¤Ĩà¤Ĺà¤®à¤¨": 4961,
      "à¤°à¤£à¤¬à¤¹": 4962,
      "à¤¨à¤ķà¤²": 4963,
      "Ġà¤¯à¤¸à¤ªà¤²": 4964,
      "Ġà¤Łà¤¨à¤ķ": 4965,
      "Ġà¤ķà¤®à¤®": 4966,
      "à¤¿à¤ģà¤Ĥ": 4967,
      "à¤¬à¤²à¤Ł": 4968,
      "Ġà¤ªà¤¦à¤ķà¤ķ": 4969,
      "Ġà¤¤à¤¹à¤¦": 4970,
      "à¤¬à¤¦à¤¬": 4971,
      "à¤ħà¤µà¤¹": 4972,
      "Ġà¤Ĩà¤ĩà¤ıà¤®": 4973,
      "Ġà¤®à¤¤à¤²à¤µ": 4974,
      "à¤ļà¤²à¤¨à¤ļà¤²": 4975,
      "à¤°à¤Ļà¤²": 4976,
      "à¤¨à¤ªà¤¨": 4977,
      "à¤¯à¤ĸ": 4978,
      "à¤Łà¤®à¤®": 4979,
      "à¤ıà¤«à¤²": 4980,
      "Ġà¤¬à¤¥": 4981,
      "à¤§à¤ªà¤¤": 4982,
      "Ġà¤Ľà¤µà¤Ł": 4983,
      "à¤¶à¤¶à¤°à¤£": 4984,
      "Ġà¤Ĩà¤µà¤¤": 4985,
      "à¤°à¤¤à¤¬à¤¨": 4986,
      "Ġà¤ıà¤ķà¤®à¤¤": 4987,
      "à¤¤à¤°à¤¦à¤ķ": 4988,
      "à¤¯à¤®à¤µà¤°": 4989,
      "Ġà¤ħà¤¸à¤Ī": 4990,
      "Ġà¤ľà¤®à¤ĺ": 4991,
      "Ġà¤¨à¤ľà¤°à¤²": 4992,
      "Ġà¥§à¥¬à¥¯": 4993,
      "Ġà¥¦à¥Ńà¥§": 4994,
      "à¤²à¤ļà¤²à¤¨": 4995,
      "ĠĠĠĠĠĠĠĠĠĠĠĠĠĠĠ": 4996,
      "à¤°à¤¨à¤²": 4997,
      "à¤¯à¤¤à¤°": 4998,
      "à¤ıà¤¨à¤²": 4999,
      "Ġà¤¤à¤¦à¤¨": 5000,
      "Ġà¤ľà¤²à¤¯": 5001,
      "Ġà¤Ĩà¤°à¤¸": 5002,
      "Ġà¤Ĩà¤ĵà¤¸": 5003,
      "à¤°à¤®à¤§": 5004,
      "Ġà¤®à¤¹à¤ķ": 5005,
      "à¤°à¤¦à¤®": 5006,
      "Ġà¤¨à¤Ĺà¤°à¤¬": 5007,
      "Ġà¤¨à¤®à¤°": 5008,
      "à¤¨à¤µà¤¦": 5009,
      "à¤°à¤ľà¤¹à¤°": 5010,
      "à¤ĩà¤¡à¤¬à¤¡": 5011,
      "à¥¨à¥¦à¥«à¥§": 5012,
      "à¥¨à¥¦à¥«à¥«": 5013,
      "à¤ĭà¤£à¤ªà¤¤": 5014,
      "à¥¨à¥Ńà¥©": 5015,
      "à¤¹à¤²à¤¯": 5016,
      "à¤Ĺà¤ı": 5017,
      "à¤§à¤ļ": 5018,
      "Ġà¤®à¤·": 5019,
      "à¤¡à¤°à¤ª": 5020,
      "Ġà¤µà¤¶": 5021,
      "à¤ĺà¤¦": 5022,
      "à¤ĺà¤°à¤§à¤¨": 5023,
      "à¥«à¥¯": 5024,
      "à¤¸à¤¹à¤ħà¤§": 5025,
      "à¥©à¥¦à¥¦": 5026,
      "Ġà¥§à¥¦à¥©": 5027,
      "Ġà¤Ķà¤°": 5028,
      "à¤¸à¤¬à¤¸": 5029,
      "Ġà¤Ńà¤°à¤ĸà¤°": 5030,
      "à¥¦à¥Ńà¥§à¥Ńà¥¨": 5031,
      "à¤ļà¤¸à¤¯": 5032,
      "à¤ĸà¤¬à¤°à¤¦": 5033,
      "Ġà¤¨à¤¹à¤°à¤ķ": 5034,
      "à¤µà¤¹à¤¨": 5035,
      "à¤·à¤°à¤®": 5036,
      "à¤§à¤µà¤ª": 5037,
      "à¤Ńà¤ıà¤®": 5038,
      "Ġà¤Ĩà¤Ł": 5039,
      "Ġà¤Ĩà¤ĩà¤®": 5040,
      "à¤ĩà¤ĸ": 5041,
      "à¤ĩà¤¡à¤²": 5042,
      "Ġà¤¯à¤¸à¤µ": 5043,
      "à¤ŀà¤²": 5044,
      "Ġà¤®à¤¨à¤¤": 5045,
      "à¤¦à¤¨à¤¹à¤°": 5046,
      "à¤¸à¤¹à¤ħà¤¸": 5047,
      "Ġà¤Ĺà¤łà¤¨à¤®": 5048,
      "à¤Ĩà¤ĩà¤¡à¤²": 5049,
      "à¤Ľà¤°à¤Ľ": 5050,
      "à¤Łà¤Ĺ": 5051,
      "Ġà¤ķà¤Ľ": 5052,
      "à¤Ńà¤ħà¤Ļ": 5053,
      "à¤Īà¤ªà¤ķ": 5054,
      "Ġà¤īà¤ĺ": 5055,
      "à¤«à¤£": 5056,
      "à¤Ĩà¤Īà¤ķ": 5057,
      "à¤Ĩà¤ªà¤¤à¤ķ": 5058,
      "à¤²à¤¬à¤¬": 5059,
      "à¤¦à¤°à¤Ń": 5060,
      "à¤°à¤Ńà¤ķ": 5061,
      "à¤·à¤®à¤£": 5062,
      "à¤Ĩà¤°à¤ıà¤¸": 5063,
      "à¤¯à¤¯à¤¨à¤ħà¤¨": 5064,
      "à¤®à¤¦à¤¨à¤ķ": 5065,
      "Ġà¤Ĭà¤¨": 5066,
      "à¤ľà¤¤à¤ªà¤¤": 5067,
      "à¤¯à¤Łà¤¨à¤®": 5068,
      "à¥¨à¥¦à¥«à¥ª": 5069,
      "Ġà¤¸à¤ªà¤°": 5070,
      "Ġà¤Ĺà¤ıà¤¨": 5071,
      "Ġà¤Ĺà¤°à¤®": 5072,
      "Ġà¤µà¤ļà¤¤": 5073,
      "Ġà¤Łà¤¡": 5074,
      "à¤°à¤µà¤¹": 5075,
      "à¤ĵà¤¨": 5076,
      "Ġà¤¹à¤°à¤«": 5077,
      "Ġà¤Ķà¤·à¤¤": 5078,
      "Ġà¤Ĩà¤²à¤Ł": 5079,
      "Ġà¥Ńà¥«à¥¦": 5080,
      "Ġà¥Ńà¥«à¥©": 5081,
      "à¤²à¤ĸà¤¬à¤°": 5082,
      "à¤¾à¥Ģ": 5083,
      "à¤°à¤ªà¤²": 5084,
      "à¤ķà¤¢": 5085,
      "à¤®à¤®à¤¨": 5086,
      "à¤¹à¤¸à¤ļ": 5087,
      "à¤¬à¤®à¤®": 5088,
      "à¤Īà¤®à¤¤": 5089,
      "Ġà¤µà¤ļ": 5090,
      "Ġà¤Ĩà¤¯à¤¤": 5091,
      "Ġà¤Ĩà¤ĩà¤ı": 5092,
      "Ġà¤²à¤ª": 5093,
      "à¤ĩà¤¸à¤®": 5094,
      "à¤ħà¤°à¤²": 5095,
      "Ġà¤¬à¤¸à¤¹à¤°": 5096,
      "à¤¶à¤¨à¤°": 5097,
      "à¤¤à¤ªà¤¸": 5098,
      "Ġà¥§à¥§à¥¨": 5099,
      "Ġà¤§à¤°à¤ªà¤ķà¤¡": 5100,
      "Ġà¤Ĩà¤Īà¤¡": 5101,
      "à¤¯à¤¸à¤¬à¤ĸà¤¤": 5102,
      "Ġà¥ªà¥«à¥¦": 5103,
      "Ġà¤¨à¤Łà¤Ĩà¤īà¤Ł": 5104,
      "à¥įà¤ģ": 5105,
      "à¤¨à¤Ĩà¤ıà¤ķ": 5106,
      "à¤¯à¤¶à¤¨": 5107,
      "à¤ªà¤¸à¤Ļ": 5108,
      "Ġà¤°à¤¬à¤°": 5109,
      "Ġà¤Ńà¤°à¤ķ": 5110,
      "Ġà¤¬à¤²à¤¤": 5111,
      "à¤¥à¤¨à¤Ĺà¤°": 5112,
      "Ġà¤µà¤·": 5113,
      "Ġà¤ļà¤¤à¤°": 5114,
      "à¤łà¤¯": 5115,
      "Ġà¤ĸà¤°à¤¬": 5116,
      "à¤®à¤¨à¤ª": 5117,
      "à¤µà¤°à¤¸": 5118,
      "à¤īà¤¦à¤ĺ": 5119,
      "à¤¬à¤¹à¤¸": 5120,
      "à¤ķà¤¸à¤ª": 5121,
      "Ġà¤ıà¤¨à¤ıà¤¸": 5122,
      "Ġà¥§à¥¯à¥¯à¥©": 5123,
      "à¤ıà¤ķà¤°": 5124,
      "à¤ıà¤ķà¤¤à¤°": 5125,
      "Ġà¤Ĩà¤¬à¤¸": 5126,
      "à¤¾à¤ģà¤ģ": 5127,
      "Ġà¤ħà¤¨à¤Ń": 5128,
      "à¤µà¤¸à¤ļ": 5129,
      "Ġà¤°à¤¹à¤®": 5130,
      "à¤ļà¤¨à¤ªà¤Ľ": 5131,
      "Ġà¤ĩà¤¥": 5132,
      "à¥®à¥¯": 5133,
      "à¤ĵà¤Ĩà¤°": 5134,
      "Ġà¥§à¥§à¥ª": 5135,
      "Ġà¥§à¥§à¥¬": 5136,
      "Ġà¤Ĩà¤īà¤Ľà¤¨": 5137,
      "Ġà¥§à¥©à¥«": 5138,
      "Ġà¥§à¥¯à¥®à¥¬": 5139,
      "à¤°à¤¨à¤ķ": 5140,
      "à¤¯à¤ŀ": 5141,
      "à¤Łà¤®à¤ķ": 5142,
      "à¤Łà¤²à¤¬": 5143,
      "Ġà¤Ľà¤®": 5144,
      "Ġà¤Ľà¤¸": 5145,
      "Ġà¤Ľà¤¹à¤°": 5146,
      "Ġà¤ľà¤¬à¤ľ": 5147,
      "à¤ĩà¤ľà¤ķ": 5148,
      "Ġà¤ıà¤¨à¤ª": 5149,
      "à¤Ĩà¤®à¤®": 5150,
      "Ġà¤ĩà¤Ĺ": 5151,
      "Ġà¥¨à¥¦à¥¨à¥®": 5152,
      "à¥¨à¥¦à¥«à¥¦": 5153,
      "à¤ĵà¤®à¤ª": 5154,
      "Ġà¤¬à¤¹à¤¸à¤²": 5155,
      "Ġà¥§à¥§à¥®": 5156,
      "Ġà¥§à¥§à¥¯": 5157,
      "ĉĠĠčĊ": 5158,
      "à¤¦à¤¤à¤²": 5159,
      "Ġà¤¨à¤ĺà¤Ł": 5160,
      "Ġà¤Ľà¤¹": 5161,
      "Ġà¤µà¤Ĺ": 5162,
      "Ġà¤µà¤¹à¤¸": 5163,
      "Ġà¤¦à¤§": 5164,
      "Ġà¤¦à¤¬à¤¦à¤¬": 5165,
      "Ġà¤Łà¤Ł": 5166,
      "Ġà¥®à¥§à¥¦": 5167,
      "à¤°à¤ļà¤¨à¤²": 5168,
      "Ġà¤§à¤¨à¤ľà¤¨à¤ķ": 5169,
      "à¤ĩà¤ķà¤²à¤ķ": 5170,
      "à¤ħà¤Ĺà¤¸": 5171,
      "à¤Ĺà¤£à¤®": 5172,
      "à¤Ĩà¤®à¤¸à¤ŀ": 5173,
      "Ġà¤¶à¤¹à¤°à¤²": 5174,
      "Ġà¤¨à¤µà¤Ĺà¤ł": 5175,
      "Ġà¤ħà¤¨à¤¸à¤¨à¤°à¤¤": 5176,
      "à¤¤à¤¤à¤°": 5177,
      "à¤µà¤Ļ": 5178,
      "à¤Ĺà¤Ĺ": 5179,
      "à¤¬à¤¸à¤®": 5180,
      "à¤ľà¤¯à¤°": 5181,
      "à¤¶à¤ªà¤Ľ": 5182,
      "à¤ļà¤¯à¤¨": 5183,
      "Ġà¤ħà¤µà¤®": 5184,
      "à¥Ĥà¤Ĥ": 5185,
      "Ġà¤Ĩà¤µà¤°à¤£": 5186,
      "à¤°à¤®à¤®à¤¨": 5187,
      "Ġà¤ıà¤ħà¤°": 5188,
      "à¤Ŀà¤¸": 5189,
      "à¤²à¤Ĺà¤ķ": 5190,
      "à¤ıà¤®à¤ľ": 5191,
      "Ġà¥¨à¥¦à¥ªà¥«": 5192,
      "Ġà¥¦à¥¬à¥ª": 5193,
      "à¤¦à¤°à¤¬à¤ľ": 5194,
      "à¥įà¤¾-": 5195,
      "à¤®à¤®à¤¤": 5196,
      "à¤®à¤ļà¤²": 5197,
      "à¤¹à¤µà¤²": 5198,
      "Ġà¤Ĺà¤µ": 5199,
      "à¤¶à¤¶": 5200,
      "à¤ĸà¤ªà¤¢": 5201,
      "à¤°à¤®à¤ª": 5202,
      "à¤īà¤¨à¤¸à¤®": 5203,
      "à¥ĥà¥ĥ": 5204,
      "à¤ķà¤²à¤¬": 5205,
      "à¥«à¥©": 5206,
      "Ġà¤¸à¤®à¤¯à¤Ńà¤¨": 5207,
      "Ġà¤Ĺà¤ıà¤ªà¤¨": 5208,
      "à¤Ĩà¤ĩà¤ıà¤®à¤Ī": 5209,
      "à¤¨à¤¬à¤¨": 5210,
      "à¤¬à¤ķà¤°": 5211,
      "Ġà¤¹à¤¡à¤ª": 5212,
      "à¤¥à¤²à¤²": 5213,
      "Ġà¤ļà¤¶": 5214,
      "Ġà¤ıà¤ķà¤ª": 5215,
      "Ġà¤Łà¤ķà¤°": 5216,
      "à¤ĵà¤¯": 5217,
      "à¤Łà¤²à¤°": 5218,
      "Ġà¤ħà¤µà¤ľ": 5219,
      "à¤ķà¤Łà¤¬": 5220,
      "Ġà¤Ńà¤µà¤¨à¤²": 5221,
      "à¤ıà¤ļà¤Ĩà¤ĩà¤Ń": 5222,
      "Ġà¤¸à¤¹à¤¨à¤¶": 5223,
      "à¤ķà¤¨à¤ķà¤°": 5224,
      "à¤¤à¤¸à¤Ļ": 5225,
      "à¤¸à¤µà¤²": 5226,
      "à¤¹à¤ªà¤Ľ": 5227,
      "Ġà¤¸à¤Łà¤°": 5228,
      "Ġà¤ªà¤Ĺà¤°": 5229,
      "à¤ľà¤Ń": 5230,
      "Ġà¤Ńà¤ľ": 5231,
      "Ġà¤¬à¤°à¤¦": 5232,
      "Ġà¤Ľà¤¥à¤°": 5233,
      "à¤¶à¤µà¤ķ": 5234,
      "à¤Ńà¤²à¤ķ": 5235,
      "à¤ļà¤ķà¤²": 5236,
      "à¤¡à¤¨à¤²": 5237,
      "à¤ħà¤ł": 5238,
      "Ġà¤«à¤·": 5239,
      "Ġà¤¤à¤°à¤ĸà¤°à¤®": 5240,
      "à¤ķà¤²à¤¸": 5241,
      "à¤®à¤¤à¤®": 5242,
      "à¤°à¤®à¤£à¤ªà¤Ľ": 5243,
      "à¤ħà¤¸à¤«à¤²": 5244,
      "à¤ĺà¤°à¤ĺà¤°": 5245,
      "Ġà¤¦à¤¶à¤Ĺà¤ľ": 5246,
      "Ġà¤¸à¤¹à¤°à¤¹à¤°": 5247,
      "Ġà¤ķà¤¬à¤¡": 5248,
      "Ġà¤ħà¤ªà¤¹à¤°à¤£à¤®": 5249,
      "à¤ªà¤¸à¤²à¤¹à¤°": 5250,
      "à¥įà¤¾à¤¾": 5251,
      "à¤Łà¤ľà¤°à¤²": 5252,
      "Ġà¤¨à¤ľà¤¨": 5253,
      "Ġà¤ľà¤¯à¤ķ": 5254,
      "à¤¸à¤®à¤¤": 5255,
      "Ġà¤ıà¤ªà¤®": 5256,
      "à¤¤à¤°à¤¸": 5257,
      "à¤ħà¤¨à¤Ń": 5258,
      "à¥«à¥®": 5259,
      "à¤¨à¤®à¤§": 5260,
      "à¤¦à¤¨à¤ª": 5261,
      "à¤¸à¤¹à¤¨à¤¶": 5262,
      "Ġà¤Ŀà¤¯": 5263,
      "à¤ĵà¤Ĺà¤Ł": 5264,
      "à¤ıà¤¨à¤¡": 5265,
      "Ġà¤ªà¤¦à¤²": 5266,
      "à¤ıà¤¸à¤ĵ": 5267,
      "Ġà¤Ĩà¤¶à¤¯à¤ķ": 5268,
      "à¤²à¤¡à¤®à¤¨": 5269,
      "à¤®à¤łà¤®à¤¨": 5270,
      "à¥Ģà¤ĥ": 5271,
      "Ġà¤®à¤¬": 5272,
      "Ġà¤¥à¤ªà¤ķ": 5273,
      "à¤łà¤¬": 5274,
      "à¤¨à¤®à¤°": 5275,
      "Ġà¤®à¤²à¤ĸ": 5276,
      "à¤°à¤ĸà¤ª": 5277,
      "Ġà¥§à¥¯à¥¯à¥§": 5278,
      "à¤®à¤Ńà¤ķ": 5279,
      "à¤¤à¤Ĺà¤°": 5280,
      "à¤§à¤ªà¤Ľ": 5281,
      "à¤ļà¤¸à¤®": 5282,
      "à¤¡à¤¶": 5283,
      "à¤¡à¤ķà¤°": 5284,
      "Ġà¤ıà¤¥": 5285,
      "Ġà¤§à¤µà¤²": 5286,
      "à¤µà¤¨à¤ª": 5287,
      "Ġà¤ªà¤¹à¤²à¤ķà¤¦à¤®": 5288,
      "à¤ĵà¤¢": 5289,
      "à¤¯à¤£à¤ª": 5290,
      "Ġà¤µà¤¨à¤Ń": 5291,
      "à¤¯à¤¯à¤Ń": 5292,
      "Ġà¤Ĺà¤¹à¤¤à¤°": 5293,
      "Ġà¥¦à¥¬à¥©": 5294,
      "Ġà¤ľà¤Ĺà¤¦à¤®": 5295,
      "à¤¤à¤¨à¤Ĺà¤°à¤ª": 5296,
      "à¤°à¤µà¤¸": 5297,
      "à¤¯à¤·": 5298,
      "à¤¯à¤°à¤¸": 5299,
      "à¤¹à¤µà¤°à¤®": 5300,
      "à¤ıà¤²à¤®": 5301,
      "Ġà¤Ľà¤Ľ": 5302,
      "à¤ĸà¤¶": 5303,
      "à¤ĩà¤ķà¤®": 5304,
      "à¤«à¤ķà¤¨": 5305,
      "à¤Ļà¤¨": 5306,
      "à¤Ĩà¤Ń": 5307,
      "Ġà¤«à¤Ĺ": 5308,
      "Ġà¤ĺà¤°à¤¤": 5309,
      "Ġà¤§à¤¸": 5310,
      "à¤ĩà¤¨à¤²à¤ķ": 5311,
      "Ġà¤¤à¤²à¤¬à¤ķ": 5312,
      "à¥¨à¥¦à¥«à¥Ń": 5313,
      "à¤Ĩà¤¬à¤¶": 5314,
      "Ġà¤ħà¤®à¤°à¤Ĺà¤¢": 5315,
      "à¤Łà¤Ĺà¤¤": 5316,
      "à¤Łà¤Ńà¤Ł": 5317,
      "à¤¬à¤ĸ": 5318,
      "à¤·à¤ĺ": 5319,
      "à¤§à¤ľà¤¨": 5320,
      "à¤§à¤Ńà¤°": 5321,
      "à¤ļà¤¹à¤²à¤ªà¤¹à¤²": 5322,
      "à¤īà¤«": 5323,
      "à¤Īà¤ĵà¤Ł": 5324,
      "à¤Ĩà¤ĩà¤Ł": 5325,
      "à¤Ŀà¤¸à¤®": 5326,
      "Ġà¤®à¤¹à¤¤à¤ķ": 5327,
      "à¤¤à¤®à¤¸": 5328,
      "à¥¯à¥¬": 5329,
      "à¤¯à¤²à¤¯à¤ķ": 5330,
      "à¤ıà¤¨à¤Ĩà¤Īà¤¸": 5331,
      "à¤µà¤¤à¤¸": 5332,
      "Ġà¤¬à¤²à¤µ": 5333,
      "Ġà¥§à¥§à¥©": 5334,
      "à¤¯à¤£à¤ĺ": 5335,
      "Ġà¤ĸà¤¸à¤Ĩà¤°": 5336,
      "à¤¸à¤¹à¤ľà¤ķà¤°": 5337,
      "Ġà¤ħà¤µà¤¤à¤°à¤£à¤ķ": 5338,
      "à¤²à¤ľà¤¯": 5339,
      "à¤¯à¤°à¤¹à¤°": 5340,
      "à¤ªà¤Łà¤²": 5341,
      "Ġà¤¸à¤¨à¤ķ": 5342,
      "à¤¾-à¤¾": 5343,
      "à¤ľà¤ķà¤°": 5344,
      "à¤ľà¤²à¤¬": 5345,
      "à¤ĩà¤¡à¤ķ": 5346,
      "à¤ĩà¤ľà¤®": 5347,
      "à¤ĩà¤¡à¤®": 5348,
      "à¤Ļà¤¤à¤°": 5349,
      "à¤ĺà¤·": 5350,
      "Ġà¤¯à¤¸à¤¸à¤®": 5351,
      "Ġà¤ľà¤¨à¤ħà¤§": 5352,
      "à¤¤à¤¨à¤§": 5353,
      "à¥¬à¥Ń": 5354,
      "ĠĠĠĠĠĠĠĠčĊ": 5355,
      "Ġà¤Ńà¤ıà¤¨à¤Ńà¤ıà¤ķ": 5356,
      "à¤ķà¤²à¤ķà¤¤": 5357,
      "à¤ĸà¤Ĺà¤ŀ": 5358,
      "à¤®à¤ħà¤¨": 5359,
      "à¤¹à¤ļ": 5360,
      "à¤¦à¤¸à¤¤": 5361,
      "à¤Īà¤¸à¤®": 5362,
      "Ġà¤ıà¤Ĩà¤ĩà¤ľ": 5363,
      "à¤¯à¤¸à¤ħà¤¨": 5364,
      "Ġà¤Łà¤ļ": 5365,
      "à¤®à¤¤à¤ªà¤°": 5366,
      "à¤§à¤¨à¤Ĺà¤°": 5367,
      "à¤ıà¤¸à¤ıà¤¸à¤¬": 5368,
      "à¤ĸà¤®à¤¯": 5369,
      "ĠĠĠĠĠĠĠĠĠĠĠĠĠĠĠĠĠ": 5370,
      "Ġà¤¤à¤²à¤¬à¤®": 5371,
      "Ġà¤ıà¤¡à¤Ń": 5372,
      "à¤ķà¤ķà¤²": 5373,
      "à¤®à¤¸à¤¹": 5374,
      "à¤¤à¤ĸà¤¤": 5375,
      "à¤¯à¤ļà¤ķ": 5376,
      "à¤¹à¤¬à¤°à¤®": 5377,
      "Ġà¤ķà¤ķà¤¨": 5378,
      "à¤¬à¤ĩ": 5379,
      "à¤ľà¤ľ": 5380,
      "à¤¥à¤¹": 5381,
      "Ġà¤¤à¤µà¤°à¤®": 5382,
      "à¤£à¤ªà¤¶": 5383,
      "à¤ħà¤ķà¤°": 5384,
      "à¤ľà¤¨à¤Ĺà¤£à¤¨": 5385,
      "à¤Ļà¤¸à¤®": 5386,
      "à¤Ĩà¤ĩà¤®": 5387,
      "Ġà¤§à¤°à¤¤": 5388,
      "à¤¸à¤¨à¤ª": 5389,
      "à¥«à¥§": 5390,
      "à¤²à¤Ĺà¤Ńà¤Ĺ": 5391,
      "Ġà¥¨à¥¦à¥¨à¥§": 5392,
      "Ġà¤ħà¤Ńà¤¦": 5393,
      "Ġà¤¶à¤¹à¤°à¤¬": 5394,
      "Ġà¤Ĩà¤łà¤°": 5395,
      "ĠĠĠĠĠĠĠĠĠĠĠĠĠĠĠĠĠĠ": 5396,
      "à¥§à¥§à¥©à¥¯": 5397,
      "à¥§à¥¯à¥¯à¥Ń": 5398,
      "Ġà¤ĸà¤¬à¤°à¤¹à¤°": 5399,
      "à¤ľà¤¯à¤¨à¤Ĺà¤°": 5400,
      "Ġà¤²à¤ļà¤ķà¤¤": 5401,
      "à¤²à¤Ī": 5402,
      "à¤²à¤ļà¤ķ": 5403,
      "à¤®à¤ķà¤²": 5404,
      "à¤¤à¤²à¤¨": 5405,
      "à¤µà¤¢": 5406,
      "à¤¦à¤°à¤¹à¤°": 5407,
      "Ġà¤Ĺà¤Ĺà¤¨à¤ķ": 5408,
      "à¤¬à¤²à¤¬à¤¹": 5409,
      "à¤¶à¤ľà¤ķ": 5410,
      "à¤¥à¤ªà¤²": 5411,
      "Ġà¤ħà¤¦à¤ķ": 5412,
      "à¤«à¤¸à¤²": 5413,
      "à¤®à¤¨à¤°": 5414,
      "Ġà¤Łà¤ªà¤°": 5415,
      "à¤Ńà¤¨à¤°": 5416,
      "Ġà¤Ńà¤¯à¤²": 5417,
      "Ġà¥§à¥¦à¥¬": 5418,
      "Ġà¥§à¥¯à¥Ńà¥¦": 5419,
      "-à¥ĭ-": 5420,
      "à¤¿à¥ĭ": 5421,
      "à¤®à¤²à¤®": 5422,
      "Ġà¤¸à¤¶à¤°": 5423,
      "Ġà¤ªà¤¥à¤®": 5424,
      "à¥Īà¥ĩ": 5425,
      "à¤¥à¤¸à¤ļ": 5426,
      "à¤Īà¤¨à¤¨": 5427,
      "Ġà¤¯à¤®à¤¦": 5428,
      "Ġà¤ıà¤Ĩà¤Ī": 5429,
      "Ġà¤ľà¤¨à¤°": 5430,
      "à¤¯à¤¤à¤¸": 5431,
      "Ġà¤¡à¤Ļ": 5432,
      "à¤ķà¤°à¤ª": 5433,
      "à¥«à¥Ń": 5434,
      "à¤°à¤µà¤¶": 5435,
      "Ġà¤ĵà¤®à¤¨": 5436,
      "Ġà¤¬à¤²à¤¦": 5437,
      "à¤·à¤¤à¤µ": 5438,
      "à¤¨à¤¯à¤¨à¤ķ": 5439,
      "Ġà¤Ĺà¤£à¤ķ": 5440,
      "Ġà¤Ĩà¤Īà¤«": 5441,
      "Ġà¤ĭà¤£à¤ªà¤¤": 5442,
      "Ġà¤¸à¤¹à¤°à¤²": 5443,
      "à¥¨à¥¦à¥Ńà¥ªà¥¦": 5444,
      "à¤°à¤«à¤²à¤®": 5445,
      "Ġà¤¸à¤°à¤¸à¤°": 5446,
      "à¤Ĩà¤ĩà¤ıà¤¨à¤ľ": 5447,
      "Ġà¥¦à¥«à¥®": 5448,
      "Ġà¤Ŀà¤¡à¤ªà¤ķ": 5449,
      "à¤ķà¤¦à¤®": 5450,
      "Ġà¤¬à¤²à¤¬à¤¹": 5451,
      "Ġà¤®à¤Ľ": 5452,
      "à¤¡à¤¢": 5453,
      "à¤Īà¤°à¤²": 5454,
      "Ġà¤¦à¤ª": 5455,
      "à¥Ĥà¥į": 5456,
      "à¤ĩà¤Ļà¤²": 5457,
      "à¤¯à¤ķà¤°à¤£": 5458,
      "à¤łà¤¤à¤®": 5459,
      "Ġà¤ıà¤¨à¤¬": 5460,
      "à¤ľà¤¨à¤°": 5461,
      "à¤Ļà¤ĸà¤²": 5462,
      "Ġà¤ıà¤ķà¤µà¤°": 5463,
      "Ġà¤ıà¤ķà¤Ńà¤¨": 5464,
      "à¤²à¤¨à¤ļ": 5465,
      "à¤ļà¤¨à¤ľ": 5466,
      "Ġà¤²à¤Ĺà¤¨": 5467,
      "à¤Łà¤¨à¤¹": 5468,
      "Ġà¤Ĺà¤£à¤ªà¤¤": 5469,
      "Ġà¤ľà¤¨à¤ķà¤²": 5470,
      "Ġà¤¡à¤Łà¤ķà¤®à¤²": 5471,
      "Ġà¥¨à¥¦à¥©à¥ª": 5472,
      "à¤ķà¤Ńà¤°à¤ķ": 5473,
      "à¤¤à¤Ľ": 5474,
      "à¤¹à¤ķà¤®": 5475,
      "à¤¾-à¤Ĥ": 5476,
      "Ġà¤Ńà¤Ĺà¤¤": 5477,
      "à¤·à¤Ĺ": 5478,
      "à¤Ńà¤¡à¤ķ": 5479,
      "Ġà¤µà¤¨à¤¬": 5480,
      "à¤ĸà¤ªà¤¤": 5481,
      "Ġà¤ĸà¤Ľ": 5482,
      "à¤ĺà¤¨à¤ķ": 5483,
      "à¤¤à¤°à¤¨": 5484,
      "à¥«à¥¨": 5485,
      "Ġà¤¬à¤¸à¤¬": 5486,
      "Ġà¤ĩà¤µ": 5487,
      "Ġà¤ħà¤¬à¤²à¤®": 5488,
      "à¤¡à¤²à¤°": 5489,
      "à¤ķà¤Łà¤¸": 5490,
      "à¤¯à¤£à¤®": 5491,
      "à¤ıà¤«à¤ıà¤®": 5492,
      "à¥¨à¥¦à¥¦à¥§": 5493,
      "Ġà¥¦à¥¬à¥¯": 5494,
      "à¥§à¥¯à¥¯à¥ª": 5495,
      "Ġà¤ıà¤«à¤ıà¤®à¤ķ": 5496,
      "à¤ķà¤·à¤ķ": 5497,
      "à¤¦à¤°à¤µ": 5498,
      "à¤ľà¤¬à¤ķ": 5499,
      "à¤·à¤¯à¤¸": 5500,
      "à¤§à¤§à¤°": 5501,
      "à¤ļà¤Ļ": 5502,
      "Ġà¤ħà¤¨à¤ķ": 5503,
      "Ġà¤ħà¤²à¤ķ": 5504,
      "à¤¡à¤Ł": 5505,
      "à¤¡à¤¨à¤¸": 5506,
      "à¤Īà¤µà¤¸": 5507,
      "Ġà¤Ńà¤¨à¤¸": 5508,
      "Ġà¤¸à¤¹à¤µ": 5509,
      "Ġà¤®à¤¨à¤Ńà¤°": 5510,
      "Ġà¤Ĩà¤¯à¤µ": 5511,
      "à¤¸à¤¦à¤µ": 5512,
      "Ġà¤ĵà¤¹à¤¦": 5513,
      "à¤¯à¤°à¤¡": 5514,
      "à¤ĵà¤ıà¤®": 5515,
      "Ġà¤ªà¤¦à¤ļ": 5516,
      "Ġà¤Ĩà¤¦à¤¤": 5517,
      "à¤·à¤¦à¤®": 5518,
      "à¤Ķà¤²": 5519,
      "à¤Ķà¤ľ": 5520,
      "Ġà¤Ĩà¤łà¤¬": 5521,
      "Ġà¥©à¥©à¥¦": 5522,
      "à¤¬à¤°à¤®à¤¹à¤²": 5523,
      "à¤ľà¤Ĺà¤¢à¤ķ": 5524,
      "à¥įà¤ĥ": 5525,
      "à¤¨à¤ĵà¤Ł": 5526,
      "à¤ıà¤Łà¤°à¤®": 5527,
      "à¤¥à¤¨à¤ķ": 5528,
      "Ġà¤ľà¤®à¤²": 5529,
      "Ġà¤Ĩà¤²à¤®à¤²": 5530,
      "à¤¤à¤°à¤Ĺà¤¤à¤ķ": 5531,
      "Ġà¤®à¤¨à¤Ń": 5532,
      "à¥¨à¥¦à¥¨à¥§": 5533,
      "Ġà¤ĵà¤ĸà¤¤": 5534,
      "à¤¶à¤¤à¤Ńà¤¨": 5535,
      "à¤¯à¤µà¤¦": 5536,
      "Ġà¤īà¤®à¤Ļ": 5537,
      "Ġà¤ĺà¤Łà¤¬à¤¢": 5538,
      "Ġà¤¹à¤²à¤¹à¤°": 5539,
      "Ġà¤ħà¤¸à¤°à¤¬": 5540,
      "Ġà¤ªà¤¸à¤²à¤²": 5541,
      "Ġà¤¨à¤Ĺà¤Ī": 5542,
      "à¤¿à¤¿": 5543,
      "à¤®à¤ĺà¤°": 5544,
      "à¤¤à¤¸à¤¹": 5545,
      "à¤µà¤Łà¤²": 5546,
      "Ġà¤°à¤¯": 5547,
      "Ġà¤ľà¤µà¤°à¤ľà¤¸": 5548,
      "à¤°à¤®à¤¶à¤ķ": 5549,
      "Ġà¤ıà¤¡à¤®": 5550,
      "à¤ľà¤¨à¤ħà¤§": 5551,
      "à¤ĺà¤¸à¤¸": 5552,
      "Ġà¤Ĺà¤¤à¤¸": 5553,
      "à¤ĵà¤Ń": 5554,
      "Ġà¤ħà¤ªà¤¹à¤°à¤£à¤ķ": 5555,
      "Ġà¥§à¥®à¥®": 5556,
      "à¤ĩà¤°à¤¸à¤ķ": 5557,
      "à¤Łà¤µà¤²à¤²": 5558,
      "à¤Ĩà¤¶à¤Ļ": 5559,
      "Ġà¤¦à¤¶à¤ķà¤Ńà¤¨": 5560,
      "à¤£à¤¤à¤¯": 5561,
      "à¤Ĩà¤ļà¤°à¤£": 5562,
      "Ġà¥¨à¥¦à¥ªà¥¨": 5563,
      "à¤īà¤ªà¤ķà¤°à¤£à¤¹à¤°": 5564,
      "Ġà¤ħà¤®à¤²à¤¦": 5565,
      "à¥Ľ": 5566,
      "à¥ĩà¤ĥ": 5567,
      "à¤®à¤¸à¤¨": 5568,
      "à¤¤à¤Łà¤¬à¤¨": 5569,
      "à¤µà¤°à¤¹": 5570,
      "Ġà¤ªà¤°à¤ķà¤®": 5571,
      "à¤¬à¤¯": 5572,
      "Ġà¤°à¤¸à¤®": 5573,
      "à¤ļà¤¹": 5574,
      "à¤ħà¤ľà¤¯": 5575,
      "à¤Ĩà¤ªà¤¸": 5576,
      "Ġà¤Łà¤Ļ": 5577,
      "Ġà¤®à¤¹à¤®": 5578,
      "à¤ķà¤°à¤Ń": 5579,
      "à¥Īà¤Ĥà¤ģ": 5580,
      "Ġà¤ļà¤²à¤¨à¤²": 5581,
      "à¤ıà¤¨à¤Ł": 5582,
      "Ġà¤ķà¤²à¤¹": 5583,
      "à¤Ĺà¤®à¤Ĺ": 5584,
      "Ġà¤ľà¤¨à¤ķà¤°": 5585,
      "à¤¤à¤¹à¤Łà¤®": 5586,
      "Ġà¤Ńà¤ĩà¤¨à¤¸à¤ķ": 5587,
      "à¥Ŀ": 5588,
      "à¤¨à¤Łà¤®": 5589,
      "à¤ķà¤¤à¤°": 5590,
      "à¤²à¤¯à¤¤": 5591,
      "à¤µà¤¯à¤²": 5592,
      "à¤¦à¤¸à¤®": 5593,
      "à¤§à¤Ń": 5594,
      "à¤§à¤°à¤¹à¤°": 5595,
      "Ġà¤®à¤¤à¤®": 5596,
      "Ġà¤®à¤ľà¤¸": 5597,
      "à¤ļà¤°à¤¹à¤°": 5598,
      "Ġà¤ıà¤²à¤¸": 5599,
      "Ġà¤ķà¤®à¤²à¤ª": 5600,
      "à¤īà¤ªà¤²": 5601,
      "Ġà¤ħà¤µà¤¸à¤°à¤¬": 5602,
      "Ġà¤ķà¤²à¤Ļ": 5603,
      "Ġà¤Īà¤Łà¤¹à¤°": 5604,
      "Ġà¤ķà¤Łà¤µ": 5605,
      "Ġà¥§à¥¯à¥¯à¥¨": 5606,
      "à¤¾à¥ģ": 5607,
      "à¤ªà¤¦à¤ķ": 5608,
      "à¤Łà¤ªà¤¤": 5609,
      "à¤¶à¤¯à¤®": 5610,
      "à¤Ńà¤ĩà¤¨": 5611,
      "à¤īà¤¥à¤²à¤ª": 5612,
      "Ġà¤ħà¤ªà¤¦à¤¸": 5613,
      "Ġà¤ľà¤ľ": 5614,
      "à¤¯à¤ķà¤Ĺ": 5615,
      "Ġà¤ĸà¤²à¤¬à¤²": 5616,
      "à¤Ļà¤«": 5617,
      "à¤Ĩà¤īà¤¦": 5618,
      "à¤°à¤£à¤µà¤¶": 5619,
      "Ġà¤ĺà¤¸": 5620,
      "à¤Ŀà¤²à¤¨": 5621,
      "Ġà¥§à¥©à¥¬": 5622,
      "Ġà¥§à¥Ńà¥«": 5623,
      "à¤µà¤¯à¤®à¤¸": 5624,
      "Ġà¤ĵà¤Ńà¤°à¤¸": 5625,
      "Ġà¥¦à¥¬à¥§": 5626,
      "Ġà¥¨à¥¦à¥©à¥¬": 5627,
      "Ġà¥§à¥¯à¥®à¥¦": 5628,
      "à¤¿à¥ģ": 5629,
      "à¤¤à¤¥à¤²": 5630,
      "à¤Ĺà¤µà¤£": 5631,
      "à¤¬à¤¤à¤®": 5632,
      "à¤ĩà¤ªà¤ķ": 5633,
      "Ġà¤ıà¤¯à¤°à¤µ": 5634,
      "à¤ªà¤°à¤¶": 5635,
      "Ġà¤ħà¤¨à¤ª": 5636,
      "à¤°à¤¹à¤£à¤ķ": 5637,
      "Ġà¤ıà¤ķà¤Ľà¤¤": 5638,
      "Ġà¤ķà¤°à¤¨": 5639,
      "à¤¸à¤²à¤°": 5640,
      "à¤²à¤Ĺà¤ĩà¤¨": 5641,
      "Ġà¤ħà¤µà¤¸à¤°à¤µ": 5642,
      "Ġà¤ķà¤²à¤¸": 5643,
      "Ġà¤Ķà¤·": 5644,
      "Ġà¤ıà¤¨à¤Ł": 5645,
      "Ġà¤®à¤Ĺà¤°à¤¹à¤°": 5646,
      "Ġà¤¦à¤¶à¤ķà¤¯à¤¤": 5647,
      "Ġà¤Ńà¤°à¤¤à¤°": 5648,
      "Ġà¥¨à¥¦à¥ªà¥¦": 5649,
      "Ġà¤ıà¤¸à¤ĩà¤Ī": 5650,
      "à¤ľà¤¨à¤®à¤¤à¤¸": 5651,
      "à¤¿à¥Ģ": 5652,
      "à¤¸à¤µà¤¸": 5653,
      "à¤¹à¤Ļ": 5654,
      "à¤¹à¤¨à¤²": 5655,
      "à¤Ĺà¤ªà¤ŀ": 5656,
      "à¤ľà¤°à¤Ń": 5657,
      "Ġà¤¨à¤ł": 5658,
      "à¤Ńà¤·": 5659,
      "à¥Ģ-à¥ĩ": 5660,
      "Ġà¤īà¤µ": 5661,
      "à¤ħà¤ªà¤ķ": 5662,
      "à¤°à¤®à¤Ń": 5663,
      "à¤łà¤Ł": 5664,
      "à¤¸à¤¹à¤ľà¤¤": 5665,
      "Ġà¤ĵà¤ĸ": 5666,
      "Ġà¤ĵà¤łà¤®": 5667,
      "Ġà¤ĵà¤ķà¤²": 5668,
      "à¤ĩà¤²à¤Łà¤²": 5669,
      "à¤ħà¤µà¤¸à¤°à¤µ": 5670,
      "à¤ľà¤®à¤¸": 5671,
      "Ġà¥§à¥§à¥Ń": 5672,
      "Ġà¥§à¥¯à¥¬à¥¦": 5673,
      "Ġà¤Īà¤·": 5674,
      "Ġà¤µà¤¨à¤ľ": 5675,
      "à¤ĩà¤ľà¤¹": 5676,
      "Ġà¥¨à¥Ńà¥«": 5677,
      "à¤Ĭà¤¦": 5678,
      "à¤«à¤°à¤ķà¤«à¤°à¤ķ": 5679,
      "Ġà¤Ĺà¤¢à¤µ": 5680,
      "à¤¨à¤ĺ": 5681,
      "à¤¤à¤ľà¤¨à¤²": 5682,
      "à¤ľà¤²à¤¯": 5683,
      "Ġà¤¬à¤¨à¤ķ": 5684,
      "à¤¶à¤ªà¤¥": 5685,
      "à¤ıà¤ķà¤ª": 5686,
      "Ġà¤ıà¤ªà¤²": 5687,
      "à¤ĺà¤®à¤£": 5688,
      "à¤ŀà¤®": 5689,
      "Ġà¤ľà¤¨à¤ĺà¤¨à¤¤": 5690,
      "à¤ĩà¤¨à¤Ń": 5691,
      "Ġà¤Ńà¤¯à¤°à¤¹": 5692,
      "Ġà¥§à¥§à¥©à¥¯": 5693,
      "Ġà¥§à¥Ńà¥¦": 5694,
      "Ġà¥¨à¥¨à¥«": 5695,
      "Ġà¤Ńà¤µà¤¨à¤¬": 5696,
      "Ġà¤ľà¤²à¤¶": 5697,
      "Ġà¤ĸà¤Łà¤ªà¤Ł": 5698,
      "Ġà¤ķà¤¦à¤®à¤¹à¤°": 5699,
      "Ġà¥¨à¥¦à¥ªà¥©": 5700,
      "à¤Ĺà¤ļà¤²à¤¨": 5701,
      "à¤®à¤¯à¤ķ": 5702,
      "à¤¤à¤¹à¤®": 5703,
      "Ġà¤Ńà¤ĩà¤¯": 5704,
      "Ġà¤¨à¤Ŀ": 5705,
      "Ġà¤¤à¤Łà¤®": 5706,
      "à¤Īà¤Łà¤®": 5707,
      "à¤ĸà¤Ń": 5708,
      "Ġà¤Ĩà¤µà¤°": 5709,
      "Ġà¤ĸà¤¬à¤°à¤ķ": 5710,
      "à¤°à¤¹à¤¯": 5711,
      "Ġà¤¯à¤¸à¤Ń": 5712,
      "à¤°à¤¸à¤µ": 5713,
      "Ġà¤¡à¤Ĺ": 5714,
      "à¤ķà¤²à¤²": 5715,
      "à¤¸à¤²à¤§": 5716,
      "à¤µà¤°à¤£à¤¹à¤°": 5717,
      "Ġà¤ļà¤°à¤¨": 5718,
      "Ġà¤ıà¤®à¤ıà¤¸": 5719,
      "à¤°à¤ªà¤Łà¤ķ": 5720,
      "Ġà¤§à¤¨à¤§": 5721,
      "à¤®à¤¬à¤¦": 5722,
      "Ġà¤¸à¤°à¤²à¤¤": 5723,
      "Ġà¥§à¥¯à¥¯à¥«": 5724,
      "à¤ĩà¤«à¤¸": 5725,
      "à¤ıà¤ļà¤ĵ": 5726,
      "à¥Ńà¥¬à¥®": 5727,
      "à¤¨à¤¯à¤¨à¤®": 5728,
      "à¥¦à¥¬à¥®": 5729,
      "Ġà¤Ĥ": 5730,
      "à¤°à¤²à¤ķ": 5731,
      "à¤¤à¤¹à¤ķ": 5732,
      "à¤¸à¤ļà¤¨": 5733,
      "à¤µà¤ªà¤ķ": 5734,
      "à¤Ĺà¤ĸ": 5735,
      "à¤Ĺà¤¤à¤°": 5736,
      "à¤ıà¤ĩ": 5737,
      "à¤ıà¤Ĩà¤°": 5738,
      "Ġà¤Ńà¤·": 5739,
      "à¤ħà¤Ĺà¤®": 5740,
      "à¤ħà¤ªà¤¹": 5741,
      "Ġà¤¶à¤¸": 5742,
      "à¤¨à¤ķà¤¤": 5743,
      "à¤¯à¤¤à¤¹": 5744,
      "à¥Įà¤Ĥà¤ģ": 5745,
      "à¤²à¤®à¤¤": 5746,
      "Ġà¤ķà¤®à¤²à¤ķ": 5747,
      "à¤®à¤¹à¤µ": 5748,
      "à¤ªà¤ķà¤¹à¤°": 5749,
      "Ġà¥§à¥¦à¥Ń": 5750,
      "Ġà¥§à¥¦à¥§à¥¨": 5751,
      "Ġà¤ªà¤¦à¤µ": 5752,
      "Ġà¥§à¥¨à¥§": 5753,
      "à¤®à¤¸à¤Ļ": 5754,
      "Ġà¤¸à¤²à¤¹": 5755,
      "à¥¦à¥Ńà¥¨à¥Ńà¥©": 5756,
      "Ġà¤ıà¤«à¤¡": 5757,
      "à¥¨à¥¦à¥ªà¥«": 5758,
      "à¥§à¥¯à¥¯à¥«": 5759,
      "à¥§à¥¯à¥®à¥¦": 5760,
      "à¤īà¤ªà¤¦à¤«": 5761,
      "à¤®à¤¬à¤ľ": 5762,
      "à¤¹à¤¸à¤®": 5763,
      "à¤¦à¤¯à¤²": 5764,
      "à¤ıà¤²à¤²": 5765,
      "Ġà¤¨à¤¡à¤°": 5766,
      "à¤ģà¤ģ": 5767,
      "à¤ħà¤ļà¤²": 5768,
      "à¤ħà¤ªà¤²": 5769,
      "Ġà¤ļà¤ĸ": 5770,
      "Ġà¤ħà¤¨à¤§": 5771,
      "à¤¯à¤®à¤¦": 5772,
      "Ġà¤®à¤¹à¤µà¤ķ": 5773,
      "à¥ªà¥¦à¥¦": 5774,
      "Ġà¥§à¥¦à¥§à¥«": 5775,
      "à¥¨à¥¦à¥Ńà¥¬": 5776,
      "à¥¨à¥¦à¥Ńà¥¨à¥¦": 5777,
      "à¤°à¤ªà¤Ł": 5778,
      "ĠĠĠĠĠĠĠĠĠčĊ": 5779,
      "ĠĠĠĠĠĠĠĠĠĠĠĠĠĠĠĠĠĠĠ": 5780,
      "à¤®à¤°à¤£à¤®": 5781,
      "Ġà¥©à¥¬à¥¦": 5782,
      "à¤ļà¤¨à¤ķà¤µà¤²": 5783,
      "Ġà¥§à¥¯à¥®à¥¯": 5784,
      "à¥¦à¥Ńà¥ªà¥¦à¥Ńà¥«": 5785,
      "à¤°à¤Ĺà¤°": 5786,
      "à¤¨à¤·": 5787,
      "à¤ķà¤ķà¤®": 5788,
      "à¤²à¤µà¤®": 5789,
      "à¤¤à¤ĭà¤·": 5790,
      "à¤ľà¤Ńà¤¤": 5791,
      "à¤ľà¤µà¤°à¤ľà¤¸": 5792,
      "Ġà¤¬à¤¹à¤ķ": 5793,
      "à¤§à¤ķà¤ķ": 5794,
      "à¤Ńà¤ª": 5795,
      "Ġà¤ħà¤¸à¤®à¤Ŀà¤¦": 5796,
      "à¤¡à¤®à¤ķ": 5797,
      "Ġà¤¦à¤²à¤¬à¤¹": 5798,
      "Ġà¤Ĩà¤¸à¤¨à¤®": 5799,
      "à¤ĩà¤ķà¤ķ": 5800,
      "à¤ĩà¤¤à¤²": 5801,
      "Ġà¤ıà¤ªà¤ķ": 5802,
      "Ġà¤®à¤¹à¤²à¤®": 5803,
      "à¤µà¤¨à¤°": 5804,
      "Ġà¤Ńà¤¯à¤Ń": 5805,
      "Ġà¤¦à¤°à¤µà¤¨": 5806,
      "à¤ľà¤²à¤¶": 5807,
      "à¤Ĺà¤®à¤¨à¤²": 5808,
      "Ġà¥¨à¥©à¥¦": 5809,
      "Ġà¤Ĩà¤Īà¤¸à¤ķ": 5810,
      "à¤Ĩà¤ĩà¤ıà¤¸": 5811,
      "à¤Īà¤¸à¤¯": 5812,
      "à¥§à¥¯à¥¯à¥¬": 5813,
      "à¤¯à¤ªà¤Ľ": 5814,
      "à¤¸à¤¡à¤°": 5815,
      "Ġà¤Ĺà¤ľà¤¬": 5816,
      "Ġà¤Ńà¤®": 5817,
      "Ġà¤¤à¤²à¤¤": 5818,
      "Ġà¤Ĩà¤¸à¤®": 5819,
      "Ġà¤²à¤¥": 5820,
      "Ġà¤¯à¤²": 5821,
      "à¤ķà¤°à¤¶": 5822,
      "à¤®à¤¤à¤Ń": 5823,
      "Ġà¤Ŀà¤ª": 5824,
      "à¤¡à¤ķà¤Ńà¤¡à¤ķ": 5825,
      "Ġà¥§à¥¦à¥§à¥¦": 5826,
      "à¤ªà¤¹à¤²à¤ķà¤¦à¤®": 5827,
      "Ġà¤ıà¤¸à¤¡": 5828,
      "Ġà¤Ĺà¤£à¤¤": 5829,
      "à¤Łà¤¬à¤²à¤²": 5830,
      "Ġà¥«à¥«à¥¦": 5831,
      "à¤¥à¤ªà¤°à¤ķ": 5832,
      "Ġà¤Ĩà¤Ĺà¤®à¤¨à¤²": 5833,
      "à¤Ĺà¤Ńà¤Ļ": 5834,
      "-à¤Ĥ-": 5835,
      "à¤²à¤µà¤°": 5836,
      "à¤µà¤£à¤ķ": 5837,
      "à¤ıà¤¦": 5838,
      "à¤·à¤ªà¤¹": 5839,
      "Ġà¤®à¤ª": 5840,
      "à¤¡à¤ªà¤®": 5841,
      "à¤łà¤¨à¤®": 5842,
      "Ġà¤ıà¤Ļ": 5843,
      "Ġà¤¯à¤¸à¤¬à¤°": 5844,
      "à¤®à¤ķà¤¹": 5845,
      "Ġà¤®à¤¨à¤¬à¤¹": 5846,
      "à¤§à¤¨à¤¸à¤®": 5847,
      "Ġà¤ĵà¤®à¤ķ": 5848,
      "à¤¨à¤¸à¤¯": 5849,
      "Ġà¤ıà¤®à¤ĵà¤¯": 5850,
      "Ġà¤ħà¤«à¤µ": 5851,
      "Ġà¤¬à¤ļà¤¤à¤®": 5852,
      "Ġà¥§à¥®à¥¯": 5853,
      "Ġà¥¨à¥§à¥Ń": 5854,
      "à¤ħà¤Ĺà¤·": 5855,
      "à¤Ĩà¤®à¤ľà¤¨à¤¤": 5856,
      "à¥§à¥¯à¥¬à¥¬": 5857,
      "ĠĠĠĠĠĠĠĠĠĠĠĠĠĠĠĠĠĠĠĠĠĠĠĠĠĠ": 5858,
      "à¤°à¤²à¤¯": 5859,
      "à¤°à¤ľà¤ķ": 5860,
      "à¤ķà¤ħà¤¨": 5861,
      "à¤²à¤ªà¤ķ": 5862,
      "à¤¯à¤¯à¤ķ": 5863,
      "à¤µà¤¯à¤¸": 5864,
      "à¤Ĺà¤«à¤²": 5865,
      "à¥Ĥà¤ģ-": 5866,
      "Ġà¤Ĩà¤¥": 5867,
      "Ġà¤²à¤«à¤¡": 5868,
      "à¤ĩà¤ªà¤Ľ": 5869,
      "à¤ħà¤¸à¤ķ": 5870,
      "à¤«à¤°à¤®": 5871,
      "Ġà¤¸à¤®à¤Ŀ": 5872,
      "à¤Ĺà¤°à¤£à¤ķ": 5873,
      "Ġà¤¯à¤¸à¤¦": 5874,
      "à¤®à¤¨à¤¬à¤¹": 5875,
      "à¤¯à¤¨à¤°à¤¤": 5876,
      "à¤ķà¤°à¤¬à¤°": 5877,
      "à¤ĵà¤¡": 5878,
      "Ġà¤Ĩà¤®à¤¸à¤ŀ": 5879,
      "Ġà¤ħà¤ªà¤Ń": 5880,
      "Ġà¤ħà¤ªà¤ľà¤¸": 5881,
      "Ġà¥§à¥¯à¥¬à¥¬": 5882,
      "Ġà¤¸à¤ľà¤Ĺà¤¤": 5883,
      "Ġà¥§à¥©à¥®": 5884,
      "à¤Ńà¤ıà¤¤": 5885,
      "Ġà¤«à¤°à¤ķà¤®": 5886,
      "Ġà¤Ĩà¤ĩà¤¹": 5887,
      "à¤¨à¤Ńà¤ıà¤°": 5888,
      "Ġà¥¦à¥¬à¥®": 5889,
      "Ġà¥¨à¥¦à¥©à¥«": 5890,
      "à¤°à¤°à¤¹": 5891,
      "à¤°à¤ħà¤¨": 5892,
      "à¤¸à¤ıà¤®": 5893,
      "à¤¦à¤¬à¤²": 5894,
      "Ġà¤¹à¤Ĺ": 5895,
      "à¤Ńà¤²à¤®": 5896,
      "à¤Īà¤Ī": 5897,
      "Ġà¤Ĩà¤²à¤¸": 5898,
      "à¤¯à¤¸à¤ŀ": 5899,
      "Ġà¤¤à¤°à¤¬": 5900,
      "à¤µà¤¨à¤¦": 5901,
      "Ġà¤¬à¤¸à¤¸": 5902,
      "à¥Įà¤Ĥ-à¤ģ": 5903,
      "Ġà¤īà¤¨à¤¬": 5904,
      "à¤¸à¤¹à¤ļ": 5905,
      "à¤¶à¤¨à¤ªà¤Ľ": 5906,
      "Ġà¤Ŀà¤®à¤ķ": 5907,
      "Ġà¤¸à¤¯à¤¸à¤®": 5908,
      "Ġà¤¸à¤®à¤¯à¤¬": 5909,
      "Ġà¤Ĩà¤īà¤¨à¤ķ": 5910,
      "Ġà¤¦à¤²à¤Ń": 5911,
      "à¤ıà¤¸à¤ıà¤¸": 5912,
      "Ġà¥§à¥¨à¥¬": 5913,
      "Ġà¥§à¥¨à¥¦à¥¦": 5914,
      "Ġà¤ħà¤ªà¤ļ": 5915,
      "à¤¯à¤£à¤¸": 5916,
      "Ġà¤¸à¤¹à¤ľà¤ķà¤°": 5917,
      "à¥§à¥¯à¥¬à¥¦": 5918,
      "Ġà¤ĭà¤£à¤¬": 5919,
      "Ġà¤ļà¤¯à¤¨à¤®": 5920,
      "Ġà¤¯à¤®à¤¨à¤ķ": 5921,
      "Ġà¤¨à¤Ĩà¤ĵà¤¸": 5922,
      "à¤°à¤ł": 5923,
      "à¤®à¤§à¤¨": 5924,
      "à¤®à¤µà¤¤": 5925,
      "à¤¸à¤Ńà¤¨": 5926,
      "à¤Łà¤Ľ": 5927,
      "à¤ıà¤Ĩà¤Īà¤ľ": 5928,
      "à¤§à¤¡": 5929,
      "à¤Īà¤¨à¤ķ": 5930,
      "Ġà¤¦à¤¹à¤¨": 5931,
      "à¤°à¤¤à¤ª": 5932,
      "à¤Ĩà¤ĩà¤ķ": 5933,
      "Ġà¤Łà¤£": 5934,
      "à¥¯à¥ª": 5935,
      "Ġà¥§à¥©à¥ª": 5936,
      "à¤ħà¤ªà¤¡": 5937,
      "Ġà¥¨à¥§à¥¦": 5938,
      "à¤¼à¥Ģ": 5939,
      "Ġà¥Ńà¥ªà¥ª": 5940,
      "Ġà¥¦à¥ªà¥®": 5941,
      "à¤¨à¤µà¤²à¤ª": 5942,
      "à¤ķà¤µà¤°": 5943,
      "à¤¸à¤ıà¤ķ": 5944,
      "à¤¹à¤Ĺ": 5945,
      "à¤µà¤¬à¤ľ": 5946,
      "Ġà¤¬à¤²à¤¬": 5947,
      "à¤§à¤Ĺà¤¯": 5948,
      "Ġà¤Ĺà¤°à¤¯": 5949,
      "Ġà¤¹à¤°à¤ķ": 5950,
      "à¤Ńà¤ľà¤¨": 5951,
      "à¤ļà¤ķà¤®": 5952,
      "à¤ĩà¤²à¤¨": 5953,
      "Ġà¤¸à¤®à¤¶": 5954,
      "à¤¸à¤®à¤¯à¤ķ": 5955,
      "à¤¯à¤ķà¤¬": 5956,
      "Ġà¤¶à¤ª": 5957,
      "à¥®à¥©": 5958,
      "à¥¨à¥¦à¥¨à¥®": 5959,
      "à¤¨à¤¸à¤ĸà¤£": 5960,
      "Ġà¤¸à¤°à¤°": 5961,
      "à¤¦à¤ķà¤¹à¤°": 5962,
      "à¤·à¤¯à¤¬": 5963,
      "Ġà¤ħà¤«à¤¸": 5964,
      "Ġà¤Ĩà¤īà¤¥": 5965,
      "Ġà¤Īà¤Ń": 5966,
      "Ġà¥©à¥¬à¥«": 5967,
      "à¤ĭà¤Ĺ": 5968,
      "Ġà¤Ĺà¤ľà¤²à¤¹à¤°": 5969,
      "ĠĠĠĠĠĠĠĠĠĠĠĠĠĠĠčĊ": 5970,
      "Ġà¥¦à¥«à¥¬": 5971,
      "à¤®à¤¢": 5972,
      "à¤µà¤ıà¤®": 5973,
      "à¤ıà¤ħà¤°": 5974,
      "à¤īà¤ŀ": 5975,
      "à¤Ľà¤¯": 5976,
      "à¤£à¤ľ": 5977,
      "Ġà¤Ĩà¤Ĺà¤®à¤¨à¤ķ": 5978,
      "à¤ĩà¤ħà¤ķ": 5979,
      "à¤ħà¤«à¤°": 5980,
      "à¤«à¤²à¤ķ": 5981,
      "Ġà¤ĸà¤¶": 5982,
      "Ġà¤ħà¤¨à¤¶à¤¨à¤ķ": 5983,
      "Ġà¤ĺà¤¤": 5984,
      "à¤¤à¤°à¤Ĺ": 5985,
      "à¤Ŀà¤²à¤ķ": 5986,
      "à¤¯à¤®à¤µ": 5987,
      "à¤°à¤¸à¤¬": 5988,
      "à¤¸à¤¨à¤¸à¤¤": 5989,
      "Ġà¤ªà¤¹à¤²à¤ķ": 5990,
      "Ġà¥«à¥§à¥¨": 5991,
      "Ġà¤¸à¤¯à¤µà¤Ł": 5992,
      "Ġà¤ħà¤®à¤°à¤¸": 5993,
      "à¤ıà¤®à¤ª": 5994,
      "à¤¡à¤²à¤¹à¤°": 5995,
      "Ġà¥§à¥¨à¥©": 5996,
      "Ġà¤ıà¤¨à¤Ĩà¤ĩà¤¸": 5997,
      "à¤ªà¤£à¤ķ": 5998,
      "à¥§à¥¯à¥Ńà¥¦": 5999,
      "Ġà¤Ĩà¤ıà¤Ľ": 6000,
      "ĠĠĠĠĠĠĠĠĠĠĠĠĠĠĠĠĠĠĠĠĠĠ": 6001,
      "à¥¨à¥¦à¥Ńà¥©à¥¦": 6002,
      "Ġà¤ıà¤¨à¤Ĩà¤°à¤ıà¤¨à¤ıà¤ķ": 6003,
      "à¥§à¥¯à¥¯à¥©": 6004,
      "à¤ĸà¤¤à¤°à¤¨": 6005,
      "à¤µà¤¸à¤¹à¤®à¤¤": 6006,
      "à¤°à¤ľà¤²": 6007,
      "à¤µà¤¤à¤°": 6008,
      "à¤µà¤ħà¤ĺ": 6009,
      "à¤¥à¤ķà¤ķ": 6010,
      "à¤ıà¤ķà¤ļ": 6011,
      "Ġà¤ħà¤ľà¤®": 6012,
      "Ġà¤¤à¤Ļ": 6013,
      "Ġà¤īà¤łà¤¨": 6014,
      "à¤ħà¤ķà¤²": 6015,
      "à¤°à¤ķà¤°à¤£à¤²": 6016,
      "Ġà¤¥à¤µ": 6017,
      "à¤ĺà¤°à¤µ": 6018,
      "Ġà¤ľà¤¨à¤Ĺ": 6019,
      "Ġà¤¡à¤ļ": 6020,
      "Ġà¤¡à¤®à¤°": 6021,
      "à¤ķà¤®à¤²à¤ª": 6022,
      "à¤¨à¤®à¤Ĺà¤°": 6023,
      "à¤¸à¤²à¤Ł": 6024,
      "Ġà¤ĵà¤¯": 6025,
      "Ġà¤¨à¤Ĺà¤°à¤Ń": 6026,
      "à¤¹à¤ķà¤ħà¤§": 6027,
      "Ġà¤Ĳà¤°à¤²": 6028,
      "Ġà¤ħà¤ªà¤ļà¤²à¤¨": 6029,
      "à¥ĩà¤Ĥà¤ģ": 6030,
      "Ġà¥ªà¥«à¥¬": 6031,
      "à¤ıà¤«à¤ıà¤ķ": 6032,
      "à¥§à¥¨à¥«": 6033,
      "Ġà¥¦à¥¬à¥«": 6034,
      "Ġà¥¨à¥¦à¥©à¥©": 6035,
      "à¤®à¤Ľà¤®": 6036,
      "à¤¨à¤µà¤¸": 6037,
      "à¤¨à¤¬à¤°": 6038,
      "à¤¨à¤°à¤µà¤²": 6039,
      "à¤¸à¤¢": 6040,
      "à¤¹à¤¡à¤¤": 6041,
      "à¤Łà¤Ńà¤¨": 6042,
      "Ġà¤¦à¤¸à¤®": 6043,
      "Ġà¤¦à¤¸à¤ķ": 6044,
      "à¤ħà¤¸à¤°": 6045,
      "Ġà¤«à¤Ľ": 6046,
      "Ġà¤ĺà¤¨à¤¤": 6047,
      "Ġà¤ªà¤¤à¤ŀ": 6048,
      "Ġà¤¢à¤²à¤ķ": 6049,
      "à¤¨à¤µà¤ª": 6050,
      "Ġà¤Ĳà¤ķ": 6051,
      "Ġà¥§à¥Ńà¥©": 6052,
      "à¤ªà¤¸à¤²à¤®": 6053,
      "Ġà¤Ĳà¤¨à¤¹à¤°": 6054,
      "à¤®à¤Ĺà¤°à¤ķ": 6055,
      "à¥¨à¥¦à¥¬à¥¨à¥¦à¥¬à¥©": 6056,
      "à¤Ńà¤²à¤ªà¤°": 6057,
      "à¤¤à¤¹à¤¸à¤®": 6058,
      "Ġà¤Ľà¤°à¤Ľ": 6059,
      "Ġà¥¦à¥«à¥¯": 6060,
      "Ġà¤¨à¤ľà¤°à¤ħà¤¨": 6061,
      "-à¤¾à¤Ĥ": 6062,
      "à¤ķà¤¯": 6063,
      "à¤ķà¤ªà¤¨": 6064,
      "à¤®à¤Ńà¤¨": 6065,
      "à¤¸à¤¥": 6066,
      "à¤¸à¤ł": 6067,
      "à¤¦à¤ľ": 6068,
      "Ġà¤®à¤Ĺà¤¨": 6069,
      "Ġà¤¦à¤ĸà¤²": 6070,
      "Ġà¤Ĩà¤ªà¤¨": 6071,
      "Ġà¤¯à¤®à¤¨à¤®": 6072,
      "à¤ĩà¤²à¤¬": 6073,
      "à¤ĩà¤°à¤¨": 6074,
      "Ġà¤ĸà¤²à¤¨": 6075,
      "à¤Ĩà¤°à¤¬": 6076,
      "Ġà¤«à¤°à¤®": 6077,
      "Ġà¤ĺà¤¨à¤®": 6078,
      "Ġà¤§à¤®à¤¨": 6079,
      "Ġà¤ľà¤¨à¤¸à¤Ń": 6080,
      "Ġà¤¡à¤°à¤ķ": 6081,
      "à¤ķà¤²à¤Ļ": 6082,
      "Ġà¤łà¤£": 6083,
      "à¤®à¤¹à¤¶": 6084,
      "Ġà¤¸à¤¬à¤¥": 6085,
      "Ġà¥©à¥¨à¥¦": 6086,
      "à¤¡à¤ķà¤ªà¤ķ": 6087,
      "à¥¨à¥¦à¥©à¥ª": 6088,
      "à¤¤à¤²à¤¤": 6089,
      "à¤ľà¤Ĺà¤¦à¤®": 6090,
      "Ġà¤°à¤ķà¤®à¤¸à¤¹": 6091,
      "Ġà¤ħà¤²à¤°": 6092,
      "à¤Ĩà¤Īà¤ıà¤¨à¤ľ": 6093,
      "à¤¤à¤µà¤¨à¤¬": 6094,
      "à¤Ĩà¤¦à¤°à¤£": 6095,
      "à¤ıà¤«à¤ı": 6096,
      "Ġà¥¦à¥¬à¥¨": 6097,
      "Ġà¥¨à¥¦à¥©à¥®": 6098,
      "Ġà¤Ĩà¤Ĺà¤®à¤¨à¤®": 6099,
      "à¤®à¤ªà¤Ľ": 6100,
      "à¤¤à¤¬à¤®": 6101,
      "à¥ģà¥ģà¤ģ": 6102,
      "à¤ªà¤ħà¤¨": 6103,
      "à¤¦à¤µà¤¸": 6104,
      "Ġà¤¸à¤¸à¤®": 6105,
      "à¤ıà¤Ļ": 6106,
      "à¤ıà¤²à¤¬": 6107,
      "Ġà¤ķà¤µà¤°": 6108,
      "Ġà¤°à¤Ĺ": 6109,
      "Ġà¤°à¤¶à¤®": 6110,
      "Ġà¤¨à¤µà¤²": 6111,
      "à¤¶à¤¸à¤®": 6112,
      "à¤¥à¤°à¤®": 6113,
      "à¤ĩà¤¤à¤ķ": 6114,
      "à¤ĩà¤ªà¤°à¤¬": 6115,
      "à¤ħà¤¸à¤¹à¤¯": 6116,
      "à¤¸à¤®à¤·": 6117,
      "Ġà¤ıà¤ıà¤«à¤ª": 6118,
      "à¥¦à¥¯": 6119,
      "à¤ħà¤¨à¤Ĺ": 6120,
      "à¤²à¤¨à¤ªà¤Ľ": 6121,
      "à¤µà¤¨à¤µ": 6122,
      "Ġà¤¹à¤ľà¤°": 6123,
      "à¥¨à¥¦à¥©à¥«": 6124,
      "à¤¨à¤Ĺà¤°à¤ªà¤°": 6125,
      "à¤ıà¤¨à¤ıà¤¸": 6126,
      "Ġà¤ªà¤¦à¤®à¤ª": 6127,
      "Ġà¥§à¥¨à¥¨": 6128,
      "Ġà¤ĭà¤Ĺ": 6129,
      "Ġà¤Ĩà¤łà¤ľà¤¨": 6130,
      "à¤ıà¤²à¤ľ": 6131,
      "Ġà¤ıà¤²à¤Īà¤¡": 6132,
      "Ġà¤¸à¤°à¤¸à¤²": 6133,
      "Ġà¤ħà¤ľà¤¯à¤²": 6134,
      "Ġà¥¦à¥Ńà¥¬": 6135,
      "à¤«à¤¸à¤²à¤ķ": 6136,
      "à¤²à¤ĸà¤¨": 6137,
      "à¤®à¤¤à¤°": 6138,
      "à¤¸à¤ľà¤¸": 6139,
      "à¤¸à¤ıà¤ª": 6140,
      "à¤Ĺà¤²à¤Ĺ": 6141,
      "à¤Łà¤īà¤ªà¤Ĺ": 6142,
      "à¤ľà¤µà¤²": 6143,
      "Ġà¤°à¤£à¤¬": 6144,
      "à¤Īà¤¬à¤¸": 6145,
      "à¤Īà¤°à¤¹à¤¨": 6146,
      "à¤Īà¤Łà¤¹à¤°": 6147,
      "à¤ĸà¤µ": 6148,
      "à¤«à¤°à¤µ": 6149,
      "à¤°à¤ķà¤¹à¤°": 6150,
      "Ġà¤ļà¤ŀ": 6151,
      "Ġà¤ħà¤¨à¤¸à¤¨à¤®": 6152,
      "Ġà¤°à¤¹à¤¨à¤ķ": 6153,
      "Ġà¤¤à¤°à¤µ": 6154,
      "à¤Łà¤ķà¤¹à¤°": 6155,
      "Ġà¤®à¤¨à¤¬": 6156,
      "à¤¡à¤ķà¤ķ": 6157,
      "Ġà¤ĵà¤ĩà¤²": 6158,
      "Ġà¤ĸà¤°à¤¨": 6159,
      "Ġà¥§à¥«à¥¬": 6160,
      "à¤Ķà¤§": 6161,
      "à¤¡à¤®à¤Ľ": 6162,
      "Ġà¤ļà¤°à¤£à¤¬à¤¦": 6163,
      "Ġà¥§à¥¬à¥¨": 6164,
      "Ġà¥¨à¥§à¥®": 6165,
      "Ġà¥¨à¥Ńà¥¦": 6166,
      "Ġà¥©à¥¨à¥«": 6167,
      "à¥¨à¥¦à¥«à¥©": 6168,
      "Ġà¤ľà¤¯à¤¬à¤¹": 6169,
      "à¥§à¥¯à¥®à¥¬": 6170,
      "à¤ħà¤²à¤Ĺà¤ħà¤²à¤Ĺ": 6171,
      "à¤¤à¤²à¤¬à¤Ńà¤¤": 6172,
      "Ġà¤ľà¤®à¤ĺà¤Łà¤®": 6173,
      "à¤ķà¤¸à¤²": 6174,
      "à¤ķà¤¥à¤°": 6175,
      "à¤²à¤¸à¤ķ": 6176,
      "à¤¯à¤Ĺà¤°": 6177,
      "à¤¹à¤¤à¤®": 6178,
      "à¤Łà¤¸à¤ķ": 6179,
      "Ġà¤ķà¤ªà¤¨": 6180,
      "Ġà¤¨à¤°à¤¦": 6181,
      "à¤§à¤µà¤²": 6182,
      "Ġà¤®à¤°à¤®": 6183,
      "à¤Īà¤¤à¤²": 6184,
      "à¤£à¤ĸ": 6185,
      "à¤£à¤¯à¤¨": 6186,
      "Ġà¤ľà¤µà¤°": 6187,
      "Ġà¤Ĩà¤¹à¤¤": 6188,
      "à¤¹à¤°à¤ª": 6189,
      "à¤ħà¤¶à¤ķ": 6190,
      "à¤«à¤¹à¤°": 6191,
      "à¤Ĺà¤°à¤ª": 6192,
      "à¤Ĺà¤°à¤Ĺà¤¹à¤¨": 6193,
      "à¤Ĩà¤¯à¤¸": 6194,
      "Ġà¤ıà¤ķà¤¦à¤²": 6195,
      "Ġà¤Ńà¤ıà¤¬": 6196,
      "Ġà¤Ńà¤ıà¤Ŀ": 6197,
      "Ġà¤Ńà¤ıà¤Ńà¤°à¤ķ": 6198,
      "à¤¤à¤ķà¤¤": 6199,
      "à¤µà¤¶à¤¤": 6200,
      "Ġà¤ļà¤²à¤ħà¤ļà¤²": 6201,
      "à¤¹à¤¨à¤¤à¤ķ": 6202,
      "Ġà¤ķà¤²à¤°à¤ķ": 6203,
      "Ġà¤Ķà¤ķ": 6204,
      "à¤Ĩà¤°à¤Ĩà¤°": 6205,
      "Ġà¤¸à¤¤à¤¹à¤¦": 6206,
      "Ġà¥¨à¥¦à¥Ńà¥¬": 6207,
      "à¤Ĭà¤®": 6208,
      "à¤ªà¤Łà¤²à¤®": 6209,
      "Ġà¤²à¤ĸà¤¨à¤ī": 6210,
      "Ġà¤Łà¤¨à¤ķà¤ª": 6211,
      "à¤¹à¤®à¤²": 6212,
      "à¤µà¤ľà¤¸": 6213,
      "à¤µà¤µà¤¤": 6214,
      "à¤Ĺà¤µà¤¨": 6215,
      "Ġà¤ªà¤ľ": 6216,
      "Ġà¤Ĺà¤ıà¤¸": 6217,
      "Ġà¤¨à¤µà¤ª": 6218,
      "Ġà¤Ľà¤°à¤ªà¤¸": 6219,
      "à¤Ńà¤µà¤®": 6220,
      "à¤ļà¤¤à¤°": 6221,
      "Ġà¤¤à¤¡": 6222,
      "à¤Ĩà¤Īà¤²": 6223,
      "à¤¨à¤®à¤²": 6224,
      "Ġà¤ħà¤¸à¤Ń": 6225,
      "à¤īà¤ªà¤§": 6226,
      "à¤īà¤¦à¤ķ": 6227,
      "Ġà¤¸à¤¯à¤ľà¤¨": 6228,
      "Ġà¤ħà¤¬à¤²": 6229,
      "Ġà¤ħà¤µà¤¯à¤µ": 6230,
      "Ġà¤Ĩà¤¶à¤¯à¤ªà¤¤": 6231,
      "Ġà¤°à¤®à¤Ŀà¤®": 6232,
      "à¤®à¤£à¤²": 6233,
      "Ġà¤®à¤¹à¤°à¤²": 6234,
      "Ġà¤Ĺà¤ľà¤²à¤²": 6235,
      "à¥¨à¥¦à¥ªà¥¦": 6236,
      "Ġà¥¦à¥¬à¥¬": 6237,
      "Ġà¤ĸà¤ªà¤¤à¤ķ": 6238,
      "Ġà¤ļà¤Łà¤ªà¤Ł": 6239,
      "à¤Ĩà¤łà¤¬": 6240,
      "à¤¯à¤µà¤¤": 6241,
      "à¥ģà¥ĥ": 6242,
      "Ġà¤¸à¤¤à¤²": 6243,
      "Ġà¤ķà¤ļà¤¨à¤ķà¤µà¤²": 6244,
      "Ġà¤Ĺà¤ıà¤¨à¤¨": 6245,
      "à¤īà¤·": 6246,
      "Ġà¤¤à¤®à¤¸": 6247,
      "Ġà¤µà¤«": 6248,
      "Ġà¤ľà¤²à¤ķ": 6249,
      "à¤ħà¤ķà¤¸": 6250,
      "Ġà¤¥à¤®à¤®": 6251,
      "à¤łà¤¦": 6252,
      "Ġà¤ıà¤ıà¤¨à¤ı": 6253,
      "à¤¸à¤¨à¤¹": 6254,
      "à¤®à¤¹à¤Ļ": 6255,
      "à¤®à¤¤à¤¬": 6256,
      "Ġà¤ĩà¤¨à¤ķ": 6257,
      "à¥©à¥©à¥¦": 6258,
      "à¥®à¥¬": 6259,
      "Ġà¤ĵà¤¨": 6260,
      "à¤¯à¤²à¤¸": 6261,
      "Ġà¤īà¤¦à¤¯à¤°": 6262,
      "à¤Łà¤®à¤§": 6263,
      "à¤°à¤ªà¤¥à¤®": 6264,
      "Ġà¥§à¥ªà¥ª": 6265,
      "Ġà¥¨à¥§à¥«": 6266,
      "Ġà¤¸à¤¹à¤°à¤¬": 6267,
      "Ġà¤Ĩà¤ĩà¤ıà¤¸": 6268,
      "à¤ľà¤¬à¤¸à¤®": 6269,
      "Ġà¤ħà¤µà¤¶à¤°à¤®": 6270,
      "à¤¦à¤¶à¤®à¤²à¤¬": 6271,
      "Ġà¤¨à¤Ĩà¤ıà¤¸à¤®": 6272,
      "à¤Łà¤Ĩà¤īà¤Łà¤®": 6273,
      "à¤¶à¤ªà¤¥à¤Ĺ": 6274,
      "à¤¿à¥ĥ": 6275,
      "à¥ģà¥Ĥ": 6276,
      "à¤ªà¤²à¤®": 6277,
      "à¤ıà¤Łà¤²": 6278,
      "à¤ıà¤¡à¤®": 6279,
      "Ġà¤°à¤¥à¤ķ": 6280,
      "à¤§à¤ĺ": 6281,
      "à¤¥à¤¡": 6282,
      "à¥ĥà¥į": 6283,
      "à¤ĺà¤¤": 6284,
      "Ġà¤ĺà¤ļ": 6285,
      "Ġà¤ľà¤¨à¤Ń": 6286,
      "à¤µà¤°à¤°": 6287,
      "à¤¯à¤¨à¤¶": 6288,
      "à¤·à¤£à¤µ": 6289,
      "Ġà¤ĵà¤µ": 6290,
      "Ġà¤¹à¤°à¤°": 6291,
      "à¤¹à¤ķà¤µà¤°": 6292,
      "à¤ĩà¤²à¤Łà¤ķ": 6293,
      "à¤ľà¤Ĺà¤ľ": 6294,
      "à¥ģà¤Ĥà¤ģ": 6295,
      "à¤ħà¤ªà¤Ń": 6296,
      "Ġà¥§à¥¬à¥§": 6297,
      "ĠĠĠĠĠĠĠĠĠĠĠĠĠĠĠĠčĊ": 6298,
      "à¤¬à¤ļà¤¤à¤ķà¤°": 6299,
      "Ġà¤īà¤ªà¤ķà¤°à¤£à¤®": 6300,
      "-à¥ĥ": 6301,
      "à¤¨à¤Ī": 6302,
      "à¤¨à¤¯à¤²": 6303,
      "à¤ķà¤¸à¤ķ": 6304,
      "à¤®à¤ªà¤¹": 6305,
      "à¤¸à¤°à¤¹à¤ķ": 6306,
      "à¤ªà¤Ń": 6307,
      "à¤¦à¤¤à¤®": 6308,
      "Ġà¤Ľà¤¯": 6309,
      "à¤Ĥà¥Ī-": 6310,
      "à¤Īà¤ªà¤²": 6311,
      "à¥Ģ-à¤ĥ": 6312,
      "Ġà¤ľà¤ļ": 6313,
      "Ġà¤Ĩà¤Īà¤ķ": 6314,
      "à¤ĩà¤¸à¤°": 6315,
      "à¤ĩà¤²à¤²": 6316,
      "Ġà¤īà¤¤à¤°": 6317,
      "Ġà¤¸à¤®à¤§": 6318,
      "à¥Įà¤¾": 6319,
      "Ġà¤¯à¤¸à¤ĸ": 6320,
      "Ġà¤¯à¤¸à¤ħà¤¨": 6321,
      "à¤¤à¤°à¤µà¤¸": 6322,
      "à¤ħà¤¨à¤§": 6323,
      "à¤ħà¤¨à¤¸à¤¨": 6324,
      "Ġà¤¸à¤ķà¤²": 6325,
      "à¤¯à¤¨à¤Ĺà¤°": 6326,
      "à¤¸à¤¨à¤¹à¤°": 6327,
      "Ġà¤Ńà¤ıà¤Ľà¤¨": 6328,
      "Ġà¤Ĩà¤¯à¤¶": 6329,
      "Ġà¤ĩà¤¨à¤²": 6330,
      "Ġà¤ĩà¤Ļà¤²": 6331,
      "Ġà¥¨à¥¦à¥¨à¥¬": 6332,
      "Ġà¥¨à¥¦à¥¨à¥©": 6333,
      "Ġà¤Ŀà¤Ŀà¤²": 6334,
      "à¥®à¥¨": 6335,
      "Ġà¤ĵà¤¤à¤ª": 6336,
      "à¤īà¤¦à¤¯": 6337,
      "Ġà¥§à¥«à¥¨à¥¦": 6338,
      "à¤ķà¤Łà¤ª": 6339,
      "Ġà¥§à¥©à¥§": 6340,
      "Ġà¥§à¥ªà¥«": 6341,
      "à¤ĸà¤ķà¤·": 6342,
      "Ġà¤®à¤¦à¤°à¤¸": 6343,
      "à¥¨à¥«à¥¦": 6344,
      "à¤¶à¤Ńà¤°à¤¬": 6345,
      "à¥¨à¥¦à¥ªà¥©": 6346,
      "Ġà¥¦à¥ªà¥Ń": 6347,
      "Ġà¤ħà¤¸à¤¹à¤ľà¤¤": 6348,
      "Ġà¤ıà¤¸à¤ĩà¤ĩ": 6349,
      "Ġà¤¦à¤¸à¤®à¤²à¤µ": 6350,
      "à¤°à¤ħà¤°": 6351,
      "à¤ıà¤ĺ": 6352,
      "Ġà¤°à¤®à¤¨": 6353,
      "Ġà¤¨à¤¤à¤®à¤¸": 6354,
      "Ġà¤¬à¤µ": 6355,
      "à¤§à¤¸à¤®": 6356,
      "à¤ļà¤²à¤²": 6357,
      "à¤łà¤¸à¤®": 6358,
      "à¤łà¤¨à¤ķ": 6359,
      "Ġà¤ªà¤°à¤²": 6360,
      "Ġà¤§à¤¨à¤µ": 6361,
      "Ġà¤ľà¤¨à¤¶": 6362,
      "Ġà¤²à¤Ĺà¤ĩà¤¨": 6363,
      "Ġà¤®à¤¨à¤°": 6364,
      "à¤²à¤¬à¤¦": 6365,
      "à¤·à¤ķà¤¬": 6366,
      "à¤§à¤¨à¤Ĺ": 6367,
      "à¤¸à¤¦à¤Ń": 6368,
      "à¥¯à¥§": 6369,
      "Ġà¤Ńà¤¯à¤µ": 6370,
      "à¤Łà¤®à¤¸": 6371,
      "Ġà¥§à¥«à¥§": 6372,
      "Ġà¥§à¥«à¥Ń": 6373,
      "Ġà¥§à¥«à¥©": 6374,
      "à¤Ńà¤µà¤¹à¤°": 6375,
      "Ġà¥«à¥¦à¥ª": 6376,
      "Ġà¥§à¥©à¥Ń": 6377,
      "à¤¯à¤£à¤²": 6378,
      "Ġà¤ħà¤ķà¤¬à¤°": 6379,
      "à¥¦à¥Ńà¥¦": 6380,
      "à¤ıà¤«à¤¡": 6381,
      "ĠĠĠĠĠĠĠĠĠĠĠĠĠĠĠĠĠĠĠĠĠ": 6382,
      "Ġà¤ļà¤ķà¤ļà¤ķ": 6383,
      "Ġà¤¤à¤²à¤¬à¤Ńà¤¤": 6384,
      "Ġà¥¨à¥¦à¥ªà¥ª": 6385,
      "Ġà¤ħà¤ľà¤¯à¤ķ": 6386,
      "à¥§à¥¯à¥¯à¥¯": 6387,
      "Ġà¤Ĩà¤Ĺà¤®à¤¨à¤¸": 6388,
      "Ġà¥§à¥¯à¥«à¥®": 6389,
      "à¤ķà¤¨à¤²": 6390,
      "Ġà¤¸à¤Ĺà¤°": 6391,
      "Ġà¤¸à¤¯à¤°": 6392,
      "à¤Łà¤§": 6393,
      "à¤Łà¤ĸ": 6394,
      "à¥Īà¤¾": 6395,
      "à¤ıà¤ħà¤°à¤²": 6396,
      "Ġà¤Ĺà¤¹à¤ķ": 6397,
      "Ġà¤¬à¤°à¤¹": 6398,
      "Ġà¤¬à¤ķà¤°": 6399,
      "Ġà¤®à¤Ńà¤¨": 6400,
      "Ġà¤¹à¤¤à¤ķ": 6401,
      "à¤¶à¤¯à¤ķ": 6402,
      "à¤Ľà¤ª": 6403,
      "à¤Īà¤¤à¤°": 6404,
      "Ġà¤Ĩà¤¶à¤ķ": 6405,
      "à¤ĩà¤®à¤²": 6406,
      "Ġà¤¸à¤®à¤¤à¤²": 6407,
      "Ġà¤ıà¤²à¤¬": 6408,
      "Ġà¤ıà¤Łà¤²": 6409,
      "à¥Ī-à¤ģ": 6410,
      "Ġà¤§à¤¤": 6411,
      "Ġà¤§à¤¬": 6412,
      "à¤°à¤¸à¤¯": 6413,
      "Ġà¤²à¤Ĺà¤¨à¤ĸ": 6414,
      "à¤¦à¤¨à¤¸": 6415,
      "à¥¬à¥¨": 6416,
      "à¤§à¤¨à¤ª": 6417,
      "Ġà¤Ŀà¤²à¤ķà¤¹à¤°": 6418,
      "Ġà¤ıà¤®à¤Ł": 6419,
      "à¤ıà¤®à¤ıà¤²": 6420,
      "à¤¹à¤²à¤¹": 6421,
      "Ġà¥§à¥ªà¥®": 6422,
      "Ġà¥¨à¥®à¥¦": 6423,
      "à¤¶à¤¬à¤£": 6424,
      "Ġà¤¨à¤Ĺà¤¦à¤®": 6425,
      "Ġà¥§à¥¯à¥®à¥ª": 6426,
      "Ġà¤¶à¤°à¤¦à¤ķ": 6427,
      "à¤ħà¤Ĺà¤®à¤µà¤ķ": 6428,
      "à¥įà¥Ī": 6429,
      "à¤¨à¤°à¤¹à¤°": 6430,
      "à¤ķà¤Ńà¤¨": 6431,
      "à¤²à¤ħà¤ĺ": 6432,
      "à¤®à¤¸à¤²": 6433,
      "à¤¤à¤ħà¤²": 6434,
      "à¤¯à¤²à¤Ĺ": 6435,
      "à¤ıà¤ıà¤«à¤¸": 6436,
      "Ġà¤Ĺà¤ľà¤®": 6437,
      "à¤¬à¤²à¤²": 6438,
      "à¤¶à¤¬à¤¨": 6439,
      "à¤ļà¤ķà¤¤": 6440,
      "à¤ĸà¤¨à¤²": 6441,
      "Ġà¤Ĩà¤łà¤®": 6442,
      "Ġà¤¯à¤²à¤®": 6443,
      "à¤ĩà¤¤à¤°": 6444,
      "à¤«à¤°à¤²": 6445,
      "à¤«à¤°à¤ª": 6446,
      "Ġà¤ıà¤¥à¤²": 6447,
      "Ġà¤ľà¤¨à¤¸à¤°": 6448,
      "à¤¯à¤®à¤ħà¤¨": 6449,
      "à¤ļà¤¨à¤ľà¤Ļ": 6450,
      "Ġà¤ķà¤®à¤¬": 6451,
      "Ġà¤Ńà¤ıà¤ªà¤¶": 6452,
      "Ġà¤¹à¤°à¤¸à¤®": 6453,
      "Ġà¥§à¥«à¥¦à¥¦": 6454,
      "à¤Ķà¤¸à¤¤": 6455,
      "Ġà¥§à¥®à¥«": 6456,
      "Ġà¥§à¥Ńà¥Ń": 6457,
      "Ġà¤¤à¤²à¤¸à¤®": 6458,
      "Ġà¤Ĩà¤Īà¤ıà¤¸": 6459,
      "Ġà¤¨à¤²à¤¡": 6460,
      "Ġà¤ļà¤²à¤¨à¤ļà¤²": 6461,
      "Ġà¤Ĩà¤Ĩà¤«à¤¨": 6462,
      "à¥¨à¥¦à¥ªà¥¨": 6463,
      "ĠĠĠĠĠĠĠĠĠĠĠĠčĊ": 6464,
      "à¤ıà¤¡à¤Ń": 6465,
      "Ġà¥¨à¥¦à¥©à¥§": 6466,
      "Ġà¤ĵà¤Ńà¤°à¤Ł": 6467,
      "ĠĠĠĠĠĠĠĠĠĠĠĠĠĠĠĠĠĠĠĠĠĠĠĠĠ": 6468,
      "Ġà¤¨à¤Ńà¤ĩà¤ķà¤¨": 6469,
      "à¤°à¤ĸà¤ķ": 6470,
      "à¥ĩà¤¿": 6471,
      "à¤¤à¤ľà¤¸": 6472,
      "à¤Łà¤®à¤²": 6473,
      "à¤ıà¤¸à¤²": 6474,
      "à¤ıà¤¤à¤²": 6475,
      "Ġà¤ķà¤Łà¤ķ": 6476,
      "Ġà¤°à¤£à¤¬à¤¹": 6477,
      "Ġà¤¨à¤Ĩà¤Ī": 6478,
      "à¤·à¤ªà¤¤": 6479,
      "Ġà¤¹à¤¬à¤²": 6480,
      "Ġà¤¹à¤¦à¤®": 6481,
      "Ġà¤¹à¤°à¤¦à¤®": 6482,
      "à¤¶à¤¬à¤¹": 6483,
      "à¤Ńà¤ĩà¤¦": 6484,
      "à¤¡à¤²à¤¬": 6485,
      "à¤Īà¤ĸ": 6486,
      "Ġà¤µà¤¶à¤®": 6487,
      "Ġà¤ľà¤ķà¤¡": 6488,
      "à¤«à¤¯": 6489,
      "Ġà¤ĸà¤²à¤Ļ": 6490,
      "Ġà¤«à¤¯": 6491,
      "à¤µà¤°à¤ªà¤°": 6492,
      "à¤¯à¤¨à¤¬": 6493,
      "à¤¤à¤¨à¤¸": 6494,
      "Ġà¤Ĩà¤°à¤¨": 6495,
      "à¥®à¥§": 6496,
      "à¥¨à¥¦à¥¨à¥ª": 6497,
      "à¤¨à¤¸à¤ªà¤Łà¤²": 6498,
      "Ġà¤ĺà¤°à¤Łà¤¹à¤°": 6499,
      "à¤ıà¤¨à¤ıà¤ķ": 6500,
      "à¤¹à¤¨à¤µ": 6501,
      "à¤£à¤¯à¤ħà¤¨": 6502,
      "Ġà¤¸à¤¡à¤ķà¤¸à¤®": 6503,
      "Ġà¤Ńà¤°à¤¸à¤ķ": 6504,
      "Ġà¤ıà¤®à¤Ĩà¤°à¤ª": 6505,
      "Ġà¤ªà¤¢à¤¦": 6506,
      "ĠĠĠĠĠĠĠĠĠĠčĊ": 6507,
      "à¤Ńà¤ĩà¤°à¤¹à¤¨": 6508,
      "Ġà¤Ĩà¤ļà¤°à¤£à¤ķ": 6509,
      "à¤Ĩà¤īà¤ľ": 6510,
      "Ġà¤ªà¤Łà¤ķà¤ªà¤Łà¤ķà¤ķ": 6511,
      "Ġà¥§à¥¯à¥¬à¥¨": 6512,
      "à¤¨à¤ľà¤°à¤ħà¤¨": 6513,
      "à¤°à¤ªà¤ķ": 6514,
      "à¤¨à¤¸à¤¨": 6515,
      "à¤ķà¤¸à¤¨": 6516,
      "à¤¤à¤ļà¤¨": 6517,
      "Ġà¤¸à¤ľà¤ķ": 6518,
      "Ġà¤°à¤¥à¤²": 6519,
      "Ġà¤Ľà¤®à¤Ľà¤®": 6520,
      "à¤Īà¤ŀ": 6521,
      "Ġà¤Ĩà¤°à¤¬": 6522,
      "Ġà¤²à¤ļà¤ķ": 6523,
      "à¥ģ-à¤ģ": 6524,
      "à¤ĺà¤°à¤ª": 6525,
      "à¤°à¤¹à¤¸à¤¨": 6526,
      "à¤Ŀà¤¯": 6527,
      "à¤Ŀà¤°à¤¨": 6528,
      "à¤¯à¤¤à¤µà¤¶": 6529,
      "Ġà¤®à¤¹à¤Ĺ": 6530,
      "Ġà¤¸à¤¹à¤Ĩà¤¯": 6531,
      "Ġà¤ĩà¤¤à¤°": 6532,
      "à¥Įà¤ģà¤Ĥ": 6533,
      "à¥®à¥Ń": 6534,
      "à¤ĵà¤¨à¤²": 6535,
      "à¤ĸà¤°à¤ļà¤¨": 6536,
      "Ġà¤ĺà¤°à¤ľà¤®": 6537,
      "Ġà¤ķà¤²à¤µ": 6538,
      "à¤ħà¤¸à¤¤": 6539,
      "Ġà¤¤à¤ªà¤¶": 6540,
      "à¤ıà¤®à¤Ł": 6541,
      "Ġà¥§à¥¨à¥¯": 6542,
      "Ġà¥«à¥¦à¥«à¥¦": 6543,
      "Ġà¤Ĩà¤Īà¤ıà¤²": 6544,
      "à¤¦à¤¶à¤°à¤¥": 6545,
      "Ġà¤¡à¤²à¤°à¤¸à¤®": 6546,
      "à¤Ĺà¤ľà¤²à¤ķ": 6547,
      "ĠĠĠĠĠĠĠĠĠĠĠĠĠĠĠĠĠĠĠĠ": 6548,
      "à¥§à¥«à¥¨à¥¦": 6549,
      "à¤«à¤¸à¤²à¤®": 6550,
      "Ġà¥¨à¥¦à¥©à¥Ń": 6551,
      "Ġà¤ķà¤£à¤¹à¤°": 6552,
      "ĠĠĠĠĠĠĠĠĠĠĠĠĠĠĠĠĠĠĠĠĠĠĠĠĠĠĠ": 6553,
      "à¥°": 6554,
      "à¤°à¤ıà¤ķ": 6555,
      "à¤¨à¤°à¤¤": 6556,
      "à¤ķà¤¹à¤²": 6557,
      "à¤®à¤ľà¤¬": 6558,
      "à¤¯à¤ªà¤¨": 6559,
      "à¤Ĺà¤ľà¤¸": 6560,
      "à¤Łà¤²à¤Ĺ": 6561,
      "à¤¬à¤°à¤¤": 6562,
      "Ġà¤Ńà¤°à¤¤à¤ķ": 6563,
      "à¤§à¤ķà¤²": 6564,
      "Ġà¤¹à¤£": 6565,
      "Ġà¤¹à¤Łà¤²": 6566,
      "à¤ļà¤ĺà¤°à¤®": 6567,
      "à¤¡à¤¹à¤²": 6568,
      "à¤Īà¤¹": 6569,
      "à¥ĩ-à¥ĩ": 6570,
      "à¤ľà¤¨à¤Ĺ": 6571,
      "Ġà¤«à¤Ļ": 6572,
      "à¤ŀà¤¨": 6573,
      "Ġà¤ľà¤¨à¤¹à¤°": 6574,
      "à¤Ŀà¤īà¤¨": 6575,
      "à¥ģà¤ģà¤Ĥ": 6576,
      "à¤¸à¤¨à¤¸à¤¨": 6577,
      "à¥¨à¥¦à¥©à¥©": 6578,
      "à¥¯à¥¨": 6579,
      "Ġà¤¦à¤²à¤¦à¤²à¤®": 6580,
      "Ġà¤¬à¤²à¤ª": 6581,
      "à¤¨à¤°à¤ª": 6582,
      "Ġà¥§à¥«à¥«": 6583,
      "Ġà¥§à¥«à¥®": 6584,
      "à¥¨à¥¦à¥Ńà¥¦à¥Ńà¥§": 6585,
      "à¤¸à¤µà¤Ł": 6586,
      "Ġà¤°à¤®à¤ľ": 6587,
      "Ġà¥§à¥Ńà¥ª": 6588,
      "Ġà¤Ĩà¤ıà¤ľà¤¸": 6589,
      "Ġà¤ıà¤²à¤ĩà¤¡": 6590,
      "ĠĠĠĠĠĠĠĠĠĠĠĠĠĠĠĠĠĠĠĠĠĠĠ": 6591,
      "Ġà¤Ĩà¤īà¤Łà¤²": 6592,
      "Ġà¥Ģ": 6593,
      "à¤¾à¥ĥ": 6594,
      "à¤¯à¤ħà¤¨": 6595,
      "à¤¹à¤²à¤ķ": 6596,
      "Ġà¤¸à¤²à¤²": 6597,
      "Ġà¤Ĺà¤«à¤®": 6598,
      "à¤ľà¤²à¤ķ": 6599,
      "Ġà¤°à¤¸à¤²": 6600,
      "à¤·à¤°à¤ķ": 6601,
      "Ġà¤¹à¤¬à¤ķ": 6602,
      "à¤ļà¤°à¤¨": 6603,
      "Ġà¤ħà¤ªà¤¤": 6604,
      "Ġà¤µà¤¦": 6605,
      "à¤ĸà¤°à¤²": 6606,
      "Ġà¤²à¤Ľ": 6607,
      "à¤ĩà¤«à¤ķ": 6608,
      "à¤¸à¤®à¤Ŀ": 6609,
      "Ġà¤ıà¤¸à¤°": 6610,
      "Ġà¤ıà¤¸à¤¬": 6611,
      "Ġà¤ĸà¤°à¤ķ": 6612,
      "à¤Ĩà¤ĵ": 6613,
      "Ġà¤ıà¤ķà¤ªà¤ķ": 6614,
      "Ġà¤Łà¤ªà¤ķ": 6615,
      "Ġà¤ĩà¤¨à¤ª": 6616,
      "Ġà¤ļà¤²à¤¨à¤ķ": 6617,
      "Ġà¤°à¤ķà¤®à¤¸à¤®": 6618,
      "Ġà¤Ĳà¤¯": 6619,
      "Ġà¥§à¥®à¥§": 6620,
      "à¤¸à¤¤à¤¹": 6621,
      "à¤¯à¤¦à¤²à¤®": 6622,
      "Ġà¤ªà¤²à¤¹à¤°": 6623,
      "à¥ģà¥ģà¥ģ": 6624,
      "Ġà¥¦à¥¬à¥¦": 6625,
      "Ġà¤ľà¤¨à¤®à¤¤à¤²": 6626,
      "Ġà¥¨à¥¦à¥©à¥¯": 6627,
      "à¥¦à¥Ńà¥«à¥Ńà¥¬": 6628,
      "à¤®à¤ĸà¤®à¤²": 6629,
      "à¥¨à¥¦à¥Ńà¥§à¥¦à¥Ńà¥¨": 6630,
      "Ġ++": 6631,
      "ĉĠĠ": 6632,
      "à¤¨à¤¸à¤²": 6633,
      "à¤®à¤°à¤¸": 6634,
      "à¤¸à¤£": 6635,
      "à¤µà¤Łà¤®": 6636,
      "à¤µà¤£à¤²": 6637,
      "à¤Łà¤ħà¤¨": 6638,
      "à¤Łà¤ļà¤¨": 6639,
      "à¤Łà¤°à¤µ": 6640,
      "à¤ıà¤Ĩà¤ĩà¤ľ": 6641,
      "Ġà¤°à¤°": 6642,
      "Ġà¤¹à¤¦à¤ķ": 6643,
      "à¤Īà¤ıà¤¨": 6644,
      "Ġà¤µà¤¨à¤µ": 6645,
      "Ġà¤ľà¤²à¤¨": 6646,
      "Ġà¤Ĩà¤ĩà¤¤": 6647,
      "à¤ĩà¤®à¤ķ": 6648,
      "à¤ħà¤Łà¤°": 6649,
      "Ġà¤ĸà¤Łà¤¨": 6650,
      "à¤Ļà¤µà¤°à¤ķ": 6651,
      "à¤¸à¤ķà¤¸": 6652,
      "à¤Ĩà¤ıà¤°": 6653,
      "à¥Ī-à¤ĥ-": 6654,
      "à¤µà¤¸à¤Ń": 6655,
      "à¤°à¤¹à¤¬": 6656,
      "à¤µà¤°à¤ª": 6657,
      "Ġà¤ħà¤§à¤ķ": 6658,
      "à¤Łà¤¨à¤¬": 6659,
      "à¤¨à¤¨à¤¸à¤ķ": 6660,
      "à¤«à¤²à¤¦": 6661,
      "Ġà¤¸à¤¯à¤²": 6662,
      "Ġà¤¨à¤Ĺà¤°à¤¸": 6663,
      "Ġà¤¸à¤¦à¤¶": 6664,
      "à¤ļà¤²à¤¨à¤ķ": 6665,
      "Ġà¤Ĩà¤Ĺà¤¨à¤®": 6666,
      "à¤¯à¤¯à¤¨à¤¬": 6667,
      "Ġà¥§à¥¯à¥§à¥¦": 6668,
      "à¤°à¤¥à¤®à¤¤": 6669,
      "à¥§à¥¦à¥«": 6670,
      "Ġà¤·à¤·": 6671,
      "Ġà¥¦à¥«à¥ª": 6672,
      "à¤¸à¤®à¤¯à¤¸à¤®à¤¯": 6673,
      "Ġà¤¨à¤¯à¤¨à¤°": 6674,
      "à¤Ńà¤ĩà¤¨à¤¸à¤ķ": 6675,
      "à¤°à¤Ĺà¤®à¤¨": 6676,
      "à¤²à¤Ľ": 6677,
      "à¤¤à¤Ńà¤¨": 6678,
      "à¤¸à¤ıà¤¸": 6679,
      "à¤¦à¤ĸ": 6680,
      "Ġà¤¬à¤¯à¤¸": 6681,
      "à¤·à¤ļ": 6682,
      "Ġà¤Ľà¤ªà¤ķ": 6683,
      "à¤¶à¤²à¤ķ": 6684,
      "à¤Ńà¤Łà¤®": 6685,
      "à¤Ńà¤²à¤ª": 6686,
      "Ġà¤Ĩà¤¯à¤¤à¤¨": 6687,
      "à¤¹à¤°à¤¸": 6688,
      "à¤ľà¤¨à¤¹à¤°": 6689,
      "à¥¦à¥©": 6690,
      "Ġà¤ıà¤ķà¤¸à¤°": 6691,
      "à¤°à¤¦à¤¹": 6692,
      "à¥į-à¤ĥ": 6693,
      "à¤Ĺà¤¤à¤°à¤¤": 6694,
      "à¤µà¤¨à¤ľ": 6695,
      "à¤·à¤£à¤ªà¤¤": 6696,
      "à¤µà¤ķà¤°à¤£": 6697,
      "à¤§à¤¨à¤§": 6698,
      "à¤īà¤ªà¤ľ": 6699,
      "Ġà¤ĵà¤ıà¤¸": 6700,
      "à¤ķà¤ķà¤¥": 6701,
      "Ġà¤¬à¤°à¤«": 6702,
      "Ġà¤ĺà¤°à¤Ńà¤¨": 6703,
      "Ġà¤ķà¤¸à¤°à¤¤à¤®": 6704,
      "Ġà¥§à¥¨à¥Ń": 6705,
      "à¤Ńà¤µà¤¬": 6706,
      "Ġà¤ħà¤ªà¤Ĺ": 6707,
      "Ġà¤ħà¤ªà¤¹à¤°": 6708,
      "à¤ľà¤¦à¤°à¤ķ": 6709,
      "Ġà¥§à¥¬à¥¬": 6710,
      "Ġà¤Ĺà¤®à¤Ĺà¤¢": 6711,
      "à¤ªà¤Łà¤ķà¤®": 6712,
      "Ġà¤Ĩà¤ĩà¤ķà¤¨": 6713,
      "ĠĠĠĠĠĠĠĠĠĠĠĠĠĠĠĠĠĠčĊ": 6714,
      "à¤®à¤°à¤£à¤¶à¤ķ": 6715,
      "à¥§à¥§à¥«": 6716,
      "Ġà¤¬à¤ķà¤ªà¤¤": 6717,
      "à¤ħà¤ªà¤¨à¤¤": 6718,
      "à¥¨à¥¦à¥ªà¥ª": 6719,
      "ĠĠĠĠĠĠĠĠĠĠĠĠĠĠčĊ": 6720,
      "Ġà¥§à¥¯à¥®à¥§": 6721,
      "à¤°à¤¯à¤¸": 6722,
      "à¤ķà¤Ĺà¤£": 6723,
      "à¤¹à¤¸à¤ķ": 6724,
      "Ġà¤ķà¤Ń": 6725,
      "à¤¬à¤¬à¤°à¤®à¤¹à¤²": 6726,
      "Ġà¤¨à¤Ńà¤°": 6727,
      "Ġà¤¨à¤Ĺà¤£": 6728,
      "à¤·à¤°à¤²": 6729,
      "Ġà¤¤à¤®à¤²": 6730,
      "à¤¡à¤ļ": 6731,
      "à¥Ģ-à¤ĥ-": 6732,
      "Ġà¤Ĩà¤ĩà¤¦": 6733,
      "à¤ĩà¤²à¤Ĺ": 6734,
      "Ġà¤ıà¤¸à¤ķ": 6735,
      "à¤Ļà¤ķà¤°": 6736,
      "Ġà¤ıà¤ķà¤¹à¤ľ": 6737,
      "Ġà¤ľà¤¨à¤¬": 6738,
      "à¤°à¤¸à¤¤": 6739,
      "Ġà¤ķà¤®à¤²à¤®à¤£": 6740,
      "Ġà¤®à¤¨à¤¶": 6741,
      "à¥¬à¥¦à¥¦": 6742,
      "à¤¶à¤¨à¤¶": 6743,
      "à¥®à¥¦à¥¦": 6744,
      "à¥¨à¥¦à¥©à¥¬": 6745,
      "à¤ĵà¤ı": 6746,
      "à¤ĵà¤ĩà¤²": 6747,
      "à¤¦à¤°à¤ª": 6748,
      "à¤¨à¤¸à¤ªà¤Łà¤²à¤®": 6749,
      "à¤®à¤®à¤§": 6750,
      "à¤®à¤®à¤£": 6751,
      "à¤¹à¤¨à¤¤à¤²": 6752,
      "-à¤¾à¥ĩ": 6753,
      "Ġà¥§à¥¨à¥ª": 6754,
      "à¤§à¤ķà¤¹à¤°": 6755,
      "Ġà¤°à¤®à¤Ŀ": 6756,
      "Ġà¥§à¥Ńà¥¨": 6757,
      "Ġà¤Ĩà¤Īà¤ªà¤°": 6758,
      "Ġà¤¹à¤ķà¤ħà¤§": 6759,
      "à¥§à¥¦à¥§à¥«": 6760,
      "à¤¨à¤Ńà¤Ī": 6761,
      "Ġà¤²à¤¹à¤¡à¤®": 6762,
      "Ġà¥¨à¥¦à¥©à¥¨": 6763,
      "à¤²à¤Ĺà¤°à¤¹à¤°": 6764,
      "à¤½à¤½à¤½": 6765,
      "à¤¨à¤ļà¤²": 6766,
      "à¤¯à¤²à¤¯à¤²": 6767,
      "à¤µà¤ĸ": 6768,
      "à¤¦à¤Ļ": 6769,
      "à¤¬à¤¦à¤®": 6770,
      "à¤¬à¤Ĺà¤°à¤®": 6771,
      "à¤ľà¤®à¤¨": 6772,
      "à¤ľà¤¯à¤®": 6773,
      "à¤ľà¤¤à¤ķ": 6774,
      "Ġà¤°à¤Ļà¤®": 6775,
      "Ġà¤Ńà¤¸": 6776,
      "Ġà¤¨à¤¬à¤ľ": 6777,
      "Ġà¤®à¤ľà¤µ": 6778,
      "Ġà¤®à¤ĸà¤¨": 6779,
      "à¤¶à¤£": 6780,
      "à¤īà¤ĺ": 6781,
      "à¤Īà¤°à¤¸": 6782,
      "Ġà¤µà¤·à¤°": 6783,
      "à¤ħà¤²à¤ķ": 6784,
      "Ġà¤ļà¤ªà¤²": 6785,
      "à¤°à¤¤à¤¨": 6786,
      "à¤°à¤¤à¤ļ": 6787,
      "Ġà¤ħà¤¨à¤¸": 6788,
      "à¤µà¤°à¤µ": 6789,
      "Ġà¤Ĩà¤°à¤ª": 6790,
      "Ġà¤Ĩà¤°à¤Ĩà¤°": 6791,
      "à¤ĩà¤²à¤°": 6792,
      "Ġà¤ķà¤¸à¤ľ": 6793,
      "Ġà¤¥à¤ªà¤ĺà¤Ł": 6794,
      "à¤ªà¤¦à¤®à¤¬à¤¹": 6795,
      "Ġà¤¸à¤¡à¤ķà¤ª": 6796,
      "Ġà¤¬à¤²à¤ľà¤«": 6797,
      "Ġà¥§à¥¯à¥¨": 6798,
      "Ġà¤ıà¤¸à¤¸": 6799,
      "Ġà¥©à¥¦à¥¦à¥¦": 6800,
      "Ġà¤¦à¤¶à¤µà¤Ł": 6801,
      "Ġà¤¨à¤ľà¤°à¤¬": 6802,
      "Ġà¥§à¥¬à¥ª": 6803,
      "à¤¯à¤¸à¤²à¤Ĺà¤¤": 6804,
      "Ġà¤Ĩà¤Īà¤ıà¤®": 6805,
      "ĠĠĠĠĠĠĠĠĠĠĠĠĠĠĠĠĠčĊ": 6806,
      "à¤Łà¤°à¤ķà¤¨": 6807,
      "Ġà¤ľà¤¯à¤¨à¤Ĺà¤°": 6808,
      "à¥¦à¥¬à¥Ńà¥¬à¥®": 6809,
      "à¤ıà¤ħà¤°à¤ª": 6810,
      "à¤¾à¥ĭ": 6811,
      "à¤¨à¤¨à¤²": 6812,
      "à¤¹à¤¥": 6813,
      "à¤¹à¤ħà¤µà¤°": 6814,
      "à¤µà¤Īà¤®": 6815,
      "à¤Ĺà¤Ĺà¤¨": 6816,
      "à¤ıà¤²à¤°": 6817,
      "à¤ľà¤¯à¤¸": 6818,
      "Ġà¤°à¤«à¤¤": 6819,
      "à¤ģà¥Ī-": 6820,
      "à¤Ĥà¤Ĥ-": 6821,
      "à¤¯à¤ķà¤¸": 6822,
      "Ġà¤ıà¤Ĩà¤°à¤Ł": 6823,
      "Ġà¤ªà¤°à¤¬": 6824,
      "à¤®à¤¨à¤Ĺ": 6825,
      "Ġà¤¬à¤¨à¤Ń": 6826,
      "Ġà¤łà¤¨": 6827,
      "Ġà¤ķà¤®à¤²à¤²": 6828,
      "Ġà¥«à¥§à¥¦": 6829,
      "à¤ĵà¤ļ": 6830,
      "Ġà¤¢à¤ķà¤®à¤ķ": 6831,
      "à¤¶à¤¤à¤¬": 6832,
      "à¤ıà¤¨à¤ıà¤«": 6833,
      "à¤ıà¤¸à¤¨à¤²": 6834,
      "à¤ıà¤®à¤Ĩà¤°": 6835,
      "à¤ĺà¤°à¤Ĩ": 6836,
      "Ġà¤¬à¤ļà¤¤à¤ķ": 6837,
      "Ġà¥§à¥¬à¥Ń": 6838,
      "à¤ıà¤²à¤ª": 6839,
      "Ġà¤Ĩà¤ıà¤¦": 6840,
      "ĠĠĠĠĠĠĠĠĠĠĠĠĠĠĠĠĠĠĠčĊ": 6841,
      "à¤Ĩà¤Ĺà¤ľà¤¨": 6842,
      "à¤¬à¤ļà¤¤": 6843,
      "à¤ľà¤Ĺà¤¢à¤¸à¤®": 6844,
      "Ġà¤ľà¤Ĺà¤¤à¤¬à¤¹": 6845,
      "à¥§à¥¯à¥¯à¥§": 6846,
      "Ġà¤Ĺà¤ĩà¤°à¤¹à¤¨": 6847,
      "Ġà¥¦à¥«à¥§": 6848,
      "Ġà¤ıà¤¨à¤Ĩà¤°à¤ıà¤¨à¤²": 6849,
      "à¤¨à¤ı": 6850,
      "à¤ķà¤¥à¤¨": 6851,
      "à¤¤à¤µà¤°à¤£": 6852,
      "à¤ıà¤¯à¤°à¤µ": 6853,
      "à¤¬à¤¨à¤²": 6854,
      "à¤·à¤°à¤¶": 6855,
      "à¤§à¤Ļ": 6856,
      "à¤§à¤¶à¤®à¤¶": 6857,
      "à¤Īà¤Łà¤ķ": 6858,
      "Ġà¤µà¤°à¤£": 6859,
      "à¤£à¤ĺ": 6860,
      "à¤ĸà¤¬à¤¹": 6861,
      "à¤ĩà¤®à¤¨": 6862,
      "à¤ħà¤°à¤®": 6863,
      "à¤°à¤®à¤¬à¤¦": 6864,
      "Ġà¤ıà¤ķà¤ĸ": 6865,
      "à¤¤à¤°à¤²à¤¤": 6866,
      "Ġà¤¡à¤ķà¤°": 6867,
      "à¤ķà¤®à¤£": 6868,
      "à¤°à¤¦à¤¶": 6869,
      "Ġà¤ħà¤°à¤¬à¤²": 6870,
      "à¤Łà¤¨à¤°à¤¸": 6871,
      "Ġà¤Ĺà¤¤à¤¬à¤°": 6872,
      "Ġà¥¨à¥¦à¥¨à¥ª": 6873,
      "à¤Ĺà¤²à¤¤": 6874,
      "à¤Ĺà¤²à¤ª": 6875,
      "à¥¯à¥©": 6876,
      "à¤®à¤²à¤¤": 6877,
      "Ġà¤Ĩà¤ľà¤ªà¤¨": 6878,
      "à¤°à¤Ńà¤²": 6879,
      "Ġà¤¹à¤°à¤ªà¤²": 6880,
      "à¤ıà¤¸à¤¡": 6881,
      "à¤ıà¤¸à¤Ĩà¤Ī": 6882,
      "à¤ħà¤®à¤°à¤¸": 6883,
      "Ġà¤īà¤łà¤¬à¤¸": 6884,
      "Ġà¥§à¥®à¥¨": 6885,
      "à¤ĩà¤ıà¤«": 6886,
      "Ġà¤ľà¤¬à¤ľà¤ķ": 6887,
      "Ġà¤«à¤²à¤¹à¤°": 6888,
      "à¤ħà¤µà¤ľ": 6889,
      "à¤ªà¤¥à¤ª": 6890,
      "à¥§à¥«à¥¦à¥¦": 6891,
      "Ġà¥¬à¥«à¥¦": 6892,
      "Ġà¤¹à¤Ļà¤ķà¤Ļà¤¸": 6893,
      "à¥§à¥¯à¥¯à¥¨": 6894,
      "Ġà¤«à¤¨à¤«à¤¨": 6895,
      "à¥¯à¥®à¥«": 6896,
      "Ġà¥§à¥¯à¥Ńà¥§": 6897,
      "Ġà¤¦à¤¶à¤°à¤¥à¤ļà¤¨": 6898,
      "à¤¾à¤¾-": 6899,
      "à¥ĭà¥į": 6900,
      "à¤²à¤ªà¤®": 6901,
      "à¤¸à¤²à¤ķ": 6902,
      "à¤¹à¤¨à¤®": 6903,
      "à¤¦à¤«": 6904,
      "à¤¦à¤°à¤¹": 6905,
      "à¤¬à¤¸à¤ķ": 6906,
      "à¤¬à¤ľà¤¸": 6907,
      "à¤ľà¤®à¤¹à¤²": 6908,
      "à¤·à¤ħà¤Ĺ": 6909,
      "à¤Ńà¤ĩà¤°": 6910,
      "à¤ıà¤ķà¤ľ": 6911,
      "à¤ıà¤ķà¤ªà¤²": 6912,
      "à¤ıà¤ķà¤Ĩà¤ªà¤¸": 6913,
      "à¤Īà¤Łà¤²": 6914,
      "Ġà¤µà¤ļà¤¨à¤ķ": 6915,
      "à¤ĸà¤°à¤¬": 6916,
      "Ġà¤ľà¤¯à¤®": 6917,
      "Ġà¤²à¤¹à¤²à¤¹": 6918,
      "Ġà¤īà¤§à¤®": 6919,
      "à¤ħà¤²à¤°": 6920,
      "à¤ħà¤¸à¤®à¤°": 6921,
      "Ġà¤ıà¤Łà¤®": 6922,
      "Ġà¤ĸà¤°à¤¸": 6923,
      "à¥¦à¥¨": 6924,
      "à¤²à¤ķà¤¥": 6925,
      "à¤®à¤ķà¤¨": 6926,
      "à¤¤à¤®à¤§": 6927,
      "Ġà¤ħà¤¸à¤°à¤¹à¤°": 6928,
      "Ġà¤ħà¤¬à¤¶": 6929,
      "à¤ıà¤¨à¤Ĩà¤Ī": 6930,
      "Ġà¤ıà¤®à¤ľ": 6931,
      "Ġà¤ıà¤®à¤ıà¤®": 6932,
      "Ġà¥§à¥ªà¥©": 6933,
      "Ġà¤ĺà¤Łà¤¦": 6934,
      "Ġà¤Ĺà¤£à¤°": 6935,
      "Ġà¤Ĺà¤£à¤®": 6936,
      "Ġà¥¦à¥¦à¥Ń": 6937,
      "Ġà¥¨à¥¨à¥¨": 6938,
      "à¤Ĩà¤Īà¤¤à¤µ": 6939,
      "à¤Ĩà¤Īà¤ıà¤®à¤Ī": 6940,
      "Ġà¤Ĩà¤Īà¤¡à¤²": 6941,
      "à¥§à¥¦à¥®": 6942,
      "Ġà¤Ĩà¤¹à¤µ": 6943,
      "Ġà¤¤à¤²à¤¬à¤¬": 6944,
      "Ġà¥®à¥®à¥¦": 6945,
      "à¥¦à¥¬à¥Ń": 6946,
      "Ġà¥§à¥¯à¥®à¥®": 6947,
      "à¥¦à¥Ńà¥«à¥¦à¥Ńà¥¬": 6948,
      "à¤¡à¤¹à¤²à¤®": 6949,
      "Ġà¤¨à¤Ĩà¤īà¤²": 6950,
      "à¤¦à¤ķà¤ªà¤¦": 6951,
      "à¤°à¤Ŀ": 6952,
      "à¤¤à¤¶à¤¤": 6953,
      "à¤¸à¤¤à¤ķ": 6954,
      "à¤¸à¤¦à¤¨": 6955,
      "à¤ªà¤¯à¤®": 6956,
      "à¤¾-à¤ģ-": 6957,
      "à¤Łà¤Ńà¤°": 6958,
      "Ġà¤°à¤Ĺà¤¡": 6959,
      "Ġà¤¨à¤¡": 6960,
      "Ġà¤¨à¤°à¤¨": 6961,
      "Ġà¤¬à¤£": 6962,
      "à¤·à¤ªà¤¨": 6963,
      "à¤§à¤µà¤°": 6964,
      "Ġà¤¹à¤¥": 6965,
      "à¤Ńà¤ľ": 6966,
      "Ġà¤ħà¤ķà¤°": 6967,
      "Ġà¤µà¤£": 6968,
      "Ġà¤Ĩà¤¶à¤¨": 6969,
      "à¤ĩà¤®à¤®": 6970,
      "Ġà¤īà¤¸à¤¬": 6971,
      "à¤Ĺà¤°à¤¨": 6972,
      "Ġà¤ıà¤®à¤ķ": 6973,
      "Ġà¤ĸà¤¦": 6974,
      "Ġà¤ĸà¤¬à¤°à¤®": 6975,
      "à¤Ĩà¤£à¤µ": 6976,
      "à¤°à¤¹à¤¹à¤°": 6977,
      "Ġà¤ıà¤ķà¤¬": 6978,
      "à¤®à¤¨à¤¦": 6979,
      "à¤ªà¤¤à¤ŀ": 6980,
      "à¤²à¤®à¤ķ": 6981,
      "à¤ķà¤®à¤§": 6982,
      "à¤ķà¤²à¤Ĺ": 6983,
      "à¥«à¥¦à¥¦à¥¦": 6984,
      "Ġà¤īà¤ªà¤ķà¤ª": 6985,
      "à¤·à¤£à¤ķà¤°": 6986,
      "à¤¬à¤°à¤¸à¤®": 6987,
      "à¤¤à¤®à¤¯": 6988,
      "à¤ĵà¤ªà¤¨": 6989,
      "à¤ķà¤ªà¤Ł": 6990,
      "Ġà¤ħà¤®à¤°à¤ª": 6991,
      "à¤·à¤¦à¤¬": 6992,
      "à¤łà¤ķà¤¸": 6993,
      "à¤¯à¤¯à¤¨à¤ªà¤Ľ": 6994,
      "Ġà¤Ĳà¤ļ": 6995,
      "Ġà¥§à¥¯à¥Ńà¥ª": 6996,
      "à¤¯à¤ªà¤°à¤ķ": 6997,
      "à¤ĩà¤ªà¤¬": 6998,
      "à¤£à¤ªà¤¦à¤ķ": 6999,
      "Ġà¤¨à¤Ĺà¤ı": 7000,
      "Ġà¥¯à¥¯à¥¯": 7001,
      "Ġà¥¦à¥«à¥¨": 7002,
      "Ġà¤ıà¤¸à¤Īà¤Īà¤ķ": 7003,
      "Ġà¤ıà¤«à¤ıà¤®à¤²": 7004,
      "Ġà¤Ĩà¤ĩà¤ıà¤®à¤ĩ": 7005,
      "à¤°à¤¡à¤®": 7006,
      "à¤°à¤Ĩà¤²": 7007,
      "à¤¨à¤¬à¤¢": 7008,
      "à¤²à¤µà¤¨": 7009,
      "à¤¯à¤°à¤¹": 7010,
      "Ġà¤¸à¤°à¤®": 7011,
      "à¤Ĺà¤¡à¤¬à¤¡": 7012,
      "Ġà¤ķà¤ªà¤²": 7013,
      "Ġà¤°à¤ħ": 7014,
      "Ġà¤°à¤¸à¤ķ": 7015,
      "Ġà¤¨à¤ħà¤ªà¤¨": 7016,
      "Ġà¤®à¤Ī": 7017,
      "Ġà¤¤à¤¡à¤ķà¤Ńà¤¡à¤ķ": 7018,
      "à¤¡à¤ĸ": 7019,
      "à¤£à¤ļà¤¨": 7020,
      "Ġà¤¯à¤®à¤¬à¤¹": 7021,
      "Ġà¤¸à¤®à¤ļ": 7022,
      "à¥Įà¥Ī": 7023,
      "Ġà¤ļà¤¹à¤²": 7024,
      "à¤ĺà¤¹à¤°": 7025,
      "à¤ªà¤¨à¤¦": 7026,
      "Ġà¤ıà¤ķà¤¤à¤²": 7027,
      "à¤®à¤¨à¤¨": 7028,
      "à¤®à¤¨à¤®à¤¸": 7029,
      "à¤¤à¤°à¤Ĺà¤¯": 7030,
      "à¤Łà¤¨à¤°à¤ķ": 7031,
      "à¤¸à¤²à¤Ĺ": 7032,
      "Ġà¤Ŀà¤²à¤®à¤²": 7033,
      "à¤Ĺà¤ķà¤µ": 7034,
      "à¤¹à¤¨à¤¬à¤¹": 7035,
      "Ġà¥¯à¥§à¥¦": 7036,
      "à¤Ĺà¤®à¤¨à¤ķà¤°": 7037,
      "Ġà¤ħà¤®à¤°à¤ķ": 7038,
      "à¤®à¤ļà¤°": 7039,
      "Ġà¤Ĩà¤¦à¤®": 7040,
      "à¤¥à¤²à¤¸à¤®": 7041,
      "à¤ĩà¤Łà¤¹": 7042,
      "Ġà¥§à¥¯à¥©": 7043,
      "Ġà¤Ĩà¤¶à¤²": 7044,
      "Ġà¥¨à¥§à¥¯": 7045,
      "à¤·à¤§à¤°à¤¤": 7046,
      "à¤Ĺà¤£à¤°": 7047,
      "Ġà¥¨à¥ªà¥§": 7048,
      "Ġà¥¨à¥Ńà¥ª": 7049,
      "Ġà¥¨à¥¬à¥¦": 7050,
      "à¤Łà¤¨à¤Ĺà¤°à¤²": 7051,
      "Ġà¤¹à¤ķà¤¸à¤®": 7052,
      "à¥§à¥§à¥®": 7053,
      "à¥§à¥¬à¥¦": 7054,
      "à¤Ĩà¤ĩà¤°à¤¹à¤¨": 7055,
      "à¤¼à¤¿": 7056,
      "Ġà¥¦à¥¬à¥Ń": 7057,
      "Ġà¤²à¤¹à¤°à¤®": 7058,
      "à¥¨à¥¦à¥¬à¥®à¥¬à¥¯": 7059,
      "à¤¾à¥Ī-à¤Ĥ": 7060,
      "Ġà¤®à¤łà¤®à¤¨": 7061,
      "à¥Ľà¤°": 7062,
      "à¤®à¤°à¤²": 7063,
      "à¤®à¤ľà¤¸": 7064,
      "Ġà¤ªà¤§": 7065,
      "à¤Łà¤Ļ": 7066,
      "à¤Łà¤ĩà¤¨": 7067,
      "à¤Łà¤ħà¤Ł": 7068,
      "Ġà¤ķà¤°à¤£à¤²": 7069,
      "Ġà¤¨à¤¬à¤¤": 7070,
      "à¤īà¤ķà¤²": 7071,
      "à¤ĸà¤¸à¤¹": 7072,
      "Ġà¤ľà¤¯à¤¶": 7073,
      "Ġà¤īà¤¥à¤²à¤ª": 7074,
      "à¤«à¤²à¤®": 7075,
      "Ġà¤¸à¤®à¤¬à¤¨": 7076,
      "à¤Ĩà¤°à¤²": 7077,
      "à¤¨à¤ķà¤Ĩà¤īà¤Ł": 7078,
      "à¤²à¤ķà¤¸à¤¹": 7079,
      "Ġà¤§à¤¨à¤ª": 7080,
      "à¤²à¤¯à¤¸à¤®": 7081,
      "à¤°à¤µà¤ª": 7082,
      "à¤·à¤£à¤Ńà¤°": 7083,
      "à¤¶à¤ķà¤¦": 7084,
      "à¤¤à¤¨à¤ªà¤Ľ": 7085,
      "à¤¦à¤¨à¤¹": 7086,
      "à¤ıà¤¨à¤ıà¤²": 7087,
      "Ġà¤ħà¤Ĺà¤®": 7088,
      "à¤µà¤°à¤£à¤µ": 7089,
      "à¤°à¤ļà¤¨à¤ķ": 7090,
      "Ġà¤ıà¤®à¤«": 7091,
      "à¤¨à¤µà¤īà¤¦": 7092,
      "Ġà¥§à¥«à¥¨": 7093,
      "à¤ħà¤¹à¤®à¤¦": 7094,
      "Ġà¥§à¥¯à¥Ńà¥«": 7095,
      "à¥Īà¤ģà¤Ĥ": 7096,
      "Ġà¤Ĩà¤ķà¤·": 7097,
      "Ġà¥§à¥©à¥©": 7098,
      "Ġà¥§à¥ªà¥§": 7099,
      "Ġà¤ĺà¤Łà¤¸": 7100,
      "Ġà¤Ĺà¤£à¤²": 7101,
      "Ġà¥§à¥Ńà¥¬": 7102,
      "à¤īà¤¸à¤«": 7103,
      "à¤Ĩà¤īà¤Ľ": 7104,
      "à¤Ĩà¤ĩà¤ıà¤®": 7105,
      "à¤°à¤ļà¤²à¤¨à¤²": 7106,
      "Ġà¤²à¤¹à¤¡": 7107,
      "à¥¦à¥¬à¥¯": 7108,
      "Ġà¥§à¥¯à¥®à¥Ń": 7109,
      "à¥§à¥¯à¥®à¥¨": 7110,
      "Ġà¥§à¥¯à¥«à¥©": 7111,
      "Ġà¤²à¤ĸà¤¨à¤īà¤®": 7112,
      "Ġà¤¬à¤°à¤¹à¤¥à¤µ": 7113,
      "Ġà¤ģ": 7114,
      "à¤¨à¤īà¤ł": 7115,
      "à¤²à¤īà¤ªà¤°": 7116,
      "à¤µà¤§à¤¨": 7117,
      "à¤¦à¤ļ": 7118,
      "Ġà¤ªà¤²à¤ķ": 7119,
      "à¤ıà¤Ńà¤¨": 7120,
      "Ġà¤ķà¤ļà¤ķ": 7121,
      "Ġà¤Ĺà¤Ĺà¤¨à¤²": 7122,
      "Ġà¤Ńà¤°à¤£": 7123,
      "Ġà¤¨à¤¥à¤ª": 7124,
      "Ġà¤¬à¤Łà¤®": 7125,
      "à¤·à¤®à¤¹": 7126,
      "à¤§à¤®à¤²": 7127,
      "Ġà¤®à¤°à¤¹": 7128,
      "Ġà¤Ľà¤²à¤ķ": 7129,
      "à¤¶à¤¸à¤ķ": 7130,
      "à¤īà¤¸à¤¬": 7131,
      "Ġà¤¤à¤ľà¤¬": 7132,
      "à¤Īà¤Ńà¤¨": 7133,
      "Ġà¤ľà¤£": 7134,
      "à¤°à¤®à¤ĸ": 7135,
      "Ġà¤ļà¤¹à¤ķ": 7136,
      "Ġà¤ıà¤ļà¤¬": 7137,
      "à¤Ļà¤Ľ": 7138,
      "à¤Ĩà¤¤à¤®": 7139,
      "Ġà¤ľà¤¨à¤¤à¤¨": 7140,
      "Ġà¤ľà¤¨à¤¸à¤°à¤ķ": 7141,
      "à¤Ŀà¤µ": 7142,
      "Ġà¤¡à¤¨à¤ķ": 7143,
      "à¤ķà¤®à¤¸": 7144,
      "à¤¶à¤¨à¤¹à¤°": 7145,
      "à¥©à¥¨à¥¦": 7146,
      "à¤īà¤ªà¤¬": 7147,
      "à¤ıà¤¨à¤Ĩà¤ĩà¤¸": 7148,
      "Ġà¤Ńà¤°à¤¥": 7149,
      "ĠĠĠĠĠĠĠĠĠĠĠčĊ": 7150,
      "Ġà¤ıà¤¸à¤ľ": 7151,
      "Ġà¥§à¥¬à¥©": 7152,
      "Ġà¤ıà¤¨à¤ıà¤®": 7153,
      "à¥Į-à¤Ĥ-": 7154,
      "Ġà¥¦à¥§à¥Ń": 7155,
      "Ġà¥¨à¥®à¥©": 7156,
      "à¤¹à¤¦à¤¬à¤¨": 7157,
      "Ġà¤ıà¤²à¤¡": 7158,
      "à¥§à¥ªà¥«": 7159,
      "à¤ĸà¤¸à¤Ĩà¤°": 7160,
      "Ġà¥¦à¥¬à¥¨à¥¬à¥©": 7161,
      "ĠĠĠĠĠĠĠĠĠĠĠĠĠčĊ": 7162,
      "à¥¦à¥¬à¥©": 7163,
      "Ġà¥§à¥¯à¥®à¥¨": 7164,
      "à¥§à¥¯à¥®à¥¯": 7165,
      "à¥¨à¥¦à¥¬à¥¯à¥Ńà¥¦": 7166,
      "à¤¸à¤¬à¤²": 7167,
      "à¤ªà¤ļà¤¨": 7168,
      "à¤µà¤Ĺà¤£": 7169,
      "à¤Ĺà¤µà¤¶": 7170,
      "à¤Łà¤ªà¤°": 7171,
      "à¤¬à¤¥": 7172,
      "à¤¬à¤ľà¤Ĺ": 7173,
      "Ġà¤Ńà¤¡à¤ķ": 7174,
      "Ġà¤¨à¤ªà¤¤": 7175,
      "Ġà¤¨à¤Ĩà¤¤": 7176,
      "Ġà¤¬à¤¥à¤¨": 7177,
      "Ġà¤¹à¤²à¤²": 7178,
      "à¤¶à¤Ĺà¤°": 7179,
      "à¤ļà¤Ń": 7180,
      "à¤ıà¤ķà¤ķ": 7181,
      "Ġà¤¤à¤¬à¤²": 7182,
      "à¤¡à¤°à¤¶": 7183,
      "à¤Īà¤¸à¤°": 7184,
      "à¤ĸà¤®à¤¦": 7185,
      "Ġà¤²à¤ķà¤°": 7186,
      "Ġà¤¸à¤®à¤¦": 7187,
      "Ġà¤ıà¤ķà¤¢": 7188,
      "Ġà¤§à¤¨à¤¨": 7189,
      "à¤¯à¤®à¤§": 7190,
      "à¤ªà¤¤à¤®": 7191,
      "à¤²à¤®à¤¸": 7192,
      "à¤²à¤®à¤§": 7193,
      "à¤²à¤¨à¤Ĺà¤°": 7194,
      "à¥§à¥¨à¥¦": 7195,
      "à¥§à¥§à¥¦": 7196,
      "Ġà¤ķà¤°à¤µ": 7197,
      "Ġà¥©à¥Ńà¥«": 7198,
      "Ġà¤ħà¤§à¤°": 7199,
      "Ġà¤īà¤ªà¤¬": 7200,
      "à¤¤à¤¨à¤¹à¤°": 7201,
      "Ġà¤ĩà¤°à¤«": 7202,
      "Ġà¥ªà¥§à¥¦": 7203,
      "à¤ħà¤°à¤¨": 7204,
      "Ġà¤¸à¤°à¤ª": 7205,
      "Ġà¥®à¥©à¥¦": 7206,
      "à¤Ĩà¤°à¤ľ": 7207,
      "Ġà¤®à¤¤à¤¬": 7208,
      "à¤¨à¤µà¤¹": 7209,
      "Ġà¥§à¥¯à¥ªà¥®": 7210,
      "Ġà¤ħà¤¦à¤®": 7211,
      "à¤ľà¤¯à¤¶": 7212,
      "Ġà¤ķà¤ªà¤Ł": 7213,
      "Ġà¥§à¥¬à¥®": 7214,
      "Ġà¤Īà¤¦": 7215,
      "Ġà¤Īà¤Ĩà¤Īà¤ı": 7216,
      "à¥¦à¥¦à¥¦à¥¦à¥¦": 7217,
      "Ġà¥¨à¥©à¥¨": 7218,
      "à¤ıà¤²à¤ıà¤¨": 7219,
      "Ġà¤Ĩà¤ļà¤°à¤£à¤®": 7220,
      "à¥§à¥§à¥§": 7221,
      "à¥§à¥¨à¥©": 7222,
      "à¥§à¥¨à¥¯": 7223,
      "à¤°à¤¸à¤®à¤ķ": 7224,
      "à¤ĩà¤¬à¤²à¤®": 7225,
      "à¤¬à¤Īà¤¬": 7226,
      "à¥§à¥©à¥¨": 7227,
      "à¤¼à¥ĭ": 7228,
      "Ġà¤¦à¤®à¤ķà¤²à¤ķ": 7229,
      "à¤²à¤Ĺà¤¨à¤ĸ": 7230,
      "Ġà¥¦à¥«à¥«": 7231,
      "à¤ļà¤°à¤£à¤¬à¤¦": 7232,
      "Ġà¤°à¤¥à¤¯": 7233,
      "à¤¾à¤ĥ-": 7234,
      "à¤¨à¤®à¤ķ": 7235,
      "à¤¿à¤¾-": 7236,
      "à¤²à¤°à¤¹à¤°": 7237,
      "à¤®à¤²à¤Ĺ": 7238,
      "à¤¤à¤²à¤Ĺ": 7239,
      "à¥ģà¤¿": 7240,
      "à¤ªà¤¸à¤¹": 7241,
      "à¤Ĺà¤Ľ": 7242,
      "à¤Łà¤°à¤¦": 7243,
      "à¤Łà¤¤à¤¨": 7244,
      "Ġà¤ķà¤¹à¤°": 7245,
      "Ġà¤ķà¤¦à¤ķ": 7246,
      "Ġà¤¨à¤§": 7247,
      "Ġà¤¬à¤¬à¤°à¤®": 7248,
      "Ġà¤¹à¤ķà¤¹à¤°": 7249,
      "à¤¶à¤°à¤¦": 7250,
      "à¤¶à¤µà¤ª": 7251,
      "Ġà¤¤à¤Ľ": 7252,
      "à¤£à¤¸à¤¹": 7253,
      "à¤ĩà¤Ńà¤®": 7254,
      "Ġà¤ļà¤ķà¤¨": 7255,
      "Ġà¤ĸà¤¤à¤®": 7256,
      "à¤ªà¤°à¤ª": 7257,
      "à¤ľà¤¨à¤ķà¤²": 7258,
      "à¤ĺà¤¬à¤¹": 7259,
      "à¤¨à¤ķà¤ķ": 7260,
      "Ġà¤«à¤®": 7261,
      "à¤ªà¤¨à¤¹": 7262,
      "à¤®à¤¨à¤µà¤®": 7263,
      "à¤µà¤°à¤¦": 7264,
      "à¤µà¤°à¤¸à¤®": 7265,
      "à¥¨à¥¨à¥¦": 7266,
      "Ġà¤ĩà¤¡à¤²": 7267,
      "Ġà¥¨à¥¦à¥¨": 7268,
      "à¤¶à¤¨à¤¸": 7269,
      "à¤¸à¤¦à¤¦": 7270,
      "à¥¨à¥¦à¥©à¥¯": 7271,
      "à¥¨à¥¦à¥©à¥¨": 7272,
      "Ġà¤ĵà¤ļ": 7273,
      "à¥¯à¥Ń": 7274,
      "Ġà¥Ńà¥©à¥¦": 7275,
      "Ġà¤¢à¤°": 7276,
      "à¤¬à¤¤à¤¬": 7277,
      "Ġà¤°à¤¹à¤¨à¤¸à¤¹": 7278,
      "Ġà¤¨à¤¹à¤¸": 7279,
      "Ġà¥§à¥§à¥©à¥®": 7280,
      "Ġà¥¨à¥«à¥©à¥¦": 7281,
      "à¤ļà¤°à¤Ļ": 7282,
      "Ġà¥©à¥¦à¥¨": 7283,
      "Ġà¤¨à¤ªà¤¸": 7284,
      "à¥§à¥¯à¥Ńà¥«": 7285,
      "à¤Ĭà¤ķ": 7286,
      "à¤Ĭà¤²": 7287,
      "à¥§à¥¦à¥§à¥¨": 7288,
      "ĠĠĠĠĠĠĠĠĠĠĠĠĠĠĠĠĠĠĠĠčĊ": 7289,
      "à¤¶à¤Ńà¤°à¤®": 7290,
      "à¤ħà¤¬à¤²à¤®": 7291,
      "à¤¸à¤°à¤¸à¤²": 7292,
      "Ġà¤ıà¤ļà¤ª": 7293,
      "Ġà¤°à¤ľà¤¤à¤ª": 7294,
      "à¥§à¥¯à¥®à¥«": 7295,
      "Ġà¥§à¥¯à¥Ńà¥®": 7296,
      "Ġà¤°à¤£à¤ľ": 7297,
      "Ġà¤Ķà¤·à¤§à¤ķ": 7298,
      "Ġà¤¹à¤¤à¤ķà¤¡": 7299,
      "à¤°à¤ĵà¤Ł": 7300,
      "à¥ĩà¥Ī": 7301,
      "à¤¸à¤¯à¤®": 7302,
      "à¤µà¤¬à¤¹": 7303,
      "Ġà¤¸à¤µà¤¸": 7304,
      "à¤Ĺà¤Ńà¤¨": 7305,
      "à¤Łà¤ľ": 7306,
      "à¤ıà¤ĩà¤ķ": 7307,
      "à¤ľà¤²à¤Ĺ": 7308,
      "Ġà¤°à¤ħà¤ķ": 7309,
      "Ġà¤¹à¤«": 7310,
      "Ġà¤¹à¤µà¤¨": 7311,
      "à¤¡à¤°à¤¬": 7312,
      "Ġà¤¦à¤¹à¤®": 7313,
      "Ġà¤ıà¤¨à¤°": 7314,
      "à¥¦à¥ª": 7315,
      "à¤²à¤®à¤¹": 7316,
      "à¤µà¤¨à¤Ĺà¤°": 7317,
      "Ġà¤®à¤¨à¤ª": 7318,
      "Ġà¤ªà¤¹à¤²à¤²": 7319,
      "à¤¸à¤°à¤Ń": 7320,
      "Ġà¤Ĩà¤¯à¤°à¤²": 7321,
      "Ġà¤Ŀà¤¸à¤Ļ": 7322,
      "à¥¨à¥¦à¥¨à¥¬": 7323,
      "à¥¨à¥¦à¥©à¥®": 7324,
      "à¤Ĺà¤²à¤ªà¤¨": 7325,
      "Ġà¤¸à¤¡à¤ķà¤¸": 7326,
      "à¤¤à¤°à¤£à¤²": 7327,
      "à¤ĩà¤Łà¤¬": 7328,
      "Ġà¥¨à¥«à¥«": 7329,
      "à¤°à¤¤à¤ķà¤¥": 7330,
      "Ġà¥¨à¥¦à¥Ńà¥§à¥Ńà¥¨": 7331,
      "à¤Ĺà¤łà¤¨à¤¬": 7332,
      "Ġà¤¤à¤²à¤¦": 7333,
      "à¤Ĩà¤Īà¤ıà¤®": 7334,
      "Ġà¥¨à¥¬à¥«": 7335,
      "Ġà¤Ĩà¤łà¤µ": 7336,
      "à¤¹à¤°à¤£à¤¹à¤°": 7337,
      "à¤ıà¤«à¤Ł": 7338,
      "à¥§à¥¨à¥Ń": 7339,
      "Ġà¤¬à¤¹à¤¸à¤ªà¤Ľ": 7340,
      "à¤Ĺà¤¸à¤Ĺ": 7341,
      "à¤µà¤¯à¤®à¤²": 7342,
      "à¤°à¤ľà¤¨à¤²": 7343,
      "Ġà¤ħà¤ľà¤¯à¤®": 7344,
      "à¥įà¤ģà¥ĩ": 7345,
      "à¤¨à¤¥à¤²": 7346,
      "à¤¨à¤ħà¤Łà¤°": 7347,
      "à¥ĭà¤Ĥ-": 7348,
      "à¤¤à¤ªà¤°": 7349,
      "à¤¤à¤Ĺà¤¤à¤ķ": 7350,
      "à¤¸à¤ħà¤°": 7351,
      "à¤µà¤¯à¤¤": 7352,
      "à¤¦à¤ªà¤Ľ": 7353,
      "Ġà¤ªà¤²à¤²": 7354,
      "Ġà¤¹à¤²à¤¬": 7355,
      "à¤ļà¤ĺà¤°": 7356,
      "à¤ļà¤¥à¤°à¤®": 7357,
      "Ġà¤ħà¤«à¤²": 7358,
      "à¤ħà¤¢": 7359,
      "à¤°à¤¤à¤µà¤°": 7360,
      "à¤Ļà¤²à¤Ĺ": 7361,
      "à¤Ļà¤¸à¤¹": 7362,
      "à¤Ĩà¤¦à¤¨à¤ª": 7363,
      "à¤ŀà¤¸": 7364,
      "Ġà¤¬à¤¨à¤¸": 7365,
      "à¤ĩà¤¨à¤¹à¤°": 7366,
      "à¤°à¤¦à¤¶à¤¨": 7367,
      "à¤ķà¤°à¤°": 7368,
      "à¤Łà¤°à¤Ń": 7369,
      "à¤¤à¤¨à¤¬": 7370,
      "Ġà¤Ŀà¤ªà¤Ł": 7371,
      "Ġà¤ĺà¤°à¤ĸà¤°": 7372,
      "Ġà¤ªà¤¤à¤¨à¤ķ": 7373,
      "à¤ħà¤¸à¤ľ": 7374,
      "à¤Ĩà¤°à¤¡": 7375,
      "à¤¨à¤µà¤µ": 7376,
      "à¤ıà¤®à¤¡à¤¬": 7377,
      "à¤°à¤ľà¤¯à¤¨à¤Ĺà¤°": 7378,
      "Ġà¤ħà¤ªà¤¶à¤¬": 7379,
      "à¤ľà¤¯à¤ªà¤Ľ": 7380,
      "Ġà¤¦à¤¶à¤°": 7381,
      "Ġà¥§à¥ªà¥§à¥«": 7382,
      "Ġà¤ıà¤¨à¤ı": 7383,
      "Ġà¤ıà¤¨à¤¡": 7384,
      "Ġà¤«à¤°à¤ķà¤ªà¤¨": 7385,
      "Ġà¥¨à¥ªà¥«": 7386,
      "Ġà¤¬à¤®à¤¬à¤¹": 7387,
      "à¤Ĭà¤¦à¤²": 7388,
      "à¤Ĳà¤¨à¤ķ": 7389,
      "Ġà¥«à¥«à¥«": 7390,
      "Ġà¤¡à¤²à¤°à¤¸": 7391,
      "Ġà¤¡à¤²à¤°à¤²": 7392,
      "Ġà¤Ńà¤ĩà¤ķà¤¨": 7393,
      "à¤°à¤ļà¤²à¤¨à¤ķ": 7394,
      "à¤®à¤Ļà¤ª": 7395,
      "à¥¬à¥¬à¥Ń": 7396,
      "ĠĠĠĠĠĠĠĠĠĠĠĠĠĠĠĠĠĠĠĠĠĠĠĠĠĠĠĠĠĠčĊ": 7397,
      "à¥§à¥¯à¥¬à¥¨": 7398,
      "Ġà¤ħà¤¹à¤®à¤¦à¤²": 7399,
      "à¥įà¥ĭ": 7400,
      "à¤¨à¤«à¤°": 7401,
      "à¤²à¤¸à¤²": 7402,
      "à¤¤à¤¦à¤¨": 7403,
      "à¤¯à¤¦à¤ķ": 7404,
      "à¤¸à¤ĸà¤°": 7405,
      "à¤ªà¤¥à¤²": 7406,
      "Ġà¥ŀ": 7407,
      "à¤¹à¤ľà¤¨": 7408,
      "Ġà¤ªà¤µà¤¨à¤ķ": 7409,
      "à¤Łà¤ªà¤¨": 7410,
      "à¤ıà¤«à¤¬": 7411,
      "Ġà¤Ĺà¤Ĺ": 7412,
      "Ġà¤°à¤¬à¤°à¤ķ": 7413,
      "Ġà¤°à¤¤à¤¨à¤ª": 7414,
      "Ġà¤¨à¤īà¤¡": 7415,
      "Ġà¤Ľà¤¤à¤¬": 7416,
      "à¤ļà¤²à¤¬": 7417,
      "à¤¡à¤Ľ": 7418,
      "Ġà¤µà¤¦à¤²": 7419,
      "Ġà¤µà¤¨à¤ª": 7420,
      "à¤£à¤ªà¤Ľ": 7421,
      "à¤ĸà¤¡à¤ķ": 7422,
      "à¤ĸà¤ķà¤¸": 7423,
      "à¤ĩà¤ªà¤®": 7424,
      "à¤¸à¤®à¤¸à¤ķ": 7425,
      "à¤ľà¤¨à¤ĺà¤¨à¤¤": 7426,
      "Ġà¤«à¤²à¤²": 7427,
      "Ġà¤ħà¤¨à¤¸à¤¨à¤ķ": 7428,
      "Ġà¤¬à¤¨à¤®": 7429,
      "à¤¯à¤¸à¤¨à¤ķ": 7430,
      "à¤ĩà¤¨à¤ª": 7431,
      "à¤²à¤®à¤Ł": 7432,
      "à¤¸à¤¨à¤²à¤ķ": 7433,
      "à¤®à¤¹à¤¡": 7434,
      "Ġà¤¸à¤¨à¤¸": 7435,
      "à¤ķà¤°à¤£à¤¬": 7436,
      "Ġà¤¨à¤Ĺà¤°à¤ªà¤°": 7437,
      "Ġà¤ĺà¤°à¤Ĩ": 7438,
      "à¤¹à¤¨à¤ª": 7439,
      "Ġà¥§à¥¯à¥ª": 7440,
      "à¤ľà¤¯à¤¬": 7441,
      "Ġà¥§à¥®à¥©": 7442,
      "Ġà¤ĸà¤¨à¤ľ": 7443,
      "à¤°à¤ĸà¤£": 7444,
      "Ġà¥¨à¥¯à¥®": 7445,
      "Ġà¤ĭà¤£à¤²": 7446,
      "Ġà¤Ĺà¤ıà¤Ľ": 7447,
      "ĠĠĠĠĠĠĠĠĠĠĠĠĠĠĠĠĠĠĠĠĠčĊ": 7448,
      "à¤Ĩà¤ľà¤ķà¤²": 7449,
      "à¤ĺà¤Łà¤¨à¤ķ": 7450,
      "Ġà¤ĺà¤¨à¤ĺ": 7451,
      "à¤¨à¤Ńà¤µà¤¨": 7452,
      "Ġà¥¨à¥¦à¥ªà¥§": 7453,
      "à¤ħà¤¬à¤§": 7454,
      "Ġà¤ķà¤ļà¤¹à¤°": 7455,
      "Ġà¤ĵà¤®à¤¨à¤ķ": 7456,
      "à¤Ńà¤ıà¤¨à¤Ńà¤ı": 7457,
      "Ġà¤¸à¤¦à¤¨à¤¬": 7458,
      "à¥§à¥¯à¥®à¥ª": 7459,
      "à¥¦à¥Ńà¥©à¥¦à¥Ńà¥ª": 7460,
      "à¥§à¥¯à¥«à¥®": 7461,
      "-à¤¾à¤Ĥà¥Ī-": 7462,
      "à¤®à¤¶à¤®à¤¶": 7463,
      "à¤¹à¤¤à¤²": 7464,
      "à¤¹à¤£à¤®": 7465,
      "Ġà¤¸à¤ĩ": 7466,
      "Ġà¤¸à¤¸à¤ķ": 7467,
      "Ġà¤°à¤Ļà¤²": 7468,
      "Ġà¤Ńà¤°à¤¤à¤®": 7469,
      "à¤§à¤ľ": 7470,
      "à¤Ńà¤°à¤²": 7471,
      "à¤¡à¤Ńà¤°": 7472,
      "Ġà¤µà¤ļà¤¨à¤²": 7473,
      "Ġà¤ľà¤«": 7474,
      "Ġà¤ľà¤Ĺà¤ķ": 7475,
      "Ġà¤Ĩà¤ıà¤²à¤Ĺà¤¤": 7476,
      "à¤ĩà¤ıà¤°": 7477,
      "à¤īà¤¨à¤¸": 7478,
      "Ġà¤¶à¤µà¤¦": 7479,
      "Ġà¤ĺà¤°à¤¤à¤°": 7480,
      "Ġà¤ľà¤¨à¤¸à¤®à¤ķ": 7481,
      "à¤°à¤¸à¤Ĺ": 7482,
      "à¤¸à¤¨à¤µ": 7483,
      "à¤®à¤¹à¤¨": 7484,
      "à¤°à¤µà¤®à¤¯": 7485,
      "à¤·à¤£à¤ªà¤Ľ": 7486,
      "à¤Łà¤°à¤ªà¤¨": 7487,
      "à¤Łà¤°à¤Ńà¤¨": 7488,
      "à¤µà¤ķà¤¸": 7489,
      "Ġà¥¨à¥¦à¥®": 7490,
      "à¥¨à¥¦à¥¨à¥¯": 7491,
      "à¤Ĺà¤²à¤«": 7492,
      "Ġà¤ĺà¤°à¤Ĺ": 7493,
      "à¤ıà¤¨à¤ıà¤®à¤¬": 7494,
      "Ġà¤®à¤²à¤¦": 7495,
      "Ġà¤Ĩà¤®à¤°": 7496,
      "Ġà¤ıà¤®à¤Ĩà¤Ī": 7497,
      "à¤ªà¤¹à¤²à¤®": 7498,
      "Ġà¤°à¤ķà¤®à¤®à¤§": 7499,
      "Ġà¤Ĳà¤¸": 7500,
      "Ġà¥§à¥¯à¥ªà¥«": 7501,
      "Ġà¤§à¤¨à¤ªà¤¤": 7502,
      "à¤ķà¤¸à¤¤": 7503,
      "Ġà¤¨à¤ªà¤ļ": 7504,
      "Ġà¤ļà¤°à¤£à¤¹à¤°": 7505,
      "Ġà¥§à¥©à¥¯": 7506,
      "Ġà¤¤à¤²à¤¤à¤²": 7507,
      "Ġà¥¨à¥¯à¥©": 7508,
      "à¤Łà¤µà¤²à¤¬": 7509,
      "à¤¸à¤¨à¤²à¤²": 7510,
      "à¤ķà¤¬à¤¡": 7511,
      "à¥§à¥§à¥Ń": 7512,
      "Ġà¤ĵà¤Ńà¤²à¤®": 7513,
      "à¤ıà¤ļà¤ª": 7514,
      "à¤Ĩà¤īà¤Łà¤²": 7515,
      "Ġà¤¹à¤Ļà¤ķà¤Ļà¤¬": 7516,
      "à¤ªà¤°à¤ķà¤®": 7517,
      "Ġà¥§à¥¯à¥®à¥©": 7518,
      "à¥§à¥¯à¥®à¥®": 7519,
      "Ġà¤Ĩà¤ĩà¤¡à¤²à¤®": 7520,
      "à¥įà¤¾à¤¾-": 7521,
      "à¤°à¤ı": 7522,
      "à¤°à¤ħà¤ĺ": 7523,
      "à¤®à¤°à¤¨": 7524,
      "à¤¤à¤®à¤¨": 7525,
      "à¤¤à¤¤à¤²": 7526,
      "à¤¯à¤²à¤¬": 7527,
      "à¤¯à¤¬à¤²": 7528,
      "à¤µà¤ķà¤®": 7529,
      "Ġà¤¸à¤ľà¤¨": 7530,
      "Ġà¤¸à¤¤à¤ª": 7531,
      "à¤¬à¤°à¤¦": 7532,
      "à¤¬à¤¬à¤Ī": 7533,
      "Ġà¤¨à¤°à¤ķà¤ķ": 7534,
      "Ġà¤®à¤²à¤¬": 7535,
      "Ġà¤®à¤²à¤²": 7536,
      "à¤¶à¤Ĺ": 7537,
      "à¤ļà¤ªà¤Łà¤ķ": 7538,
      "à¤ıà¤ķà¤ªà¤ķ": 7539,
      "à¤ĩà¤¸à¤²": 7540,
      "Ġà¤ĸà¤²à¤ķ": 7541,
      "à¥ĥà¤¿": 7542,
      "Ġà¤ªà¤°à¤ª": 7543,
      "Ġà¤ıà¤ķà¤¹": 7544,
      "à¤®à¤¨à¤Ĺà¤°à¤®": 7545,
      "à¥Įà¤Ĥà¤Ĥ": 7546,
      "à¥§à¥§à¥¯": 7547,
      "à¤¶à¤ķà¤¶": 7548,
      "à¤·à¤ķà¤¶": 7549,
      "Ġà¥¨à¥¦à¥¨à¥¯": 7550,
      "à¥©à¥¨à¥«": 7551,
      "Ġà¥ªà¥©à¥¦": 7552,
      "Ġà¥¬à¥©à¥¦": 7553,
      "Ġà¤īà¤¦à¤¯à¤²": 7554,
      "à¤¹à¤ķà¤¹": 7555,
      "Ġà¤ħà¤®à¤°à¤¤": 7556,
      "à¤°à¤¨à¤°": 7557,
      "à¤ıà¤¸à¤Īà¤Ī": 7558,
      "Ġà¤µà¤¡à¤²": 7559,
      "à¤īà¤®à¤Ļ": 7560,
      "Ġà¤Ĩà¤µà¤¹": 7561,
      "Ġà¤ıà¤¨à¤ĵà¤¸": 7562,
      "Ġà¤Ĺà¤łà¤¨à¤ªà¤Ľ": 7563,
      "Ġà¥ªà¥¦à¥«à¥¦": 7564,
      "à¤¤à¤°à¤ķà¤²": 7565,
      "Ġà¥¬à¥¦à¥§": 7566,
      "à¥¦à¥Ńà¥¨à¥¦à¥Ńà¥©": 7567,
      "Ġà¤ıà¤ªà¤¬": 7568,
      "Ġà¤Ĩà¤ĩà¤¬": 7569,
      "-à¥ĭà¤Ĥ": 7570,
      "à¤¡à¤¸à¤ľ": 7571,
      "à¤®à¤¯à¤¦à¤°": 7572,
      "à¥§à¥§à¥¬": 7573,
      "Ġà¤¤à¤¬à¤°à¤²": 7574,
      "à¥§à¥ªà¥¦": 7575,
      "Ġà¤¨à¤ļà¤¢": 7576,
      "à¤ıà¤ļà¤ıà¤¸": 7577,
      "Ġà¤ķà¤²à¤®à¤ķ": 7578,
      "à¤ıà¤¨à¤ıà¤ļà¤¸": 7579,
      "Ġà¤¶à¤ªà¤¥à¤Ĺ": 7580,
      "Ġà¤¸à¤¯à¤ķà¤¡": 7581,
      "Ġà¥§à¥¯à¥Ńà¥Ń": 7582,
      "à¤¸à¤¡à¤ķà¤®": 7583,
      "Ġà¤ľà¤¬à¤ľà¤¬": 7584,
      "à¤ľà¤¯à¤¨à¤Ĺà¤°à¤ľà¤¨à¤ķà¤ª": 7585,
      "à¤©": 7586,
      "à¤°à¤²à¤®": 7587,
      "à¤¨à¤°à¤ķà¤°": 7588,
      "à¤®à¤¬à¤°": 7589,
      "Ġà¥Ī": 7590,
      "à¤¹à¤¨à¤Ĺà¤°": 7591,
      "Ġà¤ªà¤¥à¤²": 7592,
      "à¤ıà¤ŀ": 7593,
      "à¤ıà¤®à¤²": 7594,
      "à¤ľà¤²à¤²": 7595,
      "Ġà¤¬à¤°à¤¬": 7596,
      "à¤§à¤®à¤¤": 7597,
      "Ġà¤®à¤Ń": 7598,
      "à¤¥à¤¸à¤®": 7599,
      "à¤ļà¤ķà¤°": 7600,
      "à¤ıà¤ķà¤¥à¤°": 7601,
      "Ġà¤ħà¤ªà¤ķ": 7602,
      "à¤ĸà¤Ĺà¤¨": 7603,
      "Ġà¤Ĩà¤¸à¤ķ": 7604,
      "Ġà¤¥à¤®à¤¨": 7605,
      "Ġà¤ıà¤¨à¤ķ": 7606,
      "Ġà¤¶à¤¶à¤ķ": 7607,
      "à¥¦à¥®": 7608,
      "à¥ģ-à¤ĥ-": 7609,
      "Ġà¤ħà¤¨à¤µ": 7610,
      "à¤ŀà¤¬à¤¹": 7611,
      "Ġà¤¤à¤°à¤¹à¤°": 7612,
      "à¤²à¤®à¤®": 7613,
      "à¤²à¤¯à¤¦": 7614,
      "Ġà¤¬à¤¢à¤µ": 7615,
      "à¥§à¥©à¥¦": 7616,
      "à¤ķà¤°à¤µ": 7617,
      "à¤§à¤¨à¤°": 7618,
      "à¤¦à¤°à¤µà¤¨": 7619,
      "Ġà¤¸à¤°à¤Ĺà¤°": 7620,
      "Ġà¤ħà¤®à¤°à¤²": 7621,
      "Ġà¤®à¤¤à¤¸à¤¹": 7622,
      "à¤ľà¤²à¤¸à¤®": 7623,
      "Ġà¤ħà¤Ŀà¤¸à¤®": 7624,
      "à¤¯à¤¯à¤¨à¤ħà¤§": 7625,
      "Ġà¤Ĳà¤¨à¤¬": 7626,
      "Ġà¥«à¥¦à¥¬à¥¦": 7627,
      "Ġà¤ħà¤¦à¤Ń": 7628,
      "à¤¦à¤®à¤¯": 7629,
      "Ġà¥§à¥ªà¥¬": 7630,
      "Ġà¤ıà¤¨à¤Ĩà¤Īà¤¬": 7631,
      "à¤ªà¤£à¤²": 7632,
      "Ġà¥§à¥Ńà¥®": 7633,
      "Ġà¥¨à¥¨à¥Ń": 7634,
      "Ġà¤¨à¤Ńà¤Īà¤ķà¤¨": 7635,
      "Ġà¤Ĺà¤¹à¤Ńà¤°": 7636,
      "Ġà¥ªà¥ªà¥§": 7637,
      "à¥§à¥¬à¥«": 7638,
      "à¤Ĺà¤¹à¤¤à¤°": 7639,
      "Ġà¥§à¥¯à¥®à¥«": 7640,
      "Ġà¤Ĩà¤¸à¤¨à¤¬": 7641,
      "à¤ĩà¤°à¤¸à¤²": 7642,
      "à¥§à¥¯à¥®à¥Ń": 7643,
      "à¤Ľà¤łà¤ªà¤°": 7644,
      "Ġà¤ķà¤ļà¤ķà¤ļ": 7645,
      "à¤²à¤ĸà¤°": 7646,
      "à¤®à¤¸à¤°": 7647,
      "à¤¤à¤ħà¤¨": 7648,
      "à¤¤à¤²à¤²": 7649,
      "à¤¹à¤¹": 7650,
      "à¤¹à¤¤à¤°": 7651,
      "Ġà¤ķà¤ªà¤°": 7652,
      "Ġà¤ķà¤²à¤ķà¤²": 7653,
      "à¤ľà¤ħà¤¨": 7654,
      "à¤ľà¤¸à¤¹": 7655,
      "Ġà¤Ńà¤°à¤¤à¤²": 7656,
      "Ġà¤¬à¤ª": 7657,
      "Ġà¤®à¤ķà¤¹": 7658,
      "à¤ļà¤¸à¤¹": 7659,
      "à¤Īà¤Łà¤°": 7660,
      "à¤Īà¤Ńà¤°": 7661,
      "Ġà¤²à¤¡à¤¨": 7662,
      "Ġà¤¸à¤®à¤ªà¤¨": 7663,
      "à¤¯à¤ķà¤¥": 7664,
      "Ġà¤ĸà¤°à¤²": 7665,
      "à¤°à¤¤à¤Ńà¤°": 7666,
      "Ġà¤¶à¤µà¤°": 7667,
      "à¤Ļà¤¡": 7668,
      "Ġà¤«à¤²à¤®": 7669,
      "Ġà¤ıà¤ķà¤®à¤¹": 7670,
      "Ġà¤¬à¤¨à¤²": 7671,
      "à¤ķà¤®à¤®": 7672,
      "à¤°à¤¦à¤ķ": 7673,
      "à¥§à¥Ńà¥«": 7674,
      "à¤łà¤®à¤¡": 7675,
      "Ġà¤ķà¤°à¤¸à¤®": 7676,
      "à¥Ńà¥¦à¥¦": 7677,
      "à¤¨à¤®à¤£": 7678,
      "Ġà¤Ńà¤ıà¤Ĺà¤°": 7679,
      "Ġà¤ĩà¤¦à¤ķ": 7680,
      "à¤°à¤¯à¤¶à¤ķ": 7681,
      "Ġà¤ĵà¤ªà¤¨à¤ķ": 7682,
      "Ġà¤¢à¤ķà¤¨": 7683,
      "à¤ıà¤¨à¤ıà¤®": 7684,
      "Ġà¥¯à¥§à¥§": 7685,
      "Ġà¥¯à¥©à¥¦": 7686,
      "à¤Ĺà¤®à¤§": 7687,
      "à¤Ĺà¤®à¤Ĺà¤¢": 7688,
      "Ġà¤¬à¤²à¤Ńà¤¦": 7689,
      "Ġà¤«à¤°à¤«": 7690,
      "Ġà¤¸à¤¤à¤¹à¤ķ": 7691,
      "Ġà¥§à¥¯à¥Ńà¥¬": 7692,
      "Ġà¤¸à¤Ļà¤Ĺ": 7693,
      "Ġà¤¸à¤Ļà¤ĸ": 7694,
      "à¤²à¤µà¤¹à¤°": 7695,
      "Ġà¥¨à¥§à¥¨": 7696,
      "Ġà¤ľà¤¹à¤¦": 7697,
      "Ġà¤īà¤¡à¤¡": 7698,
      "Ġà¥¨à¥¨à¥®": 7699,
      "Ġà¤¹à¤²à¤¸à¤®": 7700,
      "Ġà¤Ĩà¤Īà¤¡à¤²à¤ķ": 7701,
      "à¥§à¥¯à¥ªà¥¦": 7702,
      "à¤¤à¤¸à¤¯": 7703,
      "Ġà¤¤à¤®à¤ĺ": 7704,
      "Ġà¤Ĩà¤¸à¤¯": 7705,
      "à¥§à¥®à¥¦": 7706,
      "à¥§à¥©à¥«": 7707,
      "à¤¼à¥Ģ-": 7708,
      "Ġà¤ķà¤¦à¤®à¤¬": 7709,
      "à¤ķà¤łà¤ĺà¤°": 7710,
      "à¥¦à¥¬à¥«": 7711,
      "ĠĠĠĠĠĠĠĠĠĠĠĠĠĠĠĠĠĠĠĠĠĠĠĠĠčĊ": 7712,
      "Ġà¤¡à¤Łà¤ķà¤®à¤®": 7713,
      "Ġà¥§à¥¯à¥Ńà¥¯": 7714,
      "Ġà¤¹à¤°à¤«à¤¹à¤°": 7715,
      "à¥ĭà¥ĩ-": 7716,
      "à¤®à¤ªà¤¶": 7717,
      "à¤¯à¤µà¤¨": 7718,
      "à¥ģà¥ĩ": 7719,
      "Ġà¤¸à¤°à¤¹à¤°": 7720,
      "à¤¾-à¥ĩ-": 7721,
      "Ġà¤Ĺà¤Ł": 7722,
      "à¤ľà¤ªà¤Ľ": 7723,
      "Ġà¤Ńà¤ŀ": 7724,
      "Ġà¤¨à¤ķà¤®": 7725,
      "Ġà¤¨à¤®à¤ķ": 7726,
      "à¥ĭ-à¤ĥ-": 7727,
      "à¤·à¤¸à¤¹": 7728,
      "à¤§à¤µà¤¨": 7729,
      "à¤§à¤¸à¤Ń": 7730,
      "Ġà¤®à¤µ": 7731,
      "à¤¶à¤ħà¤¨": 7732,
      "à¤¶à¤°à¤¬à¤¹": 7733,
      "à¤Ńà¤¹": 7734,
      "à¤īà¤ĺà¤°": 7735,
      "Ġà¤¤à¤¬à¤®": 7736,
      "à¤¡à¤Ļ": 7737,
      "à¤¡à¤°à¤¹à¤°": 7738,
      "à¤£à¤ıà¤¶": 7739,
      "Ġà¤ľà¤¤à¤¨": 7740,
      "Ġà¤Ĩà¤Ļà¤ķ": 7741,
      "Ġà¤Ĩà¤Īà¤²": 7742,
      "Ġà¤Ĩà¤°à¤§à¤¨": 7743,
      "à¤°à¤®à¤¤": 7744,
      "Ġà¤ıà¤¡à¤²": 7745,
      "Ġà¤ıà¤«à¤¬": 7746,
      "à¤ľà¤¨à¤Ĩà¤ķ": 7747,
      "à¤Ĩà¤µà¤°à¤£": 7748,
      "à¤°à¤£à¤¬à¤¸": 7749,
      "Ġà¤ªà¤°à¤ªà¤°": 7750,
      "à¤µà¤¸à¤°": 7751,
      "à¤°à¤¹à¤¸à¤®": 7752,
      "Ġà¤ıà¤ķà¤¥": 7753,
      "Ġà¤ıà¤ķà¤ł": 7754,
      "Ġà¤Łà¤²à¤ķ": 7755,
      "à¤¬à¤¨à¤¡": 7756,
      "à¤Łà¤¨à¤¸": 7757,
      "à¤·à¤£à¤¯": 7758,
      "Ġà¥«à¥©à¥¦": 7759,
      "à¥Īà¤Ĥà¤Ĥ": 7760,
      "à¤¨à¤Ĺà¤°à¤¸": 7761,
      "à¤®à¤²à¤ļ": 7762,
      "Ġà¤¬à¤°à¤¬à¤°": 7763,
      "à¤ķà¤¤à¤²": 7764,
      "à¤Łà¤²à¤µ": 7765,
      "Ġà¤¦à¤²à¤¹à¤¨": 7766,
      "Ġà¤¬à¤²à¤°à¤²": 7767,
      "à¤ªà¤¹à¤ª": 7768,
      "Ġà¥§à¥«à¥ª": 7769,
      "à¤¨à¤ªà¤¢": 7770,
      "Ġà¥§à¥¯à¥§": 7771,
      "Ġà¥§à¥®à¥Ń": 7772,
      "Ġà¤Ńà¤Īà¤°à¤¹à¤¨": 7773,
      "Ġà¥§à¥Ńà¥§": 7774,
      "à¤Ĩà¤Īà¤ıà¤¨": 7775,
      "Ġà¥¨à¥©à¥ª": 7776,
      "Ġà¤®à¤¦à¤¨à¤²": 7777,
      "à¤Łà¤¬à¤²à¤¬": 7778,
      "à¤Ĩà¤¶à¤¯à¤ªà¤¤": 7779,
      "Ġà¤¹à¤ķà¤¬": 7780,
      "Ġà¤Ĩà¤ĩà¤¸à¤²": 7781,
      "Ġà¤°à¤Ĺà¤¤à¤¬": 7782,
      "à¤¨à¤Ńà¤°à¤ķ": 7783,
      "à¥§à¥¬à¥Ń": 7784,
      "à¤ħà¤¬à¤¸à¤°": 7785,
      "Ġà¤°à¤¹à¤°à¤ķ": 7786,
      "ĠĠĠĠĠĠĠĠĠĠĠĠĠĠĠĠĠĠĠĠĠĠĠĠĠĠčĊ": 7787,
      "Ġà¤²à¤ĸà¤¤à¤°": 7788,
      "Ġà¤Ŀà¤®à¤Ŀà¤®": 7789,
      "Ġà¥§à¥¯à¥Ńà¥¨": 7790,
      "Ġà¤ıà¤«à¤ıà¤®à¤®": 7791,
      "-à¥Įà¤Ĥ": 7792,
      "à¤°à¤Ĩà¤¨": 7793,
      "à¤®à¤ªà¤°": 7794,
      "à¤ªà¤¥à¤®": 7795,
      "Ġà¤¸à¤Ŀ": 7796,
      "Ġà¤ªà¤¡à¤ķ": 7797,
      "à¤ıà¤Łà¤°à¤ķ": 7798,
      "Ġà¤¨à¤ĺ": 7799,
      "Ġà¤¨à¤°à¤ª": 7800,
      "Ġà¤¬à¤¸à¤°": 7801,
      "Ġà¤¤à¤ķà¤¸": 7802,
      "à¤¡à¤ħà¤¨": 7803,
      "à¤Īà¤£": 7804,
      "à¤£à¤¶à¤®à¤¶": 7805,
      "Ġà¤¦à¤¥": 7806,
      "Ġà¤Ĩà¤ĩà¤¯": 7807,
      "Ġà¤¯à¤µ": 7808,
      "Ġà¤¯à¤£": 7809,
      "à¤ĩà¤Ńà¤¨": 7810,
      "à¤ħà¤°à¤µ": 7811,
      "à¤°à¤¤à¤¸à¤®": 7812,
      "à¤°à¤¤à¤²à¤Ĺ": 7813,
      "à¤Ĩà¤µà¤§": 7814,
      "à¤ĺà¤¸à¤®": 7815,
      "Ġà¤¯à¤¸à¤ħà¤°": 7816,
      "à¤¤à¤°à¤īà¤¨": 7817,
      "à¤ķà¤®à¤¬": 7818,
      "Ġà¤®à¤¹à¤®à¤¦": 7819,
      "à¥į-à¤ĥ-": 7820,
      "à¤¾à¤Ĥà¤Ĥ": 7821,
      "Ġà¤¬à¤ľà¤°": 7822,
      "à¥¨à¥¦à¥©à¥Ń": 7823,
      "à¤µà¤¶à¤®à¤¶": 7824,
      "à¤ķà¤°à¤£à¤ªà¤Ľ": 7825,
      "Ġà¤īà¤¦à¤¯à¤®": 7826,
      "Ġà¤ĺà¤°à¤ĸ": 7827,
      "Ġà¤¢à¤¡": 7828,
      "Ġà¤¢à¤²à¤®": 7829,
      "à¤¹à¤ķà¤¸": 7830,
      "Ġà¤¦à¤²à¤¦à¤²": 7831,
      "à¤µà¤°à¤£à¤ħà¤¨": 7832,
      "Ġà¤ªà¤¦à¤®à¤°": 7833,
      "à¤ıà¤®à¤¡": 7834,
      "à¤°à¤ªà¤¥à¤ķ": 7835,
      "à¤°à¤ľà¤ª": 7836,
      "à¤°à¤ľà¤Ļ": 7837,
      "à¤Ķà¤·": 7838,
      "Ġà¤ıà¤¸à¤Ł": 7839,
      "Ġà¤ıà¤¸à¤ıà¤¸": 7840,
      "Ġà¤ħà¤«à¤°à¤¹à¤°": 7841,
      "Ġà¥§à¥ªà¥¨": 7842,
      "Ġà¥§à¥¬à¥¦à¥¦": 7843,
      "Ġà¥¨à¥§à¥¬": 7844,
      "Ġà¥§à¥Ńà¥¯": 7845,
      "à¥§à¥¯à¥Ńà¥¬": 7846,
      "à¥§à¥¯à¥ªà¥«": 7847,
      "à¥§à¥¯à¥Ńà¥®": 7848,
      "Ġà¤ľà¤²à¤ļà¤°": 7849,
      "Ġà¤ªà¤²à¤Ļ": 7850,
      "Ġà¤¸à¤¸à¤«": 7851,
      "Ġà¤¨à¤Ńà¤ıà¤¤": 7852,
      "Ġà¥©à¥©à¥ª": 7853,
      "à¥§à¥§à¥©": 7854,
      "à¤°à¤¸à¤®à¤£": 7855,
      "à¥§à¥©à¥®": 7856,
      "Ġà¤ıà¤ķà¤ıà¤ķà¤µà¤Ł": 7857,
      "Ġà¥¦à¥«à¥Ń": 7858,
      "Ġà¥§à¥¯à¥¬à¥®": 7859,
      "à¥§à¥¯à¥¬à¥Ń": 7860,
      "Ġà¤Ĩà¤²à¤®à¤ķ": 7861,
      "+-": 7862,
      "à¤²à¤°à¤¸": 7863,
      "à¤¸à¤°à¤¦": 7864,
      "à¤ªà¤²à¤¬": 7865,
      "à¤Ĺà¤¬à¤¤": 7866,
      "à¤Łà¤Ĺà¤¢": 7867,
      "Ġà¤Ĺà¤ĩà¤¹": 7868,
      "à¤¬à¤°à¤¹à¤°": 7869,
      "à¤ľà¤®à¤ķ": 7870,
      "Ġà¤°à¤ļà¤¯": 7871,
      "Ġà¤¨à¤¢": 7872,
      "à¤§à¤¦": 7873,
      "à¤¶à¤²à¤²": 7874,
      "à¤Ńà¤ľà¤¨à¤ķ": 7875,
      "à¤ļà¤Ńà¤¨": 7876,
      "à¤īà¤¥à¤Ĺ": 7877,
      "Ġà¤ħà¤¡à¤ķ": 7878,
      "à¤¡à¤°à¤µ": 7879,
      "à¤Īà¤·": 7880,
      "à¤Īà¤¥à¤°": 7881,
      "Ġà¤ľà¤¯à¤¸": 7882,
      "Ġà¤ľà¤²à¤²": 7883,
      "Ġà¤ľà¤¸à¤¦": 7884,
      "Ġà¤ľà¤¯à¤¦": 7885,
      "Ġà¤Ĩà¤Īà¤¨": 7886,
      "à¤ĩà¤¬à¤°à¤ķ": 7887,
      "Ġà¤īà¤Ł": 7888,
      "Ġà¤īà¤¸à¤¸": 7889,
      "Ġà¤ıà¤ħà¤°à¤ķ": 7890,
      "Ġà¤¶à¤¦": 7891,
      "à¤ľà¤¨à¤Ń": 7892,
      "Ġà¤ªà¤°à¤¯": 7893,
      "à¥Ī-à¥Ī": 7894,
      "à¤®à¤¨à¤¹à¤°": 7895,
      "Ġà¤Łà¤¹à¤²": 7896,
      "à¤ĩà¤¨à¤«": 7897,
      "à¤²à¤¨à¤¹à¤°": 7898,
      "à¤°à¤¹à¤°à¤£": 7899,
      "à¤¸à¤²à¤µ": 7900,
      "Ġà¤ĩà¤¹": 7901,
      "à¤¬à¤°à¤¬à¤¹": 7902,
      "à¤·à¤ķà¤¸": 7903,
      "à¥¨à¥¦à¥¨à¥Ń": 7904,
      "à¥¨à¥¦à¥©à¥§": 7905,
      "Ġà¥¯à¥§à¥¨": 7906,
      "Ġà¥§à¥§à¥§à¥¨": 7907,
      "Ġà¥§à¥¯à¥¬à¥«": 7908,
      "Ġà¤§à¤¨à¤ŀ": 7909,
      "Ġà¤ľà¤Ĺà¤ľà¤Ĺ": 7910,
      "à¤¸à¤¹à¤°à¤ķ": 7911,
      "Ġà¥¦à¥©à¥¬": 7912,
      "à¤Ĩà¤Īà¤«": 7913,
      "Ġà¥¨à¥©à¥«": 7914,
      "Ġà¥¨à¥¯à¥«": 7915,
      "Ġà¥¨à¥¬à¥ª": 7916,
      "à¤ıà¤²à¤ı": 7917,
      "à¤ľà¤ªà¤¥": 7918,
      "Ġà¤Ĺà¤łà¤ľ": 7919,
      "à¤Ĳà¤°": 7920,
      "Ġà¤Ĺà¤¨à¤Ĺà¤¨": 7921,
      "Ġà¤¡à¤²à¤°à¤Ńà¤¨": 7922,
      "Ġà¤Ĺà¤ıà¤Ľà¤¨": 7923,
      "Ġà¤ħà¤ĸà¤µ": 7924,
      "à¥§à¥®à¥¬": 7925,
      "Ġà¤ªà¤ļà¤¹à¤¤": 7926,
      "à¤¼-": 7927,
      "Ġà¤¨à¤Ĺà¤¦à¤ķ": 7928,
      "Ġà¥§à¥¯à¥«à¥¯": 7929,
      "Ġà¤¨à¤Ĩà¤ıà¤°": 7930,
      "à¤ĩà¤ıà¤«à¤ı": 7931,
      "à¤°à¤ħà¤¸": 7932,
      "à¤¨à¤Ĺà¤¨": 7933,
      "à¤ķà¤¤à¤ķ": 7934,
      "à¤ķà¤ħà¤ªà¤ķ": 7935,
      "à¤®à¤Ĺà¤łà¤µà¤¨": 7936,
      "à¤¸à¤ħà¤«": 7937,
      "Ġà¥ł": 7938,
      "à¤¹à¤Łà¤®": 7939,
      "à¤µà¤Ĺà¤¤": 7940,
      "à¤¦à¤¯à¤°": 7941,
      "à¥Īà¥Īà¤Ĥ": 7942,
      "à¤ıà¤ı": 7943,
      "à¤ıà¤¬à¤²": 7944,
      "Ġà¤°à¤¥à¤®": 7945,
      "Ġà¤°à¤¡à¤²": 7946,
      "Ġà¤¨à¤¬à¤°": 7947,
      "à¤¥à¤°à¤²": 7948,
      "à¤Ńà¤¹à¤°": 7949,
      "à¤Ńà¤Ļ": 7950,
      "à¤ļà¤¤à¤²": 7951,
      "à¤ļà¤¹à¤ľ": 7952,
      "à¤ļà¤Ĺà¤µ": 7953,
      "à¤¡à¤®à¤²": 7954,
      "à¤¡à¤ªà¤¥": 7955,
      "à¤Īà¤ľà¤°": 7956,
      "à¤Īà¤Ļà¤²": 7957,
      "à¤ĸà¤°à¤¸": 7958,
      "Ġà¤¦à¤¹à¤ķ": 7959,
      "Ġà¤²à¤µà¤ľ": 7960,
      "à¤ĩà¤«à¤®": 7961,
      "à¤°à¤®à¤ªà¤Ľ": 7962,
      "Ġà¤¸à¤®à¤Ń": 7963,
      "à¥Įà¥Īà¤Ĥ": 7964,
      "Ġà¤ıà¤²à¤¨": 7965,
      "à¤ľà¤¨à¤¸à¤°": 7966,
      "à¤ľà¤¨à¤Ĺà¤£à¤¤à¤¨": 7967,
      "à¤¤à¤°à¤¸à¤°à¤ķ": 7968,
      "Ġà¤¸à¤¹à¤ħà¤§": 7969,
      "à¤ªà¤®à¤¤à¤®": 7970,
      "à¥Ĥ-à¤ģ": 7971,
      "à¤µà¤¨à¤ľà¤Ļ": 7972,
      "à¤°à¤µà¤§": 7973,
      "à¤µà¤ķà¤¯": 7974,
      "Ġà¥¨à¥¦à¥¨à¥Ń": 7975,
      "Ġà¤Ŀà¤¨à¤ķ": 7976,
      "à¤°à¤¬à¤ľ": 7977,
      "Ġà¤ªà¤ķà¤¡à¤®": 7978,
      "Ġà¤īà¤¦à¤¯à¤ķ": 7979,
      "à¤¶à¤¤à¤µ": 7980,
      "à¤°à¤®à¤£à¤¹à¤°": 7981,
[...]
