{
  "version": "1.0",
  "truncation": null,
  "padding": null,
  "added_tokens": [
    {
      "id": 0,
      "content": " ",
      "single_word": false,
      "lstrip": false,
      "rstrip": false,
      "normalized": false,
      "special": true
    }
  ],
  "normalizer": null,
  "pre_tokenizer": {
    "type": "ByteLevel",
    "add_prefix_space": false,
    "trim_offsets": true,
    "use_regex": true
  },
  "post_processor": {
    "type": "ByteLevel",
    "add_prefix_space": true,
    "trim_offsets": false,
    "use_regex": true
  },
  "decoder": {
    "type": "ByteLevel",
    "add_prefix_space": true,
    "trim_offsets": true,
    "use_regex": true
  },
  "model": {
    "type": "BPE",
    "dropout": null,
    "unk_token": null,
    "continuing_subword_prefix": null,
    "end_of_word_suffix": null,
    "fuse_unk": false,
    "byte_fallback": false,
    "vocab": {
      " ": 0,
      "!": 1,
      "\"": 2,
      "#": 3,
      "$": 4,
      "%": 5,
      "&": 6,
      "'": 7,
      "(": 8,
      ")": 9,
      "*": 10,
      "+": 11,
      ",": 12,
      "-": 13,
      ".": 14,
      "/": 15,
      "0": 16,
      "1": 17,
      "2": 18,
      "3": 19,
      "4": 20,
      "5": 21,
      "6": 22,
      "7": 23,
      "8": 24,
      "9": 25,
      ":": 26,
      ";": 27,
      "<": 28,
      "=": 29,
      ">": 30,
      "?": 31,
      "@": 32,
      "A": 33,
      "B": 34,
      "C": 35,
      "D": 36,
      "E": 37,
      "F": 38,
      "G": 39,
      "H": 40,
      "I": 41,
      "J": 42,
      "K": 43,
      "L": 44,
      "M": 45,
      "N": 46,
      "O": 47,
      "P": 48,
      "Q": 49,
      "R": 50,
      "S": 51,
      "T": 52,
      "U": 53,
      "V": 54,
      "W": 55,
      "X": 56,
      "Y": 57,
      "Z": 58,
      "[": 59,
      "\\": 60,
      "]": 61,
      "^": 62,
      "_": 63,
      "`": 64,
      "a": 65,
      "b": 66,
      "c": 67,
      "d": 68,
      "e": 69,
      "f": 70,
      "g": 71,
      "h": 72,
      "i": 73,
      "j": 74,
      "k": 75,
      "l": 76,
      "m": 77,
      "n": 78,
      "o": 79,
      "p": 80,
      "q": 81,
      "r": 82,
      "s": 83,
      "t": 84,
      "u": 85,
      "v": 86,
      "w": 87,
      "x": 88,
      "y": 89,
      "z": 90,
      "{": 91,
      "|": 92,
      "}": 93,
      "~": 94,
      "¡": 95,
      "¢": 96,
      "£": 97,
      "¤": 98,
      "¥": 99,
      "¦": 100,
      "§": 101,
      "¨": 102,
      "©": 103,
      "ª": 104,
      "«": 105,
      "¬": 106,
      "®": 107,
      "¯": 108,
      "°": 109,
      "±": 110,
      "²": 111,
      "³": 112,
      "´": 113,
      "µ": 114,
      "¶": 115,
      "·": 116,
      "¸": 117,
      "¹": 118,
      "º": 119,
      "»": 120,
      "¼": 121,
      "½": 122,
      "¾": 123,
      "¿": 124,
      "À": 125,
      "Á": 126,
      "Â": 127,
      "Ã": 128,
      "Ä": 129,
      "Å": 130,
      "Æ": 131,
      "Ç": 132,
      "È": 133,
      "É": 134,
      "Ê": 135,
      "Ë": 136,
      "Ì": 137,
      "Í": 138,
      "Î": 139,
      "Ï": 140,
      "Ð": 141,
      "Ñ": 142,
      "Ò": 143,
      "Ó": 144,
      "Ô": 145,
      "Õ": 146,
      "Ö": 147,
      "×": 148,
      "Ø": 149,
      "Ù": 150,
      "Ú": 151,
      "Û": 152,
      "Ü": 153,
      "Ý": 154,
      "Þ": 155,
      "ß": 156,
      "à": 157,
      "á": 158,
      "â": 159,
      "ã": 160,
      "ä": 161,
      "å": 162,
      "æ": 163,
      "ç": 164,
      "è": 165,
      "é": 166,
      "ê": 167,
      "ë": 168,
      "ì": 169,
      "í": 170,
      "î": 171,
      "ï": 172,
      "ð": 173,
      "ñ": 174,
      "ò": 175,
      "ó": 176,
      "ô": 177,
      "õ": 178,
      "ö": 179,
      "÷": 180,
      "ø": 181,
      "ù": 182,
      "ú": 183,
      "û": 184,
      "ü": 185,
      "ý": 186,
      "þ": 187,
      "ÿ": 188,
      "Ā": 189,
      "ā": 190,
      "Ă": 191,
      "ă": 192,
      "Ą": 193,
      "ą": 194,
      "Ć": 195,
      "ć": 196,
      "Ĉ": 197,
      "ĉ": 198,
      "Ċ": 199,
      "ċ": 200,
      "Č": 201,
      "č": 202,
      "Ď": 203,
      "ď": 204,
      "Đ": 205,
      "đ": 206,
      "Ē": 207,
      "ē": 208,
      "Ĕ": 209,
      "ĕ": 210,
      "Ė": 211,
      "ė": 212,
      "Ę": 213,
      "ę": 214,
      "Ě": 215,
      "ě": 216,
      "Ĝ": 217,
      "ĝ": 218,
      "Ğ": 219,
      "ğ": 220,
      "Ġ": 221,
      "ġ": 222,
      "Ģ": 223,
      "ģ": 224,
      "Ĥ": 225,
      "ĥ": 226,
      "Ħ": 227,
      "ħ": 228,
      "Ĩ": 229,
      "ĩ": 230,
      "Ī": 231,
      "ī": 232,
      "Ĭ": 233,
      "ĭ": 234,
      "Į": 235,
      "į": 236,
      "İ": 237,
      "ı": 238,
      "Ĳ": 239,
      "ĳ": 240,
      "Ĵ": 241,
      "ĵ": 242,
      "Ķ": 243,
      "ķ": 244,
      "ĸ": 245,
      "Ĺ": 246,
      "ĺ": 247,
      "Ļ": 248,
      "ļ": 249,
      "Ľ": 250,
      "ľ": 251,
      "Ŀ": 252,
      "ŀ": 253,
      "Ł": 254,
      "ł": 255,
      "Ń": 256,
      "à¤": 257,
      "à¥": 258,
      "Ġà¤": 259,
      "à¤¾": 260,
      "à¥į": 261,
      "à¤°": 262,
      "à¤¨": 263,
      "à¤¿": 264,
      "à¤ķ": 265,
      "à¥ĩ": 266,
      "à¥ĭ": 267,
      "à¤²": 268,
      "à¤®": 269,
      "à¤¤": 270,
      "à¤¯": 271,
      "à¥ģ": 272,
      "à¥Ģ": 273,
      "à¤¸": 274,
      "Ġà¤¸": 275,
      "Ġà¥": 276,
      "Ġà¤ª": 277,
      "à¤¹": 278,
      "à¤ª": 279,
      "à¤¦": 280,
      "à¤µ": 281,
      "Ġà¥¤": 282,
      "Ġà¤ķ": 283,
      "Ġà¤Ĺ": 284,
      "à¤Ĺ": 285,
      "Ġà¤°": 286,
      "à¥Ī": 287,
      "à¤Ł": 288,
      "Ġà¤¨": 289,
      "Ġà¤¬": 290,
      "Ġà¤®": 291,
      "à¤ı": 292,
      "Ġà¤Ń": 293,
      "Ġà¤ħ": 294,
      "à¤ľ": 295,
      "Ġà¤¹": 296,
      "Ġà¤Ĺà¤°": 297,
      "Ġà¤µ": 298,
      "à¤¬": 299,
      "à¤·": 300,
      "Ġà¤Ľ": 301,
      "Ġ?": 302,
      "à¤§": 303,
      "Ġà¤¤": 304,
      "Ġà¤¦": 305,
      "à¤ıà¤ķ": 306,
      "à¤¥": 307,
      "à¤ģ": 308,
      "à¤¶": 309,
      "à¤Ĥ": 310,
      "Ġà¤Ĩ": 311,
      "Ġà¤ľ": 312,
      "à¤Ľ": 313,
      "à¤ļ": 314,
      "Ġà¤²": 315,
      "à¤Ī": 316,
      "à¤¡": 317,
      "à¤£": 318,
      "à¥Ĥ": 319,
      "Ġà¤ī": 320,
      "à¤Ń": 321,
      "à¤ĸ": 322,
      "à¤ī": 323,
      "Ġà¤¯": 324,
      "à¤¹à¤°": 325,
      "Ġà¤¸à¤®": 326,
      "à¤ĩ": 327,
      "à¤°à¤ķ": 328,
      "à¤°à¤®": 329,
      "Ġà¤Ńà¤¨": 330,
      "Ġà¤ļ": 331,
      "à¤«": 332,
      "à¥Į": 333,
      "Ġà¤¶": 334,
      "Ġà¤ĸ": 335,
      "Ġà¤¥": 336,
      "Ġà¤ı": 337,
      "à¤īà¤¨": 338,
      "à¤¯à¤ķ": 339,
      "Ġà¤ªà¤¨": 340,
      "à¤¾à¤ģ": 341,
      "à¤ł": 342,
      "Ġà¤ħà¤¨": 343,
      "Ġà¤ªà¤°": 344,
      "à¤¨à¤ķ": 345,
      "Ġà¤Ńà¤ıà¤ķ": 346,
      "à¤°à¤¤": 347,
      "à¥ĥ": 348,
      "à¤Ļ": 349,
      "à¥¦": 350,
      "Ġà¤«": 351,
      "à¤°à¤£": 352,
      "à¤¸à¤ķ": 353,
      "Ġà¥¨": 354,
      "Ġà¤Ľà¤¨": 355,
      "Ġà¥§": 356,
      "à¤ľà¤¨": 357,
      "à¤¢": 358,
      "à¤¸à¤®": 359,
      "à¤ªà¤°": 360,
      "à¤ĺ": 361,
      "Ġà¤ıà¤ķ": 362,
      "Ġà¤°à¤¹": 363,
      "à¤¨à¤®": 364,
      "à¤µà¤¸": 365,
      "Ġà¤®à¤¹": 366,
      "à¤¨à¤²": 367,
      "Ġà¤ĺ": 368,
      "Ġà¤§": 369,
      "Ġà¤¬à¤¨": 370,
      "Ġà¤¯à¤¸": 371,
      "à¤²à¤ķ": 372,
      "à¤¯à¤®": 373,
      "Ġà¤ľà¤¨": 374,
      "Ġà¤¸à¤ķ": 375,
      "Ġà¤Ł": 376,
      "à¤ªà¤¨": 377,
      "à¤ŀ": 378,
      "à¤Ĺà¤°": 379,
      "à¤°à¤¹": 380,
      "Ġà¤¤à¤¥": 381,
      "Ġà¤Ĩà¤«": 382,
      "Ġà¤ħà¤§": 383,
      "Ġà¥§à¥": 384,
      "à¤°à¤²": 385,
      "Ġà¤¡": 386,
      "Ġà¤µà¤°": 387,
      "à¤¯à¤¸": 388,
      "Ġà¤¸à¤¹": 389,
      "Ġà¤¤à¤°": 390,
      "à¤²à¤®": 391,
      "à¤¤à¤°": 392,
      "à¤ªà¤Ľ": 393,
      "Ġà¤īà¤ª": 394,
      "à¤Ŀ": 395,
      "à¤¯à¤¤": 396,
      "Ġà¤¬à¤¢": 397,
      "Ġà¤ħà¤°": 398,
      "à¥Įà¤Ĥ": 399,
      "Ġà¤¬à¤¤": 400,
      "à¤°à¤¸": 401,
      "Ġà¤ķà¤®": 402,
      "Ġà¤®à¤¨": 403,
      "à¤Ľà¤¨": 404,
      "à¤ıà¤°": 405,
      "Ġà¤ķà¤°": 406,
      "Ġà¤²à¤Ĺ": 407,
      "Ġà¤¸à¤°à¤ķ": 408,
      "à¤ªà¤¤": 409,
      "à¤ĩà¤¨": 410,
      "à¤°à¤¦": 411,
      "Ġà¤ł": 412,
      "à¤ªà¤®": 413,
      "à¤ķà¤²": 414,
      "Ġà¤ĩ": 415,
      "Ġà¤ªà¤¹": 416,
      "Ġà¥¨à¥¦": 417,
      "à¥ģà¤ģ": 418,
      "à¤ķà¤®": 419,
      "à¤łà¤®": 420,
      "Ġà¤¸à¤¬": 421,
      "Ġà¥¨à¥": 422,
      "Ġà¤ħà¤¸": 423,
      "à¤¤à¤ķ": 424,
      "à¤°à¤¹à¤°": 425,
      "à¤Łà¤ķ": 426,
      "à¤®à¤ķ": 427,
      "Ġà¤īà¤¤": 428,
      "à¤¯à¤¨": 429,
      "Ġà¤Ĩà¤¯": 430,
      "à¤¯à¤µà¤¸": 431,
      "à¤ħ": 432,
      "à¤¬à¤¨": 433,
      "Ġà¤īà¤¨": 434,
      "à¤µà¤°": 435,
      "à¤µà¤ķ": 436,
      "ĠĠ": 437,
      "Ġà¤Ńà¤ı": 438,
      "Ġà¥©": 439,
      "à¤µà¤¨": 440,
      "à¤¯à¤²": 441,
      "Ġà¤īà¤¨à¤²": 442,
      "à¤Ĺà¤¤": 443,
      "à¤¾à¤Ĥ": 444,
      "à¤²à¤²": 445,
      "Ġà¤¬à¤¸": 446,
      "à¤¸à¤²": 447,
      "à¤ļà¤¨": 448,
      "à¥§": 449,
      "à¤²à¤¬": 450,
      "à¤²à¤¨": 451,
      "Ġà¤Ĺà¤¤": 452,
      "à¥Ń": 453,
      "à¤·à¤£": 454,
      "à¤Łà¤¨": 455,
      "Ġà¥«": 456,
      "à¤°à¤µ": 457,
      "à¤°à¤¬": 458,
      "à¥«": 459,
      "Ġà¤īà¤¦": 460,
      "à¥Īà¤Ĥ": 461,
      "Ġà¤¨à¤Ĺà¤°": 462,
      "Ġà¤ħà¤µà¤¸": 463,
      "à¤¶à¤ķ": 464,
      "Ġà¤¬à¤ľ": 465,
      "Ġà¤ħà¤¹": 466,
      "Ġà¤Ĩà¤°": 467,
      "Ġà¤Ĩà¤ıà¤ķ": 468,
      "à¤Łà¤°": 469,
      "Ġà¤¹à¤ľ": 470,
      "Ġà¤ħà¤Ń": 471,
      "à¤¤à¤®": 472,
      "à¤¸à¤¨": 473,
      "Ġà¤Ŀ": 474,
      "à¤·à¤ķ": 475,
      "à¤Ńà¤¨": 476,
      "à¤®à¤¤": 477,
      "à¤°à¤¯": 478,
      "à¤ķà¤°": 479,
      "Ġà¤Ĩà¤µ": 480,
      "à¤¡à¤ķ": 481,
      "à¤¤à¤¨": 482,
      "Ġà¥ª": 483,
      "à¥¨": 484,
      "Ġà¤¸à¤°": 485,
      "Ġà¤¸à¤¨": 486,
      "à¤²à¤¯": 487,
      "à¤ķà¤ķ": 488,
      "à¤®à¤¨": 489,
      "Ġà¤¸à¤ŀ": 490,
      "Ġà¤¨à¤¯": 491,
      "à¤°à¤§": 492,
      "à¤Ĩ": 493,
      "à¤¨à¤¨": 494,
      "à¥Įà¤ģ": 495,
      "à¤¦à¤¨": 496,
      "à¤ľà¤ķ": 497,
      "Ġà¥¬": 498,
      "Ġà¤¸à¤¦": 499,
      "à¤ªà¤ķ": 500,
      "à¥ª": 501,
      "à¥¬": 502,
      "Ġà¤ĵ": 503,
      "à¤Ĺà¤²": 504,
      "Ġà¤ļà¤²": 505,
      "Ġà¤ľà¤¸": 506,
      "à¤Ńà¤ıà¤ķ": 507,
      "à¤īà¤Ł": 508,
      "à¤¿à¤Ĥ": 509,
      "à¤Ńà¤¯": 510,
      "Ġà¤ªà¤¤": 511,
      "à¤¨à¤¸": 512,
      "Ġà¤ªà¤ķ": 513,
      "à¤°à¤¶": 514,
      "Ġà¤¬à¤°": 515,
      "à¤Ĺà¤ķ": 516,
      "à¤ĩà¤ıà¤ķ": 517,
      "Ġà¤ªà¤Ľ": 518,
      "Ġà¤ķà¤¸": 519,
      "Ġà¤Ĩà¤§": 520,
      "à¤«à¤²": 521,
      "à¥©": 522,
      "à¤¤à¤²": 523,
      "à¤µà¤²": 524,
      "Ġà¤¯à¤¹": 525,
      "à¤¶à¤¨": 526,
      "à¤¯à¤°": 527,
      "à¤°à¤®à¤®": 528,
      "Ġà¤ıà¤īà¤Ł": 529,
      "Ġà¤¹à¤°": 530,
      "à¤ĩà¤°à¤¹": 531,
      "à¤¬à¤°": 532,
      "à¤®à¤²": 533,
      "à¤§à¤¨": 534,
      "Ġà¤¸à¤®à¤¯": 535,
      "Ġà¤īà¤¨à¤ķ": 536,
      "Ġà¤¢": 537,
      "Ġà¤¸à¤¯": 538,
      "Ġà¥Ń": 539,
      "à¤®à¤®": 540,
      "à¤°à¤Ń": 541,
      "à¤ķà¤°à¤£": 542,
      "Ġà¤ħà¤Ĺ": 543,
      "Ġà¤¸à¤®à¤¸": 544,
      "Ġà¤¤à¤ª": 545,
      "Ġà¤ħà¤¬": 546,
      "Ġà¤ĸà¤°": 547,
      "Ġà¤īà¤¹": 548,
      "Ġà¤Ńà¤¯": 549,
      "Ġà¤ħà¤®": 550,
      "à¤¨à¤®à¤¨": 551,
      "à¤¿à¤ģ": 552,
      "à¤ĥ": 553,
      "Ġà¤¦à¤°": 554,
      "Ġà¤Ķ": 555,
      "à¤ĸà¤°": 556,
      "Ġà¤¤à¤¯": 557,
      "Ġà¤Ĩà¤ľ": 558,
      "à¤Łà¤®": 559,
      "Ġà¤ĺà¤°": 560,
      "à¤µà¤®": 561,
      "Ġà¤®à¤§": 562,
      "à¥®": 563,
      "Ġà¥§à¥¦": 564,
      "à¤¯à¤¹": 565,
      "Ġà¤ªà¤¦": 566,
      "Ġà¤¸à¤¹à¤¯": 567,
      "à¤Ĺà¤®": 568,
      "Ġà¤ķà¤¤": 569,
      "à¤ĵ": 570,
      "Ġà¤ķà¤²": 571,
      "Ġà¥®": 572,
      "Ġà¤ĩà¤¨": 573,
      "Ġà¤Ĩà¤īà¤¨": 574,
      "Ġà¤īà¤ķ": 575,
      "Ġà¤¸à¤¦à¤¸": 576,
      "à¤¹à¤ķ": 577,
      "à¤ľà¤¸": 578,
      "Ġà¤¨à¤Ĺà¤°à¤ª": 579,
      "à¤²à¤Ĺ": 580,
      "à¤¸à¤¦": 581,
      "à¤·à¤®": 582,
      "à¤¾à¥ĩ": 583,
      "Ġà¤Ĩà¤µà¤¶": 584,
      "à¤¦à¤°": 585,
      "Ġà¤ħà¤ĺ": 586,
      "Ġà¤ľà¤¨à¤¤": 587,
      "Ġà¤ħà¤µ": 588,
      "à¤ķà¤¤": 589,
      "à¤¶à¤®": 590,
      "à¤¹à¤¨": 591,
      "Ġà¥¯": 592,
      "à¥¯": 593,
      "à¤ħà¤¨": 594,
      "Ġà¤®à¤²": 595,
      "Ġà¤¯à¤¸à¤ķ": 596,
      "Ġà¤¬à¤¹": 597,
      "Ġà¤īà¤®": 598,
      "à¤¶à¤¤": 599,
      "Ġà¤¦à¤²": 600,
      "Ġà¤Ĩà¤¨": 601,
      "Ġà¤ıà¤®": 602,
      "Ġà¤Ĩà¤®": 603,
      "Ġà¤¬à¤²": 604,
      "Ġà¤¨à¤¸à¤ķ": 605,
      "à¤µà¤¤": 606,
      "Ġà¤ħà¤¤": 607,
      "à¤Ńà¤°": 608,
      "Ġà¤Ĩà¤ĩ": 609,
      "à¤Łà¤²": 610,
      "à¤ıà¤¨": 611,
      "Ġà¤¶à¤°": 612,
      "à¤£à¤ķ": 613,
      "ĠĠĠĠ": 614,
      "Ġà¤Ĺà¤ıà¤ķ": 615,
      "Ġà¤īà¤ļ": 616,
      "Ġà¤¸à¤Ń": 617,
      "Ġà¤¨à¤®": 618,
      "à¤µà¤ľà¤¨": 619,
      "Ġà¥¨à¥¦à¥Ń": 620,
      "Ġà¤ļà¤°": 621,
      "Ġà¤ħà¤ª": 622,
      "Ġà¤Ĩà¤Ĺ": 623,
      "Ġà¤īà¤²": 624,
      "à¤¯à¤µ": 625,
      "Ġà¤¸à¤Ļ": 626,
      "à¤ıà¤ªà¤Ľ": 627,
      "Ġà¤¥à¤ª": 628,
      "à¤ľà¤®": 629,
      "Ġà¤«à¤°": 630,
      "à¤ķà¤ª": 631,
      "Ġà¤®à¤¤": 632,
      "à¤ĩà¤²": 633,
      "à¤Ļà¤ķ": 634,
      "à¤¡à¤²": 635,
      "Ġà¤Ńà¤°": 636,
      "Ġà¤ªà¤¢": 637,
      "à¤ķà¤¨": 638,
      "Ġà¤ķà¤¹": 639,
      "à¤¦à¤Ľ": 640,
      "Ġà¤µà¤Ł": 641,
      "Ġà¤¯à¤¸à¤²": 642,
      "Ġà¤¸à¤¡à¤ķ": 643,
      "à¤ħà¤ĺ": 644,
      "Ġà¤Ĩà¤¦": 645,
      "à¤°à¤ļ": 646,
      "Ġà¤®à¤¹à¤¤": 647,
      "à¤¥à¤®": 648,
      "Ġà¤°à¤¹à¤¨": 649,
      "à¤ļà¤ķ": 650,
      "Ġà¤¨à¤¹": 651,
      "à¤²à¤¯à¤ķ": 652,
      "à¤µà¤°à¤£": 653,
      "à¤°à¤¨": 654,
      "à¤®à¤ļ": 655,
      "à¤¬à¤¹": 656,
      "Ġà¤Ĳ": 657,
      "Ġà¤ĺà¤Łà¤¨": 658,
      "à¤¯à¤¸à¤ķ": 659,
      "Ġà¤²à¤ķ": 660,
      "Ġà¤¸à¤¤": 661,
      "à¤£à¤¯": 662,
      "à¤¬à¤²": 663,
      "Ġà¤¨à¤¦": 664,
      "à¤°à¤ª": 665,
      "Ġà¤ªà¤Łà¤ķ": 666,
      "Ġà¤¸à¤«à¤²": 667,
      "Ġà¤µà¤¡": 668,
      "à¤¦à¤ķ": 669,
      "à¤¤à¤µ": 670,
      "Ġà¤ħà¤²": 671,
      "Ġà¤ªà¤¶": 672,
      "Ġà¤¶à¤ķ": 673,
      "à¤ĵà¤µ": 674,
      "Ġà¤¸à¤ļ": 675,
      "Ġà¤Ńà¤ĩà¤°à¤¹": 676,
      "à¤łà¤¨": 677,
      "Ġà¤¤à¤¤": 678,
      "Ġà¤§à¤°": 679,
      "à¤ªà¤²": 680,
      "Ġà¤¯à¤¤": 681,
      "à¤ĩà¤¸à¤ķ": 682,
      "Ġà¤ľà¤®": 683,
      "à¤°à¤®à¤£": 684,
      "à¤¨à¤µ": 685,
      "à¤·à¤¯à¤®": 686,
      "à¤¡à¤®": 687,
      "Ġà¥§à¥¯": 688,
      "Ġà¤¸à¤¹à¤Ń": 689,
      "à¤ľà¤Ĺ": 690,
      "à¤²à¤¯à¤²": 691,
      "Ġà¥§à¥«": 692,
      "Ġà¤ħà¤¦": 693,
      "Ġà¤¸à¤®à¤¯à¤®": 694,
      "à¤µà¤ª": 695,
      "Ġà¥§à¥¨": 696,
      "Ġà¤ĵà¤²": 697,
      "Ġà¥§à¥§": 698,
      "Ġà¤īà¤ł": 699,
      "à¤²à¤¤": 700,
      "Ġà¤¹à¤¤": 701,
      "Ġà¤ħà¤Ŀ": 702,
      "à¤¤à¤°à¤£": 703,
      "à¤·à¤¤": 704,
      "Ġà¤ıà¤¸": 705,
      "à¤¸à¤Ń": 706,
      "Ġà¤¸à¤µ": 707,
      "Ġà¤°à¤ķà¤®": 708,
      "à¤¸à¤¹": 709,
      "à¤«à¤¤": 710,
      "Ġà¤Ńà¤ıà¤°": 711,
      "Ġà¤¤à¤¹": 712,
      "à¤¯à¤¤à¤ķ": 713,
      "à¤§à¤ķ": 714,
      "à¤ľà¤²": 715,
      "à¤¨à¤¬": 716,
      "à¤¦à¤µ": 717,
      "Ġà¥¨à¥¦à¥§": 718,
      "Ġà¤¨à¤Ń": 719,
      "Ġà¤§à¤¨": 720,
      "Ġà¤Ĩà¤¤": 721,
      "Ġà¤Ĩà¤ķ": 722,
      "Ġà¤Ĩà¤¶": 723,
      "Ġà¤®à¤°": 724,
      "Ġà¤Ĩà¤ī": 725,
      "Ġà¤īà¤ªà¤ļ": 726,
      "Ġà¤īà¤ªà¤²à¤¬": 727,
      "à¤¸à¤°": 728,
      "Ġà¤ľà¤°": 729,
      "à¤¯à¤ª": 730,
      "Ġà¤Ľà¤²": 731,
      "à¤µà¤¯": 732,
      "à¤ĩà¤¦": 733,
      "à¤¦à¤²": 734,
      "à¤ªà¤¯": 735,
      "à¤°à¤ªà¤¤": 736,
      "Ġà¤¨à¤Ńà¤ıà¤ķ": 737,
      "Ġà¥¨à¥«": 738,
      "à¤·à¤¯": 739,
      "Ġà¤¨à¤ª": 740,
      "à¤²à¤¸": 741,
      "Ġà¤ħà¤«": 742,
      "Ġà¥«à¥¦": 743,
      "à¤·à¤¦": 744,
      "Ġà¤¬à¤ļ": 745,
      "Ġà¤Ńà¤ıà¤ªà¤Ľ": 746,
      "Ġà¤ªà¤ł": 747,
      "à¤ĺà¤ķ": 748,
      "à¤²à¤¨à¤®": 749,
      "à¤®à¤¦": 750,
      "à¤§à¤®": 751,
      "Ġà¤¨à¤ľ": 752,
      "à¤ĩà¤Ł": 753,
      "à¤ıà¤¸": 754,
      "Ġà¤ľà¤Ĺ": 755,
      "à¤¤à¤¬": 756,
      "à¤¨à¤°": 757,
      "à¤Īà¤²": 758,
      "à¤¨à¤Ĺà¤°": 759,
      "à¤łà¤ķ": 760,
      "Ġà¤¦à¤ķ": 761,
      "à¤¥à¤²": 762,
      "à¤¨à¤¤": 763,
      "à¤°à¤ľ": 764,
      "à¤¯à¤¯à¤¨": 765,
      "Ġà¤ªà¤°à¤®": 766,
      "à¤ļà¤®": 767,
      "à¤¦à¤®": 768,
      "à¤¹à¤²": 769,
      "Ġà¤ķà¤¸à¤°": 770,
      "à¤²à¤¯à¤®": 771,
      "Ġà¤¦à¤¶": 772,
      "à¤¨à¤ª": 773,
      "à¤®à¤¬": 774,
      "à¤¯à¤¸à¤®": 775,
      "Ġà¥©à¥¦": 776,
      "à¤²à¤µ": 777,
      "Ġà¤Ĺà¤£": 778,
      "Ġà¤¸à¤ľ": 779,
      "à¤ĩà¤ķ": 780,
      "Ġà¤ħà¤ªà¤°": 781,
      "Ġà¤ıà¤µ": 782,
      "à¤°à¤¦à¤°": 783,
      "Ġà¤¨à¤°": 784,
      "à¤Ļà¤²": 785,
      "Ġà¤¸à¤¹à¤®à¤¤": 786,
      "Ġà¤ĺà¤Ł": 787,
      "Ġà¤ķà¤ª": 788,
      "à¤Ńà¤µ": 789,
      "Ġà¤ļà¤²à¤ļ": 790,
      "Ġà¤¹à¤¸": 791,
      "à¥Īà¤ģ": 792,
      "Ġà¤Ńà¤¦": 793,
      "à¤®à¤§": 794,
      "à¤¤à¤ª": 795,
      "Ġà¤ıà¤¨": 796,
      "à¤Īà¤ķ": 797,
      "à¤§à¤¤": 798,
      "à¥ģà¤Ĥ": 799,
      "à¤ªà¤Łà¤ķ": 800,
      "Ġà¤¯à¤¦": 801,
      "Ġà¤Ī": 802,
      "à¤°à¤£à¤®": 803,
      "Ġà¤Ńà¤ĩà¤¸à¤ķ": 804,
      "à¤¯à¤¸à¤²": 805,
      "Ġà¥§à¥®": 806,
      "à¤°à¤¤à¤ķ": 807,
      "Ġà¤¸à¤¹à¤ķ": 808,
      "à¤¸à¤¸": 809,
      "à¤Ĺà¤¦": 810,
      "à¤¯à¤¹à¤°": 811,
      "à¤¯à¤Łà¤ķ": 812,
      "à¤®à¤¸": 813,
      "Ġà¤ľà¤¸à¤²": 814,
      "Ġà¤Ľà¤²à¤«à¤²": 815,
      "Ġà¤ľà¤¤": 816,
      "à¤ľà¤¯": 817,
      "Ġà¥§à¥ª": 818,
      "à¤·à¤®à¤¤": 819,
      "Ġà¤ĺà¤°à¤®": 820,
      "à¤¬à¤¦": 821,
      "Ġà¥§à¥©": 822,
      "à¤ªà¤¦": 823,
      "à¤¶à¤²": 824,
      "Ġà¥§à¥¬": 825,
      "Ġà¤®à¤¸": 826,
      "Ġà¤¸à¤¹à¤ľ": 827,
      "à¤īà¤¦": 828,
      "à¤¸à¤¹à¤°": 829,
      "à¤ıà¤®": 830,
      "Ġà¤ľà¤¹": 831,
      "Ġà¥¨à¥§": 832,
      "Ġà¤ĭ": 833,
      "Ġà¤Ńà¤µ": 834,
      "à¤¹à¤¤": 835,
      "à¤®à¤°": 836,
      "Ġà¤ıà¤ķà¤¤": 837,
      "à¤ļà¤²": 838,
      "Ġà¥¦": 839,
      "à¤°à¤ļà¤¨": 840,
      "à¤¨à¤¸à¤ķ": 841,
      "à¤°à¤®à¤ķ": 842,
      "à¤ĺà¤Łà¤¨": 843,
      "à¤¯à¤¬": 844,
      "à¤ľà¤¦": 845,
      "Ġà¤ļà¤¨": 846,
      "à¤°à¤·": 847,
      "Ġà¤µà¤¸": 848,
      "Ġà¤ħà¤µà¤§": 849,
      "Ġà¤°à¤ķ": 850,
      "à¤¯à¤¸à¤ªà¤Ľ": 851,
      "Ġà¤īà¤¸à¤²": 852,
      "à¤µà¤¦": 853,
      "Ġà¤¯à¤¸à¤°": 854,
      "Ġà¤Ĭ": 855,
      "à¤ĩà¤°": 856,
      "Ġà¤īà¤ªà¤¯": 857,
      "Ġà¤Ńà¤Ł": 858,
      "Ġà¤¸à¤²": 859,
      "Ġà¤Ńà¤Ī": 860,
      "à¤ķà¤¹à¤°": 861,
      "Ġà¤«à¤°à¤ķ": 862,
      "à¤²à¤¨à¤ķ": 863,
      "à¤¸à¤¬": 864,
      "à¤ķà¤Ł": 865,
      "à¤ľà¤§": 866,
      "à¤ķà¤¸": 867,
      "à¤°à¤£à¤²": 868,
      "Ġà¤ĸà¤¡": 869,
      "Ġà¤¹à¤²": 870,
      "à¤µà¤µ": 871,
      "Ġà¤°à¤®": 872,
      "à¤¯à¤Łà¤¨": 873,
      "à¤ľà¤¨à¤ķ": 874,
      "à¤§à¤°": 875,
      "à¤²à¤°": 876,
      "Ġà¤Ĺà¤łà¤¨": 877,
      "Ġà¤īà¤¡": 878,
      "Ġà¤®à¤¤à¤¦": 879,
      "à¤§à¤¬": 880,
      "à¤¨à¤¹à¤°": 881,
      "Ġà¤¹à¤Ł": 882,
      "à¤ĩà¤¤": 883,
      "Ġà¤Ĩà¤ª": 884,
      "à¥¦à¥¦": 885,
      "Ġà¥§à¥Ń": 886,
      "Ġà¤Ĩà¤ľà¤ķ": 887,
      "à¤¯à¤£": 888,
      "à¤·à¤²": 889,
      "Ġà¤¯à¤¸à¤®": 890,
      "à¤ľà¤°": 891,
      "à¤ĺà¤°": 892,
      "Ġà¤¶à¤¨": 893,
      "Ġà¤Ńà¤£": 894,
      "Ġà¤īà¤ªà¤¸": 895,
      "à¤¯à¤ķà¤¤": 896,
      "Ġà¤¶à¤¬": 897,
      "à¤ĩà¤¨à¤²": 898,
      "à¤·à¤§": 899,
      "à¤¹à¤®": 900,
      "à¤°à¤£à¤ķ": 901,
      "à¤¤à¤¤": 902,
      "Ġà¤¤à¤¹à¤ķ": 903,
      "Ġà¥¨à¥¨": 904,
      "Ġà¤ĩà¤¤": 905,
      "Ġà¤Ŀà¤¨": 906,
      "à¤¯à¤ķà¤°": 907,
      "Ġà¤Ĳà¤¨": 908,
      "Ġà¥¨à¥ª": 909,
      "à¤¤à¤¹à¤°": 910,
      "Ġà¤ķà¤®à¤ľ": 911,
      "à¤Ńà¤ķ": 912,
      "Ġà¤Ĺà¤®": 913,
      "à¤ĸà¤ķ": 914,
      "à¤Ļà¤®": 915,
      "Ġà¤Ĩà¤Ī": 916,
      "Ġà¤µà¤¨": 917,
      "à¤¨à¤Ĺà¤°à¤ª": 918,
      "à¤µà¤¯à¤¨": 919,
      "Ġà¤¤à¤¸": 920,
      "Ġà¤«à¤²": 921,
      "Ġà¤¯à¤¸à¤ħà¤ĺ": 922,
      "à¤ļà¤°": 923,
      "Ġà¤ľà¤¬": 924,
      "à¤Īà¤¨": 925,
      "à¤µà¤¤à¤¨": 926,
      "à¤Ĺà¤²à¤¬": 927,
      "à¤ķà¤²à¤¨": 928,
      "à¤Ĩà¤°": 929,
      "Ġà¥¨à¥®": 930,
      "à¤ĩà¤®": 931,
      "Ġà¤ĸà¤¨": 932,
      "Ġà¤¤à¤²": 933,
      "à¤®à¤Ĺ": 934,
      "Ġà¤ķà¤ķ": 935,
      "à¤ľà¤µ": 936,
      "ĠĠĠĠĠĠĠĠ": 937,
      "à¤°à¤ĸ": 938,
      "à¤¥à¤ķ": 939,
      "à¤ªà¤·": 940,
      "à¤¯à¤¦": 941,
      "à¤ªà¤£": 942,
      "Ġà¤¨à¤ķ": 943,
      "Ġà¤Ĺà¤ł": 944,
      "Ġà¥¨à¥Ń": 945,
      "Ġà¤ķà¤¨": 946,
      "à¥ĩà¤Ĥ": 947,
      "Ġà¥¨à¥©": 948,
      "Ġà¤ħà¤ķ": 949,
      "Ġà¥¨à¥¦à¥¬": 950,
      "à¤¯à¤µà¤¹": 951,
      "à¤ĸà¤²": 952,
      "Ġà¤ķà¤¥": 953,
      "à¤§à¤¨à¤ķ": 954,
      "Ġà¤Ķà¤·à¤§": 955,
      "à¤°à¤ļà¤£": 956,
      "à¤¡à¤°": 957,
      "à¤®à¤ª": 958,
      "Ġà¤¦à¤²à¤ķ": 959,
      "à¤£à¤®": 960,
      "à¤¨à¤¦": 961,
      "Ġà¤Ńà¤ķ": 962,
      "Ġà¤īà¤¸à¤ķ": 963,
      "Ġà¤Ĩà¤²": 964,
      "Ġà¤ľà¤¨à¤¸": 965,
      "Ġà¤īà¤ľ": 966,
      "Ġà¤®à¤¦": 967,
      "Ġà¤īà¤ªà¤Ń": 968,
      "à¤¸à¤ļ": 969,
      "Ġà¤Ĩà¤ķà¤°": 970,
      "Ġà¤ħà¤µà¤¸à¤°": 971,
      "à¤¯à¤®à¤¨": 972,
      "Ġà¥ªà¥¦": 973,
      "Ġà¤Ńà¤¤": 974,
      "Ġà¤ķà¤µ": 975,
      "à¤Ĺà¤łà¤¨": 976,
      "à¤®à¤¹": 977,
      "à¤ķà¤°à¤£à¤ķ": 978,
      "Ġà¥¨à¥¦à¥¦": 979,
      "Ġà¤¶à¤¹à¤°": 980,
      "à¤Ĺà¤¨": 981,
      "à¤łà¤²": 982,
      "Ġà¤Ĩà¤ĩà¤¤à¤¬": 983,
      "à¤Ĺà¤¢": 984,
      "Ġà¤ľà¤µ": 985,
      "à¤ĸà¤®": 986,
      "Ġà¤ĸà¤¬à¤°": 987,
      "Ġà¤¸à¤«": 988,
      "Ġà¤ĭà¤£": 989,
      "à¤Łà¤¬": 990,
      "Ġà¥¨à¥¯": 991,
      "Ġà¤Ĩà¤ļ": 992,
      "à¤£à¤¸": 993,
      "Ġà¤ħà¤¨à¤²": 994,
      "Ġà¤ķà¤Ł": 995,
      "Ġà¤¸à¤®à¤°": 996,
      "Ġà¤¬à¤Ĺ": 997,
      "à¤Ĺà¤ł": 998,
      "à¤łà¤ķà¤²": 999,
      "Ġà¥¨à¥¬": 1000,
      "Ġà¤¯à¤¸à¤¬": 1001,
      "Ġà¤ıà¤ľ": 1002,
      "à¤µà¤§": 1003,
      "Ġà¤Ĩà¤ł": 1004,
      "à¤¬à¤°à¤ķ": 1005,
      "à¤£à¤¨": 1006,
      "à¤°à¤µà¤ķ": 1007,
      "à¤ļà¤¨à¤®": 1008,
      "Ġà¤ħà¤µà¤¸à¤°à¤®": 1009,
      "Ġà¤ĺà¤£": 1010,
      "Ġà¥¨à¥¦à¥Ńà¥ª": 1011,
      "à¤¨à¤¸à¤®": 1012,
      "à¤¤à¤°à¤ķ": 1013,
      "à¤¸à¤µ": 1014,
      "à¤²à¤¸à¤®": 1015,
      "Ġà¤ªà¤¸": 1016,
      "Ġà¤¨à¤¤": 1017,
      "à¤¯à¤¯": 1018,
      "à¤Ĺà¤¬": 1019,
      "à¤ªà¤ļ": 1020,
      "Ġà¤²à¤¡": 1021,
      "Ġà¥¨à¥¦à¥Ńà¥«": 1022,
      "à¤ĸà¤¨": 1023,
      "à¤°à¤¹à¤¨": 1024,
      "Ġà¤Ńà¤µà¤¨": 1025,
      "Ġà¤¬à¤®": 1026,
      "à¥¨à¥¦": 1027,
      "à¥ĩà¤ģ": 1028,
      "Ġà¤Ńà¤Ĺ": 1029,
      "à¤ĩà¤ľ": 1030,
      "à¤¸à¤ª": 1031,
      "Ġà¤ĩà¤²": 1032,
      "Ġà¤¤à¤¹à¤®": 1033,
      "Ġà¤¦à¤²à¤¹à¤°": 1034,
      "Ġà¤Ĺà¤¨": 1035,
      "à¤Łà¤°à¤¨": 1036,
      "Ġà¤ĸà¤¸": 1037,
      "Ġà¤Ĺà¤ıà¤°": 1038,
      "à¤°à¤¤à¤²": 1039,
      "Ġà¤¸à¤«à¤²à¤¤": 1040,
      "Ġà¤²à¤®": 1041,
      "Ġà¤¸à¤®à¤¨": 1042,
      "Ġà¤ľà¤²": 1043,
      "à¤Ĺà¤®à¤¨": 1044,
      "Ġà¤°à¤¸": 1045,
      "à¤µà¤Ł": 1046,
      "Ġà¤¨à¤¬": 1047,
      "à¤īà¤µ": 1048,
      "Ġà¤ķà¤ł": 1049,
      "Ġà¤Ńà¤ıà¤¨": 1050,
      "Ġà¤¸à¤ªà¤¨": 1051,
      "Ġà¤¨à¤²": 1052,
      "à¤Ĺà¤¤à¤ķ": 1053,
      "à¤°à¤°": 1054,
      "à¤µà¤¶": 1055,
      "à¤ıà¤²": 1056,
      "à¤«à¤¬": 1057,
      "Ġà¤ħà¤ĸ": 1058,
      "Ġà¤¨à¤µ": 1059,
      "à¤Łà¤¬à¤²": 1060,
      "à¤°à¤¬à¤¹": 1061,
      "Ġà¥¬à¥¦": 1062,
      "Ġà¤¸à¤¸": 1063,
      "à¤īà¤ķ": 1064,
      "Ġà¤¸à¤§": 1065,
      "à¤¸à¤¨à¤ķ": 1066,
      "à¤Łà¤µ": 1067,
      "à¤Ńà¤®": 1068,
      "Ġà¤ļà¤°à¤£à¤®": 1069,
      "Ġà¤¸à¤ª": 1070,
      "à¤¨à¤¯": 1071,
      "Ġà¤ħà¤¸à¤°": 1072,
      "à¤Ķ": 1073,
      "Ġà¥©à¥§": 1074,
      "à¤łà¤ķà¤®": 1075,
      "à¤°à¤¸à¤®": 1076,
      "à¤ĩà¤¡": 1077,
      "Ġà¤ħà¤¡": 1078,
      "à¤ĩà¤¸": 1079,
      "à¤Łà¤¹à¤°": 1080,
      "Ġà¤ķà¤¡": 1081,
      "à¤ķà¤¬": 1082,
      "Ġà¤ªà¤ŀ": 1083,
      "Ġà¤Ĺà¤²": 1084,
      "à¥ģà¤ĥ": 1085,
      "à¤ķà¤µ": 1086,
      "à¤²à¤ª": 1087,
      "à¤°à¤¥à¤®": 1088,
      "Ġà¤¤à¤¨": 1089,
      "à¤īà¤¨à¤ķ": 1090,
      "Ġà¤Ĺà¤¯": 1091,
      "à¤¤à¤°à¤®": 1092,
      "à¤¸à¤¨à¤²": 1093,
      "Ġà¤¸à¤¡": 1094,
      "à¤ļà¤¯": 1095,
      "Ġà¤ľà¤¸à¤ķ": 1096,
      "Ġà¤Ĩà¤«à¤¨": 1097,
      "à¤°à¤Ĺà¤¤": 1098,
      "à¤Ĩà¤Ī": 1099,
      "à¤·à¤£à¤ķ": 1100,
      "à¤²à¤Ń": 1101,
      "à¤Ĺà¤°à¤ķ": 1102,
      "Ġà¤®à¤Ĺà¤°": 1103,
      "à¤®à¤£": 1104,
      "à¤¦à¤Ľà¤¨": 1105,
      "Ġà¤īà¤ªà¤¤": 1106,
      "Ġà¤ľà¤²à¤µ": 1107,
      "Ġà¤ıà¤ª": 1108,
      "à¤Ĺà¤¤à¤®": 1109,
      "Ġà¤¤à¤°à¤ķ": 1110,
      "Ġà¤ªà¤²": 1111,
      "à¤¬à¤®": 1112,
      "Ġà¤¦à¤¸": 1113,
      "à¤¶à¤¹à¤°": 1114,
      "à¤¶à¤¸": 1115,
      "à¤§à¤µ": 1116,
      "Ġà¤Ĺà¤²à¤¤": 1117,
      "Ġà¤¸à¤¹à¤°": 1118,
      "à¤īà¤®": 1119,
      "à¤°à¤®à¤£à¤ķ": 1120,
      "à¤ªà¤Ł": 1121,
      "à¤ªà¤¸": 1122,
      "à¤¶à¤¬": 1123,
      "à¤µà¤Ń": 1124,
      "à¤¶à¤¸à¤Ń": 1125,
      "Ġà¤Ĩà¤ı": 1126,
      "à¤ļà¤¨à¤ª": 1127,
      "à¤¨à¤Ńà¤¨": 1128,
      "à¤¬à¤¸": 1129,
      "à¤¡à¤¨": 1130,
      "à¤ĺà¤²": 1131,
      "à¤¦à¤¨à¤®": 1132,
      "Ġà¤¸à¤¦à¤°à¤®": 1133,
      "à¤¥à¤°": 1134,
      "Ġà¥©à¥«": 1135,
      "Ġà¤Ĺà¤łà¤¬à¤¨": 1136,
      "à¤·à¤°": 1137,
      "Ġà¤¦à¤¬": 1138,
      "à¤¥à¤¨": 1139,
      "Ġà¤¯à¤¥": 1140,
      "Ġà¤ķà¤ŀ": 1141,
      "Ġà¤ıà¤ķà¤²": 1142,
      "à¤¯à¤¸à¤¬": 1143,
      "Ġà¤ıà¤²": 1144,
      "Ġà¤ªà¤¦à¤®": 1145,
      "Ġà¤ľà¤¨à¤ķ": 1146,
      "Ġà¤ľà¤¨à¤ľ": 1147,
      "à¤ľà¤ª": 1148,
      "à¤ļà¤¨à¤ķ": 1149,
      "Ġà¤Ńà¤ıà¤ªà¤¨": 1150,
      "Ġà¤īà¤ªà¤®à¤¹": 1151,
      "à¤ľà¤¤": 1152,
      "Ġà¤Ĩà¤ĩà¤ª": 1153,
      "à¤¶à¤¨à¤ķ": 1154,
      "à¤ĩà¤¯": 1155,
      "Ġà¤Ĭà¤°": 1156,
      "Ġà¤ĩà¤®": 1157,
      "Ġà¤ĸà¤Ł": 1158,
      "Ġà¤ĸà¤£": 1159,
      "Ġà¤Ŀà¤£": 1160,
      "à¤ħà¤°": 1161,
      "à¤¬à¤ķ": 1162,
      "à¤¥à¤µ": 1163,
      "Ġà¤Ķà¤¦": 1164,
      "Ġà¤ĸà¤¤": 1165,
      "à¤°à¤Ĺ": 1166,
      "à¤¨à¤¸à¤Ń": 1167,
      "Ġà¤Ĳà¤¤": 1168,
      "à¤Īà¤®": 1169,
      "à¤¹à¤°à¤£": 1170,
      "à¤Ŀà¤¨": 1171,
      "Ġà¤ħà¤µà¤°": 1172,
      "à¤°à¤®à¤²": 1173,
      "Ġà¤²à¤²": 1174,
      "à¤µà¤¨à¤ķ": 1175,
      "à¥Ĥà¤ģ": 1176,
      "à¤Łà¤°à¤ķ": 1177,
      "Ġà¤ĩà¤ļ": 1178,
      "à¤¶à¤¨à¤®": 1179,
      "à¤ıà¤¨à¤¨": 1180,
      "Ġà¥ªà¥«": 1181,
      "à¤ķà¤¤à¤¨": 1182,
      "à¤¥à¤¤à¤¨": 1183,
      "Ġà¤ľà¤¡": 1184,
      "Ġà¤®à¤¹à¤¸": 1185,
      "à¤Ĺà¤¹à¤°": 1186,
      "Ġà¤ľà¤¸à¤®": 1187,
      "à¤«à¤ķ": 1188,
      "Ġà¤¸à¤°à¤¸": 1189,
      "à¤¤à¤µà¤¨": 1190,
      "Ġà¤ļà¤¢": 1191,
      "à¤¥à¤²à¤®": 1192,
      "Ġà¤¦à¤¶à¤ķ": 1193,
      "Ġà¤¨à¤Ńà¤Ī": 1194,
      "Ġà¥©à¥¨": 1195,
      "Ġà¤ªà¤¦à¤ķ": 1196,
      "à¤¯à¤°à¤¤": 1197,
      "Ġà¤®à¤£": 1198,
      "Ġà¤¨à¤ªà¤°": 1199,
      "Ġà¤Ĩà¤ıà¤°": 1200,
      "à¤°à¤¤à¤®": 1201,
      "à¤°à¤«": 1202,
      "à¤¶à¤¨à¤²": 1203,
      "Ġà¤¨à¤Ńà¤ı": 1204,
      "Ġà¤īà¤¸": 1205,
      "à¤Ĭ": 1206,
      "Ġà¤ħà¤¶": 1207,
      "à¤Ĩà¤«": 1208,
      "Ġà¤ªà¤¹à¤²": 1209,
      "à¤ķà¤®à¤²": 1210,
      "à¤µà¤°à¤²": 1211,
      "Ġà¤ľà¤¨à¤ª": 1212,
      "à¤²à¤¦": 1213,
      "à¤¹à¤¸": 1214,
      "à¤ľà¤¬": 1215,
      "Ġà¤¢à¤ķ": 1216,
      "à¤²à¤¹à¤°": 1217,
      "à¤Ĺà¤°à¤®": 1218,
      "Ġà¤Ńà¤Ĺà¤µ": 1219,
      "à¤²à¤¤à¤²": 1220,
      "à¤¡à¤¬": 1221,
      "Ġà¤¸à¤¡à¤ķà¤®": 1222,
      "Ġà¤¹à¤ķ": 1223,
      "à¤µà¤¨à¤®": 1224,
      "Ġà¤¸à¤®à¤Ĺ": 1225,
      "Ġà¥Ńà¥¦": 1226,
      "Ġà¤ħà¤·": 1227,
      "Ġà¤¦à¤¶à¤®à¤²": 1228,
      "à¥ĭà¥ĩ": 1229,
      "à¤·à¤ħà¤ĺ": 1230,
      "ĠĠĠ": 1231,
      "Ġà¤¦à¤¶à¤®à¤²à¤µ": 1232,
      "à¤°à¤¥": 1233,
      "Ġà¤¨à¤Ĺà¤¦": 1234,
      "Ġà¤Ĩà¤¹": 1235,
      "Ġà¤īà¤ªà¤°": 1236,
      "Ġà¤¹à¤ª": 1237,
      "à¤¯à¤Ł": 1238,
      "à¤®à¤¹à¤°": 1239,
      "Ġà¤īà¤°": 1240,
      "Ġà¤°à¤¨": 1241,
      "à¤Łà¤°à¤®": 1242,
      "Ġà¤¤à¤®": 1243,
      "à¤£à¤²": 1244,
      "Ġà¥¨à¥¦à¥«": 1245,
      "Ġà¤¹à¤Ļà¤ķ": 1246,
      "Ġà¤ħà¤ªà¤¨": 1247,
      "à¤¹à¤¦": 1248,
      "à¤¤à¤¸": 1249,
      "à¤ħà¤§": 1250,
      "Ġà¥®à¥¦": 1251,
      "Ġà¤Ķà¤ªà¤ļ": 1252,
      "Ġà¤®à¤ľà¤¦": 1253,
      "à¤ĩà¤¨à¤²à¤®": 1254,
      "Ġà¤µà¤ķ": 1255,
      "à¤µà¤°à¤ķ": 1256,
      "à¤¦à¤¤": 1257,
      "Ġà¤®à¤¨à¤®": 1258,
      "Ġà¤ĺà¤°à¤ķ": 1259,
      "Ġà¤¡à¤²à¤°": 1260,
      "à¤§à¤²": 1261,
      "à¤°à¤®à¤£à¤®": 1262,
      "à¤£à¤¤": 1263,
      "Ġà¤Ĩà¤¸": 1264,
      "à¤¡à¤¸": 1265,
      "à¥ģà¥ģ": 1266,
      "Ġà¤®à¤ŀ": 1267,
      "Ġà¤Ĺà¤ı": 1268,
      "à¤·à¤¸à¤®": 1269,
      "Ġà¤ļà¤ķ": 1270,
      "à¤µà¤ķà¤ª": 1271,
      "à¤·à¤¹à¤°": 1272,
      "Ġà¤¹à¤µ": 1273,
      "Ġà¤ļà¤°à¤£à¤ķ": 1274,
      "Ġà¤ħà¤¥à¤µ": 1275,
      "à¤°à¤µà¤¦": 1276,
      "à¤ªà¤¦à¤£": 1277,
      "Ġà¤Ĺà¤£à¤¤à¤¨": 1278,
      "Ġà¤¤à¤²à¤¬": 1279,
      "Ġà¤Ĩà¤ĩà¤°à¤¹": 1280,
      "à¤¤à¤°à¤¤": 1281,
      "Ġà¤ĺà¤¨": 1282,
      "à¥Ńà¥«": 1283,
      "Ġà¤®à¤¹à¤°": 1284,
      "Ġà¤ıà¤¶": 1285,
      "Ġà¥Ńà¥«": 1286,
      "Ġà¤īà¤Ń": 1287,
      "à¤Ńà¤²": 1288,
      "Ġà¤°à¤£à¤¨": 1289,
      "Ġà¤¶à¤¤": 1290,
      "Ġà¤ħà¤¸à¤¨": 1291,
      "Ġà¥©à¥©": 1292,
      "à¥Ģà¤ģ": 1293,
      "Ġà¤§à¤®": 1294,
      "à¤¬à¤ľ": 1295,
      "Ġà¤¨à¤Ĩ": 1296,
      "Ġà¤ľà¤¨à¤ķà¤ª": 1297,
      "Ġà¤ĸà¤¤à¤°": 1298,
      "à¤¤à¤¹": 1299,
      "Ġà¥¨à¥¦à¥ª": 1300,
      "Ġà¤īà¤ªà¤ª": 1301,
      "Ġà¤Ńà¤ıà¤®": 1302,
      "à¤²à¤¤à¤®": 1303,
      "Ġà¤Ľà¤°": 1304,
      "âĢ": 1305,
      "Ġà¤Ĺà¤¹": 1306,
      "à¤īà¤²": 1307,
      "Ġà¤ĩà¤¸": 1308,
      "Ġà¤®à¤Ļ": 1309,
      "Ġà¤ľà¤¨à¤®": 1310,
      "à¤Łà¤¸": 1311,
      "à¤Ńà¤Ĺ": 1312,
      "à¤īà¤¸": 1313,
      "à¤°à¤¬à¤¨": 1314,
      "Ġà¥¯à¥¦": 1315,
      "à¤¯à¤¤à¤²": 1316,
      "Ġà¤¬à¤¦à¤²": 1317,
      "Ġà¤ķà¤®à¤²": 1318,
      "Ġà¥¨à¥¦à¥Ńà¥©": 1319,
      "à¤¦à¤¨à¤ķ": 1320,
      "Ġà¤ıà¤µà¤®": 1321,
      "Ġà¤¡à¤°": 1322,
      "Ġà¤«à¤¸": 1323,
      "à¤µà¤¹à¤°": 1324,
      "à¤ıà¤«": 1325,
      "à¤°à¤ķà¤°": 1326,
      "à¤®à¤µ": 1327,
      "à¤®à¤¬à¤¹": 1328,
      "à¤ªà¤¨à¤ķ": 1329,
      "à¤«à¤°": 1330,
      "Ġà¤ľà¤¨à¤¶à¤ķ": 1331,
      "à¤Ĺà¤ľ": 1332,
      "Ġà¤°à¤µ": 1333,
      "à¤Łà¤°à¤¸": 1334,
      "Ġà¤Ĩà¤ıà¤ªà¤Ľ": 1335,
      "Ġà¤ļà¤²à¤¨": 1336,
      "Ġà¤ħà¤Ļ": 1337,
      "Ġà¥§à¥¯à¥¯": 1338,
      "à¤¹à¤®à¤¨": 1339,
      "à¤¶à¤¤à¤²": 1340,
      "à¤ĩà¤ķà¤²": 1341,
      "Ġà¤¦à¤®": 1342,
      "à¤ĸà¤¦": 1343,
      "à¤īà¤°": 1344,
      "à¤ŀà¤ª": 1345,
      "Ġà¤ıà¤ķà¤ľà¤¨": 1346,
      "à¤ĩà¤ª": 1347,
      "à¤¨à¤¤à¤®": 1348,
      "à¤¸à¤¤": 1349,
      "Ġà¤ļà¤¯à¤¨": 1350,
      "à¤¿à¤ĥ": 1351,
      "Ġà¤¬à¤¡": 1352,
      "à¤®à¤¯": 1353,
      "Ġà¤¸à¤¶à¤¸": 1354,
      "à¤¯à¤®à¤¬": 1355,
      "Ġà¥¨à¥¦à¥Ńà¥¨": 1356,
      "à¤·à¤£à¤®": 1357,
      "à¤¯à¤°à¤ķ": 1358,
      "Ġà¤¨à¤Ńà¤ıà¤°": 1359,
      "Ġà¤¶à¤µ": 1360,
      "Ġà¥«à¥«": 1361,
      "Ġà¤ľà¤¸à¤°": 1362,
      "Ġà¤Ĩà¤Ĩà¤«": 1363,
      "Ġà¤²à¤ĺ": 1364,
      "Ġà¤ħà¤ļ": 1365,
      "Ġà¥¨à¥¦à¥§à¥®": 1366,
      "à¤Łà¤ª": 1367,
      "à¤Ŀà¤¦": 1368,
      "Ġà¤·": 1369,
      "à¤ķà¤°à¤£à¤²": 1370,
      "à¤Īà¤¹à¤°": 1371,
      "Ġà¤¨à¤°à¤¹": 1372,
      "à¤·à¤¬": 1373,
      "à¤·à¤¯à¤²": 1374,
      "Ġà¤ıà¤«": 1375,
      "à¤²à¤¨à¤²": 1376,
      "à¤Łà¤¨à¤Ĺà¤°": 1377,
      "à¤ªà¤ķà¤®à¤²": 1378,
      "âĢĬ": 1379,
      "à¤Ĺà¤¸": 1380,
      "Ġà¤¸à¤®à¤¯à¤¦": 1381,
      "Ġà¤ıà¤ķà¤¦à¤®": 1382,
      "à¤Ĺà¤ķà¤°": 1383,
      "à¤Īà¤ıà¤ķ": 1384,
      "à¤µà¤¯à¤¨à¤®": 1385,
      "à¤·à¤ķà¤ķ": 1386,
      "à¤Ĺà¤¶": 1387,
      "Ġà¤ªà¤¸à¤²": 1388,
      "Ġà¤Ŀà¤°": 1389,
      "à¤¨à¤ļ": 1390,
      "à¤¶à¤µ": 1391,
      "à¤īà¤¡": 1392,
      "à¤µà¤¹": 1393,
      "Ġà¤Ńà¤°à¤¤": 1394,
      "Ġà¤īà¤ªà¤¨": 1395,
      "à¤Łà¤µà¤²": 1396,
      "Ġà¤ħà¤Ł": 1397,
      "à¤²à¤¤à¤ķ": 1398,
      "Ġà¤¸à¤®à¤¯à¤ķ": 1399,
      "à¤²à¤ĸ": 1400,
      "à¤¥à¤®à¤¨": 1401,
      "à¤·à¤ªà¤Ľ": 1402,
      "à¤¥à¤²à¤ķ": 1403,
      "à¤°à¤¹à¤£": 1404,
      "à¤ľà¤¨à¤®": 1405,
      "Ġà¤ĺà¤°à¤¬": 1406,
      "à¤¨à¤¸à¤°": 1407,
      "Ġà¤ķà¤¬": 1408,
      "Ġà¤¦à¤²à¤²": 1409,
      "Ġà¤ħà¤²à¤Ĺ": 1410,
      "à¤°à¤®à¤¹à¤°": 1411,
      "Ġà¤¨à¤¸": 1412,
      "à¤£à¤ªà¤¤": 1413,
      "à¤°à¤®à¤¶": 1414,
      "à¥Ńà¥ª": 1415,
      "Ġà¤¬à¤¹à¤¸": 1416,
      "à¤µà¤ļ": 1417,
      "à¤īà¤ª": 1418,
      "à¤¸à¤Ļ": 1419,
      "à¤ªà¤¬": 1420,
      "à¤²à¤¯à¤¬": 1421,
      "à¤®à¤¶": 1422,
      "à¤¦à¤¶": 1423,
      "Ġà¤ħà¤¸à¤«à¤²": 1424,
      "à¤Ĩà¤®": 1425,
      "à¤¯à¤§": 1426,
      "Ġà¤¦à¤°à¤¬": 1427,
      "Ġà¤īà¤ªà¤ķà¤°à¤£": 1428,
      "à¤īà¤¨à¤²": 1429,
      "à¤¤à¤µà¤®": 1430,
      "Ġà¤łà¤Ĺ": 1431,
      "à¤·à¤Ń": 1432,
      "à¤¡à¤«": 1433,
      "Ġà¤ªà¤°à¤°": 1434,
      "à¤·à¤¯à¤ķ": 1435,
      "Ġà¤ķà¤¸à¤²": 1436,
      "Ġà¤¥à¤°": 1437,
      "Ġà¤Ľà¤²à¤«": 1438,
      "Ġà¥¬à¥«": 1439,
      "Ġà¤ħà¤¬à¤ķ": 1440,
      "à¤·à¤ķà¤²": 1441,
      "à¤§à¤¨à¤²": 1442,
      "à¤ľà¤¨à¤²": 1443,
      "à¤ĩà¤¬": 1444,
      "Ġà¤²à¤®à¤ľ": 1445,
      "à¤²à¤¯à¤¹à¤°": 1446,
      "à¤µà¤¸à¤ķ": 1447,
      "Ġà¤¸à¤°à¤¸à¤«": 1448,
      "Ġà¤Ńà¤²": 1449,
      "à¤°à¤¤à¤¬": 1450,
      "à¤īà¤£": 1451,
      "à¤µà¤¡": 1452,
      "Ġà¤¸à¤Ł": 1453,
      "Ġà¤Ĩà¤¨à¤¨": 1454,
      "à¤ħà¤¸": 1455,
      "Ġà¤ıà¤¡": 1456,
      "à¤°à¤¶à¤¸": 1457,
      "Ġà¤ıà¤¨à¤Ĩà¤°": 1458,
      "à¤¸à¤°à¤ķ": 1459,
      "Ġà¤ªà¤Łà¤ķà¤ªà¤Łà¤ķ": 1460,
      "Ġà¤¤à¤¹à¤²": 1461,
      "Ġà¤ħà¤ŀ": 1462,
      "à¤¯à¤®à¤²": 1463,
      "Ġà¥©à¥¬": 1464,
      "Ġà¤ķà¤ªà¤¡": 1465,
      "à¤¦à¤µà¤²": 1466,
      "à¤¯à¤®à¤ķ": 1467,
      "Ġà¥©à¥ª": 1468,
      "à¥§à¥¦": 1469,
      "Ġà¤¸à¤¡à¤ķà¤ķ": 1470,
      "à¤¨à¤¥": 1471,
      "à¥Ģà¤Ĥ": 1472,
      "à¤Łà¤°à¤²": 1473,
      "Ġà¤ıà¤£": 1474,
      "à¤¤à¤¨à¤ķ": 1475,
      "à¤¯à¤°à¤®": 1476,
      "Ġà¤ħà¤¸à¤®": 1477,
      "Ġà¤ľà¤Ł": 1478,
      "Ġà¤²à¤Ĺà¤Ńà¤Ĺ": 1479,
      "Ġà¤łà¤¹à¤°": 1480,
      "Ġà¤¨à¤ĸ": 1481,
      "à¤·à¤ķà¤¹à¤°": 1482,
      "Ġà¤Łà¤¨": 1483,
      "Ġà¤ħà¤ľ": 1484,
      "à¤²à¤ªà¤¤": 1485,
      "à¤µà¤¬": 1486,
      "à¤£à¤ª": 1487,
      "à¤¶à¤Ń": 1488,
      "à¤§à¤¨à¤®": 1489,
      "à¤īà¤Ľ": 1490,
      "ĠĠĠĠĠĠĠĠĠĠĠĠĠĠĠĠ": 1491,
      "Ġà¤¸à¤ĺ": 1492,
      "Ġà¤¨à¤ļ": 1493,
      "Ġà¥¨à¥¦à¥§à¥Ń": 1494,
      "Ġà¥«à¥§": 1495,
      "à¤Ĺà¤¡": 1496,
      "à¤Łà¤ĺ": 1497,
      "Ġà¤ħà¤¸à¤¹": 1498,
      "à¤°à¤ªà¤¶": 1499,
      "à¤ĩà¤¨à¤¨": 1500,
      "à¤°à¤Ļ": 1501,
      "à¤®à¤°à¤£": 1502,
      "à¤¨à¤¹": 1503,
      "Ġà¤¢à¤²": 1504,
      "à¤¶à¤Ńà¤°": 1505,
      "à¤¬à¤°à¤®": 1506,
      "à¤¨à¤Ń": 1507,
      "Ġà¤°à¤Ļ": 1508,
      "à¤¸à¤¨à¤®": 1509,
      "à¤¦à¤Ĺ": 1510,
      "Ġà¤ªà¤µ": 1511,
      "à¤¯à¤¸à¤°": 1512,
      "Ġà¤°à¤¤": 1513,
      "Ġà¤ĩà¤ķ": 1514,
      "à¤¦à¤¯": 1515,
      "Ġà¤¨à¤µà¤²": 1516,
      "Ġà¤¬à¤ķ": 1517,
      "Ġà¤¸à¤®à¤Ŀà¤¦": 1518,
      "à¤ļà¤¸": 1519,
      "à¤¯à¤°à¤²": 1520,
      "Ġà¤ªà¤Ł": 1521,
      "à¤µà¤°à¤®": 1522,
      "Ġà¥ªà¥¨": 1523,
      "à¤¦à¤¨à¤¶": 1524,
      "à¤Ĺà¤łà¤¨à¤ķ": 1525,
      "Ġà¤ĩà¤°": 1526,
      "Ġà¤§à¤¨à¤Ĺà¤¢": 1527,
      "Ġà¤ıà¤ķà¤¦": 1528,
      "Ġà¥§à¥¦à¥¦": 1529,
      "Ġà¤¡à¤Ł": 1530,
      "à¤Īà¤¦": 1531,
      "Ġà¤°à¤ľ": 1532,
      "Ġà¤ļà¤®": 1533,
      "Ġà¤¡à¤²": 1534,
      "à¤ģà¥ģ": 1535,
      "à¤īà¤¤": 1536,
      "à¤ĩà¤Ń": 1537,
      "à¤ĺà¤¸": 1538,
      "Ġà¤®à¤ķ": 1539,
      "Ġà¤¤à¤¬": 1540,
      "à¤ľà¤Ĺà¤¢": 1541,
      "Ġà¤¸à¤®à¤¯à¤¸à¤®": 1542,
      "à¤²à¤ķà¤²": 1543,
      "Ġà¤°à¤ļà¤¨": 1544,
      "à¤ıà¤¸à¤ª": 1545,
      "à¤ķà¤¹": 1546,
      "Ġà¤Ĺà¤ľ": 1547,
      "Ġà¤ħà¤µà¤²": 1548,
      "à¤Ńà¤µà¤¤": 1549,
      "à¤¯à¤¤à¤®": 1550,
      "à¤¸à¤¦à¤¹à¤°": 1551,
      "Ġà¥¨à¥¦à¥§à¥¬": 1552,
      "à¤µà¤¯à¤¨à¤ķ": 1553,
      "à¤Ĺà¤£": 1554,
      "à¤µà¤ķà¤°": 1555,
      "à¤ķà¤°à¤£à¤®": 1556,
      "à¤Ļà¤¬": 1557,
      "à¤Ĺà¤Ł": 1558,
      "Ġà¤ĵà¤°": 1559,
      "ĉĠ": 1560,
      "Ġà¤¹à¤ķà¤®": 1561,
      "à¤µà¤¯à¤®": 1562,
      "à¤ĸà¤£": 1563,
      "à¤¤à¤¡": 1564,
      "Ġà¤¦à¤«": 1565,
      "Ġà¤Ĩà¤ªà¤¤": 1566,
      "Ġà¤łà¤ķ": 1567,
      "à¤ŀà¤¹à¤°": 1568,
      "à¤°à¤ŀ": 1569,
      "à¤°à¤ķà¤Ł": 1570,
      "Ġà¤¯à¤¸à¤ª": 1571,
      "Ġà¤Ĺà¤ĩà¤°à¤¹": 1572,
      "à¤¤à¤°à¤¦": 1573,
      "Ġà¤¬à¤Ļ": 1574,
      "à¥©à¥¦": 1575,
      "Ġà¤ķà¤¦à¤®": 1576,
      "à¤Īà¤¤": 1577,
      "à¤ķà¤¦": 1578,
      "Ġà¤µà¤²": 1579,
      "Ġà¤ħà¤¸à¤²": 1580,
      "à¤¯à¤¨à¤¸": 1581,
      "Ġà¥«à¥¬": 1582,
      "à¤ľà¤ķà¤¤": 1583,
      "Ġà¤Ńà¤ĩ": 1584,
      "à¤ļà¤¬": 1585,
      "Ġà¤¬à¤ļà¤¤": 1586,
      "Ġà¤¨à¤¨": 1587,
      "à¤¤à¤®à¤²": 1588,
      "à¤¤à¤ľ": 1589,
      "Ġà¤ĩà¤ľ": 1590,
      "Ġà¤Īà¤¶": 1591,
      "Ġà¥ªà¥®": 1592,
      "Ġà¤¸à¤°à¤²": 1593,
      "Ġà¤¨à¤¬à¤¨": 1594,
      "à¤ªà¤¥": 1595,
      "Ġà¥©à¥®": 1596,
      "à¤°à¤ªà¤Ľ": 1597,
      "Ġà¤°à¤Ĺà¤¤": 1598,
      "à¤¾à¥Ī": 1599,
      "à¤°à¤¯à¤¤": 1600,
      "Ġà¥©à¥Ń": 1601,
      "à¤¸à¤¦à¤®": 1602,
      "à¤¤à¤¸à¤®": 1603,
      "à¤ªà¤¨à¤®": 1604,
      "Ġà¤ĩà¤Łà¤¹à¤°": 1605,
      "Ġà¤īà¤ªà¤¹": 1606,
      "à¤²à¤Ĺà¤ŀ": 1607,
      "à¤¸à¤Ĺà¤°": 1608,
      "Ġà¤Ĩà¤ĸ": 1609,
      "Ġà¥«à¥¨": 1610,
      "Ġà¤«à¤²à¤«": 1611,
      "Ġà¤¨à¤µà¤²à¤ªà¤°": 1612,
      "à¤·à¤ľ": 1613,
      "Ġà¥ªà¥ª": 1614,
      "à¤ıà¤¨à¤ı": 1615,
      "Ġà¤²à¤Ĺà¤¤": 1616,
      "à¥Ńà¥¬": 1617,
      "Ġà¥®à¥«": 1618,
      "à¤®à¤¹à¤¤": 1619,
      "à¥ĭà¤Ĥ": 1620,
      "à¤Ńà¤¦": 1621,
      "à¤¾à¥Īà¤Ĥ": 1622,
      "Ġà¤¸à¤¶à¤ķ": 1623,
      "Ġà¤¶à¤°à¤£": 1624,
      "à¤µà¤ľ": 1625,
      "à¤ĸà¤¤": 1626,
      "Ġà¤ľà¤¨à¤¯": 1627,
      "à¤ŀà¤µ": 1628,
      "à¤°à¤Ńà¤¨": 1629,
      "Ġà¤¹à¤¦": 1630,
      "Ġà¤¤à¤¸à¤°": 1631,
      "à¤Łà¤«": 1632,
      "Ġà¤¯à¤¸à¤ªà¤Łà¤ķ": 1633,
      "Ġà¥ªà¥©": 1634,
      "Ġà¤ħà¤µà¤¶": 1635,
      "à¤¹à¤¬": 1636,
      "Ġà¤ªà¤ļ": 1637,
      "à¤ĺà¤°à¤®": 1638,
      "Ġà¤¹à¤ķà¤ª": 1639,
      "à¤Īà¤µà¤Ł": 1640,
      "à¤¯à¤ķà¤ķ": 1641,
      "Ġà¤µà¤¹": 1642,
      "à¤£à¤°": 1643,
      "à¥§à¥§": 1644,
      "à¤ĩà¤¨à¤®": 1645,
      "à¤Ĺà¤®à¤²": 1646,
      "à¤°à¤¤à¤¸": 1647,
      "à¤¦à¤¹à¤°": 1648,
      "Ġà¥«à¥©": 1649,
      "Ġà¥ªà¥§": 1650,
      "à¤ªà¤¶": 1651,
      "Ġà¤®à¤¨à¤¸": 1652,
      "Ġà¤®à¤ķà¤µ": 1653,
      "Ġà¤¦à¤°à¤²": 1654,
      "Ġà¤§à¤¨à¤ķ": 1655,
      "à¥ī": 1656,
      "Ġà¤Ĩà¤¬à¤¦": 1657,
      "à¤¯à¤®à¤®": 1658,
      "à¤ĵà¤¸": 1659,
      "à¥Ńà¥©": 1660,
      "à¤¤à¤¦": 1661,
      "Ġà¤Ńà¤ĩà¤¨": 1662,
      "à¤£à¤¬à¤¹": 1663,
      "à¤ĺà¤¨": 1664,
      "à¤¤à¤µà¤¨à¤ķ": 1665,
      "à¤Łà¤²à¤®": 1666,
      "Ġà¤Łà¤°": 1667,
      "Ġà¤¸à¤¹à¤¸à¤ļ": 1668,
      "Ġà¤Ĩà¤¦à¤°": 1669,
      "Ġà¤ļà¤°à¤£": 1670,
      "à¤¸à¤ķà¤¹à¤°": 1671,
      "Ġà¤ħà¤«à¤Ĺ": 1672,
      "Ġà¤¹à¤Ļà¤ķà¤Ļ": 1673,
      "Ġà¤ķà¤ļ": 1674,
      "Ġà¤¨à¤·": 1675,
      "Ġà¤ľà¤¬à¤°": 1676,
      "Ġà¤ĵà¤Ń": 1677,
      "à¤¤à¤°à¤²": 1678,
      "à¤°à¤ľà¤¨": 1679,
      "à¤¯à¤ľ": 1680,
      "à¤¦à¤¥": 1681,
      "Ġà¥¨à¥¦à¥¨": 1682,
      "à¤ľà¤¶": 1683,
      "à¤¸à¤¦à¤ķ": 1684,
      "Ġà¤Īà¤¨": 1685,
      "à¤¬à¤¤": 1686,
      "à¤«à¤®": 1687,
      "à¤¯à¤¶": 1688,
      "à¤¯à¤ľà¤¨": 1689,
      "Ġà¤Ĺà¤¹à¤¨": 1690,
      "à¤Ĺà¤£à¤¨": 1691,
      "Ġà¤¬à¤Ł": 1692,
      "à¤ħà¤²": 1693,
      "Ġà¥«à¥Ń": 1694,
      "à¤¥à¤Ĺ": 1695,
      "à¤¯à¤¬à¤¸": 1696,
      "Ġà¤Ńà¤°à¤¤à¤ª": 1697,
      "à¤¯à¤¥": 1698,
      "Ġà¥¬à¥ª": 1699,
      "Ġà¤¬à¤¯": 1700,
      "à¤ľà¤¹à¤°": 1701,
      "Ġà¤¹à¤®": 1702,
      "à¤²à¤µà¤¸": 1703,
      "Ġà¤¦à¤°à¤¬à¤¨": 1704,
      "à¥§à¥¯": 1705,
      "à¤²à¤¬à¤²": 1706,
      "Ġà¥©à¥¯": 1707,
      "à¤¼": 1708,
      "à¤²à¤ļ": 1709,
      "Ġà¤Ĩà¤°à¤ķ": 1710,
      "à¤®à¤¸à¤®": 1711,
      "Ġà¤īà¤¦à¤¯à¤ª": 1712,
      "à¤°à¤µà¤°": 1713,
      "Ġà¥¦à¥¬": 1714,
      "à¤ıà¤ªà¤¨": 1715,
      "à¤łà¤Ń": 1716,
      "à¤¸à¤®à¤ķ": 1717,
      "Ġà¤ļà¤Ł": 1718,
      "à¤ħà¤ª": 1719,
      "Ġà¤ĵà¤¸": 1720,
      "Ġà¤Ĩà¤¸à¤ª": 1721,
      "Ġà¤ĸà¤²": 1722,
      "à¤¤à¤ķà¤ķ": 1723,
      "à¤¯à¤Łà¤ķà¤ķ": 1724,
      "à¤¨à¤ªà¤Ľ": 1725,
      "à¤°à¤¸à¤¹": 1726,
      "Ġà¤ķà¤°à¤ķ": 1727,
      "à¤ªà¤¹": 1728,
      "Ġà¤¦à¤£": 1729,
      "à¤¸à¤¦à¤²": 1730,
      "à¤¤à¤ļ": 1731,
      "à¤¯à¤¯à¤¨à¤ķ": 1732,
      "Ġà¤Ńà¤°à¤®": 1733,
      "Ġà¤ıà¤Ł": 1734,
      "à¤¸à¤°à¤®": 1735,
      "Ġà¤Ĺà¤ıà¤ªà¤Ľ": 1736,
      "à¤ĩà¤¨à¤ķ": 1737,
      "Ġà¤¥à¤²": 1738,
      "Ġà¤¨à¤Ĺà¤°à¤ķ": 1739,
      "à¤®à¤ļà¤¨": 1740,
      "à¤Ĺà¤®à¤ķ": 1741,
      "Ġà¤®à¤ľ": 1742,
      "à¤²à¤¬à¤¹": 1743,
      "à¥§à¥«": 1744,
      "à¤°à¤ļà¤²à¤¨": 1745,
      "à¤µà¤¸à¤®": 1746,
      "à¤Ĺà¤²à¤®": 1747,
      "Ġà¥¨à¥¦à¥§à¥«": 1748,
      "à¤¹à¤¦à¤°à¤¬": 1749,
      "Ġà¤ªà¤£": 1750,
      "Ġà¤ħà¤ļà¤®": 1751,
      "à¤Ĺà¤µ": 1752,
      "à¤Ĩà¤ľ": 1753,
      "Ġà¤¹à¤¨": 1754,
      "Ġà¥«à¥®": 1755,
      "Ġà¥ªà¥¬": 1756,
      "Ġà¤¸à¤®à¤ķ": 1757,
      "Ġà¤Ĩà¤ĩà¤¸à¤ķ": 1758,
      "à¤¨à¤¡": 1759,
      "à¤°à¤¹à¤µ": 1760,
      "à¥§à¥¨": 1761,
      "Ġà¤¸à¤Ĺà¤°à¤®": 1762,
      "à¤¯à¤¤à¤¯": 1763,
      "Ġà¥¬à¥©": 1764,
      "Ġà¤īà¤ĸ": 1765,
      "à¤µà¤°à¤£à¤®": 1766,
      "à¤¬à¤Ī": 1767,
      "à¤¡à¤²à¤ķ": 1768,
      "Ġà¤ĩà¤ľà¤²": 1769,
      "à¤µà¤Ńà¤°": 1770,
      "Ġà¤ĺà¤¡": 1771,
      "à¤ĩà¤«": 1772,
      "Ġà¤ĵà¤Ŀ": 1773,
      "à¤¦à¤¨à¤²": 1774,
      "Ġà¤§à¤ķ": 1775,
      "à¤Ĩà¤¨": 1776,
      "à¤²à¤ķà¤ķ": 1777,
      "Ġà¥¨à¥¦à¥©": 1778,
      "Ġà¥Ńà¥¨": 1779,
      "Ġà¤®à¤¨à¤ķ": 1780,
      "à¤ľà¤ķà¤²": 1781,
      "Ġà¤ıà¤ķà¤®": 1782,
      "Ġà¥«à¥ª": 1783,
      "à¤¤à¤°à¤£à¤ķ": 1784,
      "Ġà¤®à¤ļ": 1785,
      "à¤£à¤µ": 1786,
      "à¤®à¤ľ": 1787,
      "à¤Łà¤µà¤°": 1788,
      "Ġà¤¹à¤¡": 1789,
      "Ġà¤Ľà¤ķ": 1790,
      "à¤¡à¤¯à¤¨": 1791,
      "Ġà¤ĩà¤ŀ": 1792,
      "à¤¨à¤ľ": 1793,
      "Ġà¤®à¤¦à¤¨": 1794,
      "à¤¡à¤ªà¤°": 1795,
      "Ġà¤īà¤ªà¤µ": 1796,
      "à¥§à¥®": 1797,
      "Ġà¤Ĺà¤£à¤¨": 1798,
      "Ġà¤ĺà¤²": 1799,
      "à¤¨à¤µà¤Ł": 1800,
      "à¤ªà¤ª": 1801,
      "Ġà¤ķà¤«": 1802,
      "Ġà¤¦à¤¹": 1803,
      "à¤²à¤¬à¤ķ": 1804,
      "Ġà¤Ŀà¤²": 1805,
      "Ġà¥ªà¥¯": 1806,
      "Ġà¥¨à¥¦à¥§à¥ª": 1807,
      "à¤¯à¤Ń": 1808,
      "à¤ĸà¤¹à¤°": 1809,
      "à¤¦à¤¬": 1810,
      "à¤łà¤ķà¤ķ": 1811,
      "Ġà¤¬à¤¦": 1812,
      "Ġà¥¬à¥¨": 1813,
      "à¤µà¤ķà¤²": 1814,
      "à¥īà¤Ĥ": 1815,
      "à¤¸à¤µà¤ķ": 1816,
      "Ġà¤Ĺà¤Ī": 1817,
      "Ġà¤Ľà¤ł": 1818,
      "à¤¯à¤¸à¤Ń": 1819,
      "à¤Łà¤¬à¤²à¤ķ": 1820,
      "Ġà¤µà¤¤": 1821,
      "Ġà¥ªà¥Ń": 1822,
      "Ġà¤ħà¤¯": 1823,
      "Ġà¤Ĩà¤Ń": 1824,
      "à¤Īà¤¸": 1825,
      "à¤·à¤¸": 1826,
      "Ġà¤ĭà¤·": 1827,
      "Ġà¤Ľà¤µ": 1828,
      "Ġà¤ĵà¤Ł": 1829,
      "Ġà¥Ńà¥¬": 1830,
      "à¤¿à¥į": 1831,
      "à¤ªà¤¹à¤°": 1832,
      "à¤ĸà¤¬": 1833,
      "Ġà¤Ĳà¤¨à¤ķ": 1834,
      "à¤°à¤Ĺà¤¨": 1835,
      "Ġà¤īà¤ªà¤®": 1836,
      "à¤¾à¤¾": 1837,
      "à¤ķà¤¤à¤®": 1838,
      "Ġà¤ıà¤¨à¤¸": 1839,
      "à¤¯à¤¨à¤ķ": 1840,
      "à¤ªà¤¸à¤®": 1841,
      "à¤·à¤Ĺà¤°": 1842,
      "à¤¡à¤µ": 1843,
      "à¥ĥà¤Ĥ": 1844,
      "Ġà¤®à¤¨à¤ªà¤°": 1845,
      "Ġà¥«à¥¦à¥¦": 1846,
      "Ġà¤ħà¤µà¤ķ": 1847,
      "Ġà¤ıà¤ļ": 1848,
      "à¤¯à¤Łà¤ķà¤²": 1849,
      "Ġà¥Ĳ": 1850,
      "Ġà¤°à¤¦": 1851,
      "Ġà¤ħà¤²à¤ªà¤¤": 1852,
      "Ġà¤¨à¤Ĺ": 1853,
      "à¤·à¤ķà¤®": 1854,
      "à¤ĺà¤®": 1855,
      "à¥Ńà¥¨": 1856,
      "à¥ĩà¥į": 1857,
      "Ġà¤°à¤¹à¤°": 1858,
      "à¤µà¤¨à¤²": 1859,
      "à¤ľà¤¦à¤°": 1860,
      "à¤µà¤ķà¤ªà¤®": 1861,
      "Ġà¤Ńà¤ıà¤¸": 1862,
      "Ġà¤ıà¤ķà¤ªà¤Łà¤ķ": 1863,
      "à¤¨à¤ķà¤°": 1864,
      "à¤Ĺà¤¬à¤¹": 1865,
      "Ġà¥¬à¥§": 1866,
      "ĠĠĠĠĠ": 1867,
      "Ġà¤¤à¤¨à¤¹": 1868,
      "Ġà¤Ĩà¤īà¤Ł": 1869,
      "à¤°à¤¸à¤°": 1870,
      "à¤µà¤ķà¤ªà¤ķ": 1871,
      "Ġà¤ıà¤¸à¤ª": 1872,
      "Ġà¤ľà¤Ļ": 1873,
      "à¤ķà¤¡": 1874,
      "à¤¨à¤µà¤ħà¤§": 1875,
      "Ġà¤ľà¤Ĺà¤¤": 1876,
      "Ġà¤Ńà¤Īà¤°à¤¹": 1877,
      "Ġà¤Ĩà¤ªà¤¸": 1878,
      "à¤®à¤Ĺà¤°": 1879,
      "Ġà¥Ńà¥®": 1880,
      "Ġà¤Ľà¤²à¤«à¤²à¤®": 1881,
      "Ġà¤Ĩà¤Ĺà¤²": 1882,
      "Ġà¤ıà¤°": 1883,
      "à¤°à¤¸à¤°à¤ķ": 1884,
      "Ġà¤Ĳà¤¨à¤®": 1885,
      "Ġà¥§à¥¯à¥®": 1886,
      "à¤ıà¤ľ": 1887,
      "à¤¶à¤ķà¤²": 1888,
      "Ġà¤ıà¤¯à¤°": 1889,
      "Ġà¥«à¥¯": 1890,
      "Ġà¥Ńà¥ª": 1891,
      "à¤²à¤Ļ": 1892,
      "à¤Ĺà¤łà¤¨à¤²": 1893,
      "Ġà¤¦à¤µ": 1894,
      "Ġà¤¸à¤¹à¤¨": 1895,
      "Ġà¤¬à¤§": 1896,
      "à¤¡à¤ª": 1897,
      "à¤ļà¤¯à¤ªà¤¤": 1898,
      "à¤¨à¤ħà¤¨": 1899,
      "à¤īà¤ľ": 1900,
      "à¤®à¤ªà¤¨": 1901,
      "à¤¦à¤Ń": 1902,
      "Ġà¤¬à¤²à¤®": 1903,
      "à¤ľà¤¤à¤¨": 1904,
      "à¤īà¤¨à¤®": 1905,
      "à¤°à¤§à¤¨": 1906,
      "Ġà¤¨à¤Ńà¤ıà¤ªà¤Ľ": 1907,
      "Ġà¤ħà¤Ľ": 1908,
      "à¤Īà¤Ł": 1909,
      "à¤¤à¤ķà¤²": 1910,
      "à¤¦à¤£": 1911,
      "Ġà¤¤à¤°à¤²": 1912,
      "à¤¯à¤ķà¤²": 1913,
      "à¤¸à¤ķà¤²": 1914,
      "à¤¨à¤Ńà¤°": 1915,
      "à¤Ĩà¤µ": 1916,
      "Ġà¥¨à¥¦à¥Ńà¥§": 1917,
      "à¤Łà¤°à¤«": 1918,
      "à¤°à¤®à¤¬": 1919,
      "à¤īà¤Ľà¤¨": 1920,
      "Ġà¤¶à¤²": 1921,
      "à¤ĩà¤Łà¤¹à¤°": 1922,
      "à¤¶à¤°": 1923,
      "à¤°à¤Ńà¤°": 1924,
      "Ġà¥¯à¥«": 1925,
      "à¤¶à¤¤à¤ķ": 1926,
      "à¤Ĩà¤¬": 1927,
      "Ġà¤¨à¤µà¤°": 1928,
      "à¤°à¤£à¤¸à¤Ń": 1929,
      "Ġà¤¸à¤¬à¤Ńà¤¨": 1930,
      "à¤¹à¤£": 1931,
      "Ġà¤ħà¤®à¤°": 1932,
      "à¤°à¤ļà¤²": 1933,
      "Ġà¤ķà¤·": 1934,
      "à¤ľà¤°à¤ķ": 1935,
      "Ġà¤¯à¤ľ": 1936,
      "à¤¹à¤°à¤£à¤ķ": 1937,
      "à¤°à¤®à¤¨": 1938,
      "Ġà¤ıà¤ķà¤ħà¤°": 1939,
      "Ġà¤ħà¤°à¤¬": 1940,
      "Ġà¤¶à¤¹à¤°à¤®": 1941,
      "à¤ļà¤¨à¤²": 1942,
      "à¤£à¤¬": 1943,
      "à¤·à¤£à¤²": 1944,
      "à¤¯à¤¯à¤¨à¤²": 1945,
      "Ġà¤°à¤¨à¤ķ": 1946,
      "à¤¥à¤¸": 1947,
      "Ġà¤Ĩà¤µà¤ķ": 1948,
      "Ġà¤ħà¤¨à¤¶à¤¨": 1949,
      "à¤Ļà¤¸": 1950,
      "à¤²à¤Ĺà¤¨": 1951,
      "Ġà¥¬à¥Ń": 1952,
      "à¤ķà¤¨à¤ķ": 1953,
      "à¤°à¤¹à¤ķ": 1954,
      "Ġà¤Ĩà¤µà¤¦": 1955,
      "à¥§à¥¬": 1956,
      "Ġà¤ĥ": 1957,
      "Ġà¤Ĩà¤¬": 1958,
      "Ġà¤ªà¤ª": 1959,
      "à¤¡à¤¹à¤°": 1960,
      "Ġà¤Ķà¤¸à¤¤": 1961,
      "à¤ļà¤²à¤ķ": 1962,
      "Ġà¤ļà¤°à¤®": 1963,
      "à¤¯à¤®à¤¹à¤°": 1964,
      "à¤ĩà¤ı": 1965,
      "Ġà¤°à¤¹à¤¸": 1966,
      "à¤ķà¤¶": 1967,
      "Ġà¤Ĩà¤®à¤¨": 1968,
      "Ġà¤¨à¤Ľ": 1969,
      "à¤ģà¤Ĥ": 1970,
      "à¤Ļà¤Ĺ": 1971,
      "Ġà¤¡à¤°à¤²": 1972,
      "Ġà¤ıà¤¨à¤Ĩà¤°à¤ıà¤¨": 1973,
      "à¤¸à¤¤à¤®": 1974,
      "à¤µà¤¤à¤ķ": 1975,
      "à¤¶à¤¦": 1976,
      "Ġà¤ľà¤¨à¤µ": 1977,
      "à¤Ĩà¤ıà¤ķ": 1978,
      "à¤ĩà¤°à¤¹à¤¨": 1979,
      "à¤Łà¤¸à¤®": 1980,
      "Ġà¤¨à¤µà¤¨": 1981,
      "à¤°à¤Ĺà¤ŀ": 1982,
      "Ġà¤ľà¤¯à¤¨": 1983,
      "Ġà¤ªà¤¹à¤²à¤®": 1984,
      "à¤ªà¤ªà¤Ľ": 1985,
      "à¤²à¤ķà¤¹à¤°": 1986,
      "Ġà¤ľà¤¨à¤ļ": 1987,
      "Ġà¤ĩà¤Ń": 1988,
      "Ġà¥Ńà¥©": 1989,
      "Ġà¤ķà¤¦": 1990,
      "Ġà¤¯à¤®": 1991,
      "Ġà¤ĸà¤ªà¤¤": 1992,
      "à¤¯à¤ķà¤®": 1993,
      "Ġà¤ĺà¤°à¤ªà¤°": 1994,
      "à¤¤à¤ķà¤®": 1995,
      "Ġà¤ªà¤®": 1996,
      "à¤¤à¤°à¤°": 1997,
      "Ġà¥¬à¥®": 1998,
      "Ġà¤Ĩà¤ĩà¤¸": 1999,
      "Ġà¥¨à¥¦à¥Ńà¥¦": 2000,
      "à¤·à¤¯à¤¹à¤°": 2001,
      "à¥ģà¥į": 2002,
      "Ġà¤ľà¤¥": 2003,
      "Ġà¤ľà¤¨à¤µà¤°": 2004,
      "à¤°à¤¸à¤Ļ": 2005,
      "Ġà¤ĵà¤®": 2006,
      "Ġà¤ıà¤®à¤¬": 2007,
      "à¤ªà¤¯à¤²": 2008,
      "à¤¦à¤°à¤²": 2009,
      "Ġà¤Ĩà¤¯à¤²": 2010,
      "Ġà¤ħà¤¬à¤¸": 2011,
      "Ġà¤ĵà¤ĸà¤²": 2012,
      "Ġà¥®à¥ª": 2013,
      "Ġà¥®à¥®": 2014,
      "à¤¦à¤°à¤Ĺ": 2015,
      "Ġà¤ľà¤¬à¤ķ": 2016,
      "Ġà¤ĩà¤£": 2017,
      "Ġà¥¨à¥¦à¥¦à¥Ń": 2018,
      "Ġà¤¶à¤¹": 2019,
      "Ġà¤ĩà¤Ł": 2020,
      "Ġà¥¬à¥¬": 2021,
      "Ġà¤Ĩà¤ľà¤¦": 2022,
      "Ġà¤¬à¤Ŀ": 2023,
      "Ġà¤ķà¤®à¤°": 2024,
      "Ġà¥§à¥¯à¥«": 2025,
      "Ġà¤Ńà¤¬": 2026,
      "Ġà¤ıà¤ķà¤¸": 2027,
      "à¤°à¤¨à¤Ĺà¤°": 2028,
      "à¤²à¤¶": 2029,
      "à¥§à¥ª": 2030,
      "à¤¹à¤ķà¤¹à¤°": 2031,
      "à¤ıà¤²à¤¸": 2032,
      "Ġà¤īà¤ªà¤ķ": 2033,
      "à¤¶à¤ķà¤ķ": 2034,
      "à¥¨à¥«": 2035,
      "Ġà¤¡à¤²à¤°à¤ķ": 2036,
      "à¤¸à¤µà¤®": 2037,
      "à¤¦à¤¸": 2038,
      "à¤²à¤¯à¤¨": 2039,
      "Ġà¤ħà¤ªà¤®": 2040,
      "Ġà¤Ĩà¤ķà¤¸": 2041,
      "Ġà¤°à¤ľà¤¤": 2042,
      "à¥§à¥©": 2043,
      "Ġà¤ĵà¤²à¤®": 2044,
      "à¤¨à¤¸à¤¹": 2045,
      "Ġà¤ľà¤¯": 2046,
      "à¤Ĩà¤īà¤Ł": 2047,
      "Ġà¥Ńà¥Ń": 2048,
      "Ġà¤Ńà¤°à¤ªà¤°": 2049,
      "Ġà¥¨à¥¦à¥§à¥©": 2050,
      "à¤¨à¤ľà¤¨": 2051,
      "Ġà¤ªà¤łà¤¨": 2052,
      "Ġà¤Ľà¤¤": 2053,
      "Ġà¤ĩà¤ľà¤°": 2054,
      "à¤ıà¤ļ": 2055,
      "Ġà¤ħà¤£": 2056,
      "à¤·à¤¦à¤ķ": 2057,
      "à¤°à¤®à¤£à¤²": 2058,
      "à¤®à¤¦à¤¤": 2059,
      "Ġà¤ĵà¤ĸà¤²à¤¢": 2060,
      "à¤¨à¤ħà¤ĺ": 2061,
      "à¤¹à¤ķà¤²": 2062,
      "Ġà¤¦à¤¯": 2063,
      "Ġà¤ıà¤¯à¤°à¤²": 2064,
      "Ġà¤Ŀà¤Ĺà¤¡": 2065,
      "à¤Łà¤¤": 2066,
      "Ġà¤¹à¤²à¤®": 2067,
      "Ġà¤łà¤ª": 2068,
      "à¤¶à¤¤à¤Ńà¤¨": 2069,
      "à¤¦à¤ª": 2070,
      "Ġà¤Ĩà¤µà¤®": 2071,
      "Ġà¥¯à¥¯": 2072,
      "Ġà¤®à¤¤à¤Ĺà¤£à¤¨": 2073,
      "Ġà¤Ĩà¤Īà¤ª": 2074,
      "Ġà¤Ńà¤Ĺà¤µà¤¤": 2075,
      "à¤µà¤²à¤®": 2076,
      "à¤Ĩà¤¤": 2077,
      "à¤ªà¤¡": 2078,
      "Ġà¤ķà¤°à¤£": 2079,
      "à¤§à¤ª": 2080,
      "à¤µà¤¸à¤¨": 2081,
      "Ġà¤ĵà¤Ńà¤°à¤®": 2082,
      "à¤Īà¤°à¤¹": 2083,
      "à¤ħà¤Ń": 2084,
      "Ġà¤¢à¤Ļ": 2085,
      "à¤°à¤Ĩà¤µ": 2086,
      "à¤ķà¤ħà¤¨": 2087,
      "Ġà¤¸à¤Ĺ": 2088,
      "à¤Łà¤°à¤¹à¤°": 2089,
      "à¤ĺà¤Ł": 2090,
      "Ġà¤ªà¤¸à¤²à¤®": 2091,
      "Ġà¤µà¤¢": 2092,
      "à¤¸à¤ķà¤ķ": 2093,
      "à¤¯à¤¸à¤¹": 2094,
      "à¤µà¤¨à¤¸": 2095,
      "Ġà¤Ķà¤ļ": 2096,
      "Ġà¥®à¥©": 2097,
      "à¤¶à¤ª": 2098,
      "Ġà¤ħà¤µà¤²à¤®": 2099,
      "Ġà¤¸à¤²à¤®": 2100,
      "à¤Łà¤°à¤¬": 2101,
      "à¤¶à¤¤à¤®": 2102,
      "Ġà¥¬à¥¯": 2103,
      "à¤¶à¤¤à¤¸à¤®": 2104,
      "Ġà¤¨à¤Ĩà¤ıà¤ķ": 2105,
      "à¤¶à¤Ńà¤°à¤ķ": 2106,
      "Ġà¤¹à¤¦à¤¸à¤®": 2107,
      "à¤¨à¤¬à¤¹": 2108,
      "à¤¨à¤Ĺà¤°à¤ķ": 2109,
      "à¤Ĺà¤²à¤ķ": 2110,
      "Ġà¤®à¤¨à¤²": 2111,
      "Ġà¤¦à¤¶à¤®": 2112,
      "à¤¥à¤ª": 2113,
      "Ġà¤ıà¤ķà¤ıà¤ķ": 2114,
      "à¤¯à¤Łà¤ķà¤¹à¤°": 2115,
      "Ġà¤®à¤ľà¤¬": 2116,
      "à¤£à¤¯à¤²": 2117,
      "à¤ĸà¤¨à¤¨": 2118,
      "Ġà¥¯à¥®": 2119,
      "Ġà¤Ĺà¤¦": 2120,
      "Ġà¤²à¤¹": 2121,
      "à¤Ńà¤¤": 2122,
      "à¤īà¤¥": 2123,
      "à¤¤à¤°à¤¬": 2124,
      "Ġà¤łà¤®": 2125,
      "à¥Ńà¥¦": 2126,
      "Ġà¥®à¥¬": 2127,
      "Ġà¤Ńà¤µà¤¨à¤ķ": 2128,
      "à¤²à¤Ĺà¤¤": 2129,
      "Ġà¤Ĺà¤ľà¤²": 2130,
      "Ġà¤²à¤ľ": 2131,
      "à¤£à¤¯à¤ķ": 2132,
      "à¤ĩà¤¹à¤°": 2133,
      "Ġà¥®à¥¨": 2134,
      "Ġà¤Ńà¤µà¤¨à¤®": 2135,
      "Ġà¥¦à¥«": 2136,
      "Ġà¤¸à¤¡à¤ķà¤ĸà¤£": 2137,
      "à¤ķà¤Łà¤ķ": 2138,
      "à¤¹à¤µ": 2139,
      "à¤ıà¤Ī": 2140,
      "à¤ĸà¤¸à¤®": 2141,
      "à¤Ĺà¤®à¤¨à¤ķ": 2142,
      "à¤¤à¤ķà¤°": 2143,
      "à¤¯à¤Łà¤¨à¤ķ": 2144,
      "Ġà¤®à¤¡": 2145,
      "Ġà¤µà¤¨à¤¸": 2146,
      "à¤Ļà¤¦": 2147,
      "à¤ħà¤Ĺ": 2148,
      "Ġà¤ıà¤¸à¤ıà¤²à¤¸": 2149,
      "Ġà¥¨à¥¦à¥§à¥¨": 2150,
      "Ġà¤µà¤¸à¤¨": 2151,
      "Ġà¤²à¤£": 2152,
      "Ġà¤ĺà¤°à¤¦": 2153,
      "à¤µà¤ķà¤ķ": 2154,
      "Ġà¤ªà¤¬": 2155,
      "à¤¦à¤¦": 2156,
      "Ġà¤²à¤¨": 2157,
      "à¤¤à¤°à¤Ĺà¤¤": 2158,
      "Ġà¤ħà¤ªà¤¹à¤°à¤£": 2159,
      "Ġà¥¨à¥¦à¥¬à¥ª": 2160,
      "Ġà¥¨à¥¦à¥¬à¥®": 2161,
      "à¤¨à¤¯à¤¨": 2162,
      "à¤°à¤£à¤¹à¤°": 2163,
      "à¤®à¤¤à¤ķ": 2164,
      "Ġà¤¸à¤ĸ": 2165,
      "à¤·à¤Ńà¤¨": 2166,
      "Ġà¤¡à¤®": 2167,
      "à¤ķà¤¬à¤¹": 2168,
      "à¤ªà¤ķà¤°": 2169,
      "Ġà¤ķà¤¸à¤ķ": 2170,
      "à¤Īà¤ľ": 2171,
      "à¤ĩà¤²à¤®": 2172,
      "Ġà¤¡à¤¡": 2173,
      "à¥§à¥Ń": 2174,
      "à¤²à¤Ł": 2175,
      "à¤£à¤¹à¤°": 2176,
      "à¤«à¤°à¤ķ": 2177,
      "Ġà¤ĩà¤¶": 2178,
      "Ġà¤¬à¤¸à¤¨": 2179,
      "à¤¶à¤ķà¤¹à¤°": 2180,
      "Ġà¤Ŀà¤°à¤¨": 2181,
      "Ġà¥§à¥¯à¥¬": 2182,
      "Ġà¥¨à¥¦à¥§à¥§": 2183,
      "à¤¯à¤²à¤ķ": 2184,
      "Ġà¤¶à¤Ļ": 2185,
      "à¥¨à¥¬": 2186,
      "Ġà¤Ĩà¤ľà¤¸à¤®": 2187,
      "Ġà¤ľà¤¨à¤Ĩà¤¨": 2188,
      "à¤ķà¤®à¤ķ": 2189,
      "Ġà¤¶à¤¹à¤°à¤ķ": 2190,
      "à¤¤à¤ķà¤¹à¤°": 2191,
      "à¤°à¤µà¤Ł": 2192,
      "Ġà¥¯à¥ª": 2193,
      "Ġà¤°à¤ķà¤®à¤ķ": 2194,
      "à¤¦à¤°à¤¤": 2195,
      "Ġà¥¨à¥¦à¥¨à¥¦": 2196,
      "à¤Ĩà¤¯": 2197,
      "Ġà¥Ńà¥¯": 2198,
      "à¤ķà¤Łà¤®": 2199,
      "Ġà¤µà¤ľ": 2200,
      "Ġà¤ıà¤Ńà¤°": 2201,
      "Ġà¥Ńà¥§": 2202,
      "à¤ľà¤¯à¤ķ": 2203,
      "à¤Ĺà¤²à¤µ": 2204,
      "à¤·à¤¯à¤¤": 2205,
      "Ġà¤¸à¤¬à¤²": 2206,
      "Ġà¤·à¤¡": 2207,
      "à¤ĩà¤¬à¤°": 2208,
      "Ġà¤ĸà¤¬": 2209,
      "Ġà¤¥à¤ķ": 2210,
      "à¤¯à¤¯à¤¨à¤°à¤¤": 2211,
      "à¤Ńà¤²à¤ªà¤®": 2212,
      "à¤µà¤£": 2213,
      "à¤Ĺà¤°à¤£": 2214,
      "Ġà¤ĺà¤°à¤¹à¤°": 2215,
      "Ġà¤§à¤°à¤¹à¤°": 2216,
      "Ġà¤¨à¤¹à¤°": 2217,
      "à¤ıà¤¸à¤®": 2218,
      "Ġà¤īà¤¬": 2219,
      "à¤¹à¤¨à¤¤": 2220,
      "à¤°à¤Ļà¤ķ": 2221,
      "Ġà¤¨à¤Ńà¤¨": 2222,
      "Ġà¤²à¤¤": 2223,
      "à¤ĸà¤Ńà¤¨": 2224,
      "à¤¯à¤¸à¤ħà¤ĺ": 2225,
      "Ġà¥¨à¥¦à¥¬à¥©": 2226,
      "à¤ķà¤¥": 2227,
      "à¤¦à¤µà¤ķ": 2228,
      "à¤Łà¤²à¤ķ": 2229,
      "Ġà¤ľà¤¨à¤¸à¤®": 2230,
      "Ġà¤®à¤Ĺà¤°à¤²": 2231,
      "à¤®à¤ĺ": 2232,
      "à¤Ĺà¤ª": 2233,
      "Ġà¤ħà¤Ĺà¤¸": 2234,
      "Ġà¥¯à¥©": 2235,
      "Ġà¤ªà¤łà¤¨à¤ª": 2236,
      "à¤¾à¤ĥ": 2237,
      "à¤ķà¤¸à¤®": 2238,
      "à¤ľà¤°à¤²": 2239,
      "à¤°à¤²à¤Ĺ": 2240,
      "Ġà¤®à¤¤à¤ªà¤¤": 2241,
      "Ġà¤ªà¤¯": 2242,
      "Ġà¤ķà¤¯": 2243,
      "Ġà¤ħà¤²à¤®": 2244,
      "à¤Ńà¤ıà¤¨": 2245,
      "à¤°à¤®à¤£à¤¬": 2246,
      "à¤¹à¤²à¤ª": 2247,
      "Ġà¤®à¤¦à¤¤": 2248,
      "Ġà¤¤à¤°à¤²à¤¤": 2249,
      "à¤¤à¤Ĺà¤¤": 2250,
      "Ġà¤Ĺà¤ļ": 2251,
      "Ġà¤ĺà¤°à¤Ń": 2252,
      "à¤¤à¤¹à¤¤": 2253,
      "Ġà¤®à¤®à¤¤": 2254,
      "à¤·à¤ª": 2255,
      "Ġà¤Ĩà¤°à¤®": 2256,
      "Ġà¤ĩà¤Ļ": 2257,
      "à¤¾à¤Ĥà¥Ī": 2258,
      "à¤¯à¤£à¤Ĺà¤¢": 2259,
      "Ġà¥¨à¥¦à¥¬à¥¯": 2260,
      "Ġà¤¹à¤Ļà¤ķà¤Ļà¤ķ": 2261,
      "à¤¨à¤¶": 2262,
      "à¤¸à¤¸à¤®": 2263,
      "Ġà¤«à¤¨": 2264,
      "Ġà¤īà¤ªà¤¸à¤Ń": 2265,
      "Ġà¥¨à¥¦à¥§à¥¦": 2266,
      "à¤ķà¤Ń": 2267,
      "à¤¯à¤¬à¤¹": 2268,
      "Ġà¤Ĺà¤Ńà¤°": 2269,
      "à¤¬à¤ľà¤¨": 2270,
      "à¤ĩà¤Łà¤®": 2271,
      "Ġà¤ļà¤ª": 2272,
      "à¤¤à¤°à¤µ": 2273,
      "Ġà¤®à¤Ŀ": 2274,
      "à¤·à¤¯à¤µà¤¸": 2275,
      "à¤¯à¤®à¤¶": 2276,
      "à¤¤à¤¨à¤²": 2277,
      "à¤¹à¤ª": 2278,
      "à¤Īà¤ª": 2279,
      "à¤°à¤¤à¤°": 2280,
      "à¤¤à¤®à¤ķ": 2281,
      "Ġà¤°à¤ŀ": 2282,
      "à¤ıà¤Ł": 2283,
      "Ġà¤ľà¤²à¤¸": 2284,
      "Ġà¤¯à¤¨": 2285,
      "à¤°à¤ķà¤²": 2286,
      "Ġà¤®à¤¹à¤¶": 2287,
      "à¤¯à¤¨à¤ľà¤°": 2288,
      "à¤²à¤¹": 2289,
      "Ġà¤ķà¤£": 2290,
      "à¤Ĥà¤ģ": 2291,
      "à¤ĩà¤°à¤²": 2292,
      "Ġà¤¤à¤¹à¤¸à¤®": 2293,
      "à¤¨à¤Ľ": 2294,
      "à¤¹à¤¹à¤°": 2295,
      "à¤ªà¤°à¤ķ": 2296,
      "Ġà¤µà¤ŀ": 2297,
      "à¤Īà¤¬": 2298,
      "à¤ĵà¤ķ": 2299,
      "à¤²à¤¯à¤¸": 2300,
      "Ġà¤¥à¤¨": 2301,
      "Ġà¤«à¤¡": 2302,
      "à¤ħà¤®": 2303,
      "Ġà¤ļà¤²à¤ĸ": 2304,
      "à¤ĵà¤²": 2305,
      "à¤µà¤°à¤£à¤ķ": 2306,
      "à¥¦à¥¦à¥¦": 2307,
      "Ġà¤Ĩà¤Īà¤¸": 2308,
      "à¤Łà¤¬à¤²à¤®": 2309,
      "Ġà¤ľà¤¨à¤®à¤¤": 2310,
      "à¤°à¤ħà¤¨": 2311,
      "à¤¸à¤®à¤®": 2312,
      "Ġà¤¡à¤ķ": 2313,
      "Ġà¤Ĩà¤ªà¤¸à¤®": 2314,
      "Ġà¥¨à¥¦à¥ªà¥¬": 2315,
      "Ġà¤Ľà¤²à¤«à¤²à¤ķ": 2316,
      "Ġà¤¸à¤°à¤¹": 2317,
      "à¤¡à¤¦": 2318,
      "Ġà¤ħà¤µà¤¤à¤°à¤£": 2319,
      "Ġà¤Īà¤®": 2320,
      "Ġà¤¸à¤¤à¤°": 2321,
      "à¤Ľà¤¦": 2322,
      "Ġà¤Ĳà¤¨à¤²": 2323,
      "à¤Łà¤¬à¤¨": 2324,
      "à¤Ńà¤ªà¤¤": 2325,
      "Ġà¤¯à¤¶": 2326,
      "Ġà¤¡à¤¬": 2327,
      "Ġà¤ªà¤Łà¤ķà¤ķ": 2328,
      "Ġà¤°à¤¬": 2329,
      "à¤Łà¤¨à¤®": 2330,
      "à¤¥à¤²à¤¬": 2331,
      "Ġà¤²à¤¹à¤°": 2332,
      "à¤Īà¤ľà¤¨": 2333,
      "à¤°à¤®à¤¸": 2334,
      "Ġà¤ĸà¤Ĺ": 2335,
      "Ġà¤Łà¤ª": 2336,
      "Ġà¤¸à¤¯à¤Ńà¤¨": 2337,
      "Ġà¤ľà¤¨à¤¸à¤Ļ": 2338,
      "à¤®à¤ĸ": 2339,
      "à¤Łà¤¨à¤ķ": 2340,
      "à¤ıà¤¸à¤¨": 2341,
      "Ġà¤¦à¤®à¤ķ": 2342,
      "à¤ļà¤¤": 2343,
      "Ġà¤¦à¤°à¤ĸ": 2344,
      "Ġà¥®à¥Ń": 2345,
      "Ġà¥¦à¥¦à¥¦": 2346,
      "Ġà¥¨à¥¦à¥Ńà¥ªà¥Ńà¥«": 2347,
      "à¤ķà¤¤à¤°": 2348,
      "à¤Īà¤¨à¤²": 2349,
      "Ġà¤ļà¤¤": 2350,
      "Ġà¤ĸà¤®": 2351,
      "Ġà¥¯à¥§": 2352,
      "Ġà¤Ĩà¤īà¤¦": 2353,
      "à¤¯à¤£à¤ķ": 2354,
      "à¤¡à¤¤": 2355,
      "Ġà¥¯à¥Ń": 2356,
      "Ġà¤¤à¤¹à¤¬": 2357,
      "à¤¨à¤Ĺ": 2358,
      "à¤²à¤§": 2359,
      "Ġà¤¹à¤®à¤²": 2360,
      "Ġà¤¯à¤ķ": 2361,
      "Ġà¤īà¤ªà¤²à¤µ": 2362,
      "Ġà¤ĵà¤Ĺà¤Ł": 2363,
      "Ġà¥¯à¥¬": 2364,
      "Ġà¤«à¤°à¤ķà¤«à¤°à¤ķ": 2365,
      "Ġà¤¨à¤¬à¤¢": 2366,
      "à¤¤à¤Ń": 2367,
      "Ġà¤Ĩà¤¸à¤¨": 2368,
      "Ġà¤¸à¤®à¤²": 2369,
      "à¤°à¤ķà¤°à¤£à¤®": 2370,
      "Ġà¤Ĩà¤ĩà¤¤à¤µ": 2371,
      "à¤¯à¤¦à¤²à¤²": 2372,
      "Ġà¤¨à¤Ĩà¤īà¤¨": 2373,
      "à¤£à¤¯à¤®": 2374,
      "à¤¤à¤ľà¤¨": 2375,
      "à¤Īà¤®à¤§": 2376,
      "Ġà¤¸à¤®à¤¯à¤¸": 2377,
      "Ġà¤ħà¤¨à¤¨": 2378,
      "Ġà¤ıà¤ķà¤ķ": 2379,
      "Ġà¤ĵà¤ªà¤¨": 2380,
      "à¤ĵà¤Ł": 2381,
      "à¤¯à¤¯à¤¨à¤®": 2382,
      "Ġà¤¸à¤¹à¤°à¤ķ": 2383,
      "à¤¤à¤¹à¤¤à¤ķ": 2384,
      "Ġà¤¶à¤®": 2385,
      "Ġà¤ıà¤ķà¤Ľ": 2386,
      "Ġà¤Łà¤ķ": 2387,
      "à¤²à¤²à¤Ĺ": 2388,
      "Ġà¥®à¥§": 2389,
      "Ġà¤¸à¤¤à¤¹": 2390,
      "à¤¯à¤¨à¤²": 2391,
      "à¤ªà¤¨à¤²": 2392,
      "à¤ĩà¤ļ": 2393,
      "à¤²à¤¨à¤¬": 2394,
      "Ġà¤¸à¤®à¤¯à¤ªà¤Ľ": 2395,
      "Ġà¤Ĩà¤ĩà¤«": 2396,
      "Ġà¤ľà¤®à¤°": 2397,
      "à¤ĩà¤ıà¤¨": 2398,
      "à¤µà¤¨à¤¶": 2399,
      "Ġà¥¯à¥¨": 2400,
      "à¤°à¤«à¤²à¤®": 2401,
      "à¤¹à¤ľ": 2402,
      "Ġà¤¬à¤ŀ": 2403,
      "à¤§à¤¹à¤°": 2404,
      "Ġà¤²à¤¸": 2405,
      "à¤¡à¤²à¤®": 2406,
      "Ġà¤ıà¤ķà¤ľ": 2407,
      "à¤¯à¤¸à¤ļ": 2408,
      "Ġà¤īà¤ªà¤¸à¤®": 2409,
      "Ġà¤Ńà¤ĩà¤°à¤¹à¤¨": 2410,
      "Ġà¤ľà¤¸à¤®à¤§": 2411,
      "à¤ļà¤ª": 2412,
      "Ġà¥¦à¥ª": 2413,
      "à¤²à¤¸à¤¹": 2414,
      "à¤°à¤¸à¤ŀ": 2415,
      "Ġà¤Ĩà¤¤à¤Ļ": 2416,
      "Ġà¤īà¤ªà¤¸à¤ļ": 2417,
      "à¤µà¤²à¤²": 2418,
      "à¤Ĺà¤ħà¤¨": 2419,
      "Ġà¤¦à¤°à¤ķ": 2420,
      "à¤¡à¤¨à¤ķ": 2421,
      "à¤ªà¤°à¤¬": 2422,
      "Ġà¤ħà¤µà¤¸à¤°à¤ķ": 2423,
      "Ġà¤ĺà¤°à¤ĺà¤°à¤®": 2424,
      "à¥įà¥į": 2425,
      "à¤²à¤¡": 2426,
      "à¤¤à¤¯": 2427,
      "Ġà¤¬à¤¦à¤¨": 2428,
      "Ġà¤ħà¤ł": 2429,
      "Ġà¤¦à¤¨": 2430,
      "à¤Ŀà¤ķ": 2431,
      "à¤Ŀà¤Ł": 2432,
      "Ġà¤ıà¤¸à¤ıà¤¸à¤ª": 2433,
      "Ġà¤ħà¤«à¤°": 2434,
      "Ġà¤Īà¤¸": 2435,
      "à¤¤à¤¬à¤¹": 2436,
      "à¤¯à¤°à¤§à¤¨": 2437,
      "Ġà¤ħà¤¥": 2438,
      "à¤ĩà¤°à¤¸": 2439,
      "Ġà¤ĺà¤°à¤§": 2440,
      "Ġà¤¨à¤Ńà¤ıà¤¸à¤®": 2441,
      "Ġà¤ħà¤¸à¤¹à¤®à¤¤": 2442,
      "Ġà¤Ĺà¤«": 2443,
      "Ġà¤¨à¤²à¤Ĺ": 2444,
      "Ġà¤¯à¤°": 2445,
      "Ġà¤ĸà¤ª": 2446,
      "Ġà¤Ńà¤ıà¤¤": 2447,
      "Ġà¤¬à¤¸à¤ª": 2448,
      "à¤°à¤¬à¤¦": 2449,
      "à¤·à¤¯à¤Ĺà¤¤": 2450,
      "Ġà¤¸à¤¹à¤°à¤®": 2451,
      "à¤¤à¤¹à¤Ł": 2452,
      "à¤°à¤«à¤²": 2453,
      "à¤§à¤°à¤²": 2454,
      "à¤¡à¤²à¤²": 2455,
      "Ġà¤Ĩà¤µà¤¤à¤ľ": 2456,
      "Ġà¤Ķà¤²": 2457,
      "à¤¨à¤µà¤¤": 2458,
      "Ġà¤ķà¤²à¤ķ": 2459,
      "à¤ĩà¤µ": 2460,
      "Ġà¤¦à¤°à¤®": 2461,
      "à¤°à¤®à¤§": 2462,
      "Ġà¥§à¥¯à¥ª": 2463,
      "à¤Ĺà¤łà¤¨à¤¹à¤°": 2464,
      "à¤ľà¤ķà¤ķ": 2465,
      "à¤¶à¤®à¤¨": 2466,
      "à¤¶à¤¨à¤¬": 2467,
      "Ġà¤ķà¤²à¤®": 2468,
      "à¤īà¤ļ": 2469,
      "à¥¨à¥ª": 2470,
      "Ġà¥®à¥¯": 2471,
      "à¤µà¤ªà¤¶": 2472,
      "Ġà¤¸à¤¹à¤ľà¤¤": 2473,
      "à¤µà¤Ĺ": 2474,
      "Ġà¤°à¤ļ": 2475,
      "Ġà¤®à¤®": 2476,
      "à¤¥à¤¤": 2477,
      "à¤¤à¤°à¤ª": 2478,
      "Ġà¤īà¤ªà¤¦": 2479,
      "à¤§à¤¨à¤¬": 2480,
      "Ġà¤ªà¤¦à¤¬": 2481,
      "Ġà¤Ĩà¤ĩà¤Ł": 2482,
      "Ġà¤¦à¤¤": 2483,
      "à¤¥à¤¶": 2484,
      "Ġà¤²à¤ĸ": 2485,
      "à¤¯à¤¸à¤®à¤§": 2486,
      "à¤ķà¤Ńà¤°": 2487,
      "à¤ıà¤Ľ": 2488,
      "à¤ļà¤µ": 2489,
      "à¥¦à¥Ńà¥«": 2490,
      "Ġà¤Ĩà¤Īà¤°à¤¹": 2491,
      "à¤ķà¤°à¤ķ": 2492,
      "à¤ķà¤°à¤²": 2493,
      "Ġà¤®à¤Ĺ": 2494,
      "Ġà¤Ľà¤Ł": 2495,
      "Ġà¤¦à¤²à¤¬": 2496,
      "Ġà¤ĵà¤ª": 2497,
      "à¤²à¤Ĺà¤¢": 2498,
      "Ġà¥¦à¥Ńà¥ª": 2499,
      "Ġà¥¨à¥¦à¥¦à¥®": 2500,
      "Ġà¤Ĺà¤Ĺà¤¨": 2501,
      "à¤Ĺà¤¸à¤®": 2502,
      "à¤ıà¤¤": 2503,
      "à¤ľà¤Ń": 2504,
      "à¤ĩà¤¹": 2505,
      "Ġà¤«à¤ķ": 2506,
      "à¥¨à¥©": 2507,
      "à¥¨à¥®": 2508,
      "à¤Ķà¤·à¤§": 2509,
      "à¤Ĩà¤Īà¤ľ": 2510,
      "Ġà¤µà¤ļà¤¨": 2511,
      "à¤°à¤£à¤¬": 2512,
      "à¤°à¤¹à¤®": 2513,
      "à¤¨à¤Ĺà¤°à¤²": 2514,
      "à¤²à¤¬à¤¨": 2515,
      "Ġà¤¨à¤¶": 2516,
      "à¤ļà¤¥à¤°": 2517,
      "Ġà¤ıà¤ļà¤ķ": 2518,
      "à¤¨à¤²à¤Ĺ": 2519,
      "à¤°à¤¬à¤°": 2520,
      "Ġà¤¨à¤Ĺà¤°à¤¸à¤Ń": 2521,
      "Ġà¤Łà¤¸": 2522,
      "à¤ªà¤¨à¤ªà¤¤": 2523,
      "à¥«à¥¦": 2524,
      "à¤¤à¤µà¤¨à¤®": 2525,
      "Ġà¤Ĺà¤łà¤¨à¤ķ": 2526,
      "ĠĠĠĠĠĠĠĠĠĠĠĠĠĠĠĠĠĠĠĠĠĠĠĠĠĠĠĠĠĠĠĠ": 2527,
      "à¤¨à¤ĸ": 2528,
      "à¤²à¤ľ": 2529,
      "à¤¸à¤²à¤®": 2530,
      "à¤¸à¤µà¤°": 2531,
      "Ġà¤¨à¤ļà¤²": 2532,
      "Ġà¤¬à¤¬": 2533,
      "à¤ªà¤°à¤µ": 2534,
      "à¥Ńà¥§": 2535,
      "Ġà¤ĩà¤¨à¤°": 2536,
      "Ġà¤Ĩà¤ĩà¤ıà¤®": 2537,
      "Ġà¤Ĩà¤Ĺà¤®à¤¨": 2538,
      "à¤¯à¤ªà¤¶": 2539,
      "Ġà¥¨à¥¦à¥¦à¥¯": 2540,
      "à¤Ńà¤ªà¤¤à¤¨": 2541,
      "Ġà¤£": 2542,
      "Ġà¤Ĺà¤¢": 2543,
      "Ġà¤¦à¤®à¤¨": 2544,
      "à¤ĵà¤¬": 2545,
      "Ġà¥¨à¥¦à¥§à¥¯": 2546,
      "Ġà¤Ńà¤Īà¤¸à¤ķ": 2547,
      "à¤¯à¤ªà¤¤": 2548,
      "Ġà¤ªà¤ĸ": 2549,
      "Ġà¤¨à¤°à¤®": 2550,
      "à¤§à¤¸": 2551,
      "à¤Ĥà¥Ī": 2552,
      "à¤Ńà¤°à¤¤": 2553,
      "Ġà¤¶à¤ªà¤¥": 2554,
      "à¤¦à¤¨à¤¹à¤°": 2555,
      "Ġà¤ħà¤ªà¤¡": 2556,
      "Ġà¤Ńà¤ĩà¤¹": 2557,
      "à¤¬à¤¢": 2558,
      "à¤Ľà¤¡": 2559,
      "à¤Ńà¤¸": 2560,
      "à¤ĩà¤²à¤ķ": 2561,
      "à¤ŀà¤ķ": 2562,
      "Ġà¥©à¥¦à¥¦": 2563,
      "Ġà¤ªà¤¡": 2564,
      "à¤¹à¤ķà¤ķ": 2565,
      "Ġà¤°à¤¨à¤®": 2566,
      "à¤¯à¤¸à¤¤": 2567,
      "à¤¶à¤®à¤¶": 2568,
      "à¤¿à¤¾": 2569,
      "Ġà¤°à¤ĺ": 2570,
      "Ġà¤Ńà¤ľà¤¨": 2571,
      "Ġà¤Ĩà¤£à¤µ": 2572,
      "à¤Īà¤Ń": 2573,
      "Ġà¤ıà¤¨à¤Ĩà¤°à¤ıà¤¨à¤ı": 2574,
      "à¤Ĺà¤¬à¤¨": 2575,
      "Ġà¤Ĩà¤ªà¤°": 2576,
      "à¤ļà¤¹à¤°": 2577,
      "à¤¾à¥Īà¤ģ": 2578,
      "à¤ķà¤ľ": 2579,
      "Ġà¤ķà¤¦à¤°": 2580,
      "Ġà¤¨à¤®à¤¸": 2581,
      "à¤Łà¤¯": 2582,
      "Ġà¤¬à¤¸à¤®": 2583,
      "à¤Īà¤ļ": 2584,
      "à¤µà¤ķà¤¹à¤°": 2585,
      "Ġà¤ħà¤Ĺà¤·": 2586,
      "Ġà¥§à¥«à¥¦": 2587,
      "Ġà¤ªà¤°à¤®à¤ª": 2588,
      "Ġà¤¦à¤¶à¤ķà¤®": 2589,
      "à¤¥à¤¹à¤°": 2590,
      "à¤īà¤¡à¤ķ": 2591,
      "Ġà¤ıà¤ıà¤«": 2592,
      "Ġà¤ľà¤¨à¤¹": 2593,
      "à¤Łà¤ķà¤°": 2594,
      "à¤Ĺà¤¨à¤®": 2595,
      "à¥Īà¥Ī": 2596,
      "Ġà¤®à¤¸à¤²": 2597,
      "à¤Īà¤¡": 2598,
      "à¤Ĩà¤ĩ": 2599,
      "à¤¸à¤Ĺ": 2600,
      "à¤Łà¤¦": 2601,
      "Ġà¤¶à¤¶": 2602,
      "à¤¾à¤ģà¥Ī": 2603,
      "à¤Łà¤ķà¤ķ": 2604,
      "à¤¤à¤µà¤Ł": 2605,
      "à¤¯à¤¦à¤²": 2606,
      "à¤¸à¤Ł": 2607,
      "à¤¥à¤°à¤ķ": 2608,
      "à¤īà¤¬": 2609,
      "à¤īà¤¤à¤²": 2610,
      "Ġà¤ĵà¤¹": 2611,
      "Ġà¤ĵà¤¬": 2612,
      "à¤£à¤¯à¤¹à¤°": 2613,
      "à¤¤à¤°à¤£à¤®": 2614,
      "Ġà¥¨à¥¦à¥¬à¥«": 2615,
      "à¤²à¤ĸà¤£": 2616,
      "Ġà¤ħà¤¸à¤¹à¤ľ": 2617,
      "à¤¨à¤ªà¤°": 2618,
      "à¤ªà¤ķà¤²": 2619,
      "Ġà¤®à¤¤à¤²": 2620,
      "à¤Ŀà¤®": 2621,
      "Ġà¥¨à¥¦à¥¦à¥¬": 2622,
      "Ġà¤¸à¤¡à¤ķà¤²": 2623,
      "à¤®à¤«": 2624,
      "à¤¹à¤Ł": 2625,
      "Ġà¤µà¤¯à¤¸": 2626,
      "à¤²à¤ķà¤£": 2627,
      "Ġà¤ĵà¤Ńà¤°": 2628,
      "à¤§à¤¨à¤¹à¤°": 2629,
      "Ġà¤ĺà¤°à¤ľà¤Ĺ": 2630,
      "Ġà¤¦à¤¶à¤ķà¤¦": 2631,
      "à¤°à¤µà¤¨": 2632,
      "à¤®à¤Ń": 2633,
      "à¤°à¤¸à¤¨": 2634,
      "Ġà¤īà¤¦à¤¯": 2635,
      "à¤¥à¤²à¤Ĺà¤¤": 2636,
      "à¤°à¤ľà¤¸": 2637,
      "Ġà¤²à¤¯": 2638,
      "à¤¡à¤Ńà¤¨": 2639,
      "Ġà¤īà¤ªà¤²à¤ķ": 2640,
      "Ġà¤ªà¤¦à¤¯": 2641,
      "à¤°à¤ªà¤¸": 2642,
      "Ġà¤¨à¤ľà¤°": 2643,
      "Ġà¤ľà¤¬à¤¸à¤®": 2644,
      "Ġà¤ħà¤ĸà¤£": 2645,
      "à¤¯à¤Ńà¤¨": 2646,
      "Ġà¤¨à¤Ł": 2647,
      "Ġà¤Ńà¤¡": 2648,
      "à¤ļà¤Ĺ": 2649,
      "à¤«à¤¦": 2650,
      "Ġà¤¶à¤°à¤¦": 2651,
      "Ġà¤Ĩà¤¯à¤Ĩà¤°": 2652,
      "à¤µà¤°à¤¬": 2653,
      "ĠĠĠĠĠĠ": 2654,
      "à¤¾à¥į": 2655,
      "à¤¦à¤¶à¤¨": 2656,
      "à¤µà¤²à¤ķ": 2657,
      "Ġà¤¬à¤ĸà¤¤": 2658,
      "Ġà¤®à¤Ł": 2659,
      "Ġà¤Ĩà¤ĩà¤¨": 2660,
      "Ġà¤Ĩà¤ıà¤¨": 2661,
      "Ġà¤īà¤§": 2662,
      "Ġà¤ªà¤°à¤¦": 2663,
      "à¤ĺà¤°à¤ķ": 2664,
      "Ġà¤ľà¤¨à¤Ĺà¤£à¤¨": 2665,
      "à¤¯à¤¸à¤µ": 2666,
      "Ġà¤ĩà¤ª": 2667,
      "à¤Ĩà¤ĩà¤ľ": 2668,
      "Ġà¤Ĩà¤ľà¤Ń": 2669,
      "à¤Ĩà¤Īà¤¬": 2670,
      "Ġà¤ľà¤¬à¤°à¤ľà¤¸": 2671,
      "à¤¨à¤°à¤®": 2672,
      "Ġà¤¬à¤¸à¤ķ": 2673,
      "Ġà¤ħà¤ľà¤¯": 2674,
      "Ġà¤«à¤£": 2675,
      "Ġà¤®à¤¨à¤Ĺ": 2676,
      "Ġà¤Ĳà¤¶": 2677,
      "à¤Łà¤Ń": 2678,
      "à¤·à¤¤à¤°": 2679,
      "à¤Ĥà¤Ĥ": 2680,
      "à¤ķà¤²à¤¨à¤ķ": 2681,
      "à¥¨à¥¨": 2682,
      "à¤ıà¤¸à¤ľ": 2683,
      "Ġà¤ıà¤«à¤ıà¤®": 2684,
      "Ġà¤ħà¤¸à¤«à¤²à¤¤": 2685,
      "à¤°à¤Ĩà¤®": 2686,
      "à¤Ļà¤Ł": 2687,
      "à¤¯à¤¸à¤¨": 2688,
      "à¤ĩà¤¨à¤¬": 2689,
      "à¥¨à¥§": 2690,
      "Ġà¤¸à¤¯à¤ªà¤¤": 2691,
      "à¤²à¤¤à¤¬": 2692,
      "Ġà¤ĭà¤£à¤ķ": 2693,
      "Ġà¥§à¥¯à¥¯à¥®": 2694,
      "à¤ķà¤°à¤¹à¤°": 2695,
      "à¤ªà¤µ": 2696,
      "à¤Ĺà¤ļ": 2697,
      "Ġà¤īà¤Ľ": 2698,
      "à¤ĸà¤°à¤®": 2699,
      "Ġà¤®à¤¹à¤µà¤ª": 2700,
      "Ġà¤®à¤¤à¤Ń": 2701,
      "Ġà¤®à¤¤à¤²à¤¬": 2702,
      "Ġà¤Ńà¤°à¤ª": 2703,
      "Ġà¥¨à¥¦à¥«à¥®": 2704,
      "Ġà¥§à¥¯à¥¯à¥¦": 2705,
      "à¤°à¤ľà¤¨à¤¨": 2706,
      "à¤¨à¤¤à¤°": 2707,
      "à¤®à¤²à¤ķ": 2708,
      "à¤¡à¤¨à¤®": 2709,
      "à¤ĸà¤¸": 2710,
      "à¤ĸà¤ķà¤²": 2711,
      "Ġà¤¸à¤®à¤¯à¤²": 2712,
      "Ġà¤ªà¤°à¤¨": 2713,
      "Ġà¤¡à¤¬à¤²": 2714,
      "à¤²à¤¬à¤®": 2715,
      "Ġà¤Ĺà¤¤à¤µà¤°": 2716,
      "à¤Łà¤¨à¤Ĺà¤°à¤ķ": 2717,
      "à¤Łà¤¨à¤Ĺà¤°à¤®": 2718,
      "à¤łà¤ķà¤¬": 2719,
      "à¤¯à¤¦à¤²à¤ķ": 2720,
      "à¤Ĭà¤¨": 2721,
      "à¤ķà¤Łà¤²": 2722,
      "à¤¯à¤°à¤¬": 2723,
      "à¤¬à¤²à¤ķ": 2724,
      "à¤·à¤°à¤¤": 2725,
      "à¤Īà¤°": 2726,
      "à¤īà¤ł": 2727,
      "Ġà¤¯à¤¸à¤µà¤°": 2728,
      "Ġà¤®à¤¨à¤¨": 2729,
      "Ġà¥ªà¥¦à¥¦": 2730,
      "ĠĠĠĠĠĠĠ": 2731,
      "Ġà¥¨à¥¦à¥Ńà¥«à¥Ńà¥¬": 2732,
      "à¤Łà¤µà¤²à¤®": 2733,
      "Ġà¤ªà¤¥": 2734,
      "à¤ľà¤¹": 2735,
      "Ġà¤Ĩà¤Ļ": 2736,
      "Ġà¤²à¤Ń": 2737,
      "Ġà¤īà¤Ĺ": 2738,
      "Ġà¤¸à¤®à¤¤": 2739,
      "à¤°à¤®à¤ħà¤¨": 2740,
      "à¤Ĺà¤®à¤¨à¤®": 2741,
      "Ġà¤Ĩà¤ĩà¤ªà¤°": 2742,
      "à¤¤à¤Ńà¤°": 2743,
      "à¤¸à¤«": 2744,
      "Ġà¤¸à¤¦à¤¨": 2745,
      "Ġà¤¬à¤¦à¤°": 2746,
      "à¤¥à¤¬": 2747,
      "à¤¶à¤¯": 2748,
      "Ġà¤ľà¤²à¤®": 2749,
      "à¤ĩà¤ªà¤²": 2750,
      "Ġà¤ħà¤¨à¤®": 2751,
      "Ġà¤«à¤²à¤¸": 2752,
      "Ġà¤ıà¤ķà¤ªà¤Ľ": 2753,
      "Ġà¤Ĩà¤ľà¤¬": 2754,
      "à¤ķà¤ħà¤ª": 2755,
      "à¤¦à¤¦à¤°": 2756,
      "Ġà¤Ĺà¤ĩà¤¸à¤ķ": 2757,
      "à¤Łà¤¨à¤²": 2758,
      "à¤·à¤Ńà¤°": 2759,
      "Ġà¤Ľà¤ª": 2760,
      "à¤¥à¤¨à¤®": 2761,
      "à¤ļà¤²à¤²": 2762,
      "à¤īà¤¡à¤®": 2763,
      "Ġà¤Łà¤¹à¤°": 2764,
      "à¤ħà¤¹": 2765,
      "à¤¤à¤¹à¤¤à¤®": 2766,
      "Ġà¥¨à¥¦à¥ªà¥®": 2767,
      "Ġà¤īà¤ªà¤ķà¤°à¤£à¤¹à¤°": 2768,
      "à¤²à¤ªà¤Ľ": 2769,
      "à¤ªà¤¸à¤ķ": 2770,
      "Ġà¤²à¤°": 2771,
      "Ġà¤Īà¤²": 2772,
      "à¤ıà¤®à¤ıà¤¸": 2773,
      "à¤¸à¤¯": 2774,
      "à¤§à¤µà¤ķ": 2775,
      "à¤ļà¤²à¤®": 2776,
      "à¤Īà¤¸à¤ķ": 2777,
      "Ġà¤ıà¤¯à¤°à¤ķ": 2778,
      "à¥¬à¥¦": 2779,
      "Ġà¤ľà¤¸à¤¬": 2780,
      "Ġà¤¤à¤ªà¤¸": 2781,
      "à¤°à¤ļà¤¢": 2782,
      "Ġà¥¨à¥¦à¥¦à¥ª": 2783,
      "Ġà¥¨à¥¦à¥Ńà¥«à¥¦": 2784,
      "à¤ģà¥Ī": 2785,
      "à¤Ńà¤°à¤ķ": 2786,
      "Ġà¤¯à¤¸à¤¸": 2787,
      "Ġà¤¸à¤¹à¤ķà¤°": 2788,
      "à¤ªà¤¤à¤ķ": 2789,
      "Ġà¤Ŀà¤®": 2790,
      "à¥¨à¥¯": 2791,
      "Ġà¤ĸà¤¤à¤°à¤¨": 2792,
      "à¥ĭà¤ģ": 2793,
      "à¤ªà¤ĸ": 2794,
      "à¤¦à¤ķà¤¤": 2795,
      "Ġà¤Ĺà¤¸": 2796,
      "à¤¬à¤¹à¤°": 2797,
      "à¤¬à¤°à¤²": 2798,
      "à¤¡à¤ªà¤®": 2799,
      "Ġà¤ıà¤¬": 2800,
      "Ġà¤®à¤¹à¤¤à¤²": 2801,
      "Ġà¤īà¤ªà¤²": 2802,
      "à¤¯à¤¤à¤¨": 2803,
      "à¤łà¤®à¤£": 2804,
      "Ġà¤Ŀà¤Ł": 2805,
      "à¥¨à¥Ń": 2806,
      "Ġà¤¨à¤Ńà¤ĩ": 2807,
      "Ġà¥¨à¥¦à¥Ńà¥©à¥Ńà¥ª": 2808,
      "à¥ĩà¥ĩ": 2809,
      "Ġà¤Ĺà¤¡": 2810,
      "à¤Ĺà¤®à¤¤": 2811,
      "Ġà¤®à¤Ĺà¤°à¤ķ": 2812,
      "Ġà¤¹à¤ķà¤ķ": 2813,
      "à¤¡à¤¹": 2814,
      "à¤ĩà¤Ļ": 2815,
      "à¤µà¤¸à¤¹": 2816,
      "à¤¨à¤¨à¤Ĺà¤°": 2817,
      "Ġà¤°à¤®à¤£": 2818,
      "Ġà¤®à¤Ļà¤ª": 2819,
      "à¤¯à¤Ļ": 2820,
      "à¤ľà¤ªà¤¤": 2821,
      "à¤¥à¤¯": 2822,
      "à¤¯à¤²à¤²": 2823,
      "Ġà¤ħà¤¹à¤®": 2824,
      "à¤Ńà¤°à¤ª": 2825,
      "Ġà¤ħà¤ªà¤µ": 2826,
      "à¤®à¤¥": 2827,
      "à¤¯à¤ļ": 2828,
      "Ġà¤ľà¤¯à¤ª": 2829,
      "à¤ĩà¤Łà¤ķ": 2830,
      "Ġà¤¯à¤¸à¤ªà¤Ľ": 2831,
      "Ġà¤ľà¤¨à¤°à¤²": 2832,
      "Ġà¤¬à¤¢à¤¨": 2833,
      "à¤·à¤£à¤¬": 2834,
      "Ġà¥¨à¥¦à¥¦à¥©": 2835,
      "Ġà¤¨à¤¬à¤¸": 2836,
      "à¤°à¤¸à¤ķ": 2837,
      "à¤ķà¤Ĺ": 2838,
      "à¤¤à¤°à¤¹": 2839,
      "Ġà¤Ĩà¤µà¤¸": 2840,
      "à¤°à¤ķà¤°à¤£": 2841,
      "Ġà¤¶à¤®à¤¶": 2842,
      "à¤¯à¤¸à¤¯à¤¤": 2843,
      "Ġà¥¨à¥¦à¥¦à¥¦": 2844,
      "Ġà¤ıà¤¨à¤Ĩà¤°à¤ı": 2845,
      "à¤¤à¤¨à¤®": 2846,
      "Ġà¤ħà¤¶à¤ķ": 2847,
      "Ġà¤¤à¤¦à¤°": 2848,
      "à¤Ľà¤°": 2849,
      "à¤¡à¤Ń": 2850,
      "à¤¯à¤¸à¤¤à¤°": 2851,
      "Ġà¤Ńà¤ıà¤Ľ": 2852,
      "Ġà¤ĵà¤¢": 2853,
      "Ġà¥¨à¥«à¥¦": 2854,
      "Ġà¥¨à¥¦à¥Ńà¥ªà¥¦à¥Ńà¥«": 2855,
      "Ġà¤¸à¤¯à¤ķ": 2856,
      "Ġà¤µà¤¨à¤ķ": 2857,
      "Ġà¤²à¤¬": 2858,
      "à¤Ńà¤ķà¤°": 2859,
      "à¥®à¥¦": 2860,
      "à¤ĩà¤²à¤Ł": 2861,
      "Ġà¤ıà¤«à¤ı": 2862,
      "Ġà¤¦à¤¶à¤®à¤²à¤¬": 2863,
      "à¤¯à¤ħà¤¨": 2864,
      "Ġà¤®à¤¤à¤ķ": 2865,
      "Ġà¤Ĩà¤¡à¤®": 2866,
      "Ġà¤ľà¤ª": 2867,
      "à¤ĸà¤¬à¤°": 2868,
      "Ġà¤¡à¤¨": 2869,
      "à¤°à¤µà¤¹à¤¨": 2870,
      "Ġà¤ĵà¤Ľ": 2871,
      "Ġà¤¸à¤®à¤¯à¤ħà¤ĺ": 2872,
      "Ġà¤Ĩà¤ĩà¤¡": 2873,
      "à¤°à¤ĺ": 2874,
      "à¤²à¤°à¤ķ": 2875,
      "Ġà¤ªà¤µà¤¨": 2876,
      "à¤Ĺà¤Ń": 2877,
      "Ġà¤¬à¤¹à¤¨": 2878,
      "à¤ľà¤¸à¤®": 2879,
      "à¤§à¤°à¤ķ": 2880,
      "à¤°à¤ķà¤®": 2881,
      "Ġà¤ľà¤¨à¤¨": 2882,
      "à¤¤à¤°à¤¸à¤®": 2883,
      "à¤ĩà¤ķà¤²à¤®": 2884,
      "à¤Ĺà¤łà¤¨à¤®": 2885,
      "à¤¨à¤Ĺà¤°à¤®": 2886,
      "Ġà¤°à¤¨à¤²": 2887,
      "Ġà¤®à¤ĸ": 2888,
      "à¤·à¤µ": 2889,
      "Ġà¤īà¤·": 2890,
      "à¤Ńà¤µà¤²": 2891,
      "Ġà¤ħà¤¨à¤¸à¤¨": 2892,
      "à¤Ļà¤¹à¤°": 2893,
      "à¤¨à¤ľà¤¸": 2894,
      "à¤²à¤¤à¤°": 2895,
      "Ġà¤¸à¤ľà¤Ĺ": 2896,
      "Ġà¤°à¤Ĺà¤¤à¤®": 2897,
      "à¤¥à¤²à¤²": 2898,
      "à¤¡à¤°à¤ķ": 2899,
      "Ġà¤¸à¤®à¤ª": 2900,
      "à¤ŀà¤¤": 2901,
      "Ġà¤Ńà¤ıà¤¨à¤¨": 2902,
      "à¥ªà¥«": 2903,
      "Ġà¤¹à¤Ļà¤ķà¤Ļà¤®": 2904,
      "Ġà¤ħà¤²à¤®à¤²": 2905,
      "à¤¹à¤¯": 2906,
      "à¤µà¤°à¤¸": 2907,
      "à¤Ĺà¤²à¤²": 2908,
      "Ġà¤¨à¤°à¤¹à¤¨": 2909,
      "à¤°à¤ķà¤ķ": 2910,
      "Ġà¤°à¤¹à¤¦": 2911,
      "à¤¯à¤®à¤¯": 2912,
      "à¤ļà¤¨à¤¬": 2913,
      "à¤¥à¤²à¤¹à¤°": 2914,
      "à¤µà¤²à¤¨": 2915,
      "Ġà¤¬à¤¹à¤°": 2916,
      "Ġà¤ıà¤ķà¤ļ": 2917,
      "à¤¯à¤²à¤¯": 2918,
      "à¤°à¤µà¤²": 2919,
      "Ġà¤īà¤¦à¤ĺ": 2920,
      "à¤Łà¤°à¤¸à¤®": 2921,
      "Ġà¤Ŀà¤²à¤¨": 2922,
      "Ġà¥§à¥§à¥©": 2923,
      "Ġà¤Ĩà¤īà¤Ľ": 2924,
      "à¥¨à¥¦à¥Ńà¥©": 2925,
      "à¤ªà¤Łà¤ª": 2926,
      "Ġà¤¹à¤Ļà¤ķà¤Ļà¤²": 2927,
      "Ġà¤Ļ": 2928,
      "à¤¯à¤¨à¤®": 2929,
      "à¤¬à¤¡": 2930,
      "Ġà¤¤à¤µà¤°à¤²": 2931,
      "à¤¶à¤°à¤£": 2932,
      "à¤°à¤®à¤ľ": 2933,
      "à¤¯à¤ķà¤µ": 2934,
      "à¤¯à¤ķà¤¹à¤°": 2935,
      "Ġà¤Ĩà¤ļà¤°à¤£": 2936,
      "à¤ķà¤°à¤®": 2937,
      "à¤¤à¤ªà¤¤": 2938,
      "à¤µà¤¤à¤®": 2939,
      "à¤ıà¤¸à¤ķ": 2940,
      "à¤ıà¤«à¤²": 2941,
      "Ġà¤µà¤°à¤ªà¤°": 2942,
      "Ġà¤ĩà¤·": 2943,
      "à¤¸à¤¨à¤¬": 2944,
      "Ġà¤ıà¤¸à¤ıà¤®à¤ıà¤¸": 2945,
      "à¤²à¤ľà¤¸": 2946,
      "à¤¦à¤²à¤²": 2947,
      "Ġà¤¹à¤µà¤²": 2948,
      "à¤¡à¤¸à¤®": 2949,
      "Ġà¤¸à¤®à¤ķà¤ķ": 2950,
      "Ġà¤ıà¤ĺ": 2951,
      "Ġà¤ıà¤ķà¤°": 2952,
      "Ġà¤ĺà¤°à¤²": 2953,
      "à¤°à¤¹à¤²": 2954,
      "Ġà¤¸à¤ªà¤¥": 2955,
      "Ġà¤¸à¤Łà¤¹": 2956,
      "Ġà¤¡à¤Łà¤ķà¤®": 2957,
      "à¤¯à¤ľà¤¸": 2958,
      "Ġà¤¸à¤¨à¤®": 2959,
      "à¤¦à¤°à¤ķ": 2960,
      "Ġà¤ķà¤Ńà¤°": 2961,
      "Ġà¤°à¤¨à¤°": 2962,
      "Ġà¤¤à¤²à¤®": 2963,
      "à¤ĩà¤ķà¤°": 2964,
      "à¤ľà¤¨à¤¶": 2965,
      "Ġà¤ıà¤ķà¤¤à¤°": 2966,
      "Ġà¤Ķà¤ľ": 2967,
      "à¤Łà¤µà¤²à¤ķ": 2968,
      "à¥ľ": 2969,
      "Ġà¤°à¤Ĺà¤¤à¤ķ": 2970,
      "Ġà¤®à¤²à¤®": 2971,
      "Ġà¤µà¤¨à¤®": 2972,
      "Ġà¤¤à¤Łà¤¬à¤¨": 2973,
      "Ġà¤ļà¤®à¤¤": 2974,
      "à¤²à¤¬à¤ļ": 2975,
      "à¤¤à¤µà¤¨à¤²": 2976,
      "Ġà¥§à¥§à¥¦": 2977,
      "Ġà¥¦à¥¦": 2978,
      "Ġà¤ĭà¤£à¤ªà¤¤": 2979,
      "à¥Ģà¥ĩ": 2980,
      "à¤Ĺà¤¦à¤°": 2981,
      "à¤ıà¤ľà¤¸": 2982,
      "à¤ıà¤Īà¤ķ": 2983,
      "à¤ļà¤¦": 2984,
      "à¤Īà¤ķà¤²": 2985,
      "à¤¡à¤¡": 2986,
      "à¤¾à¤ģà¤Ĥ": 2987,
      "Ġà¤¸à¤¹à¤¸": 2988,
      "Ġà¤īà¤ªà¤¶": 2989,
      "à¤°à¤¬à¤²": 2990,
      "à¥ªà¥¦": 2991,
      "à¤¯à¤ªà¤¹": 2992,
      "Ġà¥¦à¥Ńà¥¨": 2993,
      "à¤ľà¤¦à¤°à¤®": 2994,
      "Ġà¤Ĩà¤Īà¤¤à¤¬": 2995,
      "Ġà¥¨à¥¦à¥¬à¥¬": 2996,
      "à¤¹à¤¤à¤ķ": 2997,
      "à¤¦à¤¹": 2998,
      "à¤µà¤ħà¤§": 2999,
      "à¤ıà¤¤à¤ķ": 3000,
      "à¤Īà¤¯": 3001,
      "à¤ĸà¤¨à¤ķ": 3002,
      "à¤¯à¤¨à¤¹à¤°": 3003,
      "Ġà¤Ĩà¤ľà¤ķà¤²": 3004,
      "Ġà¤¬à¤¹à¤¸à¤ķ": 3005,
      "Ġà¤¸à¤¤à¤¹à¤®": 3006,
      "Ġà¥¨à¥¦à¥«à¥¯": 3007,
      "Ġà¤ĺà¤¨à¤¶": 3008,
      "Ġà¤ıà¤¯à¤°à¤ª": 3009,
      "à¥įà¤¾": 3010,
      "à¤¯à¤²à¤®": 3011,
      "à¤ľà¤¬à¤¹": 3012,
      "à¤·à¤ľà¤¨à¤ķ": 3013,
      "Ġà¤¦à¤ª": 3014,
      "à¤¶à¤Ńà¤ķ": 3015,
      "Ġà¤īà¤¨à¤®": 3016,
      "à¤Ńà¤ļ": 3017,
      "à¤ĩà¤Ńà¤°": 3018,
      "à¤Ļà¤µ": 3019,
      "à¤ľà¤¨à¤Ńà¤¨": 3020,
      "Ġà¤īà¤ªà¤§": 3021,
      "Ġà¤ĩà¤¥": 3022,
      "Ġà¤Ńà¤ıà¤¦": 3023,
      "Ġà¤ªà¤¦à¤¹à¤°": 3024,
      "Ġà¤Ĩà¤ĩà¤²": 3025,
      "à¤ĩà¤²à¤¹à¤°": 3026,
      "Ġà¤¸à¤¡à¤ķà¤¹à¤°": 3027,
      "Ġà¤°à¤ķà¤®à¤®": 3028,
      "à¤¨à¤Ł": 3029,
      "à¤²à¤µà¤²": 3030,
      "Ġà¤¦à¤°à¤µ": 3031,
      "à¤Ńà¤¬": 3032,
      "Ġà¤ļà¤¹": 3033,
      "à¤łà¤¶": 3034,
      "Ġà¤īà¤ªà¤ľ": 3035,
      "à¤ľà¤ķà¤¹à¤°": 3036,
      "Ġà¤ľà¤¸à¤ħà¤¨": 3037,
      "à¤°à¤ļà¤²à¤¨à¤®": 3038,
      "à¤¨à¤¬à¤®": 3039,
      "Ġà¤ľà¤Ĺà¤¦": 3040,
      "Ġà¥¨à¥¦à¥¬à¥¨": 3041,
      "Ġà¥¨à¥¦à¥ªà¥Ń": 3042,
      "à¤®à¤¶à¤°à¤£": 3043,
      "à¤®à¤Ĺà¤°à¤²": 3044,
      "à¤¨à¤µà¤²": 3045,
      "à¤¯à¤°à¤¹à¤°": 3046,
      "Ġà¤Ĺà¤¥": 3047,
      "Ġà¤ľà¤ĺà¤¨": 3048,
      "à¤¡à¤¯": 3049,
      "Ġà¤ıà¤Ĺ": 3050,
      "à¤ªà¤°à¤²": 3051,
      "à¤ªà¤°à¤¸": 3052,
      "à¤ĵà¤®": 3053,
      "Ġà¤ĭà¤¤": 3054,
      "à¤ķà¤¨à¤®": 3055,
      "à¤®à¤¥à¤²": 3056,
      "à¤Ĺà¤¯": 3057,
      "Ġà¤°à¤£": 3058,
      "Ġà¤ħà¤¸à¤ķ": 3059,
      "à¤«à¤¨": 3060,
      "à¤ħà¤ķ": 3061,
      "à¤ļà¤¨à¤ªà¤Ľ": 3062,
      "Ġà¤ªà¤ķà¤¡": 3063,
      "Ġà¤ħà¤µà¤¤": 3064,
      "Ġà¤¬à¤¹à¤¸à¤®": 3065,
      "Ġà¤ħà¤ªà¤²": 3066,
      "Ġà¤¥à¤ªà¤²": 3067,
      "à¤ľà¤®à¤£": 3068,
      "Ġà¥¦à¥Ńà¥«": 3069,
      "Ġà¥¨à¥¦à¥¦à¥¨": 3070,
      "Ġà¤ħà¤ĸà¤¬": 3071,
      "à¤²à¤ħà¤¨": 3072,
      "à¤¹à¤ľà¤¨à¤ķ": 3073,
      "à¤ıà¤¶": 3074,
      "à¤ıà¤«à¤ķ": 3075,
      "Ġà¤Ńà¤ĩà¤¦": 3076,
      "à¤īà¤¸à¤®": 3077,
      "à¤ĩà¤ıà¤²": 3078,
      "à¤Łà¤°à¤Ł": 3079,
      "Ġà¤¤à¤¹à¤¹à¤°": 3080,
      "Ġà¤Ĩà¤ĩà¤ıà¤®à¤Ī": 3081,
      "à¤µà¤¯à¤ķ": 3082,
      "Ġà¤¹à¤¨à¤¨": 3083,
      "Ġà¤ľà¤ķ": 3084,
      "à¤ļà¤µà¤Ł": 3085,
      "Ġà¤²à¤ĸà¤¨": 3086,
      "Ġà¤¶à¤¤à¤ª": 3087,
      "à¤¸à¤®à¤¨": 3088,
      "Ġà¤¯à¤¸à¤¤à¤°": 3089,
      "à¤µà¤¨à¤¯": 3090,
      "à¤Ĺà¤¤à¤¦": 3091,
      "Ġà¤Ŀà¤¡à¤ª": 3092,
      "Ġà¤¹à¤¡à¤¤": 3093,
      "à¤ķà¤²à¤®": 3094,
      "à¤ķà¤ľà¤¸": 3095,
      "à¤Łà¤ļ": 3096,
      "à¤Łà¤ªà¤Ľ": 3097,
      "Ġà¤¨à¤īà¤ł": 3098,
      "Ġà¤ħà¤®à¤²": 3099,
      "à¤¬à¤²à¤®": 3100,
      "à¤Ľà¤µ": 3101,
      "à¤°à¤µà¤ļà¤¨": 3102,
      "à¤²à¤¯à¤ħà¤¨": 3103,
      "Ġà¤°à¤ķà¤®à¤²": 3104,
      "à¤ĩà¤¨à¤²à¤ķ": 3105,
      "Ġà¥¨à¥¦à¥«à¥¨": 3106,
      "à¤¤à¤¹à¤Łà¤ķ": 3107,
      "à¤¦à¤¯à¤ĺ": 3108,
      "à¤¹à¤¨à¤ķ": 3109,
      "à¤ªà¤ķà¤ķ": 3110,
      "à¤µà¤¤à¤²": 3111,
      "Ġà¤ķà¤ªà¤ķ": 3112,
      "Ġà¤¤à¤²à¤ķ": 3113,
      "Ġà¤Ĩà¤®à¤®": 3114,
      "à¤īà¤¨à¤¦": 3115,
      "à¤ľà¤¨à¤¬": 3116,
      "à¤¢à¤¤": 3117,
      "à¤ĺà¤£": 3118,
      "Ġà¤§à¤®à¤²": 3119,
      "Ġà¤Ŀà¤¸": 3120,
      "à¤¡à¤ķà¤ª": 3121,
      "à¥©à¥«": 3122,
      "Ġà¥§à¥¨à¥¦": 3123,
      "Ġà¤Īà¤ª": 3124,
      "à¥¨à¥¦à¥Ńà¥«": 3125,
      "à¤µà¤Ńà¤°à¤ķ": 3126,
      "Ġà¤·à¤¡à¤¯à¤¨": 3127,
      "Ġà¤ıà¤ıà¤«à¤¸": 3128,
      "à¤²à¤Ńà¤°": 3129,
      "à¤Łà¤®à¤ķ": 3130,
      "à¤ıà¤®à¤¬": 3131,
      "Ġà¤ħà¤¢": 3132,
      "à¤·à¤¨": 3133,
      "à¤·à¤¦à¤²": 3134,
      "à¤ŀà¤²": 3135,
      "à¤²à¤®à¤£": 3136,
      "à¤®à¤¤à¤²": 3137,
      "à¤µà¤°à¤£à¤²": 3138,
      "Ġà¤¨à¤ľà¤°à¤®": 3139,
      "Ġà¤¶à¤¹à¤°à¤¹à¤°": 3140,
      "à¥įà¥ĩ": 3141,
      "à¤°à¤¡à¤ķ": 3142,
      "Ġà¤ªà¤¹à¤°": 3143,
      "à¤ªà¤²à¤ķ": 3144,
      "à¤ªà¤¸à¤²": 3145,
      "Ġà¤ķà¤¶": 3146,
      "Ġà¤®à¤¯": 3147,
      "Ġà¤¤à¤²à¤µ": 3148,
      "à¤¥à¤ķà¤¤": 3149,
      "Ġà¤Ĩà¤ıà¤®": 3150,
      "Ġà¤²à¤ļ": 3151,
      "à¤°à¤¸à¤²": 3152,
      "Ġà¤ķà¤°à¤¬": 3153,
      "Ġà¥¨à¥¦à¥©à¥¦": 3154,
      "à¤ķà¤®à¤ľ": 3155,
      "à¤£à¤¯à¤¬": 3156,
      "à¤Ĩà¤Īà¤¸": 3157,
      "à¤Ĺà¤ľà¤ªà¤¤": 3158,
      "à¤ľà¤Ńà¤£": 3159,
      "à¤¨à¤¢": 3160,
      "à¤¤à¤¶": 3161,
      "à¤¸à¤«à¤°": 3162,
      "Ġà¤Ĺà¤¡à¤¬": 3163,
      "Ġà¤Ľà¤¡": 3164,
      "à¤¶à¤ļà¤¨": 3165,
      "à¤ļà¤°à¤ķ": 3166,
      "à¤ĩà¤Ĺ": 3167,
      "à¤ĩà¤Łà¤²": 3168,
      "Ġà¤®à¤¹à¤¨": 3169,
      "à¤µà¤¨à¤Ńà¤°": 3170,
      "Ġà¤¬à¤²à¤°": 3171,
      "à¤¦à¤ķà¤¹à¤°": 3172,
      "à¤ľà¤Ĺà¤ŀ": 3173,
      "à¤²à¤Ńà¤¨": 3174,
      "Ġà¤ħà¤¬à¤°": 3175,
      "Ġà¤¤à¤¦": 3176,
      "à¤¥à¤ķà¤¹à¤°": 3177,
      "Ġà¤Ĩà¤ķà¤²à¤¨": 3178,
      "à¤ļà¤¯à¤ķà¤°": 3179,
      "à¤ĸà¤¨à¤®": 3180,
      "à¤īà¤¹": 3181,
      "à¤īà¤ªà¤°": 3182,
      "à¤²à¤ķà¤°": 3183,
      "Ġà¤¡à¤¢": 3184,
      "Ġà¤¸à¤¹à¤ª": 3185,
      "à¤·à¤£à¤¹à¤°": 3186,
      "Ġà¤Ĩà¤Ĺà¤ľà¤¨": 3187,
      "Ġà¤Ĩà¤ĩà¤°à¤¹à¤¨": 3188,
      "Ġà¤¤à¤¬à¤¸à¤®": 3189,
      "Ġà¤¯à¤¸à¤ªà¤Łà¤ķà¤ķ": 3190,
      "à¤µà¤®à¤¨": 3191,
      "à¤ıà¤ª": 3192,
      "à¤ıà¤²à¤ķ": 3193,
      "à¤ľà¤¨à¤¤": 3194,
      "Ġà¤Ĩà¤µà¤§": 3195,
      "Ġà¤ĵà¤®à¤ª": 3196,
      "Ġà¤Ĳà¤¨à¤ħà¤¨": 3197,
      "âĢ¯": 3198,
      "à¤¯à¤ªà¤°": 3199,
      "à¤¸à¤¸à¤¹": 3200,
      "à¤ªà¤ħà¤¨": 3201,
      "à¤Ĺà¤¹à¤¨": 3202,
      "Ġà¤¬à¤ĸ": 3203,
      "à¤ľà¤Ļ": 3204,
      "à¤Īà¤ĺ": 3205,
      "à¤£à¤ªà¤¨": 3206,
      "à¤ĩà¤ıà¤ªà¤Ľ": 3207,
      "Ġà¤®à¤¨à¤¹à¤°": 3208,
      "Ġà¤ĩà¤®à¤°": 3209,
      "Ġà¥§à¥§à¥«": 3210,
      "Ġà¤§à¤¨à¤°": 3211,
      "à¤ķà¤Łà¤¤": 3212,
      "Ġà¥¨à¥¦à¥¬à¥Ń": 3213,
      "à¤ªà¤²à¤²": 3214,
      "à¤Ĺà¤ªà¤¤": 3215,
      "à¤ıà¤¬": 3216,
      "Ġà¤¦à¤²à¤®": 3217,
      "à¤ļà¤¤à¤®": 3218,
      "à¤°à¤¬à¤¦à¤²": 3219,
      "Ġà¤¨à¤Ĺà¤°à¤µ": 3220,
      "Ġà¥®à¥¦à¥¦": 3221,
      "Ġà¤¸à¤¡à¤ķà¤¬": 3222,
      "Ġà¤ıà¤¨à¤ľ": 3223,
      "à¤¯à¤£à¤Ĺà¤¢à¤®": 3224,
      "à¤¨à¤«": 3225,
      "à¤ķà¤ŀ": 3226,
      "à¤¯à¤Ĺ": 3227,
      "à¤¸à¤ŀ": 3228,
      "à¤Łà¤ķà¤®": 3229,
      "à¤Łà¤ªà¤Łà¤ķ": 3230,
      "Ġà¤Ĺà¤°à¤Ĺà¤¹à¤¨": 3231,
      "Ġà¤¤à¤ķ": 3232,
      "Ġà¤ľà¤Ĺà¤®": 3233,
      "Ġà¤ľà¤Ĺà¤¤à¤®": 3234,
      "à¤°à¤®à¤¦": 3235,
      "Ġà¤ĸà¤¡à¤ķ": 3236,
      "à¤¨à¤®à¤§": 3237,
      "Ġà¤ķà¤®à¤²à¤°": 3238,
      "Ġà¤łà¤Ł": 3239,
      "à¤ħà¤¬": 3240,
      "à¤¤à¤¨à¤ª": 3241,
      "à¤Łà¤²à¤¹à¤°": 3242,
      "Ġà¤Īà¤¤": 3243,
      "Ġà¤¨à¤ķà¤Ĩà¤īà¤Ł": 3244,
      "Ġà¤¹à¤ķà¤¹": 3245,
      "à¥¨à¥¬à¥©": 3246,
      "à¤®à¤Ļ": 3247,
      "à¤Łà¤¡": 3248,
      "Ġà¤¬à¤²à¤²": 3249,
      "Ġà¤Ńà¤¯à¤ķ": 3250,
      "à¤¬à¤¬": 3251,
      "à¤łà¤¤": 3252,
      "à¤łà¤¹à¤°": 3253,
      "à¤¨à¤²à¤®": 3254,
      "à¤®à¤ķà¤°": 3255,
      "à¤łà¤ķà¤¹à¤°": 3256,
      "à¤ķà¤Łà¤¤à¤®": 3257,
      "Ġà¥¨à¥¦à¥¬à¥§": 3258,
      "à¤Ĩà¤Īà¤ª": 3259,
      "Ġà¥¨à¥¦à¥Ńà¥©à¥¦": 3260,
      "à¤²à¤µà¤ķ": 3261,
      "à¤¤à¤Ĺ": 3262,
      "à¤¤à¤²à¤®": 3263,
      "à¤¦à¤¬à¤¹": 3264,
      "à¤ıà¤¡": 3265,
      "à¤ľà¤¯à¤²": 3266,
      "à¤¡à¤ħà¤¨": 3267,
      "à¤Ńà¤µà¤ķ": 3268,
      "Ġà¤§à¤¨à¤®": 3269,
      "Ġà¤Ńà¤ıà¤²à¤Ĺà¤¤": 3270,
      "Ġà¤ıà¤¸à¤ıà¤¸": 3271,
      "Ġà¥¦à¥Ń": 3272,
      "à¤¯à¤£à¤²": 3273,
      "Ġà¤«à¤²à¤¦": 3274,
      "Ġà¥¨à¥¦à¥¦à¥§": 3275,
      "Ġà¤Ĺà¤ľà¤²à¤ķ": 3276,
      "à¤ķà¤°à¤¬": 3277,
      "Ġà¤¸à¤°à¤¦": 3278,
      "Ġà¤¹à¤ļ": 3279,
      "à¤¹à¤°à¤ķ": 3280,
      "Ġà¤µà¤°à¤ªà¤°à¤ķ": 3281,
      "à¤²à¤¨à¤°à¤¤": 3282,
      "Ġà¥¬à¥¦à¥¦": 3283,
      "Ġà¤¦à¤²à¤¸": 3284,
      "Ġà¤Ĩà¤®à¤°à¤£": 3285,
      "Ġà¤°à¤ķà¤®à¤¬": 3286,
      "à¤¯à¤¯à¤¨à¤ħà¤¨": 3287,
      "à¤®à¤¸à¤¤": 3288,
      "à¤¨à¤¯à¤®": 3289,
      "à¤¸à¤ľ": 3290,
      "à¤µà¤°à¤¹à¤°": 3291,
      "à¤Łà¤¸à¤²": 3292,
      "à¤·à¤§à¤°": 3293,
      "Ġà¤ľà¤«à¤¤": 3294,
      "à¤ļà¤ľà¤¨": 3295,
      "à¤ļà¤¥à¤°à¤ķ": 3296,
      "Ġà¤¸à¤®à¤·": 3297,
      "Ġà¤¥à¤®": 3298,
      "à¤°à¤¤à¤¤": 3299,
      "Ġà¤¡à¤£": 3300,
      "à¤Łà¤°à¤ª": 3301,
      "à¥¬à¥¬": 3302,
      "à¤ļà¤ķà¤¹à¤°": 3303,
      "Ġà¤Ĩà¤¶à¤¯": 3304,
      "Ġà¤¨à¤Ĩà¤ī": 3305,
      "à¤¼à¥į": 3306,
      "à¤¯à¤Ĺà¤¤": 3307,
      "Ġà¤¸à¤¶": 3308,
      "à¤ªà¤°à¤®": 3309,
      "à¤ªà¤¢": 3310,
      "Ġà¤Ĺà¤Ļ": 3311,
      "à¤Ĺà¤ľà¤®": 3312,
      "à¤·à¤¶": 3313,
      "Ġà¤¤à¤Ł": 3314,
      "à¤«à¤¸": 3315,
      "Ġà¤ĩà¤¬": 3316,
      "à¤¤à¤®à¤§": 3317,
      "à¤¶à¤¨à¤ªà¤Ľ": 3318,
      "Ġà¥Ńà¥¦à¥¦": 3319,
      "Ġà¤Ĩà¤īà¤²": 3320,
      "Ġà¤Īà¤Ļ": 3321,
      "Ġà¤Ľà¤²à¤«à¤²à¤ªà¤Ľ": 3322,
      "Ġà¥§à¥¬à¥¦": 3323,
      "Ġà¥¦à¥Ńà¥©": 3324,
      "à¤¯à¤£à¤ª": 3325,
      "à¥¨à¥¦à¥§à¥®": 3326,
      "Ġà¥¨à¥¦à¥¨à¥¨": 3327,
      "à¤ªà¤ŀ": 3328,
      "Ġà¤°à¤¶": 3329,
      "Ġà¤¬à¤²à¤ķ": 3330,
      "Ġà¤®à¤²à¤ķ": 3331,
      "à¤ıà¤Ľà¤¨": 3332,
      "à¤§à¤ªà¤Ľ": 3333,
      "Ġà¤ľà¤µà¤°": 3334,
      "à¤ļà¤°à¤²": 3335,
      "à¤ļà¤²à¤¨": 3336,
      "à¤Īà¤ªà¤Łà¤ķ": 3337,
      "à¤Ļà¤¸à¤®": 3338,
      "à¤¨à¤²à¤²": 3339,
      "à¤¯à¤®à¤¨à¤ķ": 3340,
      "à¤¯à¤¸à¤ħà¤¨": 3341,
      "à¤®à¤ķà¤°à¤£": 3342,
      "à¤°à¤¶à¤®à¤¶": 3343,
      "Ġà¤Ĩà¤ľà¤Ńà¤¨": 3344,
      "à¤¯à¤ªà¤¦": 3345,
      "à¤ıà¤¸à¤¨à¤ķ": 3346,
      "Ġà¤ħà¤¸à¤¹à¤¯": 3347,
      "à¤ķà¤¸à¤¹": 3348,
      "à¤²à¤«": 3349,
      "à¤¸à¤°à¤¹": 3350,
      "à¤¸à¤ªà¤Ľ": 3351,
      "Ġà¤ªà¤Łà¤¨": 3352,
      "à¤Łà¤²à¤²": 3353,
      "à¤Łà¤²à¤Ĺ": 3354,
      "Ġà¤¨à¤Ĺà¤°à¤®": 3355,
      "à¤¬à¤¤à¤ķ": 3356,
      "à¤¬à¤Ńà¤¨": 3357,
      "Ġà¤Ľà¤¦": 3358,
      "Ġà¤²à¤µ": 3359,
      "à¤Īà¤«": 3360,
      "à¤ĩà¤ľà¤°": 3361,
      "à¤¯à¤¸à¤¸": 3362,
      "à¤¯à¤¤à¤¥": 3363,
      "à¤°à¤¦à¤²": 3364,
      "à¤ķà¤²à¤¨à¤®": 3365,
      "à¤¤à¤¨à¤Ĺà¤°": 3366,
      "Ġà¤¸à¤¦à¤¨à¤®": 3367,
      "Ġà¤ªà¤¦à¤ª": 3368,
      "à¤ıà¤²à¤Ĺà¤¤": 3369,
      "Ġà¤Ĩà¤ıà¤ªà¤¨": 3370,
      "Ġà¥¨à¥¦à¥«à¥¬": 3371,
      "Ġà¤ıà¤«à¤¸": 3372,
      "Ġà¤ĸà¤¬à¤°à¤¦": 3373,
      "Ġà¤īà¤ªà¤¦à¤«": 3374,
      "Ġà¤Ĺà¤¡à¤¬à¤¡": 3375,
      "Ġà¤°à¤£à¤¬à¤¹": 3376,
      "Ġà¤¬à¤Łà¤¨": 3377,
      "à¤ľà¤°à¤®": 3378,
      "à¤¡à¤ľ": 3379,
      "à¤īà¤ĸ": 3380,
      "Ġà¤ıà¤ķà¤Ĩ": 3381,
      "à¤¯à¤®à¤¸": 3382,
      "Ġà¤Łà¤®": 3383,
      "Ġà¤¬à¤¢à¤¦": 3384,
      "à¥Įà¤Ĥà¤ĥ": 3385,
      "à¤ħà¤«": 3386,
      "à¥¬à¥©": 3387,
      "à¤¶à¤¤à¤¬": 3388,
      "Ġà¥¨à¥¦à¥¬à¥¦": 3389,
      "à¤¯à¤Łà¤¨à¤²": 3390,
      "Ġà¥¨à¥¦à¥«à¥¦": 3391,
      "Ġà¤¡à¤²à¤°à¤®": 3392,
      "à¤°à¤Ĺà¤¢": 3393,
      "à¤µà¤°à¤¤": 3394,
      "à¤ıà¤ħà¤¨": 3395,
      "à¤¶à¤²à¤¤": 3396,
      "Ġà¤Ĩà¤¯à¤ķ": 3397,
      "à¤Ľà¤¤": 3398,
      "à¤£à¤Ĺ": 3399,
      "à¤¹à¤°à¤²": 3400,
      "à¤ĩà¤¡à¤ķ": 3401,
      "Ġà¤ļà¤®à¤ķ": 3402,
      "Ġà¤ªà¤°à¤¶": 3403,
      "à¤²à¤ķà¤®": 3404,
      "à¤²à¤¨à¤ª": 3405,
      "Ġà¤¸à¤®à¤¯à¤ħà¤¨": 3406,
      "Ġà¤Ĳà¤°": 3407,
      "Ġà¤ıà¤¸à¤Ī": 3408,
      "Ġà¤Īà¤¯": 3409,
      "Ġà¥§à¥¬à¥«": 3410,
      "Ġà¤ĭà¤£à¤®": 3411,
      "Ġà¤¦à¤¶à¤ķà¤ħà¤ĺ": 3412,
      "Ġà¤ħà¤ªà¤¨à¤¤": 3413,
      "Ġà¥¨à¥¦à¥ªà¥¯": 3414,
      "Ġà¤¸à¤ĺà¤¨": 3415,
      "à¤¨à¤ªà¤¤": 3416,
      "à¤®à¤ħà¤¨": 3417,
      "à¤¤à¤ľà¤¨à¤ķ": 3418,
      "à¤¸à¤µà¤²": 3419,
      "Ġà¤¨à¤¸à¤°": 3420,
      "à¤¯à¤¤à¤¬": 3421,
      "Ġà¤łà¤¡": 3422,
      "à¤²à¤¬à¤¸": 3423,
      "à¥¯à¥¦": 3424,
      "Ġà¥¨à¥¦à¥«à¥§": 3425,
      "Ġà¤ħà¤¸à¤®à¤Ŀà¤¦": 3426,
      "Ġà¤Ĩà¤¬à¤¶": 3427,
      "à¤¨à¤ľà¤¨à¤ķ": 3428,
      "à¤¯à¤¤à¤°": 3429,
      "à¤Łà¤¹": 3430,
      "à¤¬à¤Īà¤®": 3431,
      "Ġà¤Ĩà¤°à¤¤": 3432,
      "Ġà¤²à¤®à¤¹": 3433,
      "à¤¡à¤°à¤®": 3434,
      "à¤ĸà¤ķà¤ķ": 3435,
      "Ġà¤¯à¤®à¤ª": 3436,
      "Ġà¤ħà¤¨à¤°": 3437,
      "à¤°à¤¸à¤¸": 3438,
      "Ġà¤¸à¤¦à¤°": 3439,
      "Ġà¥§à¥¦à¥«": 3440,
      "Ġà¤§à¤¨à¤¬à¤¹": 3441,
      "Ġà¤ķà¤¥à¤¨": 3442,
      "à¤®à¤¸à¤®à¤°": 3443,
      "à¤°à¤¡": 3444,
      "à¤¶à¤ķà¤®": 3445,
      "à¤£à¤¸à¤®": 3446,
      "Ġà¤ļà¤£": 3447,
      "Ġà¤ļà¤¹à¤²à¤ª": 3448,
      "Ġà¤¸à¤ķà¤°": 3449,
      "à¤¯à¤¸à¤Ńà¤¨": 3450,
      "à¤¸à¤²à¤Ĺ": 3451,
      "à¤°à¤µà¤£": 3452,
      "à¤ĩà¤ķà¤²à¤ķ": 3453,
      "à¤¯à¤Łà¤¨à¤¨": 3454,
      "Ġà¥¨à¥¦à¥¦à¥«": 3455,
      "Ġà¤Ńà¤µà¤¨à¤¹à¤°": 3456,
      "Ġà¤ļà¤¹à¤²à¤ªà¤¹à¤²": 3457,
      "à¤®à¤¨à¤ķ": 3458,
      "à¤Ĺà¤¸à¤¹": 3459,
      "Ġà¤°à¤¥": 3460,
      "à¤¡à¤°à¤²": 3461,
      "à¤Ńà¤°à¤®": 3462,
      "à¤łà¤¸": 3463,
      "à¤¯à¤®à¤§": 3464,
      "à¤Ĺà¤°à¤²": 3465,
      "à¤¯à¤¸à¤ª": 3466,
      "à¤°à¤¸à¤°à¤¤": 3467,
      "Ġà¤ķà¤®à¤¸": 3468,
      "à¤ĩà¤¨à¤°": 3469,
      "à¤ķà¤®à¤°": 3470,
      "à¤®à¤¤à¤¸à¤®": 3471,
      "Ġà¤¸à¤®à¤¯à¤Ń": 3472,
      "Ġà¤ħà¤¬à¤¦": 3473,
      "Ġà¤ıà¤®à¤ª": 3474,
      "Ġà¤¬à¤²à¤¤": 3475,
      "Ġà¤ľà¤®à¤ĺà¤Ł": 3476,
      "Ġà¤ĸà¤¸à¤Ĩà¤°": 3477,
      "Ġà¤¨à¤µà¤ľ": 3478,
      "à¤¤à¤°à¤¤à¤°": 3479,
      "à¤Īà¤¨à¤²à¤®": 3480,
      "Ġà¤¯à¤®à¤ªà¤ŀ": 3481,
      "à¤®à¤°à¤¤": 3482,
      "à¤¸à¤°à¤²": 3483,
      "Ġà¤¸à¤°à¤¦à¤°": 3484,
      "Ġà¤ªà¤¥à¤°": 3485,
      "à¤µà¤ĺ": 3486,
      "Ġà¤°à¤ľà¤¨": 3487,
      "Ġà¤Ľà¤¬": 3488,
      "Ġà¤²à¤ł": 3489,
      "Ġà¤ļà¤ķà¤²": 3490,
      "Ġà¤ıà¤¬à¤®": 3491,
      "à¤īà¤¨à¤¸à¤®": 3492,
      "Ġà¤ħà¤¨à¤Ĺ": 3493,
      "Ġà¤«à¤Ł": 3494,
      "à¤Ŀà¤¬": 3495,
      "Ġà¤ķà¤°à¤¦": 3496,
      "Ġà¤ªà¤¹à¤²à¤ķ": 3497,
      "à¤®à¤ķà¤¥": 3498,
      "Ġà¥§à¥¦à¥®": 3499,
      "Ġà¤Ĩà¤ĩà¤¡à¤²": 3500,
      "à¤ıà¤¨à¤ľ": 3501,
      "Ġà¥§à¥¯à¥¦": 3502,
      "Ġà¥¦à¥©": 3503,
      "Ġà¤Ĩà¤Īà¤ľ": 3504,
      "Ġà¤¨à¤Ńà¤ıà¤ªà¤¨": 3505,
      "Ġà¥§à¥¯à¥«à¥¦": 3506,
      "à¤ıà¤ļà¤¡": 3507,
      "Ġà¤ķà¤²à¤ķà¤¤": 3508,
      "à¤¨à¤°à¤²": 3509,
      "à¤¹à¤²à¤®": 3510,
      "à¤µà¤ªà¤Ľ": 3511,
      "à¤Łà¤¸à¤¹": 3512,
      "à¤§à¤¨à¤¸": 3513,
      "Ġà¤Ĩà¤Ĺà¤®": 3514,
      "à¤ĸà¤²à¤¨": 3515,
      "à¤°à¤®à¤°": 3516,
      "Ġà¤ıà¤Ń": 3517,
      "Ġà¤īà¤ªà¤ķà¤°à¤£à¤ķ": 3518,
      "à¤²à¤¨à¤¸": 3519,
      "à¤Ĩà¤§": 3520,
      "à¤Ĩà¤ĩà¤Ń": 3521,
      "à¥¬à¥«": 3522,
      "Ġà¤Ĩà¤ĩà¤ľ": 3523,
      "à¤¯à¤µà¤¶": 3524,
      "à¤°à¤ªà¤¥": 3525,
      "Ġà¤Ĩà¤īà¤ľ": 3526,
      "à¤ıà¤¸à¤ıà¤®": 3527,
      "Ġà¤ľà¤Ĺà¤¤à¤ķ": 3528,
      "Ġà¤¦à¤¶à¤ķà¤ķ": 3529,
      "Ġà¤Ľà¤Łà¤ªà¤Ł": 3530,
      "à¤ĭ": 3531,
      "à¤¦à¤²à¤¯": 3532,
      "Ġà¤¨à¤«à¤°": 3533,
      "Ġà¤®à¤·": 3534,
      "à¤ıà¤¨à¤¸": 3535,
      "à¤µà¤¨à¤¬": 3536,
      "Ġà¤¸à¤¨à¤¸à¤¨": 3537,
      "Ġà¤Ĩà¤ĩà¤¸à¤²": 3538,
      "Ġà¤Ĩà¤Ĺà¤¨": 3539,
      "Ġà¤Īà¤ļ": 3540,
      "à¤Ĩà¤Īà¤Ń": 3541,
      "Ġà¤®à¤Ĺà¤°à¤¹à¤°": 3542,
      "Ġà¥¨à¥¦à¥«à¥ª": 3543,
      "à¤¨à¤§": 3544,
      "Ġà¤ªà¤¤à¤¨": 3545,
      "à¤¹à¤£à¤ķ": 3546,
      "à¤¦à¤ķà¤²": 3547,
      "à¤¦à¤¶à¤®": 3548,
      "à¤Ĺà¤¨à¤ķ": 3549,
      "Ġà¤¨à¤°à¤¸": 3550,
      "à¤ľà¤¤à¤²": 3551,
      "à¤¬à¤°à¤£": 3552,
      "Ġà¤¦à¤¯à¤¨": 3553,
      "Ġà¤ľà¤²à¤¯": 3554,
      "à¤ĩà¤¬à¤²": 3555,
      "Ġà¤ıà¤¤": 3556,
      "Ġà¤ıà¤¥à¤²": 3557,
      "Ġà¤ıà¤ķà¤¥à¤°": 3558,
      "Ġà¤¸à¤¹à¤ħà¤§": 3559,
      "à¤²à¤¯à¤¦": 3560,
      "à¥©à¥§": 3561,
      "Ġà¥§à¥¦à¥¦à¥¦": 3562,
      "Ġà¤Ĩà¤ªà¤¤à¤ķ": 3563,
      "Ġà¤ħà¤²à¤®à¤²à¤®": 3564,
      "Ġà¤ıà¤ķà¤Ĩà¤ªà¤¸à¤®": 3565,
      "à¤¨à¤µà¤°": 3566,
      "à¤¿à¥ĩ": 3567,
      "à¤¸à¤°à¤¬": 3568,
      "Ġà¤¬à¤®à¤ķ": 3569,
      "à¤ľà¤¡": 3570,
      "Ġà¤Ĺà¤°à¤ķ": 3571,
      "à¤ĩà¤Ľ": 3572,
      "à¤ĩà¤²à¤¬": 3573,
      "Ġà¤«à¤¤": 3574,
      "Ġà¤µà¤°à¤¦": 3575,
      "à¤²à¤®à¤²": 3576,
      "à¤²à¤¬à¤ľ": 3577,
      "Ġà¤ĵà¤¡": 3578,
      "à¤Ĺà¤²à¤¸": 3579,
      "Ġà¤¯à¤¸à¤®à¤§": 3580,
      "Ġà¤ıà¤ļà¤Ĩà¤ĩà¤Ń": 3581,
      "Ġà¤ıà¤ļà¤Ĩà¤Īà¤Ń": 3582,
      "Ġà¤ķà¤¦à¤®à¤²": 3583,
      "à¤ķà¤«": 3584,
      "à¤¸à¤¡": 3585,
      "à¤¸à¤¸à¤²": 3586,
      "Ġà¤ªà¤Ļ": 3587,
      "à¤¦à¤°à¤¬": 3588,
      "à¤Ĺà¤µà¤¤": 3589,
      "à¤Łà¤ħà¤ª": 3590,
      "Ġà¤¨à¤ķà¤°": 3591,
      "à¤īà¤¹à¤°": 3592,
      "à¤ĩà¤¸à¤®": 3593,
      "à¤°à¤ķà¤°à¤£à¤ķ": 3594,
      "Ġà¤ĸà¤ļ": 3595,
      "à¤¯à¤²à¤¯à¤®": 3596,
      "à¤ªà¤ķà¤¹à¤°": 3597,
      "à¥¬à¥¯": 3598,
      "à¤ķà¤°à¤£à¤¬": 3599,
      "Ġà¤ıà¤®à¤ı": 3600,
      "Ġà¤ªà¤Łà¤ķà¤¸à¤®": 3601,
      "Ġà¥§à¥¯à¥Ń": 3602,
      "Ġà¥¨à¥¦à¥¬à¥¨à¥¬à¥©": 3603,
      "Ġà¤Ĺà¤Īà¤°à¤¹": 3604,
      "Ġà¤ıà¤ķà¤¸à¤¯": 3605,
      "à¥įà¥ģ": 3606,
      "à¤°à¤ħ": 3607,
      "à¤ķà¤²à¤ķ": 3608,
      "à¤¯à¤ľà¤¨à¤ķ": 3609,
      "Ġà¤¸à¤¯à¤®": 3610,
      "Ġà¤¨à¤°à¤¬à¤¹": 3611,
      "Ġà¤Ĩà¤ĺ": 3612,
      "à¤īà¤¸à¤ķ": 3613,
      "à¤łà¤¨à¤®": 3614,
      "Ġà¤²à¤Ĺà¤¨à¤¶": 3615,
      "à¤¯à¤²à¤Ĺ": 3616,
      "Ġà¤ħà¤µà¤¸à¤°à¤¹à¤°": 3617,
      "Ġà¤ķà¤¸à¤°à¤¤": 3618,
      "Ġà¤ħà¤¬à¤¸à¤°à¤®": 3619,
      "Ġà¤ªà¤¦à¤¸": 3620,
      "Ġà¤¨à¤¹à¤Ł": 3621,
      "Ġà¥§à¥¨à¥«": 3622,
      "Ġà¤¨à¤ªà¤ł": 3623,
      "Ġà¤¨à¤ªà¤¢": 3624,
      "Ġà¥«à¥¦à¥ª": 3625,
      "Ġà¤ıà¤¨à¤ıà¤®à¤¬": 3626,
      "Ġà¤Ĩà¤Īà¤Ł": 3627,
      "à¥¨à¥¦à¥Ńà¥ª": 3628,
      "Ġà¥¨à¥¦à¥¨à¥«": 3629,
      "à¤¨à¤¯à¤¤": 3630,
      "à¤®à¤°à¤ķ": 3631,
      "à¤®à¤¦à¤°": 3632,
      "à¤¦à¤²à¤ķ": 3633,
      "à¤Ĺà¤¤à¤°": 3634,
      "Ġà¤¬à¤ļà¤¨": 3635,
      "Ġà¤¤à¤Łà¤¸": 3636,
      "à¤¶à¤ľ": 3637,
      "Ġà¤Ĩà¤·": 3638,
      "à¤ļà¤ķà¤¨": 3639,
      "à¤Īà¤ĵ": 3640,
      "Ġà¤īà¤«": 3641,
      "à¤Ńà¤Ł": 3642,
      "à¤Ńà¤¨à¤®": 3643,
      "à¤ĸà¤¡": 3644,
      "à¤ĸà¤ķà¤¹à¤°": 3645,
      "à¤°à¤¤à¤¤à¤°": 3646,
      "à¤Ļà¤ľ": 3647,
      "à¤Ļà¤Łà¤¨": 3648,
      "Ġà¤¡à¤¸": 3649,
      "Ġà¤¨à¤Ĺà¤°à¤²": 3650,
      "à¤²à¤¯à¤¸à¤®": 3651,
      "Ġà¤ħà¤µà¤Ĺà¤¤": 3652,
      "à¤Ĺà¤¬à¤£": 3653,
      "Ġà¥§à¥¯à¥¯à¥Ń": 3654,
      "Ġà¤ªà¤¸à¤²à¤¹à¤°": 3655,
      "Ġà¥ģ": 3656,
      "à¤¯à¤ĸ": 3657,
      "à¤¯à¤ĺ": 3658,
      "Ġà¤ªà¤Ĺ": 3659,
      "Ġà¤¨à¤¥": 3660,
      "Ġà¤¨à¤«": 3661,
      "Ġà¤ħà¤µà¤®": 3662,
      "Ġà¤Ľà¤®": 3663,
      "à¤¶à¤¸à¤®": 3664,
      "Ġà¤ľà¤¯à¤°": 3665,
      "à¤¡à¤ªà¤¤": 3666,
      "à¤¡à¤ķà¤²": 3667,
      "Ġà¤®à¤¹à¤µ": 3668,
      "Ġà¤§à¤ª": 3669,
      "Ġà¤īà¤ªà¤Ĺ": 3670,
      "à¤²à¤¬à¤°": 3671,
      "à¤§à¤¨à¤Ĺà¤¢": 3672,
      "Ġà¤Ĩà¤¶à¤Ļ": 3673,
      "à¤ľà¤Ĺà¤¢à¤ķ": 3674,
      "Ġà¤ıà¤¨à¤Ĩà¤°à¤ıà¤¨à¤ķ": 3675,
      "Ġ+": 3676,
      "à¤¨à¤ļà¤°": 3677,
      "à¤¤à¤ĸ": 3678,
      "à¤¦à¤ĺ": 3679,
      "à¤¦à¤ķà¤ķ": 3680,
      "à¤ıà¤¶à¤¨": 3681,
      "Ġà¤ħà¤ķà¤¸": 3682,
      "Ġà¤Ĩà¤¯à¤¸": 3683,
      "à¤ļà¤°à¤£": 3684,
      "Ġà¤¸à¤®à¤¥à¤°": 3685,
      "Ġà¤ıà¤¨à¤ª": 3686,
      "à¤®à¤ķà¤¤": 3687,
      "à¤µà¤°à¤°": 3688,
      "à¤Ĩà¤Īà¤ķ": 3689,
      "à¥©à¥©": 3690,
      "à¥©à¥®": 3691,
      "à¤¸à¤¦à¤¬": 3692,
      "Ġà¥¯à¥¦à¥¦": 3693,
      "à¤ķà¤ªà¤¡": 3694,
      "Ġà¤ķà¤¹à¤²": 3695,
      "à¤°à¤®à¤£à¤ªà¤Ľ": 3696,
      "Ġà¤¨à¤Ńà¤ıà¤®": 3697,
      "Ġà¤Ĺà¤£à¤¤": 3698,
      "Ġà¤Īà¤ķ": 3699,
      "à¤ĩà¤¨à¤²à¤¸à¤®": 3700,
      "Ġà¤ªà¤¸à¤²à¤ķ": 3701,
      "Ġà¤ķà¤łà¤ĺà¤°": 3702,
      "Ġà¤ıà¤²à¤ľ": 3703,
      "à¤¼à¤¾": 3704,
      "à¤°à¤¨à¤®": 3705,
      "à¥ĩà¤¾": 3706,
      "à¤¤à¤Ĺà¤°": 3707,
      "à¤ıà¤Ŀ": 3708,
      "à¤ľà¤ķà¤®": 3709,
      "Ġà¤µà¤®": 3710,
      "Ġà¤µà¤ľà¤¨": 3711,
      "à¤·à¤¦à¤°": 3712,
      "à¤£à¤¦": 3713,
      "à¤¹à¤°à¤®": 3714,
      "à¤ĩà¤µà¤Ł": 3715,
      "Ġà¤ħà¤¨à¤Ń": 3716,
      "Ġà¤ªà¤°à¤¸": 3717,
      "Ġà¤®à¤¹à¤Ļ": 3718,
      "Ġà¤ĺà¤°à¤µ": 3719,
      "à¤¯à¤®à¤£": 3720,
      "à¤ħà¤·": 3721,
      "à¤¤à¤®à¤¬": 3722,
      "à¤Ĩà¤ĩà¤¸": 3723,
      "Ġà¤¸à¤¯à¤¦": 3724,
      "à¤°à¤Ńà¤°à¤ķ": 3725,
      "Ġà¤ħà¤ªà¤¹à¤°à¤£à¤ķ": 3726,
      "à¤łà¤ķà¤ªà¤Ľ": 3727,
      "Ġà¤¦à¤¶à¤°à¤¥": 3728,
      "à¤¾à¤¿": 3729,
      "à¤¨à¤µà¤ķ": 3730,
      "à¤¸à¤ªà¤°": 3731,
      "Ġà¤Ĺà¤ĩà¤¨": 3732,
      "à¤Ĺà¤§à¤¨": 3733,
      "à¤Ĺà¤®à¤®": 3734,
      "à¤Łà¤®à¤®": 3735,
      "Ġà¤Ńà¤Ļ": 3736,
      "à¤¥à¤ķà¤°": 3737,
      "Ġà¤ĸà¤ľ": 3738,
      "Ġà¤ıà¤²à¤ª": 3739,
      "Ġà¤¯à¤¸à¤ªà¤²": 3740,
      "Ġà¤¸à¤ķà¤¸": 3741,
      "Ġà¤¸à¤¹à¤ļ": 3742,
      "à¤¤à¤°à¤ľ": 3743,
      "à¤Ŀà¤²": 3744,
      "à¤ķà¤®à¤§": 3745,
      "à¤Ĩà¤¦": 3746,
      "Ġà¤¸à¤¦à¤Ń": 3747,
      "à¤°à¤¶à¤¨": 3748,
      "à¤¶à¤¨à¤¹à¤°": 3749,
      "à¤¶à¤¨à¤ħà¤¨": 3750,
      "Ġà¤ħà¤¬à¤¸à¤°": 3751,
      "Ġà¤ķà¤²à¤°": 3752,
      "à¤ıà¤¸à¤¸": 3753,
      "Ġà¤ľà¤²à¤ľà¤²": 3754,
      "Ġà¥¨à¥¦à¥«à¥Ń": 3755,
      "Ġà¥¨à¥¦à¥«à¥«": 3756,
      "Ġà¥§à¥¯à¥¯à¥¬": 3757,
      "Ġà¤¸à¤¹à¤¨à¤¶": 3758,
      "à¤¤à¤ľà¤¨à¤¹à¤°": 3759,
      "Ġà¥¨à¥¦à¥Ńà¥©à¥¦à¥Ńà¥ª": 3760,
      "à¤°à¤Ľ": 3761,
      "à¤°à¤Ļà¤®": 3762,
      "à¤¨à¤°à¤ķ": 3763,
      "à¤¤à¤¤à¤°": 3764,
      "à¤¤à¤ļà¤°": 3765,
      "à¤¸à¤°à¤¤": 3766,
      "Ġà¤ķà¤ľ": 3767,
      "Ġà¤®à¤ł": 3768,
      "Ġà¤ħà¤ļà¤²": 3769,
      "à¤¬à¤§": 3770,
      "à¤§à¤§à¤°": 3771,
      "à¤§à¤Ńà¤¤": 3772,
      "Ġà¤¯à¤®à¤¨": 3773,
      "à¤Ļà¤¹": 3774,
      "à¤¨à¤²à¤ķ": 3775,
      "Ġà¤¯à¤¸à¤¸à¤®": 3776,
      "à¤²à¤ķà¤¬": 3777,
      "à¤ŀà¤°": 3778,
      "à¤²à¤¨à¤¹à¤°": 3779,
      "à¤Ĩà¤°à¤ª": 3780,
      "à¤ıà¤®à¤ı": 3781,
      "à¤®à¤Ĺà¤ł": 3782,
      "à¤ıà¤«à¤ª": 3783,
      "Ġà¥§à¥¯à¥¯à¥ª": 3784,
      "à¤²à¤°à¤®": 3785,
      "à¤²à¤°à¤¹": 3786,
      "à¤²à¤ħà¤§": 3787,
      "à¤¸à¤Ńà¤¨": 3788,
      "à¤¦à¤¸à¤®": 3789,
      "à¤Ĺà¤¨à¤²": 3790,
      "à¤Ĺà¤Łà¤¨": 3791,
      "Ġà¤°à¤«": 3792,
      "Ġà¤®à¤¨à¤®à¤¨": 3793,
      "Ġà¤ħà¤Łà¤²": 3794,
      "à¤¬à¤¸à¤®": 3795,
      "à¤§à¤¯": 3796,
      "à¤¶à¤ħà¤¨": 3797,
      "Ġà¤ıà¤¯": 3798,
      "Ġà¤ıà¤ħ": 3799,
      "à¤Ļà¤ª": 3800,
      "à¤Ļà¤²à¤Ĺ": 3801,
      "Ġà¤«à¤°à¤µ": 3802,
      "à¤ĺà¤¬": 3803,
      "Ġà¤ıà¤ķà¤ªà¤²": 3804,
      "Ġà¤ħà¤°à¤¨": 3805,
      "Ġà¤ĩà¤¡": 3806,
      "à¤ħà¤²à¤Ĺ": 3807,
      "Ġà¤Ŀà¤ķ": 3808,
      "Ġà¥§à¥¦à¥ª": 3809,
      "Ġà¤¸à¤¤à¤¹à¤¬": 3810,
      "Ġà¥§à¥ªà¥¦": 3811,
      "Ġà¥¨à¥¨à¥¦": 3812,
      "Ġà¤Ĩà¤Īà¤ıà¤®": 3813,
      "à¤®à¤ľà¤¯à¤¨": 3814,
      "à¤®à¤ªà¤¤": 3815,
      "à¤¤à¤ľà¤¨à¤²": 3816,
      "à¤ªà¤ľ": 3817,
      "à¤¦à¤¯à¤ķ": 3818,
      "Ġà¤°à¤Ļà¤ķ": 3819,
      "Ġà¤°à¤£à¤µ": 3820,
      "Ġà¤®à¤łà¤®": 3821,
      "à¤¬à¤¨à¤®": 3822,
      "à¤¡à¤§": 3823,
      "à¤¡à¤ªà¤ķ": 3824,
      "à¤īà¤¨à¤¸à¤ķ": 3825,
      "à¤łà¤¬": 3826,
      "à¤Ļà¤¤à¤°": 3827,
      "à¤ĺà¤¦": 3828,
      "Ġà¤®à¤¹à¤ķ": 3829,
      "à¤¯à¤®à¤µ": 3830,
      "à¤ķà¤²à¤Ĺ": 3831,
      "à¤²à¤¨à¤ªà¤Ľ": 3832,
      "à¤°à¤¬à¤ķ": 3833,
      "Ġà¤¨à¤Ĺà¤°à¤¬": 3834,
      "à¤¸à¤¨à¤¸": 3835,
      "Ġà¤Ŀà¤¡à¤ªà¤®": 3836,
      "à¤¤à¤¨à¤¶": 3837,
      "Ġà¤Ĳà¤²": 3838,
      "ĠĠĠĠĠĠĠĠĠĠĠĠĠĠĠĠĠĠĠĠĠĠĠĠĠĠĠĠĠĠĠĠĠĠĠĠĠĠĠĠĠĠĠĠĠĠĠĠĠĠĠĠĠĠĠĠĠĠĠĠĠĠĠĠ": 3839,
      "à¤®à¤µà¤°": 3840,
      "à¤¯à¤µà¤°": 3841,
      "Ġà¤ªà¤°à¤ķ": 3842,
      "à¤¦à¤°à¤®": 3843,
      "à¤µà¤¦à¤²": 3844,
      "à¤Ĺà¤ľà¤ķ": 3845,
      "Ġà¤°à¤¶à¤®": 3846,
      "à¤Łà¤Ńà¤¨": 3847,
      "Ġà¤¨à¤Ļ": 3848,
      "Ġà¤¨à¤¸à¤®": 3849,
      "Ġà¤¨à¤°à¤¹à¤°": 3850,
      "Ġà¤®à¤°à¤£": 3851,
      "à¤ıà¤Īà¤®": 3852,
      "Ġà¤µà¤¯": 3853,
      "Ġà¤µà¤¹à¤¨": 3854,
      "à¤§à¤¸à¤®": 3855,
      "à¤Ľà¤®": 3856,
      "à¤£à¤¸à¤Ń": 3857,
      "à¤Ńà¤ħ": 3858,
      "à¤īà¤¤à¤ķ": 3859,
      "à¤°à¤®à¤ª": 3860,
      "à¤ĺà¤¨à¤ķ": 3861,
      "Ġà¤Ńà¤ıà¤ľà¤¸": 3862,
      "Ġà¤¬à¤¸à¤²": 3863,
      "à¤Łà¤¨à¤°": 3864,
      "à¤¸à¤¨à¤µ": 3865,
      "Ġà¤Ŀà¤²à¤ķ": 3866,
      "à¤·à¤ķà¤¬": 3867,
      "à¤¤à¤¨à¤¹à¤°": 3868,
      "à¤¦à¤¨à¤ħà¤¨": 3869,
      "à¤¸à¤¦à¤¸": 3870,
      "à¤£à¤¯à¤ħà¤¨": 3871,
      "à¤¬à¤²à¤Ł": 3872,
      "à¤¸à¤¹à¤Ń": 3873,
      "Ġà¤¤à¤¹à¤®à¤§": 3874,
      "Ġà¤ıà¤¨à¤Ĩà¤Īà¤¸": 3875,
      "Ġà¤Ĩà¤Īà¤ıà¤¸": 3876,
      "à¤Ĩà¤°à¤Ĩà¤Ī": 3877,
      "Ġà¤®à¤¦à¤¨à¤ķ": 3878,
      "à¤¹à¤°à¤£à¤¹à¤°": 3879,
      "Ġà¤ıà¤«à¤¡": 3880,
      "Ġà¤¨à¤µà¤²à¤ª": 3881,
      "Ġà¤¸à¤®à¤¯à¤¸à¤®à¤¯à¤®": 3882,
      "Ġà¤ĵà¤Ńà¤°à¤ķ": 3883,
      "à¤ķà¤¡à¤Ń": 3884,
      "Ġà¤ķà¤¦à¤®à¤ķ": 3885,
      "Ġà¤ıà¤¸à¤ıà¤¸à¤¬": 3886,
      "à¤®à¤·": 3887,
      "à¤¤à¤¸à¤¹": 3888,
      "à¤ªà¤¬à¤¹": 3889,
      "Ġà¤ķà¤°à¤®": 3890,
      "Ġà¤Ĺà¤ıà¤®": 3891,
      "Ġà¤ħà¤²à¤ķ": 3892,
      "à¤·à¤¸à¤¹": 3893,
      "Ġà¤Ĩà¤¯à¤®": 3894,
      "à¤ļà¤¶": 3895,
      "à¤Īà¤µ": 3896,
      "à¤īà¤ªà¤¯": 3897,
      "Ġà¤¯à¤®à¤°": 3898,
      "à¤ĩà¤ıà¤®": 3899,
      "Ġà¤ıà¤Ĩà¤Īà¤ľ": 3900,
      "à¤¯à¤ķà¤°à¤£": 3901,
      "à¤Ļà¤ļ": 3902,
      "Ġà¤ıà¤ķà¤¨": 3903,
      "à¤ªà¤¨à¤¬": 3904,
      "à¤µà¤°à¤ª": 3905,
      "à¤Ĺà¤¤à¤²": 3906,
      "à¤·à¤£à¤¸à¤®": 3907,
      "Ġà¤ĵà¤ĩà¤°": 3908,
      "à¤§à¤¨à¤ªà¤Ľ": 3909,
      "Ġà¤ħà¤¬à¤§": 3910,
      "Ġà¤Ĩà¤īà¤¨à¤¸à¤ķ": 3911,
      "Ġà¤ħà¤µà¤¹": 3912,
      "Ġà¤Ĩà¤ĩà¤°à¤¨": 3913,
      "Ġà¤Ĩà¤ĩà¤¡à¤²à¤ķ": 3914,
      "Ġà¥§à¥©à¥¨": 3915,
      "Ġà¤¨à¤Ĺà¤¦à¤¸à¤¹": 3916,
      "Ġà¤ķà¤¬à¤¡": 3917,
      "Ġà¤ħà¤²à¤Ĺà¤ħà¤²à¤Ĺ": 3918,
      "à¤ľà¤Ĺà¤¢à¤®": 3919,
      "Ġà¤¨à¤Ĺà¤ıà¤ķ": 3920,
      "Ġà¤ĸà¤¬à¤°à¤²": 3921,
      "Ġà¥¨à¥¦à¥Ńà¥«à¥¦à¥Ńà¥¬": 3922,
      "à¤°à¤¨à¤²": 3923,
      "à¤®à¤¨à¤²": 3924,
      "à¤®à¤¤à¤°": 3925,
      "à¤¯à¤Łà¤°": 3926,
      "à¤¹à¤ªà¤Ľ": 3927,
      "à¤µà¤¶à¤ķ": 3928,
      "à¤Ĺà¤ŀ": 3929,
      "à¥Īà¥į": 3930,
      "à¤ıà¤®à¤¸": 3931,
      "à¤§à¤ķà¤°": 3932,
      "Ġà¤Ĩà¤¯à¤ķà¤°": 3933,
      "à¤Ľà¤ķ": 3934,
      "Ġà¤ļà¤¡": 3935,
      "Ġà¤ļà¤¯à¤¨à¤ķ": 3936,
      "Ġà¤ıà¤¯à¤°à¤¬": 3937,
      "Ġà¤Łà¤²": 3938,
      "à¤¤à¤°à¤¸": 3939,
      "Ġà¤ħà¤°à¤¬à¤ķ": 3940,
      "Ġà¤¸à¤¬à¤¸": 3941,
      "à¤Ĩà¤¶": 3942,
      "à¤Ĩà¤ĩà¤¬": 3943,
      "à¥ªà¥®": 3944,
      "Ġà¤ĵà¤ķ": 3945,
      "Ġà¤ĵà¤ł": 3946,
      "à¥©à¥¨": 3947,
      "Ġà¥§à¥¦à¥¯": 3948,
      "Ġà¤Ĩà¤®à¤ľà¤¨à¤¤": 3949,
      "Ġà¤®à¤¤à¤ª": 3950,
      "Ġà¤ªà¤¢à¤¨": 3951,
      "Ġà¤Ĳà¤ķ": 3952,
      "à¤·à¤¦à¤®": 3953,
      "à¤°à¤ľà¤¹à¤°": 3954,
      "Ġà¥§à¥®à¥¦": 3955,
      "Ġà¥§à¥®à¥®": 3956,
      "ĠĠĠĠĠĠĠĠĠ": 3957,
      "Ġà¤¦à¤¶à¤ķà¤ªà¤Ľ": 3958,
      "Ġà¤ıà¤«à¤ª": 3959,
      "à¤®à¤Ĺà¤łà¤¬à¤¨": 3960,
      "Ġà¤®à¤łà¤®à¤¨": 3961,
      "à¤¸à¤¡à¤ķ": 3962,
      "à¤¦à¤²à¤®": 3963,
      "Ġà¤¨à¤µà¤¯": 3964,
      "Ġà¤¹à¤¬": 3965,
      "à¤¬à¤Īà¤ķ": 3966,
      "à¤ļà¤ĸ": 3967,
      "à¤ļà¤¯à¤ķ": 3968,
      "Ġà¤²à¤ª": 3969,
      "Ġà¤²à¤Ł": 3970,
      "Ġà¤²à¤Ļ": 3971,
      "Ġà¤ĸà¤µà¤°": 3972,
      "Ġà¤¥à¤°à¤ķ": 3973,
      "Ġà¤ıà¤Ļ": 3974,
      "Ġà¤Łà¤¯": 3975,
      "à¤°à¤¦à¤¤": 3976,
      "Ġà¤ĩà¤Łà¤²": 3977,
      "Ġà¤ħà¤¸à¤¤": 3978,
      "à¥¬à¥§": 3979,
      "à¤¬à¤°à¤¸à¤®": 3980,
      "Ġà¤ħà¤ªà¤Ń": 3981,
      "à¤°à¤¨à¤Ĺà¤°à¤ķ": 3982,
      "à¤Ĺà¤¬à¤ľ": 3983,
      "à¤¯à¤Łà¤¨à¤®": 3984,
      "Ġà¥¨à¥¦à¥ªà¥«": 3985,
      "Ġà¤Ľà¤°à¤Ľ": 3986,
      "Ġà¥¨à¥¦à¥Ńà¥¨à¥Ńà¥©": 3987,
      "Ġà¤ªà¤Łà¤ķà¤®": 3988,
      "Ġà¥¨à¥¦à¥¨à¥®": 3989,
      "Ġà¤ħà¤¨à¤¶à¤¨à¤°à¤¤": 3990,
      "à¤¨à¤¯à¤ķ": 3991,
      "à¤²à¤¢": 3992,
      "à¤²à¤°à¤²": 3993,
      "à¤²à¤Ŀ": 3994,
      "à¤®à¤ŀ": 3995,
      "à¤®à¤²à¤²": 3996,
      "à¤¯à¤¡": 3997,
      "Ġà¤ķà¤¨à¤ķ": 3998,
      "à¤Łà¤ķà¤²": 3999,
      "à¤ıà¤īà¤Ł": 4000,
      "à¤ľà¤«": 4001,
      "à¤Ľà¤¸": 4002,
      "à¤ļà¤ķà¤ķ": 4003,
      "Ġà¤²à¤¯à¤®": 4004,
      "à¤ĩà¤¡à¤®": 4005,
      "Ġà¤ļà¤¸": 4006,
      "Ġà¤¶à¤¸à¤¸": 4007,
      "Ġà¤ĸà¤Ĺà¤°": 4008,
      "à¤µà¤¸à¤²": 4009,
      "à¤°à¤¹à¤¤": 4010,
      "à¤°à¤¹à¤¦": 4011,
      "à¤°à¤¹à¤£à¤ķ": 4012,
      "à¤¯à¤¸à¤¦": 4013,
      "Ġà¤¤à¤°à¤Ļ": 4014,
      "à¤Ŀà¤Ĺà¤¡": 4015,
      "à¤°à¤Ńà¤ķ": 4016,
      "à¤ķà¤°à¤£à¤¸": 4017,
      "à¤Ĺà¤®à¤ŀ": 4018,
      "Ġà¤ħà¤ªà¤¹à¤°": 4019,
      "à¤¸à¤¸à¤¸": 4020,
      "à¤īà¤ªà¤¡": 4021,
      "Ġà¤ļà¤°à¤£à¤¬": 4022,
      "à¤¨à¤¤à¤²": 4023,
      "à¤ķà¤Ńà¤¨": 4024,
      "à¤®à¤Ńà¤¨": 4025,
      "à¤®à¤µà¤°à¤£": 4026,
      "à¤¸à¤°à¤¸": 4027,
      "Ġà¤¸à¤µà¤²": 4028,
      "Ġà¤Ĺà¤§": 4029,
      "à¤Łà¤Ĩà¤īà¤Ł": 4030,
      "Ġà¤¬à¤Ĺà¤°": 4031,
      "Ġà¤¬à¤¦à¤®": 4032,
      "à¤ıà¤ļà¤ķ": 4033,
      "Ġà¤Ľà¤łà¤ķ": 4034,
      "Ġà¤¤à¤µà¤°à¤¬": 4035,
      "Ġà¤¦à¤Ļ": 4036,
      "à¤£à¤¤à¤°": 4037,
      "à¤īà¤¦à¤²": 4038,
      "Ġà¤¸à¤®à¤Ŀ": 4039,
      "à¤Ļà¤°": 4040,
      "Ġà¤ĺà¤Łà¤ķ": 4041,
      "à¤ĩà¤¨à¤¸": 4042,
      "à¤°à¤¦à¤®": 4043,
      "Ġà¤ĩà¤«": 4044,
      "à¤¤à¤¨à¤ªà¤Ľ": 4045,
      "à¤Ĩà¤°à¤ķ": 4046,
      "à¤Ĩà¤Īà¤²": 4047,
      "à¥©à¥ª": 4048,
      "Ġà¤Ķà¤§": 4049,
      "Ġà¤Ĩà¤ĩà¤®": 4050,
      "Ġà¥§à¥¨à¥®": 4051,
      "à¤°à¤ľà¤¹": 4052,
      "Ġà¤ĺà¤Łà¤¸": 4053,
      "à¤Ńà¤µà¤¹à¤°": 4054,
      "Ġà¤Ĭà¤¨": 4055,
      "Ġà¤¹à¤ķà¤¦": 4056,
      "Ġà¥§à¥¯à¥¯à¥§": 4057,
      "Ġà¥§à¥¯à¥¯à¥«": 4058,
      "à¥įà¤ģ": 4059,
      "à¤®à¤Ł": 4060,
      "à¤¸à¤°à¤£": 4061,
      "Ġà¤¸à¤µà¤¸": 4062,
      "à¤¹à¤¸à¤®": 4063,
      "à¤ªà¤°à¤¤": 4064,
      "Ġà¤°à¤¤à¤¨": 4065,
      "à¤ıà¤Īà¤²": 4066,
      "Ġà¤Ńà¤ĩà¤°": 4067,
      "Ġà¤ħà¤ķà¤²": 4068,
      "à¤ľà¤¯à¤¨": 4069,
      "Ġà¤¦à¤°à¤Ń": 4070,
      "à¤ĩà¤ĵ": 4071,
      "Ġà¤¶à¤°à¤£à¤®": 4072,
      "à¤łà¤Ĺ": 4073,
      "Ġà¤«à¤²à¤ķ": 4074,
      "à¤ľà¤¨à¤¸": 4075,
      "à¤ľà¤¨à¤¹à¤°": 4076,
      "Ġà¤ľà¤¨à¤Ĺ": 4077,
      "Ġà¤ķà¤®à¤¸à¤²": 4078,
      "Ġà¤ħà¤µà¤¸à¤°à¤²": 4079,
      "à¥¨à¥¦à¥¦": 4080,
      "à¥¬à¥Ń": 4081,
      "Ġà¤ªà¤¦à¤ķà¤ķ": 4082,
      "à¤Ĺà¤®à¤§": 4083,
      "Ġà¤ħà¤µà¤¤à¤°à¤£à¤ķ": 4084,
      "Ġà¤Ĩà¤®à¤¸à¤ŀ": 4085,
      "à¤ªà¤²à¤Ł": 4086,
      "à¤ıà¤¸à¤ı": 4087,
      "à¤¸à¤¸à¤ı": 4088,
      "Ġà¥¦à¥¯": 4089,
      "à¤®à¤Ĺà¤°à¤ķ": 4090,
      "Ġà¤ķà¤Łà¤¹à¤°": 4091,
      "à¤¨à¤¯à¤¨à¤®": 4092,
      "Ġà¥§à¥¯à¥¯à¥¯": 4093,
      "Ġà¤ıà¤¡à¤Ń": 4094,
      "Ġà¥§à¥¯à¥®à¥¬": 4095,
      "à¥įà¤Ĥ": 4096,
      "à¤®à¤Ŀ": 4097,
      "à¥ģà¤¾": 4098,
      "à¤ªà¤¯à¤ķ": 4099,
      "à¤¦à¤ķà¤°": 4100,
      "à¤µà¤Łà¤ķ": 4101,
      "Ġà¤ķà¤ªà¤®": 4102,
      "Ġà¤¨à¤µà¤¦": 4103,
      "Ġà¤¦à¤²à¤¬à¤¹": 4104,
      "à¤£à¤ľ": 4105,
      "à¤£à¤µà¤¤": 4106,
      "à¤Ńà¤²à¤ķ": 4107,
      "à¤Ńà¤ıà¤Ľ": 4108,
      "Ġà¤ĸà¤ķ": 4109,
      "Ġà¤ıà¤²à¤°": 4110,
      "Ġà¤ħà¤¨à¤ª": 4111,
      "à¤¢à¤²": 4112,
      "Ġà¤°à¤¹à¤ķ": 4113,
      "Ġà¤®à¤¹à¤²": 4114,
      "Ġà¤ľà¤¨à¤¶": 4115,
      "Ġà¤ľà¤¨à¤¸à¤¹à¤Ń": 4116,
      "à¤¤à¤°à¤ĺ": 4117,
      "à¥Įà¤Ĥà¤ģ": 4118,
      "Ġà¤®à¤¨à¤¬à¤¹": 4119,
      "à¤¸à¤¨à¤¹à¤¸": 4120,
      "à¤¤à¤²à¤Ĺ": 4121,
      "à¤Ĺà¤®à¤¸": 4122,
      "Ġà¤®à¤²à¤ľà¤²": 4123,
      "Ġà¤Ĩà¤¦à¤°à¤£": 4124,
      "à¤°à¤¨à¤Ĺà¤°à¤®": 4125,
      "Ġà¤¤à¤¹à¤¸à¤¨à¤¹à¤¸": 4126,
      "à¤µà¤¯à¤¨à¤²": 4127,
      "Ġà¤ľà¤Ĺà¤¨": 4128,
      "Ġà¥¦à¥®": 4129,
      "à¤ľà¤¨à¤ķà¤ª": 4130,
      "Ġà¥¨à¥ªà¥¦": 4131,
      "à¤®à¤£à¤²": 4132,
      "à¤¶à¤¹à¤°à¤®": 4133,
      "Ġà¤¨à¤Ĩà¤ıà¤ªà¤Ľ": 4134,
      "Ġà¤®à¤ĸà¤®à¤²": 4135,
      "à¤°à¤°à¤¤": 4136,
      "à¤¤à¤Ńà¤¨": 4137,
      "à¤¹à¤¡": 4138,
      "Ġà¤ķà¤¸à¤®": 4139,
      "Ġà¤°à¤¯": 4140,
      "à¤Łà¤«à¤°": 4141,
      "Ġà¤¨à¤ħ": 4142,
      "Ġà¤µà¤·": 4143,
      "à¤¥à¤¨à¤ķ": 4144,
      "à¤¥à¤ķà¤²": 4145,
      "Ġà¤Ĩà¤¡": 4146,
      "à¤¡à¤°à¤¸": 4147,
      "à¤īà¤Ĺ": 4148,
      "à¤ĩà¤ķà¤¨": 4149,
      "à¤ĩà¤®à¤°": 4150,
      "Ġà¤¶à¤¯": 4151,
      "Ġà¤¶à¤¸à¤ķ": 4152,
      "Ġà¤ıà¤¥": 4153,
      "Ġà¤ħà¤¨à¤§": 4154,
      "Ġà¤ĺà¤®à¤£": 4155,
      "Ġà¤¯à¤¸à¤Ńà¤¨": 4156,
      "à¤¯à¤®à¤ħà¤¨": 4157,
      "Ġà¤ľà¤¨à¤¸à¤Ń": 4158,
      "Ġà¤ľà¤¨à¤§à¤¨à¤ķ": 4159,
      "Ġà¤ľà¤¨à¤ħà¤ª": 4160,
      "Ġà¤ĩà¤¯": 4161,
      "à¥ģà¤ģà¤Ĥ": 4162,
      "Ġà¤ħà¤¹à¤®à¤¦": 4163,
      "à¤Ĩà¤ķ": 4164,
      "à¥¬à¥ª": 4165,
      "à¥¬à¥®": 4166,
      "à¤¿à¤ģà¤Ĥ": 4167,
      "Ġà¤Ķà¤¸à¤¤à¤®": 4168,
      "à¤Ĺà¤®à¤¨à¤²": 4169,
      "Ġà¤Ĩà¤ĩà¤°": 4170,
      "Ġà¤§à¤°à¤ªà¤ķ": 4171,
      "Ġà¥§à¥§à¥§": 4172,
      "Ġà¥§à¥§à¥®": 4173,
      "à¤¨à¤¬à¤¤": 4174,
      "Ġà¤ıà¤¨à¤Ł": 4175,
      "à¤ĩà¤°à¤¸à¤ķ": 4176,
      "Ġà¤Ľà¤²à¤«à¤²à¤¬": 4177,
      "Ġà¤ĵà¤ªà¤¨à¤°": 4178,
      "Ġà¤ıà¤¯à¤°à¤µ": 4179,
      "à¤Ńà¤ħà¤Ļ": 4180,
      "à¤°à¤²à¤ķ": 4181,
      "à¤ķà¤£": 4182,
      "à¤¸à¤ľà¤¸": 4183,
      "Ġà¤Ĺà¤Ľ": 4184,
      "à¤Łà¤ħà¤¨": 4185,
      "Ġà¤¨à¤°à¤ķ": 4186,
      "Ġà¤¨à¤ľà¤¨": 4187,
      "à¤ĩà¤ľà¤®": 4188,
      "Ġà¤ıà¤²à¤¸": 4189,
      "Ġà¤ħà¤¨à¤µà¤°à¤¤": 4190,
      "Ġà¤«à¤·": 4191,
      "à¤¸à¤®à¤µ": 4192,
      "à¤ªà¤°à¤¹": 4193,
      "à¤¨à¤²à¤¬": 4194,
      "à¤¨à¤²à¤¹à¤°": 4195,
      "Ġà¤¸à¤ķà¤Ńà¤°": 4196,
      "Ġà¤ķà¤®à¤²à¤ª": 4197,
      "à¤°à¤¦à¤ķ": 4198,
      "Ġà¤Ĩà¤¯à¤°à¤²": 4199,
      "Ġà¤Ĩà¤µà¤°à¤£à¤®": 4200,
      "à¤¤à¤¨à¤¸": 4201,
      "Ġà¤ĵà¤¤": 4202,
      "Ġà¤ķà¤²à¤¶": 4203,
      "Ġà¤ħà¤µà¤ľ": 4204,
      "Ġà¤Ĩà¤®à¤¸à¤Ń": 4205,
      "Ġà¤ıà¤¸à¤ĩ": 4206,
      "Ġà¥§à¥®à¥«": 4207,
      "Ġà¥§à¥¬à¥¯": 4208,
      "Ġà¤¦à¤¶à¤ķà¤¸à¤®": 4209,
      "à¤ĩà¤ķà¤²à¤²": 4210,
      "Ġà¥¨à¥¦à¥¨à¥§": 4211,
      "Ġà¥¨à¥¦à¥©à¥¬": 4212,
      "Ġà¥§à¥§à¥©à¥¯": 4213,
      "à¤ķà¤ķà¤²": 4214,
      "à¤¸à¤¶": 4215,
      "Ġà¤¸à¤ªà¤°": 4216,
      "à¤¦à¤¯à¤®": 4217,
      "à¤µà¤Ļ": 4218,
      "Ġà¤ķà¤°à¤²": 4219,
      "Ġà¤°à¤¡": 4220,
      "Ġà¤°à¤ľà¤¸": 4221,
      "Ġà¤®à¤¶": 4222,
      "Ġà¤ħà¤¥à¤ķ": 4223,
      "à¤ľà¤¯à¤ª": 4224,
      "à¤§à¤°à¤£": 4225,
      "Ġà¤¦à¤ĸ": 4226,
      "à¤¶à¤¨à¤¸": 4227,
      "à¤¶à¤¬à¤¹": 4228,
      "Ġà¤Ĩà¤ıà¤¸": 4229,
      "Ġà¤ľà¤²à¤¬": 4230,
      "à¤ļà¤¸à¤®": 4231,
      "à¤ļà¤°à¤¹à¤°": 4232,
      "Ġà¤²à¤ŀ": 4233,
      "à¤¡à¤Ĺ": 4234,
      "à¤£à¤§": 4235,
      "Ġà¤īà¤ĺ": 4236,
      "à¤ĩà¤ľà¤¨": 4237,
      "à¤īà¤¨à¤¬": 4238,
      "à¤Ļà¤ĸ": 4239,
      "Ġà¤ħà¤¸à¤°à¤²": 4240,
      "à¤¾à¤Ĥà¤ģ": 4241,
      "à¤²à¤¬à¤¬": 4242,
      "Ġà¤ħà¤µà¤¸à¤°à¤µ": 4243,
      "Ġà¤¸à¤¨à¤°": 4244,
      "Ġà¤®à¤¤à¤ªà¤°": 4245,
      "Ġà¥§à¥§à¥¨": 4246,
      "Ġà¥§à¥§à¥ª": 4247,
      "à¤¯à¤¯à¤¨à¤¬": 4248,
      "Ġà¤Īà¤Ł": 4249,
      "Ġà¥§à¥©à¥¦": 4250,
      "Ġà¤¸à¤¹à¤ľà¤ķà¤°": 4251,
      "Ġà¤Ĺà¤łà¤µà¤¨": 4252,
      "Ġà¤Ĩà¤ıà¤¨à¤¨": 4253,
      "à¤°à¤«à¤²à¤ķ": 4254,
      "Ġà¥¨à¥¦à¥«à¥©": 4255,
      "à¤¤à¤¹à¤Łà¤®": 4256,
      "Ġà¤¦à¤®à¤¨à¤ķ": 4257,
      "Ġà¤ªà¤¹à¤²à¤ķà¤¦à¤®": 4258,
      "à¤°à¤ªà¤°": 4259,
      "à¤ķà¤Ľ": 4260,
      "à¤²à¤ł": 4261,
      "à¤¤à¤¥": 4262,
      "à¤¸à¤ĸ": 4263,
      "à¤¸à¤¸à¤ķ": 4264,
      "à¤µà¤¥": 4265,
      "Ġà¤ķà¤Ļ": 4266,
      "Ġà¤Ĺà¤®à¤²": 4267,
      "à¤Łà¤Ł": 4268,
      "Ġà¤¬à¤®à¤²": 4269,
      "Ġà¤¬à¤¬à¤°à¤®": 4270,
      "à¤ıà¤®à¤ķ": 4271,
      "Ġà¤ħà¤®à¤¨": 4272,
      "Ġà¤¹à¤¯": 4273,
      "à¤¶à¤ªà¤Ľ": 4274,
      "à¤ĩà¤Łà¤°": 4275,
      "Ġà¤ĸà¤²à¤²": 4276,
      "Ġà¤ĸà¤²à¤¨": 4277,
      "à¤°à¤¤à¤µ": 4278,
      "Ġà¤ıà¤ķà¤ª": 4279,
      "Ġà¤ľà¤¨à¤ħà¤§": 4280,
      "Ġà¤Ńà¤ıà¤ħà¤¨": 4281,
      "à¤°à¤µà¤¤": 4282,
      "à¤®à¤¨à¤Ĺà¤°": 4283,
      "à¥©à¥¬": 4284,
      "Ġà¤Ķà¤°": 4285,
      "Ġà¤ħà¤ªà¤¹": 4286,
      "à¤¯à¤µà¤§": 4287,
      "à¤°à¤ļà¤¨à¤²": 4288,
      "Ġà¤¸à¤¤à¤¹à¤¦": 4289,
      "Ġà¤ħà¤²à¤µ": 4290,
      "Ġà¤§à¤¨à¤ľà¤¨à¤ķ": 4291,
      "Ġà¤¸à¤²à¤¹": 4292,
      "Ġà¤¹à¤²à¤ļà¤²": 4293,
      "Ġà¤Ĺà¤®à¤Ĺà¤¢": 4294,
      "à¤Ĩà¤Īà¤ı": 4295,
      "à¤Ĺà¤²à¤®à¤¯": 4296,
      "à¤¸à¤¸à¤ıà¤ıà¤«à¤ª": 4297,
      "à¤°à¤ªà¤¨": 4298,
      "à¤ķà¤ļ": 4299,
      "à¤®à¤¦à¤¨": 4300,
      "à¤¤à¤ľà¤¸": 4301,
      "à¤¯à¤ªà¤Ľ": 4302,
      "à¤¯à¤ªà¤ķ": 4303,
      "Ġà¥¥": 4304,
      "à¤ªà¤£à¤ķ": 4305,
      "Ġà¤¨à¤µà¤ª": 4306,
      "Ġà¤¬à¤¬à¤Ī": 4307,
      "Ġà¤¹à¤ł": 4308,
      "Ġà¤¹à¤Ļ": 4309,
      "Ġà¤µà¤§": 4310,
      "Ġà¤¦à¤Ĺ": 4311,
      "Ġà¤¦à¤§": 4312,
      "à¤¡à¤¸à¤¹": 4313,
      "à¤£à¤¸à¤¹": 4314,
      "à¤īà¤ªà¤¤": 4315,
      "Ġà¤¯à¤£": 4316,
      "à¤ĩà¤Ĺà¤°": 4317,
      "à¤ĩà¤¤à¤®": 4318,
      "Ġà¤ıà¤Ĩà¤ĩà¤ľ": 4319,
      "Ġà¤ĺà¤°à¤§à¤¨": 4320,
      "Ġà¤§à¤¡": 4321,
      "Ġà¤Łà¤Ł": 4322,
      "à¤¤à¤°à¤Ĺà¤¤à¤ķ": 4323,
      "Ġà¤ħà¤¸à¤ľ": 4324,
      "à¤µà¤ķà¤¤": 4325,
      "à¤Ĩà¤²": 4326,
      "à¤¶à¤¨à¤¸à¤®": 4327,
      "Ġà¤¸à¤®à¤¯à¤Ńà¤¨": 4328,
      "Ġà¤Ķà¤·à¤¤": 4329,
      "Ġà¥§à¥¦à¥§": 4330,
      "Ġà¥§à¥¦à¥§à¥«": 4331,
      "à¤Ńà¤°à¤Ļ": 4332,
      "à¤ľà¤®à¤°": 4333,
      "à¤µà¤°à¤£à¤ħà¤¨": 4334,
      "à¤ļà¤²à¤ļ": 4335,
      "Ġà¥¦à¥Ńà¥§": 4336,
      "Ġà¤¨à¤Ĩà¤ı": 4337,
      "Ġà¤ıà¤ļà¤¡": 4338,
      "Ġà¥§à¥¯à¥®à¥¦": 4339,
      "Ġà¤¨à¤¹à¤°à¤ķ": 4340,
      "à¥įà¤¿": 4341,
      "à¤¤à¤ħà¤¨": 4342,
      "à¥Ģà¤ĥ": 4343,
      "Ġà¤¸à¤°à¤¹à¤ķ": 4344,
      "à¤Ĺà¤Ĺ": 4345,
      "à¤Łà¤ľà¤¸": 4346,
      "Ġà¤¬à¤°à¤¹": 4347,
      "à¤ıà¤²à¤²": 4348,
      "à¤ıà¤Łà¤°": 4349,
      "Ġà¤ħà¤ķà¤°": 4350,
      "à¤ľà¤²à¤Ĺ": 4351,
      "Ġà¤µà¤¹à¤¸": 4352,
      "à¤¬à¤®à¤®": 4353,
      "Ġà¤Ľà¤¹": 4354,
      "à¤§à¤µà¤ª": 4355,
      "à¤¥à¤Ĺà¤¨": 4356,
      "Ġà¤Ĩà¤¬à¤¸": 4357,
      "Ġà¤ľà¤²à¤ķ": 4358,
      "à¤¡à¤¬à¤²": 4359,
      "à¤Ńà¤ı": 4360,
      "à¤ĸà¤§à¤°": 4361,
      "à¤ĩà¤¬à¤¹": 4362,
      "à¤°à¤®à¤¸à¤®": 4363,
      "Ġà¤ıà¤Łà¤²": 4364,
      "Ġà¤ħà¤¨à¤¶à¤¨à¤®": 4365,
      "Ġà¤«à¤Ľ": 4366,
      "à¤¸à¤®à¤¯": 4367,
      "Ġà¤¯à¤¸à¤ħà¤¨": 4368,
      "à¤¯à¤®à¤¦": 4369,
      "à¤¯à¤¤à¤¸": 4370,
      "à¤¯à¤¤à¤ª": 4371,
      "Ġà¤Ĩà¤¯à¤¶": 4372,
      "à¤ªà¤ķà¤¤": 4373,
      "à¤Ĺà¤²à¤Ĺ": 4374,
      "à¤§à¤¨à¤ª": 4375,
      "Ġà¤ĺà¤°à¤¸à¤®": 4376,
      "à¤ľà¤Ĺà¤¨": 4377,
      "Ġà¥§à¥§à¥¬": 4378,
      "Ġà¤¨à¤ľà¤°à¤ħà¤¨": 4379,
      "à¤ıà¤¸à¤ıà¤²": 4380,
      "Ġà¥§à¥®à¥¯": 4381,
      "Ġà¥¦à¥Ńà¥¦": 4382,
      "Ġà¥©à¥«à¥¦": 4383,
      "Ġà¥¨à¥¦à¥ªà¥¨": 4384,
      "Ġà¤ľà¤¨à¤®à¤¤à¤¸": 4385,
      "Ġà¤ļà¤²à¤¨à¤ļà¤²": 4386,
      "à¤¼à¥Ģ": 4387,
      "Ġà¥¨à¥¦à¥©à¥ª": 4388,
      "Ġà¥¨à¥¦à¥©à¥©": 4389,
      "Ġà¥§à¥¯à¥¬à¥¬": 4390,
      "Ġà¤ıà¤¸à¤Īà¤Ī": 4391,
      "Ġà¤¾": 4392,
      "à¤¨à¤ĵà¤Ł": 4393,
      "à¤²à¤¥": 4394,
      "à¤¤à¤ªà¤Ľ": 4395,
      "à¤¦à¤¯à¤²": 4396,
      "à¤µà¤¯à¤²": 4397,
      "à¤Ĺà¤¹": 4398,
      "Ġà¤®à¤ķà¤°": 4399,
      "Ġà¤µà¤ļ": 4400,
      "Ġà¤Ľà¤¸": 4401,
      "Ġà¤Ľà¤Ľ": 4402,
      "à¤Īà¤¨à¤®": 4403,
      "Ġà¤īà¤¸à¤®": 4404,
      "à¤ĩà¤²à¤²": 4405,
      "à¤Ļà¤¯": 4406,
      "à¤°à¤£à¤¸": 4407,
      "à¤¸à¤®à¤¸": 4408,
      "à¤µà¤¸à¤¤": 4409,
      "à¤Ŀà¤¸à¤®": 4410,
      "à¤·à¤£à¤ªà¤Ľ": 4411,
      "à¤Ĩà¤°à¤¸": 4412,
      "à¤µà¤°à¤£à¤¹à¤°": 4413,
      "Ġà¥§à¥¯à¥Ńà¥¦": 4414,
      "Ġà¥§à¥§à¥¯": 4415,
      "à¤·à¤¦à¤¬": 4416,
      "Ġà¤Ĺà¤£à¤°": 4417,
      "Ġà¤Īà¤ľ": 4418,
      "Ġà¤Ĩà¤Īà¤¡": 4419,
      "Ġà¤ľà¤²à¤ª": 4420,
      "à¤¶à¤¨à¤²à¤ķ": 4421,
      "Ġà¥Ńà¥«à¥©": 4422,
      "Ġà¤ľà¤¨à¤®à¤¤à¤ķ": 4423,
      "Ġà¤ªà¤¸à¤²à¤¬": 4424,
      "Ġà¤ħà¤¸à¤®à¤°": 4425,
      "Ġà¥¦à¥¬à¥©": 4426,
      "Ġà¤ľà¤Ĺà¤¤à¤²": 4427,
      "Ġà¥¦à¥ªà¥¬": 4428,
      "à¤°à¤Ł": 4429,
      "à¤¸à¤ıà¤®": 4430,
      "à¤µà¤ıà¤®": 4431,
      "à¤Ĺà¤ıà¤ķ": 4432,
      "à¤¬à¤°à¤¬": 4433,
      "Ġà¤Ľà¤¨à¤ķ": 4434,
      "à¤¶à¤µà¤ķ": 4435,
      "à¤īà¤¡à¤°": 4436,
      "Ġà¤¸à¤®à¤µ": 4437,
      "Ġà¤ĸà¤µ": 4438,
      "à¤¢à¤ķ": 4439,
      "Ġà¤§à¤ľ": 4440,
      "Ġà¤ľà¤¨à¤ĺ": 4441,
      "à¤ķà¤²à¤²": 4442,
      "à¤ħà¤ªà¤ķ": 4443,
      "Ġà¤Ńà¤ıà¤¸à¤®": 4444,
      "à¤¯à¤²à¤¸": 4445,
      "à¤²à¤¬à¤¹à¤°": 4446,
      "Ġà¤Ĩà¤°à¤ľ": 4447,
      "à¤Łà¤°à¤Ńà¤¨": 4448,
      "à¤Ĩà¤¸": 4449,
      "à¤ķà¤°à¤£à¤ªà¤Ľ": 4450,
      "à¤Łà¤®à¤§": 4451,
      "Ġà¤ıà¤®à¤¡": 4452,
      "Ġà¥¨à¥«à¥¬": 4453,
      "Ġà¤ľà¤Ĺà¤¦à¤®": 4454,
      "à¤ļà¤²à¤°": 4455,
      "à¤µà¤¦à¤¹": 4456,
      "à¤¯à¤£à¤¹": 4457,
      "à¤°à¤ĸà¤¨": 4458,
      "Ġà¤Ńà¤ıà¤¨à¤Ńà¤ıà¤ķ": 4459,
      "Ġà¥¦à¥¬à¥¯": 4460,
      "à¤Īà¤ľà¤¹": 4461,
      "Ġà¤ıà¤ıà¤«à¤ª": 4462,
      "Ġà¤ľà¤µà¤°à¤ľà¤¸": 4463,
      "Ġà¤¬à¤°à¤¹à¤¥à¤µ": 4464,
      "à¤ķà¤ł": 4465,
      "à¤ķà¤¨à¤²": 4466,
      "à¤²à¤£": 4467,
      "à¤²à¤ĺ": 4468,
      "à¤®à¤ªà¤Ľ": 4469,
      "à¤¯à¤·": 4470,
      "à¤¸à¤Ĺà¤¢": 4471,
      "à¤µà¤¤à¤°": 4472,
      "Ġà¤¨à¤ĩ": 4473,
      "Ġà¤¹à¤²à¤ķ": 4474,
      "Ġà¤µà¤¶": 4475,
      "à¤§à¤ķà¤ķ": 4476,
      "Ġà¤¤à¤Ĺ": 4477,
      "à¤ģà¥ĩ": 4478,
      "à¤¶à¤¯à¤ķ": 4479,
      "à¤¶à¤¯à¤®": 4480,
      "à¤£à¤ļà¤¨": 4481,
      "à¤ĸà¤ļ": 4482,
      "à¤ĩà¤Łà¤¨": 4483,
      "à¤ĩà¤«à¤²": 4484,
      "à¤ĩà¤¡à¤°": 4485,
      "Ġà¤ıà¤Ĩà¤Ī": 4486,
      "à¤łà¤ª": 4487,
      "à¤¨à¤ķà¤²": 4488,
      "Ġà¤«à¤ľ": 4489,
      "Ġà¤ıà¤ķà¤¡": 4490,
      "Ġà¤ıà¤ķà¤Ńà¤¨": 4491,
      "Ġà¤°à¤¹à¤²": 4492,
      "à¤¨à¤®à¤¸": 4493,
      "Ġà¤§à¤¨à¤²": 4494,
      "à¤ŀà¤®": 4495,
      "à¤Ĺà¤°à¤ª": 4496,
      "à¤²à¤®à¤¨": 4497,
      "à¤ħà¤ªà¤°": 4498,
      "Ġà¤Ŀà¤¯": 4499,
      "à¤ķà¤°à¤£à¤¸à¤®": 4500,
      "Ġà¤ĺà¤°à¤ª": 4501,
      "Ġà¤ªà¤¦à¤Ń": 4502,
      "à¤ĵà¤ıà¤¸": 4503,
      "Ġà¤ªà¤Łà¤ķà¤¥": 4504,
      "Ġà¤ľà¤®à¤ĺ": 4505,
      "à¤¯à¤¯à¤¨à¤¹à¤°": 4506,
      "à¤¯à¤¸à¤²à¤Ĺà¤¤": 4507,
      "Ġà¤µà¤¨à¤Ń": 4508,
      "à¤ĸà¤®à¤¯": 4509,
      "Ġà¥§à¥¯à¥¯à¥©": 4510,
      "à¤īà¤ªà¤Ĺ": 4511,
      "Ġà¥¦à¥¬à¥®": 4512,
      "Ġà¥¨à¥¦à¥©à¥«": 4513,
      "Ġà¥¦à¥Ńà¥ªà¥Ńà¥«": 4514,
      "à¤¸à¤¤à¤°": 4515,
      "à¤¸à¤ļà¤¨": 4516,
      "à¤¦à¤¤à¤²": 4517,
      "à¤µà¤¦à¤¨": 4518,
      "à¤Łà¤Ľ": 4519,
      "à¤Łà¤°à¤¦": 4520,
      "Ġà¤¹à¤ķà¤²": 4521,
      "Ġà¤¦à¤®à¤¦": 4522,
      "Ġà¤Ĩà¤¶à¤®": 4523,
      "à¤Īà¤ªà¤ķ": 4524,
      "à¤£à¤ªà¤Ľ": 4525,
      "à¤Ńà¤²à¤®": 4526,
      "à¤ĸà¤°à¤ķ": 4527,
      "à¤īà¤Ń": 4528,
      "à¤ĩà¤ľà¤ķ": 4529,
      "à¤«à¤¹à¤°": 4530,
      "Ġà¤¶à¤µà¤²": 4531,
      "Ġà¤ıà¤Ĩà¤°": 4532,
      "Ġà¤°à¤¹à¤¯": 4533,
      "à¤¯à¤®à¤¤": 4534,
      "à¤²à¤®à¤ľ": 4535,
      "à¤¤à¤°à¤Ļ": 4536,
      "à¤Ŀà¤ªà¤ĸ": 4537,
      "Ġà¤ĩà¤¦": 4538,
      "Ġà¤ĩà¤Ļà¤²": 4539,
      "à¤ħà¤¤": 4540,
      "Ġà¤Ńà¤ıà¤¯à¤¤": 4541,
      "Ġà¤¬à¤ľà¤Ĺ": 4542,
      "à¤¡à¤ķà¤ªà¤ķ": 4543,
      "à¤¤à¤¨à¤¬": 4544,
      "à¤¨à¤¸à¤¹à¤¨": 4545,
      "Ġà¤ħà¤¬à¤²à¤®": 4546,
      "Ġà¤ªà¤¦à¤²": 4547,
      "à¤§à¤ķà¤¹à¤°": 4548,
      "Ġà¤ĺà¤Łà¤¬à¤¢": 4549,
      "à¥¦à¥¦à¥¦à¥¦": 4550,
      "ĠĠĠĠĠĠĠĠĠĠ": 4551,
      "Ġà¤Ĩà¤łà¤µà¤Ł": 4552,
      "à¤ľà¤¤à¤ªà¤¤": 4553,
      "à¤£à¤¤à¤¯": 4554,
      "à¤ıà¤«à¤ı": 4555,
      "Ġà¤¸à¤ĸà¤¡": 4556,
      "Ġà¥§à¥¯à¥¬à¥¦": 4557,
      "Ġà¤ıà¤ķà¤Ľà¤¤": 4558,
      "Ġà¤ľà¤¨à¤ĺà¤¨à¤¤": 4559,
      "Ġà¥ĩ": 4560,
      "Ġà¤¿": 4561,
      "à¤ķà¤¸à¤Ń": 4562,
      "Ġà¤°à¤Ł": 4563,
      "à¤Łà¤²à¤¬": 4564,
      "Ġà¤¬à¤²à¤¬à¤¹": 4565,
      "Ġà¤®à¤¥": 4566,
      "Ġà¤®à¤¦à¤°": 4567,
      "Ġà¤Ńà¤·": 4568,
      "Ġà¤¹à¤°à¤£": 4569,
      "à¤¬à¤ĸà¤¤": 4570,
      "à¤·à¤¤à¤µ": 4571,
      "Ġà¤¤à¤µ": 4572,
      "Ġà¤¤à¤¦à¤¨": 4573,
      "à¤¶à¤µà¤°": 4574,
      "à¤¶à¤¸à¤¹": 4575,
      "à¤¶à¤¯à¤¯": 4576,
      "Ġà¤Ĩà¤²à¤®": 4577,
      "à¤Īà¤µà¤°": 4578,
      "à¤Īà¤ĵà¤Ł": 4579,
      "à¤¡à¤¨à¤²": 4580,
      "à¤£à¤¯à¤µ": 4581,
      "à¤Ńà¤£": 4582,
      "à¤Ńà¤ŀ": 4583,
      "Ġà¤¯à¤²à¤®": 4584,
      "à¤°à¤ķà¤°à¤£à¤²": 4585,
      "à¤°à¤®à¤¶à¤ķ": 4586,
      "Ġà¤ĸà¤¹à¤°": 4587,
      "à¤łà¤°": 4588,
      "Ġà¤°à¤¹à¤¨à¤¸à¤¹à¤¨": 4589,
      "Ġà¤Łà¤ķà¤°": 4590,
      "Ġà¤¸à¤¹à¤ħà¤¸": 4591,
      "Ġà¤ķà¤®à¤ķ": 4592,
      "Ġà¤ĩà¤¯à¤°": 4593,
      "Ġà¤ħà¤¸à¤°à¤ķ": 4594,
      "à¤µà¤¨à¤ª": 4595,
      "à¤·à¤£à¤ķà¤°": 4596,
      "à¤°à¤µà¤¹": 4597,
      "à¤¦à¤¨à¤¸": 4598,
      "Ġà¤ķà¤²à¤¸": 4599,
      "à¤ľà¤¸à¤°": 4600,
      "à¤°à¤ªà¤²": 4601,
      "à¤¨à¤µà¤¶": 4602,
      "à¤ıà¤¸à¤¨à¤²": 4603,
      "à¤¨à¤ªà¤Łà¤ķ": 4604,
      "Ġà¤Īà¤°": 4605,
      "Ġà¤¸à¤¹à¤ľà¤°": 4606,
      "Ġà¥¦à¥§": 4607,
      "à¤¯à¤°à¤¬à¤ľ": 4608,
      "à¤Ĳ": 4609,
      "à¤°à¤°à¤¹": 4610,
      "à¤ķà¤µà¤°": 4611,
      "à¤®à¤°à¤®": 4612,
      "à¤®à¤ľà¤¸": 4613,
      "à¤¹à¤®à¤¦": 4614,
      "à¤µà¤ªà¤ķ": 4615,
      "à¤Ĺà¤Ļ": 4616,
      "Ġà¤°à¤ĸ": 4617,
      "Ġà¤¨à¤Ŀ": 4618,
      "Ġà¤¬à¤ª": 4619,
      "à¤ıà¤¦": 4620,
      "à¤ıà¤µ": 4621,
      "Ġà¤Ńà¤Łà¤®": 4622,
      "Ġà¤µà¤¨à¤²": 4623,
      "à¤·à¤°à¤®": 4624,
      "à¤ļà¤µà¤°": 4625,
      "Ġà¤²à¤«": 4626,
      "à¤Īà¤Ĺ": 4627,
      "à¤Īà¤®à¤¤": 4628,
      "à¤¡à¤¶": 4629,
      "à¤¡à¤¨à¤¸": 4630,
      "à¤Ńà¤°à¤£": 4631,
      "à¤īà¤¸à¤²": 4632,
      "Ġà¤¯à¤¶à¤ķ": 4633,
      "à¤«à¤µ": 4634,
      "Ġà¤¶à¤¤à¤ķ": 4635,
      "à¤¾à¤ģà¤ģ": 4636,
      "Ġà¤ħà¤¨à¤¶à¤¨à¤ķ": 4637,
      "à¤ªà¤°à¤Ń": 4638,
      "Ġà¤ĺà¤®": 4639,
      "Ġà¤Łà¤¨à¤ķ": 4640,
      "Ġà¤ķà¤®à¤®": 4641,
      "Ġà¤ħà¤¸à¤Ī": 4642,
      "à¤²à¤¨à¤¸à¤®": 4643,
      "à¤Ĩà¤Ĺ": 4644,
      "à¥Įà¤ģà¤Ĥ": 4645,
      "Ġà¤¸à¤¦à¤¨à¤ķ": 4646,
      "à¥ªà¥ª": 4647,
      "Ġà¤ªà¤¤à¤ŀ": 4648,
      "à¥©à¥¯": 4649,
      "Ġà¤ħà¤Ĺà¤®": 4650,
      "Ġà¤¦à¤²à¤Ń": 4651,
      "Ġà¤ıà¤®à¤Ĩà¤°à¤ª": 4652,
      "à¤°à¤ªà¤Ł": 4653,
      "à¤¨à¤µà¤ľ": 4654,
      "Ġà¤ħà¤«à¤¸": 4655,
      "Ġà¤ĭà¤Ĺ": 4656,
      "à¤ķà¤Łà¤¬": 4657,
      "Ġà¥¨à¥¦à¥ªà¥¦": 4658,
      "Ġà¤°à¤Ĺà¤¤à¤²": 4659,
      "Ġà¤ĸà¤¬à¤°à¤¹à¤°": 4660,
      "Ġà¤¨à¤¹à¤°à¤®": 4661,
      "à¤ķà¤Ńà¤°à¤ķ": 4662,
      "à¤Łà¤Ĩà¤īà¤Łà¤®": 4663,
      "Ġà¥į": 4664,
      "à¤°à¤Ĺà¤°": 4665,
      "à¥ĭà¤ĥ": 4666,
      "à¤²à¤¯à¤¤": 4667,
      "à¤®à¤¬à¤²": 4668,
      "à¤¤à¤²à¤ķ": 4669,
      "à¤¯à¤¬à¤¦": 4670,
      "à¤Ĺà¤ľà¤¸": 4671,
      "à¥Īà¤ĥ": 4672,
      "Ġà¤¨à¤ĺà¤Ł": 4673,
      "à¤ıà¤¸à¤²": 4674,
      "Ġà¤Ńà¤ŀ": 4675,
      "à¤¬à¤Ĺà¤°": 4676,
      "à¤§à¤ĸ": 4677,
      "Ġà¤Ĩà¤¯à¤¤": 4678,
      "à¤Īà¤¸à¤®": 4679,
      "à¤Īà¤ķà¤¨": 4680,
      "Ġà¤¸à¤®à¤¶": 4681,
      "Ġà¤¶à¤¸": 4682,
      "Ġà¤¶à¤µà¤ķ": 4683,
      "Ġà¤¥à¤µ": 4684,
      "Ġà¤ªà¤°à¤µ": 4685,
      "à¤°à¤£à¤¯": 4686,
      "Ġà¤ıà¤ķà¤®à¤¤": 4687,
      "Ġà¤ĺà¤¤": 4688,
      "Ġà¤ħà¤°à¤µ": 4689,
      "à¤ħà¤¦": 4690,
      "à¥«à¥«": 4691,
      "Ġà¤¨à¤Ĺà¤°à¤Ń": 4692,
      "à¤¸à¤¨à¤°": 4693,
      "à¤®à¤¨à¤¸": 4694,
      "Ġà¤ĵà¤ĸà¤°": 4695,
      "à¤¡à¤²à¤¹à¤°": 4696,
      "à¤°à¤ľà¤¨à¤ķ": 4697,
      "Ġà¤Īà¤Ń": 4698,
      "à¤¯à¤£à¤®": 4699,
      "Ġà¤Ĩà¤Īà¤¤à¤µ": 4700,
      "Ġà¤ľà¤¨à¤ķà¤²": 4701,
      "Ġà¤¤à¤²à¤¬à¤Ńà¤¤": 4702,
      "Ġà¥Ńà¥«à¥¦": 4703,
      "Ġà¤Ľà¤²à¤«à¤²à¤²": 4704,
      "à¤²à¤ļà¤²à¤¨": 4705,
      "Ġà¤ıà¤«à¤ıà¤®à¤ķ": 4706,
      "Ġà¤§à¤°à¤ªà¤ķà¤¡": 4707,
      "à¤¨à¤Ľà¤¨": 4708,
      "à¤ķà¤§": 4709,
      "à¤ķà¤ĺ": 4710,
      "à¤®à¤¸à¤¹": 4711,
      "à¤¸à¤¬à¤°": 4712,
      "à¤¸à¤ħà¤¨": 4713,
      "à¤ªà¤Ĺ": 4714,
      "à¤¦à¤¨à¤¨": 4715,
      "Ġà¤Ĺà¤²à¤ķ": 4716,
      "Ġà¤Ńà¤ľ": 4717,
      "à¤¬à¤¤à¤®": 4718,
      "à¤¬à¤¦à¤¨": 4719,
      "à¤¬à¤°à¤¬à¤¹": 4720,
      "à¤·à¤¯à¤°": 4721,
      "Ġà¤Ĩà¤°à¤¸": 4722,
      "à¤ļà¤¥": 4723,
      "à¤¡à¤ªà¤Ľ": 4724,
      "à¥Ĥà¥Ĥ": 4725,
      "à¤ĩà¤¤à¤¬": 4726,
      "à¤°à¤ķà¤µ": 4727,
      "Ġà¤ļà¤Łà¤ķ": 4728,
      "à¤«à¤Ł": 4729,
      "Ġà¤ıà¤¡à¤®": 4730,
      "à¤Ļà¤¤": 4731,
      "Ġà¤«à¤®": 4732,
      "à¤ľà¤¨à¤ľ": 4733,
      "Ġà¤ĺà¤ļ": 4734,
      "Ġà¤ľà¤¨à¤¹à¤°": 4735,
      "à¤²à¤®à¤¤": 4736,
      "Ġà¤ħà¤°à¤¬à¤®": 4737,
      "à¤ļà¤¨à¤ľ": 4738,
      "à¥«à¥®": 4739,
      "à¤ķà¤°à¤ª": 4740,
      "Ġà¤Ĩà¤µà¤¤": 4741,
      "à¤Ĩà¤ĩà¤¡": 4742,
      "à¥ªà¥¬": 4743,
      "à¤®à¤²à¤Ł": 4744,
      "Ġà¤Ķà¤ªà¤¨": 4745,
      "Ġà¥§à¥¦à¥¨": 4746,
      "à¤ĵà¤°": 4747,
      "Ġà¤¦à¤²à¤Ĺà¤¤": 4748,
      "Ġà¤ıà¤®à¤Ł": 4749,
      "à¤µà¤¤à¤¯": 4750,
      "Ġà¥¨à¥¦à¥Ńà¥¨à¥¦à¥Ńà¥©": 4751,
      "à¤ĩà¤²à¤Łà¤²": 4752,
      "à¤¤à¤°à¤£à¤²": 4753,
      "Ġà¤ıà¤¨à¤ıà¤¸": 4754,
      "à¤¯à¤£à¤ĺ": 4755,
      "à¤ĸà¤ķà¤·": 4756,
      "à¤Łà¤¬à¤ľ": 4757,
      "Ġà¤Ĩà¤łà¤¬": 4758,
      "à¥¨à¥¦à¥¬à¥©": 4759,
      "à¤Łà¤¬à¤²à¤°": 4760,
      "à¤ªà¤¸à¤Ļ": 4761,
      "à¤¹à¤¦à¤°à¤µ": 4762,
      "Ġà¥¨à¥¦à¥ªà¥©": 4763,
      "Ġà¤Ńà¤ĩà¤¨à¤¸à¤ķ": 4764,
      "Ġà¤ļà¤°à¤£à¤¬à¤¦": 4765,
      "Ġà¤ıà¤¨à¤Ĩà¤°à¤ıà¤¨à¤²": 4766,
      "à¤¡à¤¯à¤¨à¤®à¤¨": 4767,
      "Ġà¤ħà¤ªà¤¹à¤°à¤£à¤®": 4768,
      "à¥°": 4769,
      "à¤°à¤µà¤¸": 4770,
      "à¤°à¤ĸà¤°": 4771,
      "à¤²à¤Ĺà¤°": 4772,
      "à¤²à¤Ĺà¤®": 4773,
      "Ġà¤¸à¤Ī": 4774,
      "à¤µà¤ħà¤¨": 4775,
      "à¤Ĺà¤¸à¤¬": 4776,
      "Ġà¤°à¤°": 4777,
      "Ġà¤¨à¤Ĺà¤¨": 4778,
      "Ġà¤¬à¤¥": 4779,
      "à¤ıà¤²à¤®": 4780,
      "Ġà¤ħà¤ªà¤¤": 4781,
      "à¤¬à¤®à¤ķ": 4782,
      "à¤§à¤ªà¤¤": 4783,
      "à¤§à¤¶à¤¤à¤ķ": 4784,
      "Ġà¤¦à¤¬à¤¦": 4785,
      "Ġà¤Ĩà¤Ĭ": 4786,
      "à¤ļà¤ķà¤®": 4787,
      "Ġà¤²à¤¥": 4788,
      "à¤¡à¤·": 4789,
      "à¤ĸà¤¸à¤¹": 4790,
      "à¤ĩà¤ķà¤®": 4791,
      "à¤«à¤²à¤ķ": 4792,
      "Ġà¤ĸà¤°à¤¬": 4793,
      "à¤Ļà¤¡": 4794,
      "à¤ĺà¤ļ": 4795,
      "Ġà¤ıà¤ķà¤µà¤°": 4796,
      "à¤¤à¤°à¤¦à¤ķ": 4797,
      "Ġà¤¸à¤¬à¤ķ": 4798,
      "à¤ħà¤µà¤¸": 4799,
      "à¤°à¤µà¤¶": 4800,
      "à¥«à¥©": 4801,
      "Ġà¤Ŀà¤ª": 4802,
      "Ġà¤Ĩà¤µà¤°à¤£": 4803,
      "à¤Ĩà¤ĩà¤ª": 4804,
      "à¥ªà¥¨": 4805,
      "Ġà¤ĵà¤¨à¤¸à¤°": 4806,
      "à¤¶à¤¨à¤°": 4807,
      "Ġà¤¸à¤®à¤¯à¤¯à¤¤": 4808,
      "Ġà¤Ńà¤¯à¤µ": 4809,
      "Ġà¤Ķà¤°à¤¹": 4810,
      "à¤µà¤®à¤¹": 4811,
      "Ġà¥§à¥¦à¥§à¥¨": 4812,
      "Ġà¤¬à¤¹à¤¸à¤²": 4813,
      "Ġà¤Ĩà¤ĩà¤¹": 4814,
      "Ġà¤Ĩà¤ĩà¤ıà¤¸": 4815,
      "Ġà¥§à¥¯à¥§à¥¦": 4816,
      "à¤ľà¤²à¤µ": 4817,
      "à¤·à¤¯à¤¬": 4818,
      "à¤ľà¤¦à¤°à¤¬": 4819,
      "Ġà¥¨à¥¨à¥«": 4820,
      "à¤¯à¤¯à¤Ń": 4821,
      "Ġà¤¹à¤ķà¤ħà¤§": 4822,
      "Ġà¤¤à¤²à¤¬à¤ķ": 4823,
      "Ġà¥©à¥©à¥¦": 4824,
      "Ġà¤¡à¤Łà¤ķà¤®à¤ķ": 4825,
      "à¤ľà¤Ĺà¤¢à¤¸à¤®": 4826,
      "Ġà¥¦à¥¬à¥§": 4827,
      "Ġà¤°à¤¹à¤°à¤²": 4828,
      "Ġà¥§à¥¯à¥®à¥¯": 4829,
      "Ġà¥¨à¥¦à¥Ńà¥§à¥Ńà¥¨": 4830,
      "Ġà¤ľà¤¯à¤¬à¤¹": 4831,
      "Ġà¤ľà¤²à¤®à¤Ĺ": 4832,
      "à¤ĭà¤·": 4833,
      "Ġà¤¦à¤¬à¤¦à¤¬": 4834,
      "à¤©": 4835,
      "à¥Ľ": 4836,
      "à¤°à¤ľà¤¨à¤²": 4837,
      "à¤¨à¤Łà¤®": 4838,
      "à¤®à¤®à¤¨": 4839,
      "Ġà¥Ĥ": 4840,
      "Ġà¤ªà¤°à¤ķà¤®": 4841,
      "à¤¹à¤ķà¤®": 4842,
      "à¤¹à¤¤à¤®": 4843,
      "à¤µà¤°à¤¹": 4844,
      "à¤µà¤µà¤°": 4845,
      "Ġà¤ķà¤Ľ": 4846,
      "Ġà¤ķà¤ķà¤¨": 4847,
      "à¤Ĺà¤«": 4848,
      "à¤Ĺà¤°à¤£à¤ķ": 4849,
      "Ġà¤°à¤¨à¤µ": 4850,
      "Ġà¤¨à¤ł": 4851,
      "Ġà¤Ńà¤¯à¤²": 4852,
      "à¤ľà¤ªà¤°": 4853,
      "Ġà¤µà¤¦": 4854,
      "à¤·à¤§à¤ķ": 4855,
      "Ġà¤¤à¤¡": 4856,
      "à¤¶à¤ľà¤ķ": 4857,
      "à¤¶à¤¶à¤°à¤£": 4858,
      "à¤ļà¤ķà¤²": 4859,
      "à¤Īà¤¤à¤°": 4860,
      "à¤£à¤Ń": 4861,
      "à¤Ńà¤µà¤¨": 4862,
      "à¤ĩà¤ªà¤Ľ": 4863,
      "à¤ĩà¤µà¤°": 4864,
      "Ġà¤§à¤¸": 4865,
      "Ġà¤ľà¤¨à¤ªà¤ķ": 4866,
      "Ġà¤¸à¤ķà¤²": 4867,
      "Ġà¤²à¤Ĺà¤¨à¤ĸ": 4868,
      "Ġà¤ĩà¤Ĺ": 4869,
      "à¤µà¤¨à¤°": 4870,
      "à¤ļà¤¨à¤°": 4871,
      "à¥«à¥¯": 4872,
      "Ġà¤Ĩà¤°à¤ª": 4873,
      "à¤¸à¤¨à¤ª": 4874,
      "Ġà¤Ŀà¤²à¤ķà¤¹à¤°": 4875,
      "à¥ªà¥¯": 4876,
      "Ġà¤ĵà¤¯": 4877,
      "à¤¿à¤Ĥà¤ģ": 4878,
      "Ġà¤®à¤²à¤ĸ": 4879,
      "à¤Łà¤²à¤°": 4880,
      "Ġà¤¨à¤®à¤°": 4881,
      "Ġà¥§à¥¨à¥¬": 4882,
      "Ġà¤¤à¤¹à¤¦": 4883,
      "Ġà¤Ĩà¤¶à¤¯à¤ªà¤¤": 4884,
      "Ġà¤ħà¤«à¤µ": 4885,
      "Ġà¤¬à¤ļà¤¤à¤®": 4886,
      "à¤¯à¤¯à¤¨à¤ªà¤Ľ": 4887,
      "à¤®à¤¬à¤ľ": 4888,
      "à¤²à¤µà¤¹à¤°": 4889,
      "Ġà¤ıà¤¨à¤Ĩà¤ĩà¤¸": 4890,
      "Ġà¤¹à¤²à¤¹à¤°": 4891,
      "à¤Ĩà¤°à¤Ĩà¤°": 4892,
      "à¤Ĺà¤łà¤¨à¤¬": 4893,
      "à¥¨à¥¦à¥Ńà¥¨": 4894,
      "à¤ıà¤²à¤ĵ": 4895,
      "Ġà¤¸à¤¸à¤«": 4896,
      "Ġà¥ªà¥«à¥¦": 4897,
      "Ġà¤¦à¤¶à¤ķà¤Ńà¤¨": 4898,
      "Ġà¥¨à¥¦à¥ªà¥ª": 4899,
      "ĠĠĠĠĠĠĠĠĠĠĠĠĠĠĠĠĠĠĠĠĠĠĠĠ": 4900,
      "Ġà¥¨à¥¦à¥©à¥¯": 4901,
      "Ġà¤¯à¤®à¤¨à¤ķ": 4902,
      "à¤¦à¤°à¤¬à¤ľ": 4903,
      "à¤°à¤Ļà¤²": 4904,
      "à¤ķà¤·": 4905,
      "à¤ķà¤¦à¤°": 4906,
      "à¤®à¤¸à¤¨": 4907,
      "à¤¸à¤ĺ": 4908,
      "à¤¸à¤²à¤ķ": 4909,
      "Ġà¤¸à¤¨à¤ķ": 4910,
      "à¤µà¤¬à¤ľ": 4911,
      "à¤µà¤īà¤ª": 4912,
      "Ġà¤Ĺà¤µ": 4913,
      "à¤Łà¤Ĺ": 4914,
      "à¤Łà¤ĸ": 4915,
      "à¤Łà¤¸à¤ķ": 4916,
      "Ġà¤¨à¤°à¤¦": 4917,
      "Ġà¤¨à¤®à¤¨": 4918,
      "Ġà¤¬à¤°à¤¦": 4919,
      "Ġà¤ħà¤ľà¤®": 4920,
      "à¤¬à¤ļ": 4921,
      "Ġà¤Ľà¤¹à¤°": 4922,
      "à¤§à¤ļ": 4923,
      "Ġà¤Ĩà¤°à¤¬": 4924,
      "à¤Ľà¤²": 4925,
      "à¤¡à¤²à¤¬": 4926,
      "à¤£à¤ªà¤ķ": 4927,
      "à¤īà¤¦à¤Ľ": 4928,
      "à¤°à¤ķà¤¹à¤°": 4929,
      "Ġà¤¥à¤ªà¤ķ": 4930,
      "Ġà¤«à¤²à¤¤": 4931,
      "à¤°à¤£à¤µ": 4932,
      "à¤°à¤£à¤¤à¤¯": 4933,
      "à¤ľà¤¨à¤¸à¤¹": 4934,
      "Ġà¤§à¤®à¤¨": 4935,
      "Ġà¤ľà¤¨à¤¸à¤°": 4936,
      "à¤ªà¤¨à¤¸": 4937,
      "à¤ŀà¤¬à¤¹": 4938,
      "à¤¤à¤°à¤¨": 4939,
      "à¥Įà¤Ĥà¤Ĥ": 4940,
      "Ġà¤®à¤¨à¤Ń": 4941,
      "à¤µà¤¨à¤¦": 4942,
      "à¤Ĺà¤¤à¤¯": 4943,
      "à¤ļà¤¨à¤¸à¤®": 4944,
      "à¤·à¤£à¤µ": 4945,
      "à¤¦à¤¨à¤¬": 4946,
      "Ġà¤ħà¤®à¤°à¤ķ": 4947,
      "à¥®à¥«": 4948,
      "à¤ĵà¤ª": 4949,
      "Ġà¤ķà¤²à¤Ļ": 4950,
      "Ġà¤¬à¤²à¤µ": 4951,
      "Ġà¤ħà¤²à¤Ĩà¤īà¤Ł": 4952,
      "Ġà¥§à¥§à¥Ń": 4953,
      "Ġà¤¤à¤¹à¤¸": 4954,
      "Ġà¤§à¤¨à¤¸à¤®": 4955,
      "Ġà¥§à¥©à¥«": 4956,
      "Ġà¤Ĭà¤¸": 4957,
      "à¥ĩà¤Ĥà¤ģ": 4958,
      "Ġà¤ªà¤¸à¤²à¤²": 4959,
      "Ġà¤Ńà¤µà¤¨à¤¬": 4960,
      "Ġà¤¨à¤µà¤Ĺà¤ł": 4961,
      "à¤Łà¤µà¤²à¤²": 4962,
      "à¤¶à¤¬à¤£": 4963,
      "Ġà¤¦à¤¶à¤ķà¤¯à¤¤": 4964,
      "Ġà¤¨à¤Ĩà¤ıà¤¸à¤®": 4965,
      "Ġà¤Ĺà¤ľà¤¬à¤ķ": 4966,
      "Ġà¤¨à¤Ĺà¤Ī": 4967,
      "Ġà¤ıà¤¨à¤Ĩà¤°à¤ıà¤¨à¤ıà¤ķ": 4968,
      "à¤Łà¤ªà¤Łà¤ķà¤ķ": 4969,
      "à¤¨à¤ªà¤¨": 4970,
      "à¤¿à¤¿": 4971,
      "à¤²à¤ħà¤ĺ": 4972,
      "à¤¤à¤²à¤¨": 4973,
      "à¤¯à¤¶à¤ķ": 4974,
      "à¤¸à¤ıà¤ķ": 4975,
      "à¤¸à¤ł": 4976,
      "Ġà¤¸à¤¤à¤²": 4977,
      "à¤¹à¤Ĺà¤¤": 4978,
      "à¤¦à¤ķà¤ª": 4979,
      "à¤¦à¤¶à¤¨à¤ķ": 4980,
      "à¤µà¤µà¤¤": 4981,
      "Ġà¤Ĺà¤ıà¤¨": 4982,
      "à¤Ĺà¤Ńà¤¨": 4983,
      "à¥Īà¥ĩ": 4984,
      "à¤Łà¤®à¤²": 4985,
      "Ġà¤¬à¤«": 4986,
      "Ġà¤¬à¤¹à¤ķ": 4987,
      "à¤¬à¤ĸ": 4988,
      "à¤¬à¤¨à¤ķ": 4989,
      "à¤·à¤¯à¤¸": 4990,
      "Ġà¤Ĩà¤Ł": 4991,
      "à¤Īà¤Ńà¤¨": 4992,
      "à¤£à¤¯à¤¸": 4993,
      "à¤ĸà¤ª": 4994,
      "à¤ĩà¤ķà¤ķ": 4995,
      "à¤°à¤¤à¤¬à¤¨": 4996,
      "à¥¦à¥¬": 4997,
      "Ġà¤«à¤¹à¤°": 4998,
      "Ġà¤«à¤²à¤²": 4999,
      "à¤¸à¤ķà¤¸": 5000,
      "à¤ĺà¤°à¤¬": 5001,
      "Ġà¤§à¤µà¤²": 5002,
      "Ġà¤¸à¤¹à¤®à¤¹": 5003,
      "Ġà¤²à¤Ĺà¤¨": 5004,
      "Ġà¤¸à¤¬à¤¥": 5005,
      "Ġà¤ħà¤¸à¤°à¤¬": 5006,
      "à¤µà¤°à¤¸à¤®": 5007,
      "à¤¯à¤²à¤¯à¤ķ": 5008,
      "Ġà¤ħà¤Ńà¤¯": 5009,
      "à¤¤à¤¨à¤§": 5010,
      "à¤Ĩà¤ľà¤ķ": 5011,
      "Ġà¤ĵà¤¶": 5012,
      "Ġà¤ĵà¤ļ": 5013,
      "Ġà¤ĵà¤ĸ": 5014,
      "Ġà¤ĵà¤ĩà¤²": 5015,
      "Ġà¤Ńà¤¯à¤Ń": 5016,
      "Ġà¥§à¥¦à¥¬": 5017,
      "Ġà¤ªà¤¦à¤µ": 5018,
      "à¤ĵà¤¨": 5019,
      "Ġà¤īà¤®à¤Ļ": 5020,
      "Ġà¤ħà¤ªà¤ľà¤¸": 5021,
      "à¤Ļà¤ķà¤¨": 5022,
      "Ġà¤¸à¤¡à¤ķà¤ª": 5023,
      "Ġà¥§à¥«à¥¨à¥¦": 5024,
      "Ġà¤¤à¤¹à¤Ĺà¤¤": 5025,
      "à¤ıà¤¸à¤Ł": 5026,
      "à¤¥à¤²à¤¸à¤®": 5027,
      "Ġà¤¸à¤ľà¤°": 5028,
      "à¤µà¤¯à¤¨à¤¸": 5029,
      "à¤¯à¤¦à¤²à¤®": 5030,
      "Ġà¤Ĩà¤łà¤ľà¤¨": 5031,
      "à¤°à¤¸à¤®à¤ķ": 5032,
      "Ġà¥©à¥¨à¥«": 5033,
      "Ġà¥§à¥¯à¥¯à¥¨": 5034,
      "à¥§à¥¦à¥Ńà¥¨": 5035,
      "Ġà¤ķà¤¦à¤®à¤¹à¤°": 5036,
      "Ġà¥¦à¥ªà¥®": 5037,
      "Ġà¥§à¥¯à¥ªà¥®": 5038,
      "Ġà¤ıà¤¯à¤°à¤¬à¤¸": 5039,
      "à¥ĩà¤ĥ": 5040,
      "à¤²à¤Ī": 5041,
      "à¤®à¤¤à¤®": 5042,
      "à¥ģà¥ģà¤ģ": 5043,
      "à¤¹à¤²à¤ķ": 5044,
      "à¤ªà¤¸à¤¹": 5045,
      "à¤¦à¤°à¤¹à¤°": 5046,
      "à¤Łà¤Ĺà¤¤": 5047,
      "Ġà¤¨à¤µà¤®": 5048,
      "à¤ıà¤Łà¤°à¤®": 5049,
      "Ġà¤Ńà¤°à¤ķ": 5050,
      "à¤§à¤Ń": 5051,
      "à¤ļà¤²à¤¬": 5052,
      "à¤Īà¤¨à¤ķ": 5053,
      "à¤¡à¤°à¤¬": 5054,
      "à¤¡à¤°à¤ª": 5055,
      "à¤ĸà¤¬à¤¹": 5056,
      "Ġà¤¯à¤®à¤¦": 5057,
      "à¤Ļà¤¸à¤¹": 5058,
      "à¤ĺà¤¡": 5059,
      "à¤ĺà¤¹à¤°": 5060,
      "à¤ĺà¤¸à¤¸": 5061,
      "à¤µà¤¸à¤ļ": 5062,
      "à¤µà¤¸à¤Ń": 5063,
      "Ġà¤®à¤¹à¤®": 5064,
      "Ġà¤¬à¤¨à¤¸": 5065,
      "Ġà¤¯à¤¸à¤µ": 5066,
      "Ġà¤Łà¤¡": 5067,
      "Ġà¤¡à¤ķà¤°": 5068,
      "Ġà¤¸à¤¹à¤µ": 5069,
      "Ġà¤¤à¤°à¤ªà¤¨": 5070,
      "à¤²à¤®à¤§": 5071,
      "Ġà¤®à¤¨à¤°": 5072,
      "à¤¯à¤²à¤¯à¤²": 5073,
      "à¤Ĺà¤¤à¤¤à¤°": 5074,
      "à¤·à¤£à¤ħà¤¨": 5075,
      "à¤¤à¤®à¤¨": 5076,
      "à¥ªà¥§": 5077,
      "à¤®à¤²à¤Ĺ": 5078,
      "Ġà¤Ńà¤¯à¤°à¤¹": 5079,
      "Ġà¤ĺà¤°à¤ĺà¤°": 5080,
      "Ġà¥§à¥¦à¥Ń": 5081,
      "à¤¹à¤ķà¤¸": 5082,
      "à¥¯à¥¯": 5083,
      "à¤°à¤ªà¤ŀ": 5084,
      "Ġà¤Īà¤Łà¤¹à¤°": 5085,
      "à¤īà¤¦à¤¯à¤ª": 5086,
      "Ġà¤Ńà¤µà¤¨à¤²": 5087,
      "Ġà¤«à¤²à¤¹à¤°": 5088,
      "Ġà¤ħà¤ĸà¤¡": 5089,
      "Ġà¤ĸà¤Łà¤ªà¤Ł": 5090,
      "Ġà¤¹à¤ķà¤¸à¤®": 5091,
      "Ġà¤¹à¤Ļà¤ķà¤Ļà¤¬": 5092,
      "Ġà¤Ĩà¤¸à¤¨à¤®": 5093,
      "à¤Łà¤¨à¤Ĺà¤°à¤²": 5094,
      "à¤ļà¤¸à¤¯": 5095,
      "Ġà¥¨à¥¦à¥©à¥§": 5096,
      "Ġà¤Ĩà¤īà¤Łà¤²": 5097,
      "Ġà¥§à¥¯à¥®à¥¨": 5098,
      "Ġà¤¦à¤®à¤ķà¤ķ": 5099,
      "Ġà¤ıà¤«à¤ıà¤®à¤²": 5100,
      "Ġà¤²à¤ļà¤ķà¤¤": 5101,
      "à¥įà¥Ģ": 5102,
      "à¤¨à¤Ĩ": 5103,
      "à¤¸à¤°à¤¹à¤°": 5104,
      "à¤¸à¤¨à¤®à¤¨": 5105,
      "à¤¹à¤¸à¤ļ": 5106,
      "à¤µà¤Ī": 5107,
      "à¤µà¤Łà¤²": 5108,
      "Ġà¤ķà¤Ń": 5109,
      "Ġà¤®à¤°à¤®": 5110,
      "à¤ıà¤¨à¤²": 5111,
      "à¤ıà¤®à¤®": 5112,
      "à¤ıà¤¶à¤¨à¤ķ": 5113,
      "Ġà¤Ńà¤Ĺà¤¤": 5114,
      "à¤ľà¤¸à¤²": 5115,
      "à¤ľà¤ħà¤¨": 5116,
      "à¤ľà¤¬à¤ķ": 5117,
      "Ġà¤µà¤£": 5118,
      "à¤¬à¤¨à¤²": 5119,
      "à¤¬à¤ªà¤¤": 5120,
      "à¤¬à¤²à¤²": 5121,
      "à¤§à¤¶": 5122,
      "Ġà¤¦à¤¸à¤ķ": 5123,
      "à¤¥à¤¹": 5124,
      "à¤¥à¤¸à¤®": 5125,
      "à¤¥à¤¸à¤ļ": 5126,
      "Ġà¤Ĩà¤¦à¤¨": 5127,
      "à¤ļà¤°à¤®": 5128,
      "à¤Īà¤¨à¤¨": 5129,
      "à¤ĩà¤£": 5130,
      "à¤ĩà¤Ńà¤¨": 5131,
      "à¤ĩà¤¡à¤²": 5132,
      "Ġà¤ıà¤ªà¤ķ": 5133,
      "à¤łà¤¨à¤ķ": 5134,
      "à¤°à¤¤à¤ª": 5135,
      "à¥ĥà¥ĥ": 5136,
      "Ġà¤«à¤°à¤®": 5137,
      "Ġà¤«à¤Ĺà¤¤": 5138,
      "à¤¸à¤®à¤²": 5139,
      "à¤¨à¤®à¤Ĺà¤°": 5140,
      "Ġà¤®à¤¹à¤¤à¤ķ": 5141,
      "Ġà¤ĺà¤°à¤¤": 5142,
      "Ġà¤¬à¤¨à¤Ń": 5143,
      "à¤²à¤ķà¤¸à¤¹": 5144,
      "Ġà¤ľà¤¨à¤ªà¤°": 5145,
      "Ġà¤¡à¤®à¤°": 5146,
      "Ġà¤¤à¤°à¤ĸà¤°à¤®": 5147,
      "à¤Łà¤ķà¤¹à¤°": 5148,
      "à¤ħà¤°à¤ķ": 5149,
      "à¤µà¤°à¤µ": 5150,
      "à¥Ńà¥®": 5151,
      "à¤·à¤£à¤¯": 5152,
      "à¤·à¤£à¤ªà¤¤": 5153,
      "à¥«à¥¨": 5154,
      "Ġà¤Ŀà¤¡": 5155,
      "à¤¡à¤ķà¤ķ": 5156,
      "à¤Ĩà¤ĩà¤ı": 5157,
      "à¤¤à¤²à¤¤": 5158,
      "Ġà¤ªà¤¦à¤®à¤ª": 5159,
      "à¤ľà¤¸à¤¹": 5160,
      "à¤µà¤¤à¤¸": 5161,
      "à¤ıà¤¨à¤ıà¤ķ": 5162,
      "Ġà¤ħà¤ªà¤¦à¤¸": 5163,
      "Ġà¤Ĳà¤¨à¤¹à¤°": 5164,
      "Ġà¤ľà¤Ĺà¤ľ": 5165,
      "à¤¥à¤²à¤ª": 5166,
      "Ġà¤¸à¤ľà¤Ĺà¤¤": 5167,
      "Ġà¥§à¥ªà¥®": 5168,
      "Ġà¥§à¥©à¥ª": 5169,
      "Ġà¥¨à¥§à¥¯": 5170,
      "Ġà¤ĭà¤ļ": 5171,
      "Ġà¥§à¥Ńà¥¦": 5172,
      "Ġà¥¨à¥©à¥¦": 5173,
      "à¤ĸà¤¨à¤¨à¤ķ": 5174,
      "Ġà¤¨à¤¬à¤¤": 5175,
      "à¤¯à¤¸à¤¬à¤ĸà¤¤": 5176,
      "à¥Ĥà¤ģà¤Ĥ": 5177,
      "Ġà¥ªà¥«à¥¬": 5178,
      "Ġà¤¤à¤²à¤¬à¤®": 5179,
      "à¤ıà¤«à¤¸": 5180,
      "Ġà¥«à¥«à¥¦": 5181,
      "à¥Ńà¥ªà¥Ńà¥«": 5182,
      "Ġà¥§à¥¯à¥ªà¥«": 5183,
      "Ġà¤Ĺà¤¢à¤µ": 5184,
      "Ġà¤®à¤¤à¤²à¤µ": 5185,
      "Ġà¤Ľà¤®à¤Ľà¤®": 5186,
      "Ġà¤ŀ": 5187,
      "à¤¿à¥Ģ": 5188,
      "à¤²à¤ļà¤¨": 5189,
      "à¤®à¤ķà¤²": 5190,
      "à¤¤à¤«": 5191,
      "à¤¯à¤°à¤¸": 5192,
      "à¤¹à¤ħà¤¨": 5193,
      "à¤¹à¤²à¤¤": 5194,
      "à¤ªà¤§": 5195,
      "à¤µà¤¹à¤¨": 5196,
      "Ġà¤®à¤ª": 5197,
      "Ġà¤®à¤ľà¤¸": 5198,
      "à¤ľà¤Ńà¤¤": 5199,
      "Ġà¤µà¤°à¤£": 5200,
      "à¤¬à¤°à¤¦": 5201,
      "à¤·à¤ħà¤Ĺ": 5202,
      "Ġà¤Ľà¤¤à¤®": 5203,
      "à¤§à¤°à¤£à¤²": 5204,
      "Ġà¤¤à¤¡à¤ķ": 5205,
      "Ġà¤¤à¤Łà¤®": 5206,
      "Ġà¤Ĩà¤ĩà¤ıà¤ķ": 5207,
      "à¤Īà¤µà¤¸": 5208,
      "à¤Īà¤²à¤Ĺ": 5209,
      "à¤¡à¤®à¤ķ": 5210,
      "à¤¡à¤²à¤Ĺ": 5211,
      "à¤ĩà¤ªà¤°": 5212,
      "à¤ĩà¤ªà¤ķ": 5213,
      "à¤°à¤®à¤ªà¤Ľ": 5214,
      "Ġà¤ļà¤ĸ": 5215,
      "Ġà¤ļà¤Ļ": 5216,
      "Ġà¤ĸà¤°à¤ķ": 5217,
      "Ġà¤ıà¤ªà¤®": 5218,
      "à¤°à¤£à¤ª": 5219,
      "à¤¯à¤®à¤µà¤°": 5220,
      "Ġà¤ķà¤®à¤¨": 5221,
      "Ġà¤¬à¤¸à¤¹à¤°": 5222,
      "à¥«à¥ª": 5223,
      "à¥«à¥¬": 5224,
      "à¤¨à¤¨à¤°à¤¸": 5225,
      "Ġà¤¸à¤¦à¤¨à¤²": 5226,
      "Ġà¤ĵà¤ķà¤²": 5227,
      "Ġà¥§à¥¦à¥§à¥¦": 5228,
      "Ġà¥®à¥§à¥¦": 5229,
      "à¤¹à¤¨à¤¤à¤ķ": 5230,
      "Ġà¤Ĩà¤ĩà¤ĵà¤¸": 5231,
      "Ġà¤Ĩà¤ĩà¤ıà¤¨à¤ľ": 5232,
      "à¤ıà¤¨à¤¡": 5233,
      "Ġà¤¸à¤Ļà¤ĸ": 5234,
      "Ġà¤ħà¤²à¤°": 5235,
      "Ġà¥§à¥«à¥®": 5236,
      "Ġà¥§à¥«à¥§à¥¬": 5237,
      "Ġà¥§à¥¨à¥©": 5238,
      "Ġà¤¨à¤Ńà¤¤": 5239,
      "Ġà¤§à¤¨à¤§": 5240,
      "Ġà¤Ĩà¤¶à¤¯à¤ķ": 5241,
      "Ġà¤¬à¤ļà¤¤à¤ķà¤°": 5242,
      "à¤ĩà¤Łà¤¬": 5243,
      "Ġà¥§à¥©à¥®": 5244,
      "Ġà¥¨à¥§à¥Ń": 5245,
      "Ġà¤Ĩà¤Īà¤ıà¤¨à¤ľ": 5246,
      "à¤Ĩà¤°à¤ıà¤¸": 5247,
      "Ġà¤Ĺà¤łà¤¨à¤®": 5248,
      "Ġà¤¬à¤Ĺà¤°à¤®": 5249,
      "Ġà¤ľà¤²à¤¶": 5250,
      "à¤ĩà¤¡à¤¬à¤¡": 5251,
      "à¤®à¤£à¤¹à¤°": 5252,
      "Ġà¤¸à¤°à¤¸à¤°": 5253,
      "à¤¤à¤¸à¤Ļ": 5254,
      "à¤£à¤ªà¤¶": 5255,
      "à¤¶à¤Ńà¤°à¤¬": 5256,
      "Ġà¤ĵà¤Ńà¤°à¤¸": 5257,
      "Ġà¥¨à¥¦à¥¨à¥ª": 5258,
      "Ġà¥¨à¥¦à¥¨à¥¬": 5259,
      "Ġà¤ĸà¤²à¤Ļ": 5260,
      "Ġà¥¨à¥¦à¥©à¥®": 5261,
      "Ġà¥¨à¥¦à¥¬à¥ªà¥¬à¥«": 5262,
      "Ġà¤Ĩà¤ĩà¤ıà¤®à¤ĩ": 5263,
      "Ġà¤Ĩà¤Ĺà¤®à¤¨à¤¸": 5264,
      "Ġà¤Ĩà¤Īà¤ıà¤®à¤Ī": 5265,
      "Ġà¤ħà¤Ĺà¤®à¤µà¤ķ": 5266,
      "à¤°à¤¨à¤ķ": 5267,
      "à¤¨à¤°à¤¤": 5268,
      "à¤¨à¤°à¤¸": 5269,
      "à¤®à¤¯à¤ķ": 5270,
      "à¤¤à¤µà¤²": 5271,
      "à¤¯à¤Ĺà¤°": 5272,
      "à¤¹à¤ļ": 5273,
      "à¤¹à¤µà¤°à¤®": 5274,
      "à¤¦à¤°à¤¹": 5275,
      "à¤¦à¤¤à¤®": 5276,
      "à¤¦à¤®à¤¨": 5277,
      "à¤µà¤ĸ": 5278,
      "Ġà¤°à¤¤à¤¨à¤ª": 5279,
      "à¤ıà¤®à¤²": 5280,
      "Ġà¤µà¤¨à¤µ": 5281,
      "à¤¬à¤ª": 5282,
      "à¤¬à¤Ł": 5283,
      "à¤§à¤ľà¤¨": 5284,
      "à¤§à¤ķà¤²": 5285,
      "Ġà¤Ĩà¤ĵà¤¸": 5286,
      "à¤Īà¤¤à¤²": 5287,
      "à¤¡à¤°à¤¹à¤°": 5288,
      "à¤Ńà¤°à¤²": 5289,
      "à¤īà¤¦à¤ķ": 5290,
      "Ġà¤¯à¤²": 5291,
      "Ġà¤ļà¤¤à¤°": 5292,
      "à¤¯à¤ķà¤¬": 5293,
      "à¤łà¤¯": 5294,
      "à¤¸à¤®à¤§": 5295,
      "Ġà¤¯à¤¸à¤Ń": 5296,
      "Ġà¤¯à¤¸à¤ĸ": 5297,
      "à¤²à¤ķà¤¤": 5298,
      "Ġà¤¸à¤¹à¤Ĩà¤¯": 5299,
      "à¤¤à¤°à¤ªà¤¶": 5300,
      "Ġà¤īà¤ªà¤¬": 5301,
      "à¤ķà¤²à¤¬": 5302,
      "Ġà¤Ĩà¤¯à¤µ": 5303,
      "à¤µà¤ķà¤¸": 5304,
      "Ġà¤Ńà¤ıà¤Ńà¤°à¤ķ": 5305,
      "à¤¯à¤²à¤¬": 5306,
      "à¤ļà¤¨à¤¹à¤°": 5307,
      "à¤·à¤£à¤¸": 5308,
      "à¤Łà¤¨à¤¬": 5309,
      "à¤¤à¤®à¤¸": 5310,
      "à¤¸à¤¨à¤¹à¤°": 5311,
      "à¤²à¤¯à¤µ": 5312,
      "à¤®à¤¨à¤°": 5313,
      "Ġà¤ĵà¤ĸà¤¤": 5314,
      "à¤«à¤²à¤¤": 5315,
      "à¤®à¤®à¤§": 5316,
      "Ġà¤ĺà¤°à¤Łà¤¹à¤°": 5317,
      "Ġà¤ķà¤²à¤°à¤ķ": 5318,
      "Ġà¤®à¤²à¤¦": 5319,
      "Ġà¥¨à¥¦à¥Ńà¥¬": 5320,
      "Ġà¤Ńà¤°à¤ĸà¤°": 5321,
      "Ġà¤Ĩà¤¦à¤¤": 5322,
      "à¤£à¤¯à¤ª": 5323,
      "à¤°à¤ªà¤¥à¤®": 5324,
      "Ġà¥§à¥«à¥¬": 5325,
      "Ġà¥§à¥¨à¥¯": 5326,
      "Ġà¤ıà¤¸à¤¡": 5327,
      "à¤ľà¤²à¤¸": 5328,
      "Ġà¤§à¤¨à¤ª": 5329,
      "Ġà¤Ĩà¤ķà¤·": 5330,
      "à¤¤à¤¬à¤®": 5331,
      "à¤®à¤¬à¤¦": 5332,
      "Ġà¥©à¥¦à¥¦à¥¦": 5333,
      "à¤ľà¤¦à¤°à¤ķ": 5334,
      "Ġà¤Ńà¤Īà¤¨": 5335,
      "à¤¯à¤Łà¤¨à¤¸": 5336,
      "à¤¯à¤£à¤¸": 5337,
      "Ġà¤Ĩà¤Īà¤¡à¤²à¤ķ": 5338,
      "à¤°à¤¥à¤®à¤¤": 5339,
      "à¤¤à¤¸à¤ŀ": 5340,
      "Ġà¤Ńà¤°à¤¤à¤°": 5341,
      "Ġà¤¡à¤Łà¤ķà¤®à¤²": 5342,
      "Ġà¤Ĺà¤ľà¤²à¤®": 5343,
      "Ġà¤¸à¤°à¤²à¤¤": 5344,
      "Ġà¤ļà¤Łà¤ªà¤Ł": 5345,
      "Ġà¥§à¥¯à¥«à¥®": 5346,
      "Ġà¤¨à¤ħà¤ªà¤¨": 5347,
      "Ġà¤ıà¤Ĩà¤°à¤Ł": 5348,
      "à¥ŀ": 5349,
      "à¤°à¤ħà¤ĺ": 5350,
      "à¤®à¤°à¤£à¤®": 5351,
      "à¤¯à¤¯à¤ķ": 5352,
      "Ġà¤ªà¤Ĺà¤°": 5353,
      "à¤ªà¤Łà¤¨": 5354,
      "Ġà¤Ĺà¤£à¤ķ": 5355,
      "à¤Ĺà¤ĸ": 5356,
      "Ġà¤Ńà¤®": 5357,
      "Ġà¤¹à¤¸à¤¨": 5358,
      "à¤¬à¤¶": 5359,
      "à¤§à¤¦": 5360,
      "à¤¶à¤¹": 5361,
      "Ġà¤Ĩà¤Īà¤ķ": 5362,
      "Ġà¤ľà¤¯à¤ķ": 5363,
      "Ġà¤ľà¤ķà¤¡": 5364,
      "à¤ļà¤Ńà¤¨": 5365,
      "à¤ļà¤ªà¤¦": 5366,
      "à¤Īà¤°à¤¹à¤¨": 5367,
      "à¤¡à¤Ł": 5368,
      "à¤£à¤ĸ": 5369,
      "Ġà¤īà¤¥à¤²à¤ª": 5370,
      "à¤Ńà¤§": 5371,
      "à¤īà¤ľà¤°": 5372,
      "à¤ĩà¤¸à¤°": 5373,
      "à¤«à¤¸à¤²à¤®": 5374,
      "Ġà¤¶à¤ª": 5375,
      "Ġà¤ıà¤¨à¤¬": 5376,
      "à¤łà¤¸à¤®": 5377,
      "à¤°à¤¤à¤²à¤Ĺ": 5378,
      "à¤Ļà¤¨": 5379,
      "à¤°à¤£à¤¸à¤®": 5380,
      "à¤ªà¤¨à¤¹à¤°": 5381,
      "à¤ªà¤¨à¤¸à¤®": 5382,
      "à¤¤à¤°à¤¸à¤°à¤ķ": 5383,
      "Ġà¤ķà¤°à¤¨": 5384,
      "à¤ĩà¤¨à¤¹à¤°": 5385,
      "à¤¯à¤¨à¤°à¤¤": 5386,
      "Ġà¤Ńà¤ıà¤¬": 5387,
      "Ġà¤Ńà¤ıà¤ªà¤¶": 5388,
      "Ġà¤Ĺà¤¤à¤¸": 5389,
      "à¥«à¥§": 5390,
      "Ġà¤ħà¤µà¤¸à¤°à¤¬": 5391,
      "à¤Ĩà¤°à¤®": 5392,
      "à¥ªà¥Ń": 5393,
      "Ġà¤ĵà¤®à¤¨": 5394,
      "Ġà¤ļà¤²à¤¨à¤²": 5395,
      "à¤¶à¤¨à¤ª": 5396,
      "Ġà¤ħà¤®à¤°à¤¸": 5397,
      "Ġà¤Ķà¤ķ": 5398,
      "Ġà¤ĺà¤°à¤Ńà¤¨": 5399,
      "Ġà¥§à¥¦à¥©": 5400,
      "Ġà¤ªà¤¦à¤ļ": 5401,
      "à¤¹à¤¨à¤¤à¤²": 5402,
      "Ġà¤Ĩà¤ĩà¤ķ": 5403,
      "à¤¯à¤µà¤¦": 5404,
      "à¤µà¤°à¤£à¤¬": 5405,
      "Ġà¤Ĳà¤ľ": 5406,
      "Ġà¥§à¥«à¥Ń": 5407,
      "à¤¨à¤Ĺà¤°à¤¬": 5408,
      "à¤Ńà¤µà¤¬": 5409,
      "Ġà¤Īà¤·": 5410,
      "Ġà¤Īà¤Ĩà¤Īà¤ı": 5411,
      "Ġà¤«à¤°à¤ķà¤®": 5412,
      "à¤ķà¤Łà¤¸": 5413,
      "à¤ķà¤¸à¤ª": 5414,
      "Ġà¥§à¥Ńà¥®": 5415,
      "Ġà¤Ĩà¤²à¤Ł": 5416,
      "à¤¨à¤¯à¤¨à¤ķ": 5417,
      "à¤Ĩà¤Īà¤¡": 5418,
      "à¤Ĩà¤Īà¤ıà¤¸": 5419,
      "à¤®à¤£à¤µ": 5420,
      "à¤¶à¤¹à¤°à¤ķ": 5421,
      "Ġà¤¸à¤¹à¤°à¤²": 5422,
      "à¤¤à¤µà¤¨à¤¬": 5423,
      "à¤¯à¤Łà¤¨à¤®à¤¨": 5424,
      "à¤µà¤ķà¤ªà¤¬": 5425,
      "Ġà¤Ĩà¤Ĩà¤«à¤¨": 5426,
      "Ġà¤·à¤¤": 5427,
      "à¤Łà¤¨à¤Ĺà¤°à¤¬": 5428,
      "à¥Ńà¥¬à¥®": 5429,
      "Ġà¤°à¤¨à¤°à¤ħà¤ª": 5430,
      "Ġà¤½": 5431,
      "à¤®à¤¨à¤®": 5432,
      "à¤®à¤°à¤²": 5433,
      "à¤¤à¤ĭà¤·": 5434,
      "à¤¸à¤ľà¤¨": 5435,
      "à¤ªà¤ķà¤®": 5436,
      "à¤µà¤Łà¤®": 5437,
      "à¤µà¤ħà¤°": 5438,
      "Ġà¤ķà¤µà¤°": 5439,
      "Ġà¤Ĺà¤ĩ": 5440,
      "Ġà¤°à¤¸à¤®": 5441,
      "Ġà¤°à¤¬à¤°": 5442,
      "Ġà¤¨à¤ªà¤¤": 5443,
      "Ġà¤®à¤¬": 5444,
      "Ġà¤®à¤¤à¤®": 5445,
      "à¤ıà¤Ĺ": 5446,
      "à¤ľà¤ķà¤°": 5447,
      "à¤·à¤ªà¤¹": 5448,
      "Ġà¤¤à¤²à¤¤": 5449,
      "à¤¥à¤°à¤²": 5450,
      "à¤¶à¤Ĺ": 5451,
      "Ġà¤ľà¤¯à¤¶": 5452,
      "Ġà¤²à¤Ľ": 5453,
      "à¤Īà¤¨à¤¬": 5454,
      "à¤£à¤¨à¤Ĺà¤°": 5455,
      "Ġà¤īà¤µ": 5456,
      "à¤Ńà¤¹à¤°": 5457,
      "à¤ĸà¤Ĺà¤ŀ": 5458,
      "à¤ĩà¤®à¤¨": 5459,
      "à¤ĩà¤°à¤¨": 5460,
      "Ġà¤ıà¤ıà¤¨à¤ı": 5461,
      "à¤łà¤¤à¤®": 5462,
      "à¤ĺà¤¬à¤¹": 5463,
      "Ġà¤ıà¤ķà¤ªà¤ķ": 5464,
      "Ġà¤§à¤¨à¤µ": 5465,
      "à¤°à¤¹à¤¸à¤®": 5466,
      "Ġà¤¡à¤Ļ": 5467,
      "à¤¯à¤¸à¤¸à¤®": 5468,
      "Ġà¤īà¤ªà¤ľà¤ķ": 5469,
      "Ġà¤ķà¤°à¤¸à¤®": 5470,
      "à¤ªà¤®à¤¤à¤®": 5471,
      "Ġà¥¨à¥¦à¥®": 5472,
      "à¤¯à¤¨à¤¬": 5473,
      "à¤ħà¤ªà¤®": 5474,
      "à¤ħà¤ļà¤²": 5475,
      "à¤ħà¤µà¤§": 5476,
      "à¤¸à¤²à¤§": 5477,
      "à¤²à¤¨à¤¤": 5478,
      "à¤¸à¤¨à¤¸à¤®": 5479,
      "à¤Ĩà¤ª": 5480,
      "Ġà¤ļà¤²à¤ħà¤ļà¤²": 5481,
      "à¤¤à¤²à¤¹à¤°": 5482,
      "à¤§à¤¨à¤µ": 5483,
      "Ġà¤¢à¤²à¤ķ": 5484,
      "Ġà¤ħà¤®à¤°à¤²": 5485,
      "à¤Łà¤®à¤¬": 5486,
      "Ġà¤ĺà¤°à¤Ĺ": 5487,
      "Ġà¤Ĩà¤ĩà¤Łà¤®": 5488,
      "Ġà¤ħà¤ªà¤ļà¤²à¤¨": 5489,
      "à¤°à¤ļà¤²à¤¨à¤²": 5490,
      "à¤£à¤¯à¤ªà¤Ľ": 5491,
      "Ġà¥§à¥¯à¥Ńà¥¨": 5492,
      "Ġà¥§à¥¨à¥¦à¥¦": 5493,
      "Ġà¥§à¥ªà¥©": 5494,
      "Ġà¥¨à¥§à¥¦": 5495,
      "Ġà¥¦à¥Ńà¥¬": 5496,
      "à¤ľà¤¦à¤°à¤²": 5497,
      "Ġà¤Ĭà¤ªà¤¤": 5498,
      "Ġà¤Ĩà¤Īà¤«": 5499,
      "Ġà¤Ĩà¤Īà¤¸à¤ķ": 5500,
      "Ġà¥¨à¥Ńà¥«": 5501,
      "à¤¸à¤¨à¤²à¤ķ": 5502,
      "à¤¸à¤¨à¤²à¤²": 5503,
      "à¤¶à¤¨à¤²à¤²": 5504,
      "à¤Ĭà¤®": 5505,
      "Ġà¥Ńà¥«à¥Ńà¥¬": 5506,
      "Ġà¤¨à¤Ĩà¤¤": 5507,
      "Ġà¥¨à¥¦à¥ªà¥§": 5508,
      "Ġà¤¯à¤®à¤¨à¤®": 5509,
      "Ġà¤²à¤¹à¤¡à¤®": 5510,
      "Ġà¥¦à¥«à¥®": 5511,
      "à¤Łà¤Ńà¤Ł": 5512,
      "à¤¡à¤¹à¤²à¤®": 5513,
      "Ġà¤ħà¤¹à¤®à¤¦à¤²": 5514,
      "Ġà¥¦à¥Ńà¥©à¥Ńà¥ª": 5515,
      "ĠĠĠĠĠĠĠĠĠĠĠĠĠĠĠĠĠĠĠĠĠĠĠĠĠĠĠĠĠĠĠĠĠĠĠĠĠĠĠĠĠĠĠĠĠĠĠĠĠĠĠĠĠĠĠĠĠĠĠĠĠĠĠĠĠĠĠĠĠĠĠĠĠĠĠĠĠĠĠĠĠĠĠĠĠĠĠĠĠĠĠĠĠĠĠĠĠĠĠĠĠĠĠĠĠĠĠĠĠĠĠĠĠĠĠĠĠĠĠĠĠĠĠĠĠĠĠĠ": 5516,
      "Ġà¤ľà¤®à¤ĺà¤Łà¤®": 5517,
      "Ġà¤²à¤«à¤¡": 5518,
      "à¤ļà¤ªà¤¦à¤¸": 5519,
      "à¥įà¤¾à¤¾": 5520,
      "à¤¨à¤¯à¤²": 5521,
      "à¤ķà¤·à¤£": 5522,
      "à¤ķà¤Łà¤¨": 5523,
      "à¤ķà¤·à¤ķ": 5524,
      "à¤²à¤Ĺà¤ķ": 5525,
      "à¤²à¤ļà¤ķ": 5526,
      "à¤²à¤¯à¤¸à¤¹": 5527,
      "à¤®à¤£à¤ķ": 5528,
      "à¤¸à¤°à¤Ń": 5529,
      "Ġà¤¸à¤Łà¤°": 5530,
      "à¤¹à¤Ļà¤ķ": 5531,
      "à¤ªà¤¸à¤¬": 5532,
      "à¤µà¤¯à¤¤": 5533,
      "à¤µà¤ķà¤®": 5534,
      "à¤µà¤¬à¤¹": 5535,
      "à¤Ĺà¤£à¤®": 5536,
      "Ġà¤°à¤¨à¤¤": 5537,
      "Ġà¤¬à¤¨à¤ķ": 5538,
      "Ġà¤®à¤Ľ": 5539,
      "Ġà¤®à¤Ńà¤¨": 5540,
      "Ġà¤ħà¤¦à¤ķ": 5541,
      "à¤¶à¤µà¤¨": 5542,
      "Ġà¤Ĩà¤µà¤°": 5543,
      "Ġà¤Ĩà¤¶à¤¨": 5544,
      "Ġà¤Ĩà¤²à¤®à¤²": 5545,
      "Ġà¤²à¤µà¤¹à¤°": 5546,
      "à¤Īà¤Łà¤®": 5547,
      "à¤ĸà¤¨à¤²": 5548,
      "à¤ĩà¤®à¤²": 5549,
      "à¤°à¤®à¤®à¤¨": 5550,
      "Ġà¤ıà¤ªà¤²": 5551,
      "à¤¯à¤ķà¤¸": 5552,
      "à¤łà¤¦": 5553,
      "Ġà¤ħà¤¨à¤¸": 5554,
      "à¥¦à¥Ńà¥¬": 5555,
      "à¤°à¤£à¤µà¤¶": 5556,
      "à¤ĺà¤¤": 5557,
      "à¤ĺà¤Ń": 5558,
      "Ġà¤ĺà¤¸": 5559,
      "Ġà¤ĺà¤¨à¤®": 5560,
      "à¤²à¤ķà¤¸à¤®": 5561,
      "Ġà¤Łà¤ļ": 5562,
      "Ġà¤Łà¤Ļ": 5563,
      "à¤°à¤¸à¤¤": 5564,
      "Ġà¤®à¤¨à¤¤": 5565,
      "Ġà¤ĩà¤¡à¤²": 5566,
      "à¤µà¤¨à¤°à¤ķ": 5567,
      "à¤Łà¤¨à¤°à¤¸": 5568,
      "à¤¸à¤¨à¤¦": 5569,
      "à¤Ĩà¤µà¤¶": 5570,
      "Ġà¤ĵà¤ľ": 5571,
      "à¤¯à¤°à¤¡": 5572,
      "Ġà¤¹à¤°à¤«": 5573,
      "à¤§à¤¨à¤¸à¤®": 5574,
      "à¤§à¤¨à¤Ĺà¤°": 5575,
      "Ġà¤ĺà¤°à¤ĸà¤°": 5576,
      "Ġà¤ķà¤²à¤¹": 5577,
      "à¤²à¤Ĺà¤ĩà¤¨": 5578,
      "Ġà¤ıà¤®à¤¸": 5579,
      "Ġà¤¬à¤²à¤ª": 5580,
      "Ġà¤ħà¤ªà¤Ĺ": 5581,
      "à¤ĩà¤²à¤Łà¤ķ": 5582,
      "Ġà¥§à¥¯à¥Ńà¥¬": 5583,
      "Ġà¥§à¥¯à¥Ńà¥§": 5584,
      "Ġà¤ıà¤¸à¤°": 5585,
      "Ġà¤ıà¤¸à¤¬": 5586,
      "Ġà¤Ĩà¤īà¤Ľà¤¨": 5587,
      "à¤·à¤¦à¤¹à¤°": 5588,
      "Ġà¤ıà¤¨à¤ıà¤«": 5589,
      "à¤Łà¤¬à¤²à¤²": 5590,
      "Ġà¤ľà¤²à¤Ńà¤£": 5591,
      "à¤µà¤Ńà¤°à¤¬": 5592,
      "Ġà¤¸à¤°à¤¸à¤²": 5593,
      "Ġà¤¦à¤®à¤ķà¤²": 5594,
      "Ġà¥©à¥¬à¥«": 5595,
      "à¤¼à¥ģ": 5596,
      "Ġà¥¦à¥¬à¥¨": 5597,
      "Ġà¥¦à¥¬à¥¬": 5598,
      "Ġà¥¨à¥¦à¥©à¥¨": 5599,
      "Ġà¥§à¥¯à¥®à¥«": 5600,
      "Ġà¥§à¥¯à¥¬à¥¨": 5601,
      "Ġà¥¦à¥ªà¥Ń": 5602,
      "Ġà¥¦à¥Ńà¥ªà¥¦à¥Ńà¥«": 5603,
      "Ġà¤¨à¤Łà¤Ĩà¤īà¤Ł": 5604,
      "à¥Ŀ": 5605,
      "à¤¾à¥Ģ": 5606,
      "à¤°à¤ªà¤ķ": 5607,
      "à¤¨à¤µà¤®": 5608,
      "à¤¨à¤Ĺà¤¢": 5609,
      "à¤ķà¤¨à¤ķà¤°": 5610,
      "à¤®à¤Ńà¤ķ": 5611,
      "à¤¯à¤ªà¤¨": 5612,
      "Ġà¤ªà¤§": 5613,
      "à¤ªà¤²à¤Ĺ": 5614,
      "à¤¦à¤ļ": 5615,
      "à¤¦à¤®à¤ķ": 5616,
      "à¤µà¤¶à¤®à¤¶": 5617,
      "Ġà¤ķà¤ªà¤²": 5618,
      "Ġà¤ķà¤£à¤¹à¤°": 5619,
      "Ġà¤°à¤£à¤¬": 5620,
      "Ġà¤¨à¤¯à¤¨": 5621,
      "Ġà¤¨à¤¡à¤°": 5622,
      "à¤ľà¤®à¤ķ": 5623,
      "Ġà¤¹à¤Ĺ": 5624,
      "Ġà¤µà¤¶à¤®": 5625,
      "Ġà¤µà¤ļà¤¤": 5626,
      "à¤¬à¤ĩ": 5627,
      "à¤·à¤ĺ": 5628,
      "à¤·à¤°à¤²": 5629,
      "à¤ıà¤ķà¤¤": 5630,
      "à¤¥à¤ķà¤ķ": 5631,
      "à¤¶à¤Ļ": 5632,
      "Ġà¤Ĩà¤¹à¤¤": 5633,
      "Ġà¤Ĩà¤Ĺà¤®à¤¨à¤®": 5634,
      "à¤ļà¤¤à¤°": 5635,
      "à¤Īà¤°à¤²": 5636,
      "à¤Ńà¤ª": 5637,
      "à¤Ńà¤¶": 5638,
      "Ġà¤¯à¤®à¤¬à¤¹": 5639,
      "Ġà¤¸à¤®à¤¬à¤¨": 5640,
      "à¤ĩà¤®à¤ķ": 5641,
      "à¤ĩà¤®à¤®": 5642,
      "à¤ĩà¤ħà¤¨": 5643,
      "à¤°à¤®à¤¸à¤¹": 5644,
      "Ġà¤ļà¤¯à¤¨à¤®": 5645,
      "à¤«à¤ķà¤¨": 5646,
      "Ġà¤ıà¤ªà¤°": 5647,
      "Ġà¤ıà¤ŀ": 5648,
      "à¤Ļà¤«": 5649,
      "à¤ªà¤°à¤ľ": 5650,
      "à¤¨à¤®à¤°": 5651,
      "Ġà¤®à¤¹à¤Ĺ": 5652,
      "Ġà¤§à¤°à¤¤": 5653,
      "à¤ªà¤¨à¤¦": 5654,
      "à¤°à¤¹à¤¹à¤°": 5655,
      "Ġà¤¤à¤°à¤¬": 5656,
      "à¤¤à¤°à¤Ĺ": 5657,
      "Ġà¤īà¤ªà¤ķà¤ª": 5658,
      "à¤Ŀà¤°": 5659,
      "à¤¯à¤¤à¤µ": 5660,
      "Ġà¤®à¤¨à¤Ńà¤°": 5661,
      "à¤ĩà¤¨à¤ĸà¤¬": 5662,
      "à¤ħà¤¶": 5663,
      "à¤ħà¤Ľ": 5664,
      "à¤µà¤°à¤«": 5665,
      "Ġà¥©à¥¨à¥¦": 5666,
      "à¤²à¤¬à¤¦": 5667,
      "à¤²à¤¨à¤¦": 5668,
      "à¤Łà¤¨à¤¸": 5669,
      "à¤Łà¤¨à¤¹": 5670,
      "à¤°à¤µà¤ª": 5671,
      "Ġà¤¹à¤ľà¤°": 5672,
      "Ġà¤ħà¤Ńà¤¦": 5673,
      "à¥©à¥Ń": 5674,
      "à¤µà¤²à¤ª": 5675,
      "Ġà¤¸à¤¯à¤ľà¤¨": 5676,
      "Ġà¤ħà¤¬à¤¶": 5677,
      "Ġà¤ĸà¤°à¤¨": 5678,
      "Ġà¤¦à¤°à¤°": 5679,
      "Ġà¤ĺà¤°à¤Ĩ": 5680,
      "Ġà¤ħà¤µà¤¯à¤µ": 5681,
      "à¤¹à¤¨à¤ľ": 5682,
      "à¤¹à¤¨à¤¬à¤¹": 5683,
      "Ġà¤¦à¤²à¤¦à¤²à¤®": 5684,
      "Ġà¤ıà¤®à¤ıà¤¸": 5685,
      "Ġà¤¥à¤ªà¤ĺà¤Ł": 5686,
      "Ġà¤¸à¤¤à¤ª": 5687,
      "Ġà¥§à¥¯à¥Ńà¥ª": 5688,
      "Ġà¤ıà¤¸à¤ľ": 5689,
      "à¤¸à¤¹à¤ľ": 5690,
      "Ġà¥¨à¥«à¥¦à¥¦": 5691,
      "Ġà¥«à¥¦à¥¦à¥¦": 5692,
      "Ġà¤Ĺà¤£à¤ªà¤¤": 5693,
      "Ġà¥§à¥ªà¥§à¥«": 5694,
      "Ġà¥§à¥©à¥¬": 5695,
      "Ġà¥§à¥Ńà¥©": 5696,
      "à¤ĩà¤¨à¤²à¤¬": 5697,
      "ĠĠĠĠĠĠĠĠĠĠĠĠĠ": 5698,
      "à¤°à¤ĸà¤ª": 5699,
      "Ġà¥¨à¥©à¥¨": 5700,
      "Ġà¤¶à¤¹à¤°à¤²": 5701,
      "Ġà¤¶à¤¹à¤°à¤¬": 5702,
      "à¤Łà¤¬à¤²à¤¬": 5703,
      "Ġà¤ķà¤Łà¤µ": 5704,
      "Ġà¤Ĩà¤łà¤°": 5705,
      "Ġà¤¨à¤µà¤īà¤¦": 5706,
      "à¤Ķà¤·à¤§à¤ķ": 5707,
      "à¤ªà¤Łà¤ķà¤®": 5708,
      "Ġà¤ıà¤²à¤ĩà¤¡": 5709,
      "Ġà¤¡à¤²à¤°à¤¸à¤®": 5710,
      "Ġà¤Ĺà¤ıà¤ªà¤¨": 5711,
      "à¤Łà¤¨à¤Ĺà¤°à¤¸": 5712,
      "Ġà¥¬à¥«à¥¦": 5713,
      "à¤¨à¤Ńà¤°à¤ķ": 5714,
      "Ġà¤ļà¤°à¤£à¤ħà¤¨": 5715,
      "Ġà¥¦à¥¬à¥«": 5716,
      "à¤¬à¤Īà¤¬": 5717,
      "Ġà¤ħà¤®à¤°à¤Ĺà¤¢": 5718,
      "Ġà¥§à¥¯à¥«à¥©": 5719,
      "à¤²à¤¡à¤®à¤¨": 5720,
      "à¤µà¤¸à¤¹à¤®à¤¤": 5721,
      "à¤Ĺà¤Ńà¤Ļ": 5722,
      "Ġà¤ıà¤¸à¤ĩà¤Ī": 5723,
      "à¤°à¤ĵà¤Ł": 5724,
      "à¤¨à¤ĺ": 5725,
      "à¤¨à¤µà¤¸": 5726,
      "à¤¨à¤¬à¤°": 5727,
      "à¤¿à¥ĭ": 5728,
      "à¤¿à¥ĥ": 5729,
      "à¤²à¤µà¤¨": 5730,
      "à¤®à¤§à¤¨": 5731,
      "à¤¤à¤Ĺà¤¤à¤ķ": 5732,
      "à¥ģà¥Ĥ": 5733,
      "à¤¸à¤¡à¤°": 5734,
      "Ġà¥ŀ": 5735,
      "Ġà¤ªà¤¥à¤®": 5736,
      "à¤ªà¤¦à¤®": 5737,
      "à¤¦à¤ªà¤Ľ": 5738,
      "à¤µà¤°à¤¦": 5739,
      "à¤µà¤ļà¤¨": 5740,
      "à¤Ĺà¤«à¤²": 5741,
      "à¤Łà¤¤à¤°": 5742,
      "à¤ıà¤Ńà¤¨": 5743,
      "Ġà¤Ńà¤¸": 5744,
      "Ġà¤ħà¤«à¤²": 5745,
      "à¤¬à¤¥": 5746,
      "à¤¬à¤ķà¤°": 5747,
      "à¤·à¤Ĺ": 5748,
      "à¤§à¤¡": 5749,
      "Ġà¤¦à¤ľ": 5750,
      "à¤¥à¤¨à¤Ĺà¤°": 5751,
      "à¤¶à¤Ńà¤¨": 5752,
      "Ġà¤Ĩà¤łà¤®": 5753,
      "Ġà¤ľà¤ļ": 5754,
      "à¤¡à¤ļ": 5755,
      "à¤¡à¤µà¤¹à¤°": 5756,
      "à¤Ńà¤Ī": 5757,
      "à¤Ńà¤²à¤ª": 5758,
      "à¤ĸà¤µ": 5759,
      "à¤ĩà¤¤à¤ķ": 5760,
      "Ġà¤ļà¤¶": 5761,
      "à¤«à¤°à¤®": 5762,
      "Ġà¤ĸà¤¬à¤°à¤ķ": 5763,
      "Ġà¤ıà¤¨à¤°": 5764,
      "Ġà¤ªà¤°à¤ª": 5765,
      "à¤Ļà¤ĸà¤²": 5766,
      "Ġà¤«à¤Ļ": 5767,
      "à¤ľà¤¨à¤¸à¤®": 5768,
      "Ġà¤®à¤¹à¤²à¤ķ": 5769,
      "Ġà¤®à¤¹à¤µà¤ķ": 5770,
      "Ġà¤¯à¤¸à¤¬à¤°": 5771,
      "à¤°à¤¹à¤¬": 5772,
      "à¤ĩà¤¨à¤Ń": 5773,
      "à¤¤à¤ķà¤¬": 5774,
      "à¤¸à¤²à¤°": 5775,
      "à¥§à¥¦à¥¦": 5776,
      "à¤Łà¤¨à¤°à¤ķ": 5777,
      "à¥Īà¤Ĥà¤ģ": 5778,
      "Ġà¤Ĩà¤°à¤Ł": 5779,
      "Ġà¤Ŀà¤®à¤ķ": 5780,
      "à¤·à¤ķà¤¸": 5781,
      "à¤Ńà¤¨à¤°": 5782,
      "à¤Ĩà¤ī": 5783,
      "à¤¦à¤¨à¤¸à¤®": 5784,
      "à¥ªà¥©": 5785,
      "à¤Ĺà¤®à¤Ĺ": 5786,
      "à¤ĵà¤¤": 5787,
      "à¤ĵà¤Ńà¤°": 5788,
      "Ġà¤Ĩà¤īà¤¨à¤ķ": 5789,
      "à¤²à¤Ĺà¤¡": 5790,
      "à¥¯à¥®": 5791,
      "Ġà¤Ĩà¤ĩà¤ķà¤¨": 5792,
      "Ġà¤ħà¤ªà¤ļ": 5793,
      "à¤µà¤°à¤£à¤®à¤¨": 5794,
      "à¤°à¤ªà¤¥à¤ķ": 5795,
      "à¤¨à¤µà¤¹": 5796,
      "à¤¡à¤®à¤Ľ": 5797,
      "Ġà¥§à¥¨à¥ª": 5798,
      "Ġà¤Ĩà¤¶à¤²": 5799,
      "Ġà¥«à¥¦à¥¬à¥¦": 5800,
      "Ġà¤¨à¤ľà¤°à¤²": 5801,
      "à¤¨à¤Ĺà¤°à¤¸": 5802,
      "à¤²à¤¯à¤®à¤§": 5803,
      "Ġà¥©à¥¦à¥¨": 5804,
      "Ġà¤Īà¤ŀ": 5805,
      "Ġà¥§à¥ªà¥«": 5806,
      "Ġà¥§à¥¬à¥¬": 5807,
      "Ġà¥§à¥Ńà¥ª": 5808,
      "Ġà¥¨à¥ªà¥«": 5809,
      "Ġà¥¨à¥Ńà¥¦": 5810,
      "Ġà¥¨à¥¦à¥¬à¥¨à¥¦à¥¬à¥©": 5811,
      "Ġà¤ľà¤¨à¤¸à¤°à¤ķ": 5812,
      "Ġà¤ĭà¤£à¤¬": 5813,
      "Ġà¥¨à¥¯à¥©": 5814,
      "Ġà¤Ńà¤Ĺà¤µà¤¦": 5815,
      "Ġà¤¸à¤¹à¤°à¤¹à¤°": 5816,
      "Ġà¤Ĩà¤ıà¤ľà¤¸": 5817,
      "Ġà¤ªà¤¦à¤®à¤¬à¤¹": 5818,
      "Ġà¤¦à¤®à¤ķà¤®": 5819,
      "Ġà¤ªà¤Łà¤ķà¤ªà¤Łà¤ķà¤ķ": 5820,
      "Ġà¥©à¥¬à¥¦": 5821,
      "Ġà¥«à¥§à¥¨": 5822,
      "à¥Ńà¥©à¥Ńà¥ª": 5823,
      "à¤¯à¤ľà¤¨à¤¬": 5824,
      "Ġà¥¦à¥¬à¥ª": 5825,
      "Ġà¤ľà¤¯à¤¨à¤Ĺà¤°": 5826,
      "à¤¥à¤ªà¤°à¤ķ": 5827,
      "à¤Ķà¤·à¤§à¤¸à¤¹": 5828,
      "à¤Ĺà¤ļà¤²à¤¨": 5829,
      "Ġà¤²à¤ĸà¤¨à¤ī": 5830,
      "Ġà¥§à¥¯à¥Ńà¥Ń": 5831,
      "à¥Ľà¤°": 5832,
      "à¥įà¤ĥ": 5833,
      "à¤°à¤ľà¤²": 5834,
      "à¤¨à¤¸à¤²": 5835,
      "à¤²à¤µà¤®": 5836,
      "à¤®à¤¡": 5837,
      "à¤®à¤ł": 5838,
      "à¤¤à¤ħà¤²": 5839,
      "à¤¸à¤¤à¤ķ": 5840,
      "Ġà¤ªà¤ľ": 5841,
      "Ġà¤ªà¤¥à¤ª": 5842,
      "à¤¹à¤Ń": 5843,
      "à¤¹à¤¸à¤ķ": 5844,
      "à¤¦à¤ľ": 5845,
      "à¤¦à¤¤à¤°": 5846,
      "à¤¦à¤¶à¤¨à¤®": 5847,
      "à¤µà¤£à¤ķ": 5848,
      "à¤Ĺà¤ı": 5849,
      "à¤Łà¤īà¤ªà¤Ĺ": 5850,
      "Ġà¤¬à¤²à¤¬": 5851,
      "Ġà¤®à¤µ": 5852,
      "Ġà¤®à¤Ī": 5853,
      "à¤ľà¤ľ": 5854,
      "à¤ľà¤²à¤²": 5855,
      "Ġà¤¹à¤°à¤¦à¤®": 5856,
      "Ġà¤Ĺà¤°à¤®": 5857,
      "Ġà¤µà¤Ĺ": 5858,
      "à¤·à¤°à¤ķ": 5859,
      "à¤·à¤ªà¤¨": 5860,
      "à¤·à¤°à¤¹à¤°": 5861,
      "à¤·à¤°à¤¶": 5862,
      "Ġà¤Ľà¤¯": 5863,
      "à¤§à¤Ĺ": 5864,
      "Ġà¤¤à¤Ļ": 5865,
      "Ġà¤¤à¤®à¤¸": 5866,
      "Ġà¤¦à¤ĸà¤²": 5867,
      "Ġà¤Ĩà¤¸à¤ķ": 5868,
      "Ġà¤Ĩà¤Ĺà¤®à¤¨à¤ķ": 5869,
      "Ġà¤ľà¤Ĺà¤ķ": 5870,
      "à¤ļà¤Ń": 5871,
      "à¤Īà¤ĸ": 5872,
      "à¤Īà¤ıà¤¨": 5873,
      "à¤£à¤ıà¤¶": 5874,
      "Ġà¤īà¤łà¤¨": 5875,
      "à¤ĸà¤ªà¤¢": 5876,
      "Ġà¤¯à¤®à¤²": 5877,
      "Ġà¤¸à¤®à¤ļ": 5878,
      "Ġà¤¸à¤®à¤Ń": 5879,
      "à¤ĩà¤¶": 5880,
      "à¤ĩà¤Ńà¤®": 5881,
      "Ġà¤ļà¤ŀ": 5882,
      "à¤«à¤°à¤²": 5883,
      "Ġà¤ĸà¤²à¤¬à¤²": 5884,
      "Ġà¤ıà¤ħà¤°": 5885,
      "à¤¨à¤ķà¤¤": 5886,
      "à¤ªà¤°à¤¹à¤°": 5887,
      "à¤ĺà¤¸à¤®": 5888,
      "Ġà¤ıà¤ķà¤¹à¤ľ": 5889,
      "Ġà¤°à¤¹à¤®": 5890,
      "Ġà¤¬à¤¨à¤Ĺ": 5891,
      "Ġà¤Łà¤ªà¤°": 5892,
      "à¤°à¤²à¤®": 5893,
      "à¤°à¤²à¤¯": 5894,
      "à¤¯à¤¸à¤ŀ": 5895,
      "à¤¤à¤°à¤Ĺà¤¯": 5896,
      "Ġà¤ħà¤°à¤¬à¤²": 5897,
      "à¤°à¤¸à¤¯": 5898,
      "Ġà¤ķà¤®à¤²à¤ķ": 5899,
      "Ġà¤ķà¤°à¤µ": 5900,
      "Ġà¤ĩà¤µ": 5901,
      "Ġà¤ĩà¥Ľà¤°": 5902,
      "Ġà¤ħà¤¸à¤Ń": 5903,
      "à¤µà¤°à¤¨": 5904,
      "à¤µà¤ķà¤°à¤£": 5905,
      "Ġà¤Ĩà¤°à¤ıà¤¸": 5906,
      "à¤¤à¤¨à¤¸à¤®": 5907,
      "Ġà¤¸à¤¨à¤¸": 5908,
      "à¤®à¤¨à¤ª": 5909,
      "à¤®à¤¨à¤Ĺà¤°à¤®": 5910,
      "à¤Ĩà¤ł": 5911,
      "Ġà¤ĵà¤łà¤®": 5912,
      "Ġà¤ĵà¤¤à¤ª": 5913,
      "à¤¨à¤¸à¤ªà¤Ł": 5914,
      "Ġà¤¸à¤¯à¤¸à¤®": 5915,
      "Ġà¤ħà¤®à¤°à¤¤": 5916,
      "à¤ĵà¤¹à¤°": 5917,
      "à¤¶à¤®à¤§": 5918,
      "Ġà¥¯à¥§à¥§": 5919,
      "Ġà¤ıà¤®à¤ıà¤®": 5920,
      "Ġà¤¬à¤²à¤ľà¤«": 5921,
      "Ġà¥¨à¥¦à¥Ńà¥§à¥¦à¥Ńà¥¨": 5922,
      "à¤ľà¤®à¤¸": 5923,
      "à¤°à¤®à¤£à¤¹à¤°": 5924,
      "Ġà¥§à¥«à¥«": 5925,
      "Ġà¥§à¥¨à¥§": 5926,
      "Ġà¥§à¥¨à¥Ń": 5927,
      "Ġà¥§à¥¨à¥¨": 5928,
      "Ġà¤°à¤ķà¤®à¤¸à¤®": 5929,
      "à¤¦à¤²à¤¹à¤°": 5930,
      "à¤ıà¤¸à¤¬": 5931,
      "Ġà¤Īà¤Ļà¤²": 5932,
      "Ġà¥¨à¥§à¥«": 5933,
      "à¤ķà¤Łà¤¹à¤°": 5934,
      "Ġà¤°à¤®à¤Ŀà¤®": 5935,
      "Ġà¥¨à¥¨à¥¨": 5936,
      "Ġà¤Ĩà¤Īà¤®": 5937,
      "Ġà¥¨à¥®à¥¦": 5938,
      "à¤®à¤ªà¤¹": 5939,
      "Ġà¤Ĩà¤ļà¤°à¤£à¤ķ": 5940,
      "à¤Ĩà¤Īà¤Ł": 5941,
      "Ġà¤Ĩà¤ıà¤Ľ": 5942,
      "Ġà¤ľà¤¨à¤ķà¤°": 5943,
      "Ġà¤īà¤ªà¤ķà¤°à¤£à¤®": 5944,
      "Ġà¤¹à¤Ļà¤ķà¤Ļà¤¸": 5945,
      "Ġà¥¨à¥¦à¥¨à¥Ń": 5946,
      "à¤ĩà¤«à¤¸": 5947,
      "Ġà¤¹à¤¡à¤ª": 5948,
      "Ġà¤ľà¤Ĺà¤¤à¤¬à¤¹": 5949,
      "Ġà¥§à¥¯à¥®à¥§": 5950,
      "Ġà¥§à¥¯à¥®à¥Ń": 5951,
      "Ġà¥Ńà¥ªà¥Ńà¥«": 5952,
      "Ġà¤ĸà¤ªà¤¤à¤ķ": 5953,
      "Ġà¥¨à¥¦à¥¬à¥«à¥¬à¥¬": 5954,
      "à¤¨à¤µà¤²à¤ªà¤°": 5955,
      "Ġà¤²à¤ĸà¤¨à¤īà¤®": 5956,
      "Ġà¤Ĩà¤Ĺà¤®à¤¨à¤²": 5957,
      "Ġà¥§à¥¯à¥Ńà¥®": 5958,
      "Ġà¤Łà¤¨à¤ķà¤ª": 5959,
      "à¥ħ": 5960,
      "Ġà¤Ĥ": 5961,
      "à¥įà¥Į": 5962,
      "à¤°à¤ıà¤ķ": 5963,
      "à¤°à¤ľà¤ķ": 5964,
      "à¤¨à¤°à¤µà¤²": 5965,
      "à¤ķà¤¥à¤°": 5966,
      "à¤²à¤ªà¤®": 5967,
      "à¤¤à¤Ľ": 5968,
      "à¤¤à¤£": 5969,
      "à¤¤à¤²à¤²": 5970,
      "à¤¤à¤µà¤°à¤£": 5971,
      "à¤¤à¤ĸà¤¤": 5972,
      "à¤¯à¤ļà¤ķ": 5973,
      "Ġà¤¸à¤µà¤°": 5974,
      "Ġà¥ł": 5975,
      "à¤¹à¤¨à¤²": 5976,
      "à¤¹à¤ħ": 5977,
      "à¤¦à¤µà¤¸": 5978,
      "à¤¦à¤¸à¤¤": 5979,
      "à¤µà¤ľà¤²": 5980,
      "Ġà¤ķà¤µà¤¯": 5981,
      "Ġà¤Ĺà¤ıà¤¨à¤¨": 5982,
      "Ġà¤Ĺà¤ľà¤¬": 5983,
      "Ġà¤Ĺà¤Ĺà¤¨à¤ķ": 5984,
      "à¤Łà¤¬à¤°": 5985,
      "Ġà¤¨à¤Ĺà¤£": 5986,
      "Ġà¤Ńà¤ĩà¤¯": 5987,
      "à¤ľà¤¤à¤ķ": 5988,
      "à¤¬à¤°à¤¤": 5989,
      "Ġà¤Ľà¤°à¤ªà¤¸": 5990,
      "à¤§à¤Ńà¤°": 5991,
      "Ġà¤¤à¤µà¤°à¤®": 5992,
      "à¤ģà¤ģ": 5993,
      "à¤¶à¤²à¤ķ": 5994,
      "à¤¶à¤ľà¤¸": 5995,
      "Ġà¤Ĩà¤¥": 5996,
      "à¤ļà¤¯à¤¨": 5997,
      "à¤Īà¤ł": 5998,
      "à¤£à¤²à¤Ĺ": 5999,
      "Ġà¤īà¤¸à¤¸": 6000,
      "à¤Ńà¤ıà¤ªà¤Ľ": 6001,
      "à¤ĸà¤ªà¤¤": 6002,
      "à¤ĸà¤®à¤§": 6003,
      "à¤īà¤ŀ": 6004,
      "Ġà¤¸à¤®à¤¤à¤²": 6005,
      "à¤ĩà¤¸à¤²": 6006,
      "à¤ĩà¤«à¤ķ": 6007,
      "Ġà¤Ńà¤¨à¤¸": 6008,
      "Ġà¤ļà¤¹à¤²": 6009,
      "Ġà¤ĸà¤¶": 6010,
      "Ġà¤¥à¤°à¤¹à¤°": 6011,
      "Ġà¤ıà¤Łà¤®": 6012,
      "Ġà¤ªà¤°à¤¬": 6013,
      "à¤°à¤¤à¤µà¤°": 6014,
      "à¤¸à¤ķà¤®": 6015,
      "à¤¸à¤®à¤ħà¤¨": 6016,
      "à¤¨à¤®à¤²": 6017,
      "Ġà¤ĺà¤¨à¤¤": 6018,
      "à¤²à¤ķà¤¸": 6019,
      "à¤²à¤ķà¤¦": 6020,
      "Ġà¤¡à¤Ĺ": 6021,
      "Ġà¤¡à¤ļ": 6022,
      "à¤°à¤¸à¤¬": 6023,
      "Ġà¤ķà¤®à¤²à¤¸": 6024,
      "à¤®à¤ķà¤¹": 6025,
      "à¤ħà¤ĸ": 6026,
      "à¤ħà¤ĸà¤¬": 6027,
      "à¤Ĺà¤¤à¤Ńà¤¨": 6028,
      "Ġà¤¬à¤¸à¤¬": 6029,
      "à¤¸à¤²à¤Ł": 6030,
      "Ġà¤Ĺà¤¤à¤¬à¤°": 6031,
      "à¥Ńà¥Ń": 6032,
      "à¥Ńà¥¯": 6033,
      "à¤°à¤µà¤²à¤²": 6034,
      "à¥«à¥Ń": 6035,
      "à¤¶à¤ķà¤¬": 6036,
      "Ġà¤¬à¤ľà¤°": 6037,
      "à¤®à¤¤à¤¦": 6038,
      "à¤ķà¤°à¤¶": 6039,
      "à¤¤à¤¨à¤µ": 6040,
      "à¤Ĩà¤¨à¤ķ": 6041,
      "Ġà¤ĵà¤¹à¤¦": 6042,
      "Ġà¤¸à¤®à¤¯à¤¬": 6043,
      "Ġà¤ħà¤®à¤°à¤ª": 6044,
      "à¤ĵà¤¯": 6045,
      "Ġà¤ķà¤²à¤µ": 6046,
      "à¤·à¤®à¤¹": 6047,
      "Ġà¤Ĩà¤ĩà¤¦": 6048,
      "Ġà¤Ĩà¤ĩà¤ĵ": 6049,
      "Ġà¤ļà¤°à¤¨": 6050,
      "à¤¬à¤²à¤¤": 6051,
      "Ġà¥§à¥¯à¥Ńà¥«": 6052,
      "Ġà¥§à¥«à¥§": 6053,
      "Ġà¥§à¥§à¥¦à¥¦": 6054,
      "Ġà¤ıà¤¸à¤¸": 6055,
      "Ġà¤¨à¤Ńà¤ĩà¤¸à¤ķ": 6056,
      "Ġà¤§à¤¨à¤ŀ": 6057,
      "Ġà¥§à¥®à¥§": 6058,
      "à¤ľà¤¯à¤ªà¤Ľ": 6059,
      "Ġà¥§à¥¬à¥§": 6060,
      "Ġà¥§à¥¬à¥¦à¥¦": 6061,
      "Ġà¥¨à¥§à¥¨": 6062,
      "Ġà¥¨à¥§à¥®": 6063,
      "Ġà¥¦à¥¨": 6064,
      "Ġà¥§à¥Ńà¥«": 6065,
      "Ġà¤µà¤¨à¤ľ": 6066,
      "à¤µà¤¯à¤¨à¤¬": 6067,
      "à¤Īà¤¨à¤ĸà¤¬à¤°": 6068,
      "ĠĠĠĠĠĠĠĠĠĠĠĠĠĠĠ": 6069,
      "Ġà¤¸à¤¹à¤°à¤¬": 6070,
      "à¥ģà¥ģà¥ģ": 6071,
      "Ġà¤ľà¤¨à¤®à¤¤à¤²": 6072,
      "à¤Ńà¤Ĺà¤µ": 6073,
      "à¤°à¤ľà¤¨à¤¸": 6074,
      "Ġà¥¨à¥¦à¥¨à¥©": 6075,
      "Ġà¥¨à¥¦à¥©à¥Ń": 6076,
      "Ġà¥§à¥¯à¥®à¥ª": 6077,
      "Ġà¥§à¥¯à¥«à¥«": 6078,
      "Ġà¥¦à¥«à¥¨": 6079,
      "Ġà¥¦à¥«à¥¬": 6080,
      "Ġà¥§à¥¯à¥ªà¥¯": 6081,
      "à¤Ĩà¤ĩà¤¤à¤¬": 6082,
      "à¥ľà¤ķ": 6083,
      "Ġà¤¦à¤¶à¤°à¤¥à¤ļà¤¨": 6084,
      "Ġà¤¬à¤¬à¤°à¤®à¤¹à¤²à¤®": 6085,
      "Ġà¤¤à¤¡à¤ķà¤Ń": 6086,
      "à¤¾à¥ĭ": 6087,
      "à¥įà¥Ĥ": 6088,
      "à¤¨à¤¨à¤²": 6089,
      "à¤¨à¤¬à¤¨": 6090,
      "à¤ķà¤°à¤¦": 6091,
      "à¤²à¤¸à¤ķ": 6092,
      "à¤®à¤¢": 6093,
      "à¤®à¤¶à¤®à¤¶": 6094,
      "à¤¤à¤²à¤¬": 6095,
      "à¤¸à¤ıà¤¸": 6096,
      "Ġà¤¸à¤Ĺà¤°": 6097,
      "à¤¹à¤¤à¤°": 6098,
      "à¤ªà¤¯à¤®": 6099,
      "à¤ªà¤¦à¤ķ": 6100,
      "à¤¦à¤¯à¤¦": 6101,
      "à¤µà¤ľà¤¸": 6102,
      "à¤Ĺà¤ªà¤Ľ": 6103,
      "Ġà¤¨à¤īà¤¡": 6104,
      "Ġà¤¬à¤¥à¤¨": 6105,
      "Ġà¤Ńà¤°à¤¤à¤ķ": 6106,
      "Ġà¤¹à¤¥": 6107,
      "Ġà¤¹à¤¤à¤ķ": 6108,
      "Ġà¤¹à¤ķà¤µ": 6109,
      "Ġà¤µà¤«": 6110,
      "Ġà¤µà¤¸à¤²": 6111,
      "Ġà¤µà¤¨à¤¬": 6112,
      "à¤¬à¤¸à¤ķ": 6113,
      "à¤¬à¤°à¤¹à¤°": 6114,
      "à¤·à¤ľà¤¸": 6115,
      "à¤·à¤¯à¤ª": 6116,
      "Ġà¤¦à¤¸à¤®": 6117,
      "à¤¶à¤Ĺà¤°": 6118,
      "à¤¶à¤¤à¤°": 6119,
      "Ġà¤Ĩà¤²à¤¸": 6120,
      "Ġà¤²à¤ķà¤°": 6121,
      "à¤¡à¤¤à¤°": 6122,
      "à¤¡à¤¨à¤¬": 6123,
      "à¤īà¤ªà¤ļ": 6124,
      "à¤īà¤Ĩà¤®": 6125,
      "Ġà¤¸à¤®à¤§": 6126,
      "à¤ĩà¤ĸ": 6127,
      "à¤ĩà¤¤à¤²": 6128,
      "à¤ĩà¤²à¤Ĺ": 6129,
      "à¤ĩà¤¬à¤°à¤ķ": 6130,
      "à¤°à¤®à¤Ń": 6131,
      "à¤«à¤²à¤®": 6132,
      "Ġà¤¶à¤¤à¤¬": 6133,
      "Ġà¤ĸà¤Ľ": 6134,
      "à¤īà¤¨à¤¤": 6135,
      "Ġà¤ħà¤¨à¤µ": 6136,
      "à¤¸à¤ķà¤°": 6137,
      "à¤ľà¤¨à¤°": 6138,
      "à¤ľà¤¨à¤ª": 6139,
      "Ġà¤®à¤¹à¤²à¤®": 6140,
      "Ġà¤§à¤¤": 6141,
      "Ġà¤ľà¤¨à¤Ń": 6142,
      "Ġà¤ľà¤¨à¤Ĩà¤ķ": 6143,
      "Ġà¤īà¤ªà¤ķà¤°à¤£à¤²": 6144,
      "à¤°à¤¦à¤ľ": 6145,
      "Ġà¤ĩà¤¨à¤ķ": 6146,
      "à¤ķà¤®à¤¨": 6147,
      "Ġà¤ħà¤¸à¤°à¤¹à¤°": 6148,
      "à¤®à¤ķà¤¨": 6149,
      "Ġà¤īà¤¨à¤¬": 6150,
      "à¤µà¤ķà¤¬": 6151,
      "à¤ļà¤¨à¤¸": 6152,
      "à¤ļà¤¨à¤ľà¤Ļ": 6153,
      "à¤·à¤£à¤Ńà¤°à¤®": 6154,
      "à¥«à¥¦à¥¦": 6155,
      "Ġà¤Ĩà¤°à¤¨": 6156,
      "à¤Łà¤°à¤Ń": 6157,
      "à¤¸à¤¨à¤¹": 6158,
      "à¤·à¤ķà¤¸à¤®": 6159,
      "à¤®à¤¤à¤¸à¤¹": 6160,
      "à¤¨à¤¨à¤¸à¤ķ": 6161,
      "à¤¨à¤¨à¤Ĺà¤°à¤ķ": 6162,
      "à¥Įà¤ģà¤ĥ": 6163,
      "Ġà¤ĵà¤ıà¤¸": 6164,
      "à¤¹à¤¨à¤µ": 6165,
      "Ġà¤®à¤²à¤Ļ": 6166,
      "Ġà¤Ĩà¤¦à¤®": 6167,
      "à¤µà¤°à¤£à¤µ": 6168,
      "à¤®à¤ļà¤°": 6169,
      "à¤¨à¤µà¤¹à¤°": 6170,
      "à¤¡à¤®à¤§": 6171,
      "Ġà¥§à¥¯à¥¨": 6172,
      "à¤²à¤¯à¤²à¤Ĺ": 6173,
      "Ġà¥§à¥«à¥ª": 6174,
      "Ġà¤Ĩà¤īà¤¥": 6175,
      "Ġà¥¨à¥«à¥Ń": 6176,
      "Ġà¤¦à¤¶à¤Ĺà¤ľ": 6177,
      "à¤Īà¤ķà¤²à¤®": 6178,
      "Ġà¥§à¥®à¥©": 6179,
      "Ġà¥§à¥©à¥©": 6180,
      "Ġà¥§à¥©à¥¯": 6181,
      "Ġà¥§à¥¬à¥Ń": 6182,
      "Ġà¥§à¥¬à¥¨": 6183,
      "à¤ķà¤Łà¤ª": 6184,
      "Ġà¥§à¥Ńà¥¯": 6185,
      "Ġà¥¨à¥ªà¥§": 6186,
      "Ġà¤Ĩà¤Īà¤¡à¤²": 6187,
      "ĠĠĠĠĠĠĠĠĠĠĠĠ": 6188,
      "ĠĠĠĠĠĠĠĠĠĠĠ": 6189,
      "Ġà¤¬à¤®à¤¬à¤¹": 6190,
      "à¥¨à¥¦à¥§à¥Ń": 6191,
      "Ġà¥©à¥§à¥¦": 6192,
      "Ġà¤ıà¤²à¤ı": 6193,
      "Ġà¤¨à¤Ĩà¤ĵà¤¸": 6194,
      "Ġà¤Ĺà¤¹à¤¤à¤°": 6195,
      "à¤Ĺà¤¸à¤Ĺ": 6196,
      "Ġà¤Ĺà¤ĩà¤°à¤¹à¤¨": 6197,
      "Ġà¥©à¥Ńà¥Ń": 6198,
      "Ġà¤¹à¤¦à¤¬à¤¨": 6199,
      "Ġà¤ħà¤µà¤¶à¤°à¤®": 6200,
      "Ġà¥¨à¥¦à¥¨à¥¯": 6201,
      "Ġà¤Ľà¤łà¤ªà¤°": 6202,
      "Ġà¥§à¥¯à¥®à¥©": 6203,
      "Ġà¥§à¥¯à¥®à¥®": 6204,
      "Ġà¤ıà¤¨à¤Ĩà¤°à¤ıà¤¨à¤¹à¤°": 6205,
      "Ġà¤ıà¤¨à¤Ĩà¤°à¤ıà¤¨à¤ıà¤²": 6206,
      "à¤°à¤¨à¤Ĺà¤°à¤¬": 6207,
      "Ġà¥¯à¥¯à¥¯": 6208,
      "Ġà¥¦à¥«à¥¯": 6209,
      "à¤ıà¤Īà¤¬": 6210,
      "Ġà¥§à¥¯à¥ªà¥ª": 6211,
      "Ġà¤¶à¤ªà¤¥à¤Ĺ": 6212,
      "Ġà¤ĵà¤Ńà¤°à¤Ł": 6213,
      "Ġà¥¦à¥Ńà¥«à¥Ńà¥¬": 6214,
      "à¥¨à¥¦à¥§à¥®à¥¦à¥¬": 6215,
      "Ġà¤ıà¤®à¤ıà¤ıà¤ļà¤ķ": 6216,
      "Ġà¤ıà¤ħà¤°à¤²": 6217,
      "Ġà¤Ŀà¤ķà¤Ŀà¤ķ": 6218,
      "Ġà¤Ĩà¤ĩà¤°à¤¨à¤ķ": 6219,
      "à¤¨à¤¤à¤ķ": 6220,
      "à¤¨à¤ľà¤°": 6221,
      "à¤ķà¤¢": 6222,
      "à¤ķà¤Ĩà¤°": 6223,
      "à¤²à¤ľà¤¨": 6224,
      "à¤²à¤°à¤¹à¤°": 6225,
      "à¤²à¤µà¤°": 6226,
      "à¤®à¤Ľ": 6227,
      "à¤®à¤¹à¤²": 6228,
      "à¤¤à¤¥à¤²": 6229,
      "à¥ģà¥ĥ": 6230,
      "à¤¸à¤§": 6231,
      "Ġà¤¸à¤¯à¤²": 6232,
      "Ġà¤¸à¤¶à¤°": 6233,
      "à¤¹à¤²à¤Ĺ": 6234,
      "à¤¹à¤¬à¤°à¤®": 6235,
      "à¤ªà¤²à¤®": 6236,
      "à¤µà¤ªà¤°": 6237,
      "à¤µà¤ħà¤ĺ": 6238,
      "Ġà¤ķà¤ªà¤¨": 6239,
      "Ġà¤Ĺà¤ĩà¤¹": 6240,
      "à¤Ĺà¤Ĺà¤°": 6241,
      "à¤Ĺà¤µà¤¨": 6242,
      "Ġà¤°à¤¬à¤°à¤ķ": 6243,
      "à¤Łà¤ªà¤¤": 6244,
      "à¤Łà¤ĩà¤¨": 6245,
      "Ġà¤¨à¤¡": 6246,
      "Ġà¤¨à¤°à¤ª": 6247,
      "Ġà¤¨à¤µà¤µ": 6248,
      "Ġà¤¬à¤£": 6249,
      "Ġà¤¬à¤¯à¤¸": 6250,
      "Ġà¤¬à¤Ĺà¤¨": 6251,
      "à¤ıà¤¶à¤¨à¤²": 6252,
      "Ġà¤Ńà¤°à¤£à¤ª": 6253,
      "à¤ľà¤Ńà¤¨": 6254,
      "à¤ľà¤µà¤²": 6255,
      "à¤ľà¤°à¤Ń": 6256,
      "à¤§à¤¨à¤¸à¤¹": 6257,
      "à¤¥à¤ľ": 6258,
      "à¤¥à¤ķà¤®": 6259,
      "Ġà¤Ĩà¤¶à¤ķ": 6260,
      "à¤ļà¤¡": 6261,
      "à¤Īà¤¶": 6262,
      "à¤Īà¤¸à¤¹": 6263,
      "à¤¡à¤µà¤¤": 6264,
      "à¤£à¤Ńà¤ķ": 6265,
      "à¥Ĥà¥į": 6266,
      "à¥Ĥà¤Ĥ": 6267,
      "à¤Ńà¤µà¤®": 6268,
      "à¤ĩà¤ŀ": 6269,
      "à¤ĩà¤ľà¤²": 6270,
      "Ġà¤ļà¤ķà¤¨": 6271,
      "à¤«à¤¸à¤²": 6272,
      "Ġà¤ıà¤®à¤ķ": 6273,
      "à¤īà¤¨à¤¸": 6274,
      "à¤¯à¤ķà¤Ĺ": 6275,
      "Ġà¤ħà¤¨à¤¸à¤¨à¤ķ": 6276,
      "à¤Ļà¤Ń": 6277,
      "à¤¸à¤ķà¤µà¤°": 6278,
      "Ġà¤ıà¤ķà¤¢": 6279,
      "Ġà¤°à¤¹à¤¨à¤ķ": 6280,
      "Ġà¤¯à¤¸à¤¦": 6281,
      "à¤²à¤ķà¤ļ": 6282,
      "à¤ŀà¤¨": 6283,
      "à¤ŀà¤¸": 6284,
      "à¤ŀà¤¬": 6285,
      "à¤°à¤¹à¤ª": 6286,
      "Ġà¤ħà¤§à¤°": 6287,
      "à¤°à¤²à¤²": 6288,
      "Ġà¤¡à¤°à¤ķ": 6289,
      "à¤¯à¤¸à¤¨à¤ķ": 6290,
      "Ġà¤¤à¤°à¤µ": 6291,
      "à¤²à¤®à¤ķ": 6292,
      "à¤Ŀà¤£": 6293,
      "Ġà¤ķà¤°à¤ª": 6294,
      "Ġà¤²à¤Ĺà¤ĩà¤¨": 6295,
      "Ġà¤łà¤£": 6296,
      "à¤ħà¤µ": 6297,
      "à¤ħà¤ľ": 6298,
      "Ġà¤Ńà¤ıà¤Ŀ": 6299,
      "Ġà¥©à¥Ńà¥«": 6300,
      "Ġà¤¬à¤¸à¤¸": 6301,
      "à¤ļà¤¨à¤¤": 6302,
      "à¤ļà¤¨à¤ħà¤ĺ": 6303,
      "à¤Łà¤¨à¤°à¤²": 6304,
      "à¤¤à¤®à¤®": 6305,
      "à¤·à¤ķà¤¦": 6306,
      "à¤®à¤¤à¤¬": 6307,
      "à¤¡à¤ķà¤ªà¤®": 6308,
      "Ġà¥ªà¥§à¥¦": 6309,
      "Ġà¤¸à¤°à¤ª": 6310,
      "à¤²à¤¯à¤Ń": 6311,
      "à¤Ĩà¤ĩà¤Ł": 6312,
      "à¤¦à¤¨à¤¸à¤¹": 6313,
      "à¤¨à¤¸à¤¯": 6314,
      "Ġà¤¸à¤¯à¤µà¤Ł": 6315,
      "à¤ķà¤°à¤£à¤¹à¤°": 6316,
      "Ġà¤Ĩà¤ľà¤ªà¤¨": 6317,
      "à¤¹à¤¨à¤ª": 6318,
      "Ġà¥¯à¥§à¥ª": 6319,
      "à¤ıà¤¨à¤ıà¤¨": 6320,
      "à¤ıà¤¨à¤ıà¤²": 6321,
      "à¤ķà¤¨à¤¬": 6322,
      "à¤°à¤ļà¤¨à¤ķ": 6323,
      "Ġà¥§à¥¯à¥§à¥§": 6324,
      "Ġà¥§à¥«à¥¦à¥¦": 6325,
      "à¤¸à¤¹à¤®à¤¤": 6326,
      "à¤·à¤¯à¤¬à¤¸": 6327,
      "à¤¥à¤²à¤¦": 6328,
      "Ġà¥©à¥¦à¥«": 6329,
      "Ġà¤Ĺà¤£à¤®": 6330,
      "Ġà¤ĺà¤Łà¤¦": 6331,
      "Ġà¤Īà¤¨à¤°": 6332,
      "Ġà¥§à¥®à¥¦à¥¦": 6333,
      "Ġà¥§à¥ªà¥ª": 6334,
      "Ġà¥§à¥¬à¥ª": 6335,
      "Ġà¥§à¥¬à¥©": 6336,
      "Ġà¥§à¥¬à¥®": 6337,
      "Ġà¤Ĺà¤łà¤¨à¤ªà¤Ľ": 6338,
      "Ġà¥§à¥Ńà¥¨": 6339,
      "Ġà¥§à¥Ńà¥¬": 6340,
      "à¤¯à¤£à¤Ĺ": 6341,
      "à¤·à¤§à¤°à¤¹à¤°": 6342,
      "Ġà¤Ĩà¤Īà¤ĵà¤¸": 6343,
      "Ġà¤ĸà¤¨à¤ľ": 6344,
      "Ġà¤®à¤¦à¤¨à¤¨": 6345,
      "à¤¤à¤°à¤ķà¤²": 6346,
      "à¤ĩà¤ľà¤¹": 6347,
      "Ġà¤¸à¤ªà¤¥à¤Ĺ": 6348,
      "Ġà¤Ĩà¤ıà¤¦": 6349,
      "Ġà¤ıà¤²à¤Īà¤¡": 6350,
      "à¤¯à¤Łà¤ķà¤®": 6351,
      "à¤ĩà¤ªà¤¬": 6352,
      "à¤īà¤ªà¤Ń": 6353,
      "à¤§à¤¨à¤²à¤Ĺ": 6354,
      "ĠĠĠĠĠĠĠĠĠĠĠĠĠĠĠĠĠĠĠĠĠĠĠ": 6355,
      "Ġà¤ħà¤¸à¤¹à¤ľà¤¤": 6356,
      "Ġà¤¡à¤²à¤°à¤²": 6357,
      "Ġà¤Ńà¤ĩà¤ķà¤¨": 6358,
      "Ġà¥¦à¥¬à¥¦": 6359,
      "à¤Īà¤¸à¤¯": 6360,
      "Ġà¥§à¥¯à¥«à¥§": 6361,
      "Ġà¥¦à¥«à¥§": 6362,
      "Ġà¥§à¥¯à¥¬à¥©": 6363,
      "Ġà¤²à¤¹à¤°à¤®": 6364,
      "Ġà¤¨à¤Ńà¤ĩà¤ķà¤¨": 6365,
      "Ġà¥¦à¥Ńà¥¨à¥Ńà¥©": 6366,
      "à¤ļà¤¥à¤°à¤®": 6367,
      "Ġà¤ĺà¤ļà¤ĺà¤ļ": 6368,
      "à¤°à¤ĸà¤ķ": 6369,
      "à¤¨à¤¨à¤ķ": 6370,
      "à¤¨à¤ħ": 6371,
      "à¤¨à¤¸à¤¨": 6372,
      "à¤ķà¤ªà¤Ľ": 6373,
      "à¤ķà¤¤à¤ķ": 6374,
      "à¤ķà¤¤à¤²": 6375,
      "à¤ķà¤ħà¤ªà¤ķ": 6376,
      "à¤²à¤ªà¤ķ": 6377,
      "à¤®à¤°à¤¨": 6378,
      "à¤®à¤¦à¤²": 6379,
      "à¤¤à¤¶à¤¤": 6380,
      "à¤¤à¤§à¤°": 6381,
      "Ġà¤¸à¤ľà¤¨": 6382,
      "Ġà¤ªà¤¥à¤²": 6383,
      "à¤¹à¤Ĺ": 6384,
      "à¤¹à¤¨à¤®": 6385,
      "à¤ªà¤²à¤¬": 6386,
      "à¤¦à¤īà¤¨": 6387,
      "à¤µà¤Ńà¤¨": 6388,
      "à¤µà¤¯à¤®à¤²": 6389,
      "Ġà¤Ĺà¤ıà¤¸": 6390,
      "Ġà¤°à¤¸à¤²": 6391,
      "Ġà¤°à¤Ļà¤²": 6392,
      "à¤Łà¤°à¤µ": 6393,
      "Ġà¤®à¤°à¤¹": 6394,
      "Ġà¤®à¤Ĺà¤¨": 6395,
      "à¤ıà¤Ń": 6396,
      "à¤ıà¤¨à¤ķ": 6397,
      "à¤ľà¤²à¤ķ": 6398,
      "à¤ľà¤¯à¤®": 6399,
      "à¤ľà¤®à¤¨": 6400,
      "Ġà¤¹à¤¬à¤²": 6401,
      "Ġà¤µà¤·à¤°": 6402,
      "Ġà¤Ľà¤¥à¤°": 6403,
      "à¤§à¤¶à¤®à¤¶": 6404,
      "à¤§à¤Ĺà¤¯": 6405,
      "Ġà¤¦à¤²à¤¨": 6406,
      "à¤¥à¤¨à¤²": 6407,
      "à¤¶à¤£": 6408,
      "Ġà¤Ĩà¤¸à¤®": 6409,
      "Ġà¤ľà¤£": 6410,
      "Ġà¤ľà¤¯à¤µ": 6411,
      "à¤ļà¤ħà¤¨": 6412,
      "Ġà¤²à¤¹à¤²": 6413,
      "à¤Īà¤¬à¤°": 6414,
      "à¤Īà¤ĵà¤®": 6415,
      "à¤¡à¤ľà¤¸": 6416,
      "à¤£à¤ĺ": 6417,
      "à¤£à¤ķà¤°": 6418,
      "à¤ĸà¤Ń": 6419,
      "à¤ĸà¤²à¤Ĺ": 6420,
      "à¤ĸà¤¨à¤µ": 6421,
      "à¤īà¤ªà¤¨": 6422,
      "Ġà¤¯à¤µ": 6423,
      "à¤°à¤®à¤¹": 6424,
      "à¥Įà¥Ī": 6425,
      "Ġà¤¶à¤µà¤¯": 6426,
      "Ġà¤ĸà¤¬à¤°à¤®": 6427,
      "Ġà¤¥à¤®à¤¨": 6428,
      "à¤°à¤¤à¤¸à¤®": 6429,
      "à¤Ļà¤Ľ": 6430,
      "à¤Ļà¤ľà¤¸": 6431,
      "à¤ľà¤¨à¤ªà¤Ľ": 6432,
      "à¤¸à¤®à¤°": 6433,
      "à¤ĺà¤²à¤Ĺ": 6434,
      "Ġà¤ıà¤ķà¤¬": 6435,
      "Ġà¤ıà¤ķà¤¦à¤²": 6436,
      "à¤²à¤ķà¤¬à¤¸": 6437,
      "à¤¯à¤®à¤°": 6438,
      "à¤¯à¤®à¤¨à¤®": 6439,
      "Ġà¤Łà¤£": 6440,
      "à¤°à¤¹à¤£à¤®": 6441,
      "à¤²à¤®à¤Ł": 6442,
      "à¤Ŀà¤ª": 6443,
      "à¤¯à¤¤à¤µà¤¶": 6444,
      "Ġà¤®à¤¨à¤ª": 6445,
      "à¤ªà¤¤à¤®": 6446,
      "à¤ķà¤²à¤¨à¤²": 6447,
      "Ġà¤ĩà¤¨à¤²": 6448,
      "à¤ħà¤¡": 6449,
      "Ġà¤Ńà¤ıà¤Ĺà¤°": 6450,
      "à¤²à¤¨à¤ļ": 6451,
      "à¤²à¤¨à¤Ĺà¤°": 6452,
      "à¤°à¤¬à¤ľ": 6453,
      "Ġà¤īà¤¦à¤¯à¤®": 6454,
      "Ġà¤īà¤¦à¤¯à¤°": 6455,
      "à¤¸à¤¨à¤¸à¤¤": 6456,
      "Ġà¤Ĩà¤µà¤¹": 6457,
      "Ġà¥ªà¥¦à¥¦à¥¦": 6458,
      "à¤Ĩà¤ĩà¤ķ": 6459,
      "à¤¨à¤¨à¤Ĺà¤°à¤®": 6460,
      "à¥¬à¥¨": 6461,
      "Ġà¤ĵà¤®à¤ķ": 6462,
      "Ġà¤ļà¤²à¤¨à¤ķ": 6463,
      "à¤µà¤²à¤Ĺ": 6464,
      "Ġà¤¹à¤°à¤¸à¤®": 6465,
      "à¤¬à¤°à¤Ń": 6466,
      "Ġà¤¢à¤°": 6467,
      "Ġà¤ħà¤Ĺà¤®à¤µ": 6468,
      "Ġà¤Ĩà¤ľà¤ªà¤°": 6469,
      "à¤µà¤®à¤§": 6470,
      "à¥®à¥©": 6471,
      "Ġà¥®à¥§à¥§": 6472,
      "à¤¸à¤¦à¤¦": 6473,
      "à¤¸à¤¦à¤¸à¤®": 6474,
      "à¤·à¤®à¤£": 6475,
      "Ġà¤Ĩà¤ĩà¤¤": 6476,
      "Ġà¤«à¤°à¤«": 6477,
      "à¤ĩà¤²à¤¨à¤®": 6478,
      "Ġà¤¸à¤¡à¤ķà¤¬à¤¤": 6479,
      "Ġà¤Ĳà¤ļ": 6480,
      "Ġà¥§à¥«à¥¯": 6481,
      "à¤µà¤ªà¤Ł": 6482,
      "Ġà¥§à¥¨à¥§à¥©": 6483,
      "Ġà¤ıà¤¸à¤ıà¤¨": 6484,
      "à¤¸à¤¹à¤¯": 6485,
      "Ġà¥¨à¥«à¥¯": 6486,
      "à¤¨à¤Ĺà¤°à¤Ń": 6487,
      "à¤łà¤ķà¤¸": 6488,
      "Ġà¤Ĺà¤£à¤²": 6489,
      "Ġà¤ıà¤¨à¤Ĩà¤Īà¤¬": 6490,
      "à¤Ĺà¤¦à¤°à¤¬": 6491,
      "à¤¯à¤Łà¤ķà¤¬": 6492,
      "Ġà¥§à¥©à¥§": 6493,
      "Ġà¥§à¥¬à¥§à¥®": 6494,
      "à¤ıà¤®à¤ª": 6495,
      "à¤ıà¤®à¤¡à¤¬": 6496,
      "Ġà¤°à¤®à¤Ŀ": 6497,
      "à¥¦à¥¦à¥Ńà¥§": 6498,
      "Ġà¤µà¤¨à¤ľà¤Ļ": 6499,
      "à¤ļà¤°à¤Ļ": 6500,
      "Ġà¤¤à¤²à¤¸à¤®": 6501,
      "ĠĠĠĠĠĠĠĠĠĠĠĠĠĠ": 6502,
      "Ġà¤ħà¤µà¤¸à¤°à¤¸à¤®": 6503,
      "Ġà¥ªà¥¦à¥«à¥¦": 6504,
      "à¤Ĺà¤łà¤¨à¤Ń": 6505,
      "à¤Łà¤µà¤²à¤¬": 6506,
      "Ġà¤¢à¤ķà¤¢à¤ķ": 6507,
      "à¤Łà¤°à¤®à¤§": 6508,
      "Ġà¤®à¤¨à¤®à¤¸": 6509,
      "Ġà¤¡à¤²à¤°à¤Ńà¤¨": 6510,
      "à¤¡à¤¸à¤ľ": 6511,
      "Ġà¤¨à¤Ĩà¤īà¤²": 6512,
      "à¤ıà¤«à¤ıà¤ķ": 6513,
      "Ġà¤·à¤£": 6514,
      "Ġà¤ıà¤«à¤Ł": 6515,
      "à¤µà¤¯à¤®à¤¸": 6516,
      "Ġà¤ħà¤µà¤¶à¤°": 6517,
      "Ġà¤ķà¤ļà¤¹à¤°": 6518,
      "Ġà¥¦à¥¬à¥¨à¥¬à¥©": 6519,
      "à¤Ĺà¤µà¤£": 6520,
      "Ġà¤®à¤¦à¤¨à¤ª": 6521,
      "Ġà¤¨à¤Ĺà¤¦à¤®": 6522,
      "Ġà¥®à¥®à¥¦": 6523,
      "Ġà¤Ĺà¤ľà¤²à¤¹à¤°": 6524,
      "Ġà¥¦à¥«à¥ª": 6525,
      "Ġà¤ħà¤ªà¤¹à¤°à¤£à¤ªà¤Ľ": 6526,
      "Ġà¥¨à¥¦à¥¬à¥®à¥¬à¥¯": 6527,
      "Ġà¥§à¥¯à¥¬à¥¯": 6528,
      "Ġà¤Ĺà¤«à¤Ĺ": 6529,
      "Ġà¤µà¤ļà¤¨à¤¬à¤¦": 6530,
      "à¤Ĩà¤ĩà¤ıà¤¸": 6531,
      "Ġà¤¸à¤¯à¤ķà¤¡": 6532,
      "à¤¤à¤¨à¤Ĺà¤°à¤ª": 6533,
      "Ġà¤ıà¤¸à¤Īà¤Īà¤ķ": 6534,
      "Ġà¤Ĩà¤Īà¤ıà¤¸à¤ĵ": 6535,
      "à¤¦à¤ķà¤ªà¤¦": 6536,
      "Ġà¤²à¤¹à¤²à¤¹": 6537,
      "à¤½": 6538,
      "Ġà¤ģ": 6539,
      "à¤°à¤¡à¤®": 6540,
      "à¤¿à¥ģ": 6541,
      "à¤ķà¤¯": 6542,
      "à¤ķà¤Ļ": 6543,
      "à¤ķà¤°à¤¸": 6544,
      "à¤ķà¤¸à¤°": 6545,
      "à¤ķà¤°à¤¬à¤°": 6546,
      "à¤²à¤ĸà¤°": 6547,
      "à¤®à¤®à¤¤": 6548,
      "à¤¸à¤ªà¤¨": 6549,
      "Ġà¤¸à¤¸à¤®": 6550,
      "Ġà¥Ī": 6551,
      "à¤¹à¤Ńà¤¨": 6552,
      "à¤¹à¤¸à¤¹": 6553,
      "à¤¹à¤£à¤²": 6554,
      "à¤ªà¤Ń": 6555,
      "à¤ªà¤ªà¤¤": 6556,
      "à¤ªà¤¸à¤¹à¤°": 6557,
      "à¤¦à¤ĸ": 6558,
      "à¤¦à¤¸à¤¹": 6559,
      "Ġà¤ķà¤ªà¤°": 6560,
      "Ġà¤Ĺà¤Ĺ": 6561,
      "à¤Łà¤®à¤¨": 6562,
      "à¤Łà¤¬à¤¦": 6563,
      "à¤Łà¤ľà¤°à¤²": 6564,
      "à¤ıà¤£": 6565,
      "à¤ıà¤°à¤ķ": 6566,
      "à¤ıà¤¤à¤²": 6567,
      "à¤ıà¤¬à¤²": 6568,
      "à¤ıà¤ĩà¤ķ": 6569,
      "à¤ıà¤Ĩà¤°": 6570,
      "Ġà¤Ńà¤¡à¤ķ": 6571,
      "Ġà¤Ńà¤ľà¤¨à¤ķ": 6572,
      "à¤ľà¤ľà¤¸": 6573,
      "Ġà¤¹à¤«": 6574,
      "Ġà¤µà¤¨à¤ª": 6575,
      "à¤¬à¤Ĺ": 6576,
      "à¤·à¤¬à¤¹": 6577,
      "Ġà¤Ľà¤µà¤Ł": 6578,
      "à¤§à¤ķà¤®": 6579,
      "Ġà¤¤à¤Ľ": 6580,
      "Ġà¤¦à¤¦": 6581,
      "à¤¶à¤µà¤ª": 6582,
      "Ġà¤Ĩà¤¯à¤¤à¤¨": 6583,
      "Ġà¤Ĩà¤ıà¤²à¤Ĺà¤¤": 6584,
      "Ġà¤ľà¤ľ": 6585,
      "Ġà¤ľà¤²à¤¨": 6586,
      "Ġà¤ľà¤®à¤²": 6587,
      "à¤Ľà¤¹": 6588,
      "à¤ļà¤Ĺà¤µ": 6589,
      "Ġà¤²à¤¤à¤®": 6590,
      "à¤¡à¤ĸ": 6591,
      "à¤¡à¤®à¤²": 6592,
      "à¤£à¤¢": 6593,
      "Ġà¤īà¤¸à¤¬": 6594,
      "à¤Ńà¤ıà¤°": 6595,
      "à¤ĸà¤ľ": 6596,
      "à¤¹à¤°à¤¹à¤°": 6597,
      "Ġà¤¸à¤®à¤¯à¤¤": 6598,
      "à¤ĩà¤¤à¤°": 6599,
      "à¤ĩà¤ªà¤®": 6600,
      "à¤ĩà¤ıà¤«à¤ı": 6601,
      "à¤°à¤®à¤¬à¤¦": 6602,
      "à¤°à¤®à¤Ĩà¤¦": 6603,
      "Ġà¤ħà¤¨à¤¸à¤¨à¤®": 6604,
      "à¤¨à¤ķà¤ķ": 6605,
      "à¤°à¤¤à¤ļ": 6606,
      "à¤Ļà¤ªà¤Ľ": 6607,
      "Ġà¤«à¤Ĺ": 6608,
      "à¤¸à¤ķà¤¬": 6609,
      "à¤ľà¤¨à¤¦": 6610,
      "à¤¨à¤®à¤ķ": 6611,
      "Ġà¤§à¤¶": 6612,
      "à¤°à¤¹à¤ªà¤Ľ": 6613,
      "Ġà¤¡à¤¨à¤¹à¤°": 6614,
      "à¤°à¤¸à¤µ": 6615,
      "à¤°à¤¦à¤¶": 6616,
      "à¤¤à¤ķà¤¤": 6617,
      "à¤¯à¤¨à¤Ĺà¤°": 6618,
      "à¤ħà¤¨à¤²": 6619,
      "Ġà¤Ńà¤ıà¤Ľà¤¨": 6620,
      "à¤¾à¤Ĥà¤Ĥ": 6621,
      "à¤ļà¤¨à¤ħà¤¨": 6622,
      "Ġà¤¨à¤Ĺà¤°à¤ªà¤°": 6623,
      "à¤·à¤ķà¤¤": 6624,
      "à¤®à¤¨à¤¦": 6625,
      "à¤Ĩà¤°à¤¬": 6626,
      "à¤Ĩà¤ĵà¤ª": 6627,
      "Ġà¤¸à¤¦à¤¶": 6628,
      "Ġà¤ĵà¤¨": 6629,
      "Ġà¤ĵà¤łà¤ķ": 6630,
      "à¤°à¤¶à¤®": 6631,
      "à¤«à¤²à¤¡": 6632,
      "à¤¶à¤¨à¤µ": 6633,
      "à¤®à¤®à¤£": 6634,
      "Ġà¤ħà¤¬à¤²": 6635,
      "à¤Łà¤®à¤¹à¤°": 6636,
      "à¥®à¥¬": 6637,
      "Ġà¤ªà¤¦à¤¬à¤¹": 6638,
      "à¤Ĺà¤®à¤¨à¤ķà¤°": 6639,
      "à¤¹à¤ķà¤µà¤°": 6640,
      "Ġà¥¯à¥©à¥¦": 6641,
      "Ġà¤ıà¤®à¤ĵà¤¯": 6642,
      "Ġà¤Ĩà¤®à¤¹à¤¡": 6643,
      "Ġà¤¬à¤²à¤°à¤²": 6644,
      "Ġà¤Ĩà¤ĩà¤¡à¤²à¤®": 6645,
      "Ġà¤®à¤¤à¤ħà¤¨": 6646,
      "Ġà¤Ńà¤°à¤¸à¤ķ": 6647,
      "Ġà¤¸à¤¡à¤ķà¤¸à¤®": 6648,
      "à¤°à¤ļà¤²à¤¨à¤ķ": 6649,
      "à¤µà¤°à¤£à¤¸à¤®": 6650,
      "à¤µà¤°à¤£à¤¸à¤¹": 6651,
      "à¤°à¤¨à¤ľ": 6652,
      "à¤®à¤ļà¤²": 6653,
      "Ġà¤Ĳà¤°à¤²": 6654,
      "à¤°à¤ªà¤Łà¤ķ": 6655,
      "Ġà¥§à¥«à¥¨": 6656,
      "Ġà¤ıà¤¸à¤¯": 6657,
      "Ġà¥¨à¥«à¥®": 6658,
      "Ġà¥¨à¥«à¥§à¥¯": 6659,
      "à¤·à¤¯à¤¸à¤®": 6660,
      "à¤¥à¤²à¤¤à¤°": 6661,
      "à¤°à¤ľà¤Ļ": 6662,
      "Ġà¥©à¥¦à¥ªà¥¦": 6663,
      "à¥Īà¤ģà¤Ĥ": 6664,
      "Ġà¥§à¥©à¥Ń": 6665,
      "à¤ıà¤®à¤Ł": 6666,
      "Ġà¥¨à¥§à¥©": 6667,
      "à¤ļà¤²à¤¨à¤ķ": 6668,
      "Ġà¥§à¥Ńà¥Ń": 6669,
      "à¤¯à¤£à¤¥": 6670,
      "Ġà¥¨à¥©à¥§": 6671,
      "Ġà¤Ńà¤µà¤¨à¤¸": 6672,
      "Ġà¤¨à¤¬à¤ľ": 6673,
      "Ġà¥©à¥§à¥¨": 6674,
      "à¤¸à¤¨à¤²à¤Ĺ": 6675,
      "à¤ªà¤Łà¤ªà¤ķ": 6676,
      "Ġà¤¸à¤°à¤¸à¤¹à¤¯": 6677,
      "Ġà¥©à¥¨à¥©": 6678,
      "Ġà¤Ĩà¤¹à¤µ": 6679,
      "à¤Łà¤°à¤¸à¤¹": 6680,
      "à¤²à¤ĸà¤¬à¤°": 6681,
      "Ġà¤¬à¤¹à¤¸à¤ªà¤Ľ": 6682,
      "à¤ĩà¤¬à¤²à¤²": 6683,
      "Ġà¤¨à¤ļà¤¢": 6684,
      "à¥©à¥¦à¥Ńà¥ª": 6685,
      "Ġà¤°à¤Ĺà¤¤à¤¬": 6686,
      "Ġà¤ļà¤°à¤£à¤¹à¤°": 6687,
      "Ġà¤Ĩà¤ĩà¤¸à¤«à¤²": 6688,
      "Ġà¥§à¥¯à¥«à¥Ń": 6689,
      "Ġà¤²à¤¹à¤¡": 6690,
      "Ġà¥¨à¥¦à¥¬à¥¯à¥Ńà¥¦": 6691,
      "Ġà¤«à¤¨à¤«à¤¨": 6692,
      "à¤Ńà¤ªà¤¤à¤¨à¤ķ": 6693,
      "à¤ĩà¤°à¤¸à¤²": 6694,
      "Ġà¥§à¥¯à¥ªà¥¦": 6695,
      "Ġà¤£à¤£": 6696,
      "Ġà¤Ĩà¤ĩà¤¨à¤¸à¤ķ": 6697,
      "Ġà¤ħà¤¨à¤¸à¤¨à¤°à¤¤": 6698,
      "Ġà¥¦à¥¦à¥Ń": 6699,
      "Ġà¤°à¤£à¤ľ": 6700,
      "à¤«à¤¸à¤²à¤ķ": 6701,
      "Ġà¤ıà¤ħà¤°à¤ª": 6702,
      "à¤µà¤īà¤ªà¤ª": 6703,
      "à¤¹à¤Ļà¤ķà¤Ļ": 6704,
      "à¤¨à¤¸à¤ªà¤Łà¤²à¤®": 6705,
      "à¤¹à¤ħà¤µà¤°": 6706,
      "Ġà¤¤à¤¡à¤ķà¤Ńà¤¡à¤ķ": 6707,
      "Ġà¤¦à¤¸à¤®à¤²à¤µ": 6708,
      "à¤±": 6709,
      "à¥įà¥Ī": 6710,
      "à¤°à¤ł": 6711,
      "à¤°à¤ħà¤°": 6712,
      "à¤¨à¤Ŀ": 6713,
      "à¤ķà¤¨à¤¸": 6714,
      "à¤®à¤¸à¤ķ": 6715,
      "à¤®à¤²à¤®": 6716,
      "à¤®à¤¬à¤°": 6717,
      "à¤®à¤¸à¤°": 6718,
      "à¤®à¤ĺà¤°": 6719,
      "à¤¤à¤ĺ": 6720,
      "à¤¯à¤¶à¤¨": 6721,
      "à¤¯à¤µà¤¤": 6722,
      "à¤¸à¤¢": 6723,
      "à¤¸à¤ıà¤ª": 6724,
      "Ġà¤¸à¤ĩ": 6725,
      "Ġà¤ªà¤²à¤ķ": 6726,
      "à¤ªà¤ľà¤¸": 6727,
      "à¤ªà¤Łà¤²": 6728,
      "à¤¦à¤Ńà¤®": 6729,
      "à¤µà¤¶à¤¤": 6730,
      "Ġà¤Ĺà¤¯à¤²": 6731,
      "Ġà¤Ĺà¤¹à¤ķ": 6732,
      "à¤Ĺà¤µà¤¶": 6733,
      "Ġà¤°à¤¥à¤ķ": 6734,
      "à¤Łà¤Ļ": 6735,
      "à¤Łà¤Ńà¤°": 6736,
      "Ġà¤¨à¤Ńà¤°": 6737,
      "Ġà¤¨à¤°à¤ķà¤ķ": 6738,
      "Ġà¤¨à¤¤à¤®à¤¸": 6739,
      "Ġà¤¬à¤Łà¤°": 6740,
      "à¤ıà¤Īà¤¸": 6741,
      "Ġà¤Ńà¤°à¤¤à¤²": 6742,
      "Ġà¤ħà¤¡à¤ķ": 6743,
      "Ġà¤¹à¤²à¤²": 6744,
      "Ġà¤¹à¤¦à¤ķ": 6745,
      "Ġà¤¹à¤ķà¤¸": 6746,
      "Ġà¤¹à¤¬à¤ķ": 6747,
      "Ġà¤µà¤¦à¤²": 6748,
      "à¤¬à¤°à¤¹": 6749,
      "à¤¬à¤¤à¤¬": 6750,
      "à¤·à¤ħà¤¨": 6751,
      "à¤·à¤°à¤ķà¤°": 6752,
      "à¤§à¤¸à¤¹": 6753,
      "à¤§à¤°à¤£à¤ķ": 6754,
      "à¤¥à¤Ńà¤¨": 6755,
      "Ġà¤Ĩà¤Ļà¤ķ": 6756,
      "Ġà¤Ĩà¤Ļà¤¬": 6757,
      "Ġà¤ľà¤¯à¤¸": 6758,
      "à¤Ľà¤¯": 6759,
      "à¤ļà¤¸à¤¹": 6760,
      "à¤Īà¤ªà¤²": 6761,
      "à¤Īà¤¬à¤¸": 6762,
      "à¤Īà¤¥à¤°": 6763,
      "à¤¡à¤¬à¤°": 6764,
      "Ġà¤īà¤¤à¤°": 6765,
      "à¤Ńà¤¨à¤ķ": 6766,
      "à¤Ńà¤ľà¤¨": 6767,
      "à¤ĸà¤¤à¤ķ": 6768,
      "Ġà¤¸à¤®à¤¬": 6769,
      "à¤ĩà¤ıà¤°": 6770,
      "à¤ĩà¤ıà¤ªà¤¨": 6771,
      "Ġà¤ļà¤¹à¤ķ": 6772,
      "à¤«à¤¯": 6773,
      "à¥Įà¥Īà¤Ĥ": 6774,
      "Ġà¤ĸà¤¦": 6775,
      "Ġà¤ĸà¤°à¤¸": 6776,
      "Ġà¤¥à¤®à¤®": 6777,
      "Ġà¤ıà¤¸à¤ķ": 6778,
      "à¤łà¤²à¤Ĺ": 6779,
      "à¤°à¤¤à¤¨": 6780,
      "à¤°à¤¤à¤ªà¤°à¤¸": 6781,
      "à¤Ļà¤ķà¤°": 6782,
      "Ġà¤ıà¤ķà¤µà¤Ł": 6783,
      "Ġà¤¬à¤¨à¤¬": 6784,
      "Ġà¤¯à¤¸à¤ħà¤°": 6785,
      "à¤²à¤ķà¤ª": 6786,
      "Ġà¤ľà¤¨à¤°": 6787,
      "Ġà¤Łà¤²à¤ķ": 6788,
      "à¤Ĺà¤°à¤¬": 6789,
      "à¤²à¤®à¤¸": 6790,
      "à¤¤à¤°à¤Ĺà¤°": 6791,
      "à¤Ŀà¤¯": 6792,
      "Ġà¤®à¤¨à¤¬": 6793,
      "à¤ªà¤®à¤¤": 6794,
      "à¤ħà¤®à¤²": 6795,
      "à¤²à¤¨à¤Ń": 6796,
      "à¤·à¤£à¤¦": 6797,
      "à¤¶à¤ķà¤¸": 6798,
      "à¤¤à¤¨à¤¦": 6799,
      "à¤²à¤¯à¤Ńà¤¨": 6800,
      "à¤®à¤¨à¤µà¤®": 6801,
      "à¤Ĩà¤ı": 6802,
      "à¤Ĩà¤ļ": 6803,
      "à¤Ĩà¤īà¤¨": 6804,
      "à¤Ĺà¤²à¤ª": 6805,
      "à¤¨à¤¸à¤¨à¤²": 6806,
      "à¤¶à¤¨à¤¦": 6807,
      "à¤¯à¤°à¤¸à¤®": 6808,
      "Ġà¤¹à¤°à¤°": 6809,
      "à¤§à¤¨à¤Ĺ": 6810,
      "à¤§à¤¨à¤Ń": 6811,
      "à¤°à¤Ńà¤²": 6812,
      "Ġà¤¤à¤ªà¤¶": 6813,
      "Ġà¤ħà¤®à¤°à¤¬à¤¹": 6814,
      "à¥®à¥¯": 6815,
      "Ġà¤ªà¤¦à¤ķà¤®": 6816,
      "à¤Ĺà¤®à¤¬": 6817,
      "à¤ĵà¤ı": 6818,
      "à¤ĵà¤¡": 6819,
      "à¤ĵà¤Ĩà¤Īà¤ª": 6820,
      "à¤¸à¤¦à¤®à¤§": 6821,
      "Ġà¤ıà¤®à¤«": 6822,
      "Ġà¤ıà¤®à¤Ĩà¤Ī": 6823,
      "Ġà¤Ĩà¤®à¤°": 6824,
      "Ġà¤Ĩà¤®à¤ļ": 6825,
      "à¤ĩà¤²à¤Łà¤¹à¤°": 6826,
      "à¤¡à¤²à¤¸": 6827,
      "Ġà¤Ĳà¤¨à¤¬": 6828,
      "Ġà¥§à¥¯à¥©à¥¦": 6829,
      "Ġà¥§à¥¯à¥Ńà¥©": 6830,
      "Ġà¥§à¥«à¥§à¥«": 6831,
      "Ġà¤¨à¤Ńà¤ĩà¤¦": 6832,
      "Ġà¥¨à¥«à¥§à¥®": 6833,
      "Ġà¥¨à¥«à¥§à¥¬": 6834,
      "Ġà¥¨à¥«à¥¨à¥«": 6835,
      "Ġà¤ħà¤«à¤¯": 6836,
      "Ġà¥«à¥¦à¥«à¥¦": 6837,
      "Ġà¤¬à¤ļà¤¤à¤ķ": 6838,
      "Ġà¤¨à¤ľà¤°à¤¬à¤¨": 6839,
      "à¤ĩà¤Łà¤¸": 6840,
      "à¤ĩà¤Łà¤¹": 6841,
      "Ġà¤ıà¤¨à¤ĵà¤¸": 6842,
      "Ġà¤Īà¤¬": 6843,
      "à¤ľà¤¯à¤¬": 6844,
      "Ġà¥§à¥ªà¥¨": 6845,
      "Ġà¥§à¥¬à¥§à¥Ń": 6846,
      "à¤ıà¤®à¤ľ": 6847,
      "à¤¹à¤¤à¤¸": 6848,
      "Ġà¤Ńà¤Īà¤°à¤¹à¤¨": 6849,
      "Ġà¤«à¤°à¤ķà¤ªà¤¨": 6850,
      "à¤¸à¤¬à¤®": 6851,
      "Ġà¥¨à¥¨à¥¬": 6852,
      "à¤Ĩà¤°à¤¡": 6853,
      "à¤ªà¤£à¤²": 6854,
      "à¤ªà¤£à¤®": 6855,
      "Ġà¤ħà¤ķà¤¬à¤°": 6856,
      "à¤®à¤ªà¤¶": 6857,
      "Ġà¥¨à¥¬à¥ª": 6858,
      "Ġà¥¬à¥¦à¥§": 6859,
      "Ġà¤¸à¤¡à¤¨": 6860,
      "à¤®à¤£à¤ª": 6861,
      "à¤Ĭà¤¦à¤²": 6862,
      "Ġà¤Ĺà¤ıà¤Ľà¤¨": 6863,
      "Ġà¤¤à¤²à¤¬à¤¬": 6864,
      "à¤Ńà¤Ĺà¤µà¤¤": 6865,
      "à¤īà¤ªà¤ª": 6866,
      "à¤Łà¤°à¤²à¤Ĺ": 6867,
      "à¤¶à¤Ńà¤°à¤®": 6868,
      "Ġà¥«à¥§à¥«": 6869,
      "à¤®à¤°à¤£à¤¶à¤ķ": 6870,
      "Ġà¤¬à¤ķà¤ªà¤¤": 6871,
      "à¤ĩà¤Ńà¤°à¤²": 6872,
      "à¤¯à¤ľà¤¨à¤¸": 6873,
      "Ġà¤Ŀà¤²à¤Ŀà¤²": 6874,
      "Ġà¤ıà¤ļà¤ª": 6875,
      "Ġà¥Ńà¥ªà¥ª": 6876,
      "Ġà¥§à¥¯à¥«à¥¨": 6877,
      "Ġà¥§à¥¯à¥«à¥¬": 6878,
      "à¤ıà¤ļà¤ıà¤®": 6879,
      "Ġà¥§à¥¯à¥¬à¥«": 6880,
      "à¤Ĺà¤ªà¤ŀ": 6881,
      "Ġà¤ıà¤¨à¤Ĩà¤°à¤ıà¤¨à¤®": 6882,
      "Ġà¥¦à¥©à¥¬": 6883,
      "Ġà¤ıà¤ħà¤°à¤ķ": 6884,
      "Ġà¤ıà¤¸à¤ĩà¤ĩ": 6885,
      "à¤°à¤Ŀ": 6886,
      "à¤¨à¤¥à¤²": 6887,
      "à¤ķà¤ªà¤ķ": 6888,
      "à¥ĭà¥į": 6889,
      "à¤²à¤ļà¤®": 6890,
      "à¤²à¤ľà¤µ": 6891,
      "à¤®à¤ķà¤®": 6892,
      "à¤®à¤¯à¤²": 6893,
      "à¤¯à¤¯à¤®": 6894,
      "à¤¯à¤¦à¤°": 6895,
      "à¤¯à¤¬à¤²": 6896,
      "à¥ģà¤¿": 6897,
      "à¥ģà¥ĩ": 6898,
      "à¤¸à¤¹à¤ķ": 6899,
      "Ġà¤ªà¤ķà¤²": 6900,
      "Ġà¤ªà¤²à¤²": 6901,
      "à¤¹à¤¯à¤¤": 6902,
      "à¤¹à¤²à¤²": 6903,
      "à¤¹à¤¨à¤¸": 6904,
      "à¤¹à¤Łà¤®": 6905,
      "à¤¹à¤²à¤¸": 6906,
      "à¤ªà¤Łà¤®": 6907,
      "à¤¦à¤Ĺà¤°": 6908,
      "à¤µà¤ªà¤¤": 6909,
      "à¤µà¤§à¤°": 6910,
      "à¤µà¤Īà¤®": 6911,
      "Ġà¤ķà¤¹à¤°": 6912,
      "Ġà¤ķà¤Łà¤ķ": 6913,
      "Ġà¤ķà¤¦à¤ķ": 6914,
      "Ġà¤Ĺà¤ķ": 6915,
      "Ġà¤°à¤ħ": 6916,
      "Ġà¤¨à¤ķà¤®": 6917,
      "Ġà¤¨à¤ľà¤®": 6918,
      "Ġà¤¬à¤°à¤£": 6919,
      "Ġà¤¬à¤¨à¤²": 6920,
      "Ġà¤®à¤ľà¤µ": 6921,
      "à¤ıà¤°à¤®": 6922,
      "Ġà¤Ńà¤°à¤¤à¤®": 6923,
      "Ġà¤ħà¤¥à¤°": 6924,
      "à¤ľà¤¯à¤¸": 6925,
      "à¤ľà¤²à¤®": 6926,
      "à¤ľà¤ªà¤Ľ": 6927,
      "Ġà¤Ĺà¤°à¤¯": 6928,
      "Ġà¤µà¤¸à¤®": 6929,
      "à¤¬à¤ľà¤¸": 6930,
      "à¤¬à¤ĩà¤®": 6931,
      "à¤¬à¤Ĺà¤°à¤®": 6932,
      "à¤·à¤¤à¤®": 6933,
      "à¤·à¤²à¤Ĺ": 6934,
      "Ġà¤¤à¤¶": 6935,
      "Ġà¤ľà¤¦": 6936,
      "Ġà¤ľà¤Ĺà¤²": 6937,
      "à¤ļà¤ļ": 6938,
      "à¤ļà¤¹à¤ľ": 6939,
      "Ġà¤²à¤ļà¤ķ": 6940,
      "Ġà¤²à¤Łà¤°à¤®": 6941,
      "à¤Īà¤¹": 6942,
      "à¤Īà¤²à¤ķ": 6943,
      "à¤Īà¤¸à¤°": 6944,
      "à¤¡à¤°à¤¶": 6945,
      "à¤Ńà¤¡": 6946,
      "à¤ĸà¤°à¤¸": 6947,
      "Ġà¤¯à¤®à¤ķ": 6948,
      "Ġà¤¸à¤®à¤¦": 6949,
      "à¤ĩà¤¯à¤ķ": 6950,
      "à¤ĩà¤Ļà¤²": 6951,
      "à¤ĩà¤Ńà¤²": 6952,
      "à¤°à¤®à¤µ": 6953,
      "à¥Įà¤ĥ": 6954,
      "Ġà¤¶à¤¦": 6955,
      "Ġà¤¶à¤µà¤°": 6956,
      "Ġà¤¶à¤¶à¤ķ": 6957,
      "Ġà¤ıà¤²à¤¬": 6958,
      "Ġà¤ıà¤ıà¤¸": 6959,
      "à¤īà¤¨à¤Ńà¤¨": 6960,
      "à¤¯à¤ķà¤¸à¤®": 6961,
      "à¤łà¤¸à¤²": 6962,
      "Ġà¤ªà¤°à¤²": 6963,
      "à¥ĥà¥ģ": 6964,
      "à¥¦à¥§": 6965,
      "à¥¦à¥«": 6966,
      "Ġà¤«à¤¯": 6967,
      "Ġà¤ıà¤ķà¤ł": 6968,
      "Ġà¤ıà¤ķà¤®à¤¹": 6969,
      "Ġà¤ĺà¤°à¤¸": 6970,
      "Ġà¤§à¤¨à¤¸": 6971,
      "Ġà¤Łà¤¹à¤²": 6972,
      "à¤ŀà¤¦": 6973,
      "Ġà¤¸à¤¹à¤¦": 6974,
      "Ġà¤¤à¤°à¤¹à¤°": 6975,
      "à¤¤à¤°à¤¯": 6976,
      "à¤¤à¤°à¤Ń": 6977,
      "Ġà¤īà¤ªà¤®à¤¨": 6978,
      "à¤Ŀà¤īà¤¨": 6979,
      "à¤Ŀà¤Łà¤®": 6980,
      "à¤°à¤¸à¤Ĺ": 6981,
      "Ġà¤ķà¤®à¤¬": 6982,
      "Ġà¤®à¤¨à¤¦": 6983,
      "à¤ĩà¤¨à¤¦": 6984,
      "à¤ªà¤®à¤¤à¤ķ": 6985,
      "à¤ķà¤²à¤¸": 6986,
      "Ġà¤ĩà¤°à¤«": 6987,
      "à¤¤à¤ķà¤¸à¤®": 6988,
      "à¤ħà¤Ł": 6989,
      "à¤ħà¤¸à¤¨": 6990,
      "à¤µà¤¨à¤¦à¤°": 6991,
      "à¤Ĺà¤¤à¤°à¤¤": 6992,
      "à¥Īà¤Ĥà¤Ĥ": 6993,
      "à¤Łà¤°à¤¨à¤²": 6994,
      "à¤Łà¤°à¤ħà¤Ĺ": 6995,
      "à¤¸à¤¨à¤ªà¤Ľ": 6996,
      "Ġà¤Ŀà¤²à¤®à¤²": 6997,
      "Ġà¤Ŀà¤Ŀà¤²": 6998,
      "à¤¤à¤¨à¤¹": 6999,
      "Ġà¤¸à¤°à¤°": 7000,
      "Ġà¤¸à¤¨à¤«": 7001,
      "à¤Ĩà¤¤à¤®": 7002,
      "à¤¦à¤¨à¤¹": 7003,
      "à¤¦à¤¨à¤ª": 7004,
      "Ġà¤ĵà¤µ": 7005,
      "à¤Ĺà¤²à¤¹à¤°": 7006,
      "à¤®à¤²à¤¤": 7007,
      "à¤®à¤²à¤ļ": 7008,
      "Ġà¤¢à¤ķà¤®à¤ķ": 7009,
      "Ġà¤Ķà¤ł": 7010,
      "Ġà¤ĺà¤°à¤ĸ": 7011,
      "Ġà¤ĺà¤°à¤¨à¤ľ": 7012,
      "à¤ĵà¤Ĩà¤Ī": 7013,
      "à¤²à¤Ĺà¤Ļ": 7014,
      "à¥¯à¥«": 7015,
      "à¥¯à¥ª": 7016,
      "Ġà¤¦à¤²à¤¹à¤¨": 7017,
      "à¤Łà¤²à¤°à¤ķ": 7018,
      "Ġà¥¨à¥¦à¥Ńà¥¨à¥¦": 7019,
      "Ġà¤ħà¤ªà¤¶à¤¬": 7020,
      "Ġà¤Ĩà¤Ĺà¤¨à¤®": 7021,
      "Ġà¤¸à¤Ļà¤ĺ": 7022,
      "Ġà¤Ńà¤°à¤¥": 7023,
      "Ġà¤Ĳà¤¨à¤¨": 7024,
      "à¤°à¤ªà¤¹à¤°": 7025,
      "à¤°à¤ªà¤Ļ": 7026,
      "à¤°à¤®à¤£à¤¸": 7027,
      "à¤ľà¤Ĺà¤¦": 7028,
      "Ġà¤ħà¤¦à¤®": 7029,
      "Ġà¥§à¥§à¥©à¥¦": 7030,
      "Ġà¥§à¥§à¥§à¥¨": 7031,
      "à¤²à¤¤à¤ª": 7032,
      "Ġà¤ıà¤¸à¤ıà¤²": 7033,
      "Ġà¤°à¤ķà¤®à¤®à¤§": 7034,
      "Ġà¤Ĩà¤ķà¤¶": 7035,
      "Ġà¥¨à¥«à¥«": 7036,
      "Ġà¥¨à¥«à¥©à¥¦": 7037,
      "à¤Īà¤²à¤¹à¤°": 7038,
      "Ġà¤¦à¤¶à¤µà¤Ł": 7039,
      "Ġà¤ıà¤¨à¤ıà¤®": 7040,
      "à¤ľà¤¯à¤¬à¤¹": 7041,
      "Ġà¥§à¥ªà¥Ń": 7042,
      "Ġà¥§à¥ªà¥¦à¥¦": 7043,
      "à¤¸à¤¹à¤°à¤ķ": 7044,
      "Ġà¥¨à¥§à¥¬": 7045,
      "à¤ķà¤¸à¤¤": 7046,
      "à¤·à¤§à¤°à¤²": 7047,
      "Ġà¥¨à¥¨à¥§": 7048,
      "Ġà¥¨à¥ªà¥¯": 7049,
      "Ġà¤Ĩà¤Īà¤ıà¤²": 7050,
      "à¤Ĩà¤°à¤ıà¤«": 7051,
      "Ġà¥¨à¥®à¥©": 7052,
      "Ġà¤ķà¤ķà¤¸à¤²": 7053,
      "à¤Ĺà¤¢à¤ķ": 7054,
      "Ġà¤ĸà¤¬à¤°à¤¡à¤¬à¤²": 7055,
      "Ġà¥¨à¥¯à¥®": 7056,
      "Ġà¤Ĩà¤ļà¤°à¤£à¤®": 7057,
      "à¤Ĺà¤łà¤¨à¤¸": 7058,
      "Ġà¤Ĩà¤łà¤µ": 7059,
      "à¥¨à¥¦à¥Ńà¥§": 7060,
      "Ġà¤ľà¤²à¤ļà¤°": 7061,
      "Ġà¤¦à¤¸à¤Ĺà¤ľ": 7062,
      "à¤¶à¤¹à¤°à¤¬": 7063,
      "Ġà¤¸à¤¹à¤°à¤¬à¤ľ": 7064,
      "Ġà¤Ĺà¤ıà¤Ľ": 7065,
      "Ġà¥©à¥©à¥«": 7066,
      "Ġà¥«à¥«à¥«": 7067,
      "à¤ĩà¤¬à¤²à¤®": 7068,
      "à¤£à¤ªà¤¦à¤ķ": 7069,
      "à¤¯à¤°à¤²à¤Ĺ": 7070,
      "Ġà¥ªà¥¨à¥«": 7071,
      "Ġà¤¡à¤²à¤°à¤¸": 7072,
      "à¤ĩà¤Ńà¤°à¤ķ": 7073,
      "à¤ľà¤Ĺà¤¢à¤²": 7074,
      "Ġà¥ªà¥ªà¥«": 7075,
      "Ġà¤Ńà¤°à¤®à¤Ĺ": 7076,
      "à¤ĩà¤«à¤¸à¤ķ": 7077,
      "Ġà¤ĵà¤®à¤¨à¤ķ": 7078,
      "à¤ĺà¤Łà¤¨à¤ķ": 7079,
      "Ġà¥¦à¥«à¥Ń": 7080,
      "Ġà¤²à¤¨à¤Ł": 7081,
      "Ġà¥§à¥¯à¥¬à¥Ń": 7082,
      "à¤¯à¤£à¤Ĺà¤¢à¤¬": 7083,
      "à¤Īà¤¨à¤²à¤ķ": 7084,
      "Ġà¤®à¤Ĺà¤§": 7085,
      "Ġà¤Ńà¤ľà¤¨à¤¸à¤Ļ": 7086,
      "à¤¦à¤¹à¤¡": 7087,
      "Ġà¥¦à¥Ńà¥©à¥¦à¥Ńà¥ª": 7088,
      "à¤®à¤¨à¤Ĺà¤°à¤¸": 7089,
      "Ġà¤ľà¤¨à¤®à¤¤à¤¸à¤Ļ": 7090,
      "Ġà¤Ĩà¤¦à¤¨à¤ª": 7091,
      "Ġà¤½à¤¸": 7092,
      "Ġà¤ħà¤µà¤¯à¤µà¤¹à¤°": 7093,
      "ĠĉĠ": 7094,
      "à¤¾à¥ģ": 7095,
      "à¤¾à¥ĥ": 7096,
      "à¤°à¤¢": 7097,
      "à¤°à¤°à¤²": 7098,
      "à¤°à¤ľà¤¨à¤®": 7099,
      "à¤°à¤Ĩà¤¨": 7100,
      "à¤¨à¤ı": 7101,
      "à¤¨à¤°à¤¹à¤°": 7102,
      "à¤ķà¤ľà¤¨": 7103,
      "à¤ķà¤ªà¤¨": 7104,
      "à¤ķà¤ķà¤®": 7105,
      "à¤ķà¤ħà¤«": 7106,
      "à¥ĩà¤¿": 7107,
      "à¤²à¤ľà¤¯": 7108,
      "à¤²à¤īà¤ªà¤°": 7109,
      "à¤®à¤¦à¤ķ": 7110,
      "à¤®à¤¥à¤°": 7111,
      "à¤®à¤ĺà¤°à¤®": 7112,
      "à¤¸à¤¥": 7113,
      "à¤¸à¤¹à¤¨": 7114,
      "à¤¸à¤°à¤¹à¤ķ": 7115,
      "Ġà¤¸à¤īà¤²": 7116,
      "à¤ªà¤ļà¤¨": 7117,
      "à¤¦à¤¯à¤°": 7118,
      "Ġà¤Ĺà¤µà¤²": 7119,
      "à¤Ĺà¤¡à¤ķ": 7120,
      "Ġà¤°à¤ª": 7121,
      "Ġà¤°à¤Ĺ": 7122,
      "Ġà¤°à¤®à¤¨": 7123,
      "Ġà¤°à¤¥à¤¯": 7124,
      "à¤Łà¤ľ": 7125,
      "Ġà¤¨à¤°à¤¨": 7126,
      "Ġà¤¬à¤µ": 7127,
      "Ġà¤¬à¤¨à¤®": 7128,
      "Ġà¤¬à¤Ĺà¤²": 7129,
      "Ġà¤ħà¤Ĺà¤°": 7130,
      "à¤ľà¤ľà¤¨": 7131,
      "à¤ľà¤¬à¤²": 7132,
      "Ġà¤¹à¤°à¤ķ": 7133,
      "Ġà¤¹à¤²à¤¬": 7134,
      "Ġà¤¹à¤Łà¤²": 7135,
      "Ġà¤¹à¤¦à¤®": 7136,
      "Ġà¤µà¤¨à¤¨": 7137,
      "Ġà¤µà¤ļà¤¨à¤²": 7138,
      "à¤¬à¤°à¤¸": 7139,
      "à¤¬à¤¬à¤Ī": 7140,
      "à¤·à¤ħà¤ª": 7141,
      "Ġà¤Ľà¤²à¤ķ": 7142,
      "à¤§à¤ľ": 7143,
      "à¤§à¤Ńà¤¨": 7144,
      "Ġà¤¤à¤¬à¤²": 7145,
      "Ġà¤¤à¤ľà¤¬": 7146,
      "Ġà¤¦à¤¹à¤ķ": 7147,
      "à¤¶à¤²à¤Ĺ": 7148,
      "Ġà¤Ĩà¤Ĭà¤¨": 7149,
      "Ġà¤ľà¤¶": 7150,
      "Ġà¤ľà¤¤à¤¨": 7151,
      "à¤ļà¤Ļ": 7152,
      "à¤ļà¤¯à¤²": 7153,
      "à¤ļà¤¤à¤²": 7154,
      "à¤ļà¤²à¤¸": 7155,
      "à¤ļà¤ĺà¤°à¤®": 7156,
      "à¤Īà¤¥": 7157,
      "à¤Īà¤Ī": 7158,
      "à¤Īà¤ľà¤¸": 7159,
      "à¤Īà¤ıà¤®": 7160,
      "à¤£à¤¯à¤¨": 7161,
      "à¤Ńà¤°à¤¸": 7162,
      "à¤Ńà¤µà¤ª": 7163,
      "à¤ĩà¤Ĩà¤ıà¤ķ": 7164,
      "Ġà¤ļà¤°à¤¸": 7165,
      "Ġà¤ļà¤ªà¤²": 7166,
      "à¤«à¤ª": 7167,
      "Ġà¤¶à¤Ł": 7168,
      "Ġà¤ĸà¤¤à¤®": 7169,
      "à¤īà¤¨à¤¯à¤¤": 7170,
      "à¤łà¤¸à¤¹": 7171,
      "Ġà¤ħà¤¨à¤¦": 7172,
      "Ġà¤ªà¤°à¤¸à¤®": 7173,
      "à¤°à¤¤à¤ľà¤¸": 7174,
      "à¥ĥà¤¿": 7175,
      "à¥¦à¥¯": 7176,
      "à¤ĺà¤·": 7177,
      "à¤ĺà¤ĺ": 7178,
      "Ġà¤ıà¤ķà¤ĸ": 7179,
      "à¤¨à¤®à¤¹": 7180,
      "Ġà¤§à¤¬": 7181,
      "à¤²à¤ķà¤¬à¤¹": 7182,
      "Ġà¤ľà¤¨à¤¬": 7183,
      "Ġà¤ľà¤¨à¤Ĺà¤£": 7184,
      "Ġà¤ľà¤¨à¤Ĩà¤¸": 7185,
      "Ġà¤¸à¤ķà¤¨": 7186,
      "Ġà¤Łà¤¨à¤Ńà¤¨": 7187,
      "à¤°à¤¹à¤£à¤²": 7188,
      "Ġà¤¸à¤¹à¤ĩà¤¨": 7189,
      "à¤²à¤®à¤¹": 7190,
      "à¤¤à¤°à¤µà¤¸": 7191,
      "Ġà¤ķà¤®à¤²à¤¬à¤¹": 7192,
      "Ġà¤ªà¤¹à¤²à¤²": 7193,
      "Ġà¤ħà¤¸à¤Ļ": 7194,
      "à¤¤à¤ķà¤£": 7195,
      "à¤®à¤ķà¤ķ": 7196,
      "à¤ħà¤ªà¤²": 7197,
      "à¤µà¤¨à¤¨": 7198,
      "à¤²à¤²à¤²": 7199,
      "Ġà¤¬à¤¸à¤°": 7200,
      "à¤ļà¤¨à¤¦": 7201,
      "à¤²à¤¨à¤¶": 7202,
      "à¤·à¤£à¤¸à¤¹": 7203,
      "Ġà¥«à¥§à¥¦": 7204,
      "Ġà¤īà¤¦à¤¹": 7205,
      "Ġà¤īà¤¦à¤¯à¤²": 7206,
      "à¤¶à¤ķà¤¦": 7207,
      "Ġà¤Ĩà¤°à¤§à¤¨": 7208,
      "Ġà¤¹à¤ľà¤°à¤¤": 7209,
      "Ġà¤Ŀà¤¡à¤ªà¤ķ": 7210,
      "à¤®à¤¤à¤ª": 7211,
      "Ġà¤¸à¤°à¤µà¤°": 7212,
      "à¤ķà¤ķà¤ķ": 7213,
      "à¤Ĩà¤¹": 7214,
      "à¤Ĩà¤°à¤²": 7215,
      "à¤Ĩà¤°à¤Ń": 7216,
      "Ġà¤ĵà¤®à¤°": 7217,
      "Ġà¤ļà¤²à¤¨à¤®": 7218,
      "Ġà¤ķà¤¸à¤°à¤¤à¤®": 7219,
      "à¤¤à¤²à¤ª": 7220,
      "Ġà¤¹à¤°à¤ªà¤²": 7221,
      "à¤¬à¤°à¤ª": 7222,
      "à¤§à¤¨à¤¦": 7223,
      "Ġà¤¸à¤®à¤¯à¤¹à¤°": 7224,
      "Ġà¥Ńà¥¦à¥¦à¥¦": 7225,
      "Ġà¤¦à¤°à¤µà¤¨": 7226,
      "Ġà¤Ķà¤¸": 7227,
      "Ġà¤ĺà¤°à¤Ľ": 7228,
      "à¥®à¥®": 7229,
      "Ġà¥§à¥¦à¥§à¥§": 7230,
      "Ġà¤ªà¤¦à¤ķà¤µ": 7231,
      "à¤ĵà¤¢": 7232,
      "Ġà¥®à¥©à¥¦": 7233,
      "Ġà¤¦à¤²à¤ľ": 7234,
      "Ġà¤¬à¤²à¤¦": 7235,
      "Ġà¤Ĩà¤ĩà¤ıà¤¸à¤ıà¤®": 7236,
      "Ġà¤Ĩà¤ĩà¤ĵà¤ıà¤¸": 7237,
      "à¤Łà¤²à¤¸à¤®": 7238,
      "à¤ıà¤¨à¤ıà¤¸": 7239,
      "à¤ķà¤ªà¤Ł": 7240,
      "à¤ĩà¤²à¤°": 7241,
      "Ġà¤¸à¤¡à¤ķà¤¸": 7242,
      "Ġà¤¸à¤¡à¤ķà¤Ľ": 7243,
      "Ġà¤Ĩà¤¦à¤¤à¤¹à¤°": 7244,
      "à¤ļà¤ķà¤¸à¤®": 7245,
      "Ġà¤Ĳà¤¸": 7246,
      "Ġà¤¸à¤¤à¤¹à¤ķ": 7247,
      "à¤²à¤¤à¤¸à¤®": 7248,
      "à¤¯à¤ªà¤¦à¤ķ": 7249,
      "Ġà¥¨à¥«à¥¨": 7250,
      "Ġà¥¨à¥«à¥ª": 7251,
      "Ġà¥¨à¥«à¥§à¥Ń": 7252,
      "Ġà¤ħà¤«à¤®": 7253,
      "Ġà¤¨à¤ľà¤°à¤¬": 7254,
      "à¤¥à¤²à¤Ń": 7255,
      "à¤¯à¤¯à¤¨à¤ħà¤§": 7256,
      "Ġà¥©à¥¦à¥®": 7257,
      "à¥ģà¤Ĥà¤ģ": 7258,
      "Ġà¤Īà¤¦": 7259,
      "Ġà¤Īà¤£": 7260,
      "Ġà¤Īà¤ķà¤®à¤°": 7261,
      "Ġà¥§à¥®à¥¨": 7262,
      "Ġà¥§à¥®à¥¨à¥«": 7263,
      "Ġà¥§à¥®à¥¬à¥§": 7264,
      "Ġà¤Ľà¤²à¤«à¤²à¤¸à¤®": 7265,
      "Ġà¥§à¥ªà¥§": 7266,
      "Ġà¥§à¥ªà¥¯": 7267,
      "Ġà¤¸à¤¹à¤ľà¤ª": 7268,
      "Ġà¤ľà¤¹à¤¦": 7269,
      "Ġà¤¹à¤²à¤¸à¤®": 7270,
      "Ġà¥¨à¥¨à¥®": 7271,
      "Ġà¥¨à¥¨à¥¯": 7272,
      "Ġà¤Ĩà¤Īà¤¨": 7273,
      "Ġà¤Ĺà¤łà¤¨à¤¸": 7274,
      "Ġà¥¨à¥Ńà¥¬": 7275,
      "Ġà¥¨à¥©à¥«": 7276,
      "Ġà¥¨à¥¦à¥¬à¥Ńà¥¬à¥®": 7277,
      "Ġà¤¶à¤¹à¤°à¤¬à¤ľ": 7278,
      "Ġà¤ĸà¤¬à¤°à¤ªà¤¤": 7279,
      "Ġà¤ĭà¤£à¤²": 7280,
      "Ġà¥¨à¥¯à¥«": 7281,
      "Ġà¥¨à¥¬à¥¦": 7282,
      "Ġà¥¨à¥¬à¥Ń": 7283,
      "à¤£à¤¨à¤Ĺà¤°à¤®": 7284,
      "à¤¸à¤µà¤Ł": 7285,
      "à¤Ĺà¤¬à¤¤": 7286,
      "Ġà¤Ńà¤µà¤¨à¤Ń": 7287,
      "à¥¨à¥¦à¥¨à¥¦": 7288,
      "à¥¨à¥¦à¥§à¥«": 7289,
      "Ġà¤ķà¤łà¤ª": 7290,
      "Ġà¤¨à¤²à¤¡": 7291,
      "à¤ıà¤²à¤ª": 7292,
      "à¤ıà¤²à¤ıà¤ķ": 7293,
      "à¤ıà¤²à¤ıà¤¨": 7294,
      "à¤Łà¤¬à¤²à¤ħà¤¨": 7295,
      "Ġà¥©à¥§à¥§": 7296,
      "à¤Ĩà¤Īà¤ıà¤ķ": 7297,
      "à¤²à¤Ńà¤°à¤ķ": 7298,
      "à¤Ĭà¤Ľ": 7299,
      "Ġà¤¹à¤ķà¤ħà¤¨": 7300,
      "à¤µà¤¨à¤®à¤°à¤£à¤ķ": 7301,
      "Ġà¤ĺà¤¨à¤ĺ": 7302,
      "Ġà¤¨à¤¸à¤¡": 7303,
      "à¤ĩà¤¬à¤°à¤²": 7304,
      "ĠĠĠĠĠĠĠĠĠĠĠĠĠĠĠĠĠĠĠ": 7305,
      "à¤¨à¤Ńà¤°à¤®": 7306,
      "Ġà¤Ĺà¤ľà¤²à¤²": 7307,
      "Ġà¥ªà¥ªà¥§": 7308,
      "à¤ıà¤¨à¤ıà¤¨à¤²": 7309,
      "Ġà¤ľà¤Ĺà¤¤à¤ª": 7310,
      "Ġà¤ķà¤¦à¤®à¤®": 7311,
      "Ġà¥¨à¥¦à¥Ńà¥¦à¥Ńà¥§": 7312,
      "Ġà¥§à¥¯à¥«à¥¯": 7313,
      "Ġà¤ıà¤ķà¤ıà¤ķà¤µà¤Ł": 7314,
      "Ġà¥§à¥¯à¥¬à¥ª": 7315,
      "Ġà¥§à¥¯à¥¬à¥®": 7316,
      "Ġà¤¦à¤°à¤®à¤ĸ": 7317,
      "Ġà¤µà¤ļà¤¨à¤¹à¤°": 7318,
      "à¤Ńà¤°à¤¤à¤ª": 7319,
      "Ġà¤¶à¤°à¤¦à¤ķ": 7320,
      "Ġà¥¨à¥¦à¥Ńà¥«à¥¦à¥©": 7321,
      "à¤°à¤¸à¤ķà¤¨": 7322,
      "Ġà¤ıà¤«à¤ıà¤®à¤®": 7323,
      "à¤ĭà¤¤": 7324,
      "Ġà¤¸à¤¤à¤²à¤ľà¤²": 7325,
      "à¤¶à¤µà¤¨à¤°à¤¸": 7326,
      "Ġà¤¹à¤¤à¤ķà¤¡": 7327,
      "Ġà¤Ĩà¤ĩà¤ıà¤¸à¤ıà¤®à¤Ł": 7328,
      "Ġà¥Ģ": 7329,
      "à¥Ĭ": 7330,
      "à¤°à¤°à¤ķ": 7331,
      "à¤°à¤Ĩà¤²": 7332,
      "à¤¨à¤ªà¤ķ": 7333,
      "à¤ķà¤¸à¤ķ": 7334,
      "à¤²à¤ļà¤¸": 7335,
      "à¤®à¤²à¤¬": 7336,
      "à¤¤à¤ªà¤°": 7337,
      "à¤¯à¤µà¤ķ": 7338,
      "à¤¯à¤°à¤¸à¤¹": 7339,
      "à¤¸à¤ı": 7340,
      "à¤¸à¤µà¤¸": 7341,
      "Ġà¤¸à¤°à¤®": 7342,
      "Ġà¤¸à¤ľà¤ķ": 7343,
      "à¤¹à¤¤à¤²": 7344,
      "à¤¹à¤£à¤®": 7345,
      "à¤ªà¤«": 7346,
      "à¤¦à¤ľà¤¸": 7347,
      "à¤µà¤¬à¤¨": 7348,
      "à¤µà¤Ńà¤ķ": 7349,
      "Ġà¤ķà¤¡à¤°": 7350,
      "Ġà¤Ĺà¤ľà¤°": 7351,
      "à¤Ĺà¤°à¤£à¤®": 7352,
      "à¤Ĺà¤£à¤²": 7353,
      "à¤Ĺà¤¸à¤®à¤ķ": 7354,
      "Ġà¤°à¤¸à¤ª": 7355,
      "Ġà¤°à¤°à¤°": 7356,
      "Ġà¤°à¤Ĺà¤¡": 7357,
      "à¤Łà¤°à¤¤": 7358,
      "Ġà¤¨à¤ĺ": 7359,
      "Ġà¤¨à¤¤à¤°": 7360,
      "Ġà¤¨à¤¬à¤²": 7361,
      "Ġà¤¨à¤Ĩà¤Ī": 7362,
      "Ġà¤¨à¤¥à¤ª": 7363,
      "Ġà¤®à¤²à¤²": 7364,
      "à¤ıà¤¬à¤®": 7365,
      "Ġà¤ħà¤©": 7366,
      "à¤ľà¤¸à¤ķ": 7367,
      "à¤ľà¤°à¤¹à¤°": 7368,
      "à¤ľà¤°à¤¬": 7369,
      "Ġà¤¹à¤£": 7370,
      "Ġà¤µà¤°à¤ķ": 7371,
      "Ġà¤µà¤ļà¤¨à¤ķ": 7372,
      "à¤¬à¤ªà¤Ľ": 7373,
      "à¤·à¤ªà¤¤": 7374,
      "Ġà¤Ľà¤ľà¤¨": 7375,
      "à¤§à¤µà¤°": 7376,
      "à¤§à¤µà¤²": 7377,
      "Ġà¤¦à¤¹à¤¨": 7378,
      "à¤¥à¤ļ": 7379,
      "à¤¥à¤°à¤®": 7380,
      "à¤¥à¤²à¤Ĺ": 7381,
      "à¤¥à¤²à¤¸": 7382,
      "à¤¶à¤¶": 7383,
      "à¤¶à¤ĸ": 7384,
      "à¤¶à¤°à¤®": 7385,
      "à¤¶à¤®à¤²": 7386,
      "Ġà¤Ĩà¤łà¤ķ": 7387,
      "Ġà¤ľà¤¯à¤®": 7388,
      "Ġà¤ľà¤¯à¤¸à¤µ": 7389,
      "à¤ļà¤Ł": 7390,
      "à¤ļà¤ªà¤Ľ": 7391,
      "à¤Īà¤Ľ": 7392,
      "à¤Īà¤Łà¤²": 7393,
      "à¤¡à¤Ńà¤°": 7394,
      "à¤¡à¤¹à¤²": 7395,
      "à¤£à¤¶à¤®à¤¶": 7396,
      "à¤Ńà¤¨à¤²": 7397,
      "à¤ĸà¤¶": 7398,
      "à¤ĸà¤ķà¤¸": 7399,
      "à¤¹à¤°à¤ª": 7400,
      "à¤°à¤®à¤¯": 7401,
      "à¤«à¤°à¤ª": 7402,
      "Ġà¤¶à¤®à¤¸": 7403,
      "Ġà¤¶à¤µà¤¦": 7404,
      "Ġà¤¶à¤°à¤£à¤ķ": 7405,
      "Ġà¤ĸà¤°à¤²": 7406,
      "Ġà¤¥à¤¬": 7407,
      "Ġà¤ıà¤¨à¤²": 7408,
      "à¤īà¤¨à¤ª": 7409,
      "Ġà¤ªà¤°à¤ľ": 7410,
      "à¤°à¤¤à¤¦": 7411,
      "à¤°à¤¤à¤Ń": 7412,
      "à¤Ļà¤¥": 7413,
      "à¤Ļà¤ĺ": 7414,
      "à¥¦à¥Ń": 7415,
      "Ġà¤«à¤²à¤®": 7416,
      "à¤°à¤£à¤¦": 7417,
      "à¤ĺà¤°à¤¤": 7418,
      "Ġà¤ıà¤ķà¤¤à¤¨": 7419,
      "Ġà¤ıà¤ķà¤¤à¤²": 7420,
      "Ġà¤ıà¤ķà¤¸à¤°": 7421,
      "Ġà¤§à¤¨à¤¨": 7422,
      "Ġà¤§à¤°à¤®à¤ª": 7423,
      "Ġà¤¯à¤¸à¤ħà¤Ĺ": 7424,
      "Ġà¤ľà¤¨à¤ªà¤¦": 7425,
      "à¤ŀà¤¸à¤¹": 7426,
      "à¤°à¤¹à¤¯": 7427,
      "à¤°à¤¹à¤ľ": 7428,
      "Ġà¤¡à¤Ĺà¤®à¤Ĺ": 7429,
      "à¤¯à¤¸à¤ªà¤¶": 7430,
      "Ġà¤¸à¤¹à¤¸à¤®": 7431,
      "Ġà¤¤à¤°à¤¡": 7432,
      "à¤¯à¤¤à¤¹à¤°": 7433,
      "à¤¯à¤¤à¤²à¤Ĺ": 7434,
      "Ġà¤ķà¤®à¤²à¤²": 7435,
      "Ġà¤®à¤¨à¤µ": 7436,
      "Ġà¤ķà¤°à¤¹à¤°": 7437,
      "à¤ĩà¤¨à¤ª": 7438,
      "à¤ķà¤®à¤£": 7439,
      "à¤ħà¤°à¤®": 7440,
      "à¤ħà¤°à¤¬": 7441,
      "à¤ħà¤«à¤®": 7442,
      "à¤µà¤°à¤ľà¤¸": 7443,
      "à¤µà¤¨à¤µ": 7444,
      "à¤µà¤¨à¤Ĺà¤°": 7445,
      "à¥§à¥§à¥¦": 7446,
      "Ġà¥«à¥¨à¥¦": 7447,
      "à¤°à¤µà¤®à¤¯": 7448,
      "à¤°à¤µà¤¹à¤¨à¤ķ": 7449,
      "Ġà¤ħà¤¹à¤µ": 7450,
      "Ġà¤ħà¤¹à¤ľ": 7451,
      "à¤¸à¤¨à¤Ń": 7452,
      "à¤¸à¤¨à¤ľà¤¸": 7453,
      "à¤·à¤ķà¤ķà¤°": 7454,
      "à¤·à¤ķà¤¤à¤¤": 7455,
      "à¤ķà¤°à¤Ń": 7456,
      "à¤¡à¤ķà¤°à¤ķ": 7457,
      "à¤®à¤¨à¤¹à¤°": 7458,
      "à¤Ĩà¤ĵ": 7459,
      "à¤Ĩà¤ĩà¤ıà¤¨": 7460,
      "Ġà¤¸à¤¦à¤°à¤²": 7461,
      "à¤ªà¤ķà¤¸": 7462,
      "Ġà¤ĵà¤¦": 7463,
      "Ġà¤ĵà¤Ĺ": 7464,
      "Ġà¤ĵà¤łà¤¹à¤°": 7465,
      "à¤Ĺà¤²à¤ªà¤¨": 7466,
      "Ġà¤ľà¤¸à¤µà¤¨": 7467,
      "Ġà¤¬à¤°à¤ª": 7468,
      "Ġà¤ªà¤Ľà¤¯": 7469,
      "à¤¶à¤¨à¤¶": 7470,
      "Ġà¥Ńà¥©à¥¦": 7471,
      "à¤Łà¤®à¤¸": 7472,
      "Ġà¤ĺà¤°à¤«": 7473,
      "à¥®à¥ª": 7474,
      "Ġà¤ªà¤¦à¤ķà¤¬": 7475,
      "à¤¦à¤°à¤ª": 7476,
      "Ġà¤ħà¤µà¤ļ": 7477,
      "Ġà¤ıà¤®à¤ľ": 7478,
      "Ġà¤ıà¤®à¤Ĩà¤°à¤Ĩà¤Ī": 7479,
      "Ġà¤¬à¤²à¤Ńà¤¦": 7480,
      "à¤µà¤¤à¤¤": 7481,
      "Ġà¤Ĩà¤ĩà¤ıà¤¸à¤ķ": 7482,
      "à¤ıà¤¨à¤Ł": 7483,
      "Ġà¤īà¤²à¤Ļ": 7484,
      "Ġà¤«à¤°à¤µà¤°": 7485,
      "à¤ĩà¤²à¤¸": 7486,
      "Ġà¤ªà¤¢à¤¦": 7487,
      "Ġà¤ªà¤Łà¤ķà¤Ńà¤¨": 7488,
      "à¤¨à¤µà¤µ": 7489,
      "Ġà¥§à¥¯à¥§à¥¯": 7490,
      "Ġà¥§à¥¯à¥©à¥ª": 7491,
      "Ġà¥§à¥¨à¥§à¥«": 7492,
      "Ġà¤īà¤łà¤¬à¤¸": 7493,
      "Ġà¤ħà¤Ŀà¤¸à¤®": 7494,
      "à¤¤à¤°à¤£à¤¸à¤®": 7495,
      "Ġà¤ıà¤¸à¤Ł": 7496,
      "Ġà¤°à¤ķà¤®à¤¸à¤¹": 7497,
      "à¤ľà¤²à¤¸à¤®": 7498,
      "à¤¦à¤µà¤¹à¤°": 7499,
      "Ġà¥¨à¥«à¥©": 7500,
      "Ġà¤ħà¤«à¤°à¤ķ": 7501,
      "à¤ļà¤®à¤§": 7502,
      "à¤¦à¤®à¤¯": 7503,
      "Ġà¤¦à¤¶à¤µà¤°": 7504,
      "Ġà¥©à¥¦à¥©à¥«": 7505,
      "Ġà¥§à¥®à¥¬": 7506,
      "à¤¸à¤¸à¤¬": 7507,
      "Ġà¥§à¥ªà¥¬": 7508,
      "à¤¶à¤²à¤Ł": 7509,
      "à¤¶à¤²à¤Ĩà¤°": 7510,
      "Ġà¥§à¥¬à¥§à¥¬": 7511,
      "à¤ĺà¤Łà¤¨à¤ªà¤Ľ": 7512,
      "Ġà¤Ĭà¤¡": 7513,
      "à¤ķà¤Łà¤Ĺ": 7514,
      "Ġà¤¹à¤²à¤Ń": 7515,
      "Ġà¤°à¤®à¤ľ": 7516,
      "Ġà¥¨à¥ªà¥¬": 7517,
      "Ġà¤Ĩà¤Īà¤ªà¤°": 7518,
      "Ġà¤ľà¤¬à¤ľà¤ķ": 7519,
      "Ġà¤ľà¤¬à¤ľà¤²": 7520,
      "à¤Ĩà¤°à¤Ł": 7521,
      "Ġà¤¤à¤²à¤¤à¤²": 7522,
      "Ġà¤®à¤¦à¤°à¤¸": 7523,
      "Ġà¤¶à¤¹à¤°à¤¦": 7524,
      "Ġà¥¨à¥¯à¥§": 7525,
      "Ġà¥¨à¥¯à¥¯": 7526,
      "à¤Ĺà¤¬à¤®": 7527,
      "à¤ıà¤²à¤ľ": 7528,
      "Ġà¤¨à¤µà¤°à¤¤": 7529,
      "Ġà¥¬à¥¦à¥«": 7530,
      "Ġà¥©à¥§à¥Ń": 7531,
      "Ġà¥©à¥§à¥¬": 7532,
      "Ġà¥©à¥§à¥®": 7533,
      "Ġà¤ıà¤ªà¤¬": 7534,
      "Ġà¤ªà¤²à¤¹à¤°": 7535,
      "à¤¹à¤°à¤£à¤²": 7536,
      "à¤Łà¤°à¤ķà¤¨": 7537,
      "Ġà¤¦à¤¶à¤ķà¤¬": 7538,
      "Ġà¤¨à¤Ńà¤Īà¤ķà¤¨": 7539,
      "à¤Ĩà¤«à¤¨": 7540,
      "à¤µà¤°à¤²à¤Ĺ": 7541,
      "Ġà¤Ĺà¤ıà¤ľà¤¸": 7542,
      "Ġà¥©à¥©à¥§": 7543,
      "Ġà¤·à¤·": 7544,
      "ĠĠĠĠĠĠĠĠĠĠĠĠĠĠĠĠĠ": 7545,
      "ĠĠĠĠĠĠĠĠĠĠĠĠĠĠĠĠĠĠ": 7546,
      "Ġà¤°à¤ľà¤¤à¤ª": 7547,
      "Ġà¥®à¥«à¥¦": 7548,
      "Ġà¥ªà¥©à¥«": 7549,
      "Ġà¤ªà¤ļà¤¹à¤¤": 7550,
      "à¤¼à¤¿": 7551,
      "Ġà¥¬à¥©à¥«": 7552,
      "Ġà¤ıà¤ķà¤ªà¤Łà¤ķà¤ķ": 7553,
      "Ġà¥®à¥ªà¥«": 7554,
      "à¤°à¤¨à¤Ĺà¤°à¤²": 7555,
      "à¤ıà¤ļà¤ĵ": 7556,
      "à¤ıà¤ļà¤ĵà¤²": 7557,
      "Ġà¥¦à¥«à¥¦": 7558,
      "Ġà¥¦à¥«à¥«": 7559,
      "Ġà¥§à¥¯à¥¬à¥§": 7560,
      "Ġà¤ĸà¤¬à¤°à¤¬": 7561,
      "Ġà¤ľà¤¨à¤¸à¤®à¤°": 7562,
      "à¤Ńà¤ªà¤¤à¤¨à¤²": 7563,
      "Ġà¥§à¥¯à¥ªà¥Ń": 7564,
      "à¥¨à¥©à¥«": 7565,
      "Ġà¤¬à¤¬à¤Īà¤®": 7566,
      "à¥®à¥¦à¥Ńà¥©à¥Ńà¥ª": 7567,
      "Ġà¤Ĩà¤ĩà¤¡à¤²à¤¬": 7568,
      "Ġà¥¦à¥Ńà¥«à¥¦à¥Ńà¥¬": 7569,
      "à¤Ĩà¤°à¤Ĩà¤Īà¤®": 7570,
      "Ġà¤ħà¤®à¤¨à¤ļà¤¯à¤¨": 7571,
      "Ġà¥¦à¥Ńà¥¦à¥Ńà¥§": 7572,
      "à¤ħà¤µà¤¸à¤°": 7573,
      "Ġà¤¸à¤¤à¤²à¤ľ": 7574,
      "Ġà¤ıà¤²à¤ıà¤²à¤¬": 7575,
      "à¥įà¥ĭ": 7576,
      "à¤°à¤Ĩ": 7577,
      "à¤¨à¤°à¤¬": 7578,
      "à¤¨à¤¥à¤°": 7579,
      "à¤¨à¤ıà¤ľ": 7580,
      "à¤¨à¤ħà¤Ĺ": 7581,
      "à¤¿à¥Ī": 7582,
      "à¤²à¤¸à¤²": 7583,
      "à¤®à¤°à¤¸": 7584,
      "à¤®à¤°à¤¹à¤°": 7585,
      "à¤®à¤¬à¤¨": 7586,
      "à¤®à¤²à¤¨": 7587,
      "à¤®à¤¯à¤¦": 7588,
      "à¤¤à¤¹à¤ķ": 7589,
      "à¤¤à¤ĵà¤Ł": 7590,
      "à¤¤à¤§à¤°à¤²": 7591,
      "à¤¸à¤£": 7592,
      "à¤¸à¤¯à¤®": 7593,
      "à¤¸à¤¯à¤¤": 7594,
      "à¤¸à¤²à¤²": 7595,
      "à¤¸à¤Ĩà¤°": 7596,
      "à¤¸à¤ħà¤«": 7597,
      "Ġà¤¸à¤¸à¤ķ": 7598,
      "à¤¹à¤ľà¤¸": 7599,
      "à¤¹à¤¬à¤¹": 7600,
      "à¤¦à¤ķà¤®": 7601,
      "à¤¦à¤¤à¤ķ": 7602,
      "à¤¦à¤Ńà¤¨": 7603,
      "à¤µà¤²à¤¬": 7604,
      "à¤µà¤ļà¤°": 7605,
      "Ġà¤ķà¤ļà¤ķ": 7606,
      "Ġà¤Ĺà¤ľà¤®": 7607,
      "à¤Ĺà¤ķà¤®": 7608,
      "à¤Ĺà¤ľà¤¬": 7609,
      "Ġà¤°à¤Ń": 7610,
      "Ġà¤°à¤¸à¤ķ": 7611,
      "Ġà¤°à¤¥à¤®": 7612,
      "Ġà¤°à¤¥à¤²": 7613,
      "à¤Łà¤¤à¤®": 7614,
      "Ġà¤¨à¤¢": 7615,
      "Ġà¤¨à¤µà¤¸": 7616,
      "Ġà¤¬à¤·": 7617,
      "Ġà¤¬à¤ĺ": 7618,
      "Ġà¤¬à¤®à¤§": 7619,
      "Ġà¤¬à¤°à¤¬à¤°": 7620,
      "Ġà¤®à¤Ń": 7621,
      "Ġà¤®à¤°à¤£à¤ķ": 7622,
      "Ġà¤Ńà¤ľà¤¨à¤®": 7623,
      "Ġà¤¹à¤ķà¤¬": 7624,
      "Ġà¤µà¤Ļ": 7625,
      "Ġà¤µà¤¦à¤¨": 7626,
      "Ġà¤µà¤¨à¤®à¤¨": 7627,
      "Ġà¤µà¤ĸà¤¤": 7628,
      "à¤¬à¤¸à¤²": 7629,
      "à¤¬à¤¤à¤¸": 7630,
      "à¤¬à¤°à¤¶à¤®à¤¶": 7631,
      "à¤·à¤ļ": 7632,
      "à¤§à¤§": 7633,
      "à¤§à¤ĺ": 7634,
      "à¤§à¤ľà¤¸": 7635,
      "à¤§à¤¸à¤Ń": 7636,
      "Ġà¤¤à¤¬à¤®": 7637,
      "Ġà¤¦à¤¹à¤®": 7638,
      "à¤¥à¤¦": 7639,
      "à¤¥à¤²à¤¨": 7640,
      "à¤¶à¤²à¤²": 7641,
      "Ġà¤Ĩà¤¨à¤²": 7642,
      "Ġà¤Ĩà¤¡à¤µ": 7643,
      "Ġà¤ľà¤¯à¤ľ": 7644,
      "à¤Ľà¤¹à¤°": 7645,
      "à¤ļà¤ªà¤Łà¤ķ": 7646,
      "à¤ļà¤°à¤£à¤®": 7647,
      "Ġà¤²à¤Ńà¤¸": 7648,
      "à¤Īà¤Łà¤°": 7649,
      "à¤Īà¤ķà¤°": 7650,
      "à¤Īà¤Łà¤¹à¤°": 7651,
      "à¤¡à¤µà¤ķ": 7652,
      "à¤¡à¤°à¤µ": 7653,
      "à¤¡à¤ķà¤°": 7654,
      "à¤¡à¤ĺà¤Ł": 7655,
      "à¤£à¤ľà¤¨": 7656,
      "à¤£à¤ķà¤²": 7657,
      "Ġà¤īà¤Ł": 7658,
      "à¤ĸà¤°à¤²": 7659,
      "à¤īà¤ªà¤Ľ": 7660,
      "à¤īà¤ªà¤®": 7661,
      "à¤īà¤¥à¤Ĺ": 7662,
      "à¤ĩà¤Ńà¤ķ": 7663,
      "à¤ĩà¤ĵà¤ķ": 7664,
      "à¤ĩà¤ĵà¤²": 7665,
      "à¤°à¤®à¤ĸ": 7666,
      "à¤°à¤®à¤²à¤Ĺ": 7667,
      "Ġà¤ļà¤µà¤°": 7668,
      "à¤«à¤¸à¤®": 7669,
      "à¥Įà¤¾": 7670,
      "Ġà¤ĸà¤Łà¤¨": 7671,
      "Ġà¤ıà¤²à¤¨": 7672,
      "à¤īà¤¨à¤ªà¤°": 7673,
      "à¤¯à¤ķà¤¥": 7674,
      "Ġà¤ªà¤°à¤¹": 7675,
      "à¤°à¤¤à¤Ńà¤°": 7676,
      "Ġà¤«à¤¸à¤²": 7677,
      "à¤°à¤£à¤µà¤¸": 7678,
      "à¤¢à¤¸": 7679,
      "Ġà¤ıà¤ķà¤¬à¤¦": 7680,
      "à¤¨à¤®à¤¤": 7681,
      "Ġà¤ĺà¤°à¤¤à¤°": 7682,
      "Ġà¤§à¤¨à¤¬": 7683,
      "Ġà¤§à¤°à¤®à¤°": 7684,
      "à¤²à¤ķà¤¨": 7685,
      "à¤¯à¤®à¤¸à¤®": 7686,
      "Ġà¤Łà¤ªà¤ķ": 7687,
      "à¤ŀà¤µà¤²": 7688,
      "à¤°à¤¹à¤¸": 7689,
      "Ġà¤ħà¤§à¤¬": 7690,
      "à¤°à¤²à¤¯à¤ķ": 7691,
      "Ġà¤µà¤°à¤ª": 7692,
      "à¤²à¤®à¤ĸ": 7693,
      "à¤Ŀà¤¨à¤²": 7694,
      "à¤Ŀà¤Łà¤¬": 7695,
      "à¤¯à¤¤à¤¹à¤ķ": 7696,
      "Ġà¤¬à¤¢à¤¯": 7697,
      "à¤ĩà¤¨à¤¸à¤®": 7698,
      "à¤°à¤¦à¤¶à¤¨": 7699,
      "Ġà¤łà¤¨": 7700,
      "Ġà¤łà¤¯": 7701,
      "Ġà¤ĩà¤²à¤®": 7702,
      "Ġà¤ĩà¤¨à¤¸": 7703,
      "Ġà¤ĩà¤¦à¤ķ": 7704,
      "Ġà¤ĩà¤Ĩà¤ĩà¤ı": 7705,
      "à¤ķà¤®à¤¬": 7706,
      "à¤Łà¤ķà¤¬": 7707,
      "à¤®à¤ķà¤°à¤£à¤ķ": 7708,
      "à¤ħà¤ľà¤¯à¤ķ": 7709,
      "à¤µà¤¨à¤Ńà¤°à¤ķ": 7710,
      "à¤¯à¤²à¤¯à¤¹à¤°": 7711,
      "Ġà¤Ĺà¤¤à¤¹à¤ª": 7712,
      "à¤·à¤£à¤ª": 7713,
      "à¤·à¤£à¤²à¤Ĺ": 7714,
      "Ġà¤Ĩà¤°à¤Ĩà¤°": 7715,
      "à¤¸à¤¨à¤ªà¤Ł": 7716,
      "Ġà¤Ŀà¤µ": 7717,
      "Ġà¤Ŀà¤¸à¤Ļ": 7718,
      "à¤·à¤ķà¤µ": 7719,
      "Ġà¤¸à¤°à¤Ĺà¤°": 7720,
      "à¤Ĩà¤ĩà¤²": 7721,
      "Ġà¥¬à¥©à¥¦": 7722,
      "à¤Ĺà¤²à¤¤": 7723,
      "Ġà¤ľà¤¸à¤¦": 7724,
      "Ġà¤¬à¤°à¤«": 7725,
      "à¥©à¥¨à¥¦": 7726,
      "à¤¶à¤¨à¤¬à¤®": 7727,
      "à¤®à¤²à¤°": 7728,
      "à¤®à¤²à¤¸": 7729,
      "Ġà¤¢à¤¡": 7730,
      "Ġà¥§à¥¦à¥¨à¥¦": 7731,
      "Ġà¥§à¥¦à¥¦à¥¦à¥¦": 7732,
      "Ġà¤ªà¤¦à¤§": 7733,
      "Ġà¤ķà¤²à¤¹à¤ķ": 7734,
      "Ġà¥®à¥§à¥ª": 7735,
      "Ġà¤¨à¤Ĺà¤°à¤ªà¤²": 7736,
      "à¤·à¤®à¤§": 7737,
      "Ġà¤ħà¤µà¤Ĺ": 7738,
      "à¤¹à¤¨à¤Ĺà¤°": 7739,
      "Ġà¥¯à¥§à¥¨": 7740,
      "Ġà¤¬à¤¹à¤¸à¤¹à¤°": 7741,
      "Ġà¤Ĩà¤ĩà¤¯": 7742,
      "à¤ıà¤¨à¤ª": 7743,
      "à¤ıà¤¨à¤Ĩà¤°": 7744,
      "Ġà¤¨à¤®à¤ľ": 7745,
      "Ġà¤®à¤¤à¤¸à¤¹": 7746,
      "à¤ĩà¤²à¤¸à¤®": 7747,
      "Ġà¤¨à¤¹à¤¸": 7748,
      "Ġà¤Ĳà¤¨à¤¬à¤®": 7749,
      "Ġà¤¸à¤¤à¤¬": 7750,
      "à¤°à¤®à¤£à¤ª": 7751,
      "à¤°à¤®à¤£à¤Ńà¤¤": 7752,
      "Ġà¥§à¥¯à¥¨à¥¦": 7753,
      "Ġà¥§à¥¯à¥©à¥®": 7754,
      "à¤µà¤ªà¤¦": 7755,
      "Ġà¥§à¥§à¥§à¥§": 7756,
      "Ġà¥§à¥§à¥ªà¥«": 7757,
      "Ġà¤ıà¤¸à¤µ": 7758,
      "Ġà¤¨à¤Ńà¤ĩà¤°à¤¹": 7759,
      "à¤¯à¤ªà¤°à¤ķ": 7760,
      "Ġà¥¨à¥«à¥¨à¥¦": 7761,
      "Ġà¥«à¥¦à¥«": 7762,
      "Ġà¤ľà¤Ĺà¤ľà¤Ĺ": 7763,
      "à¤Īà¤²à¤Ł": 7764,
      "à¤¨à¤Ĺà¤°à¤µ": 7765,
      "à¤łà¤ķà¤¦": 7766,
      "Ġà¥©à¥¦à¥ª": 7767,
      "Ġà¤ıà¤¨à¤¡": 7768,
      "à¤¯à¤Łà¤ķà¤¸": 7769,
      "à¤®à¤¸à¤Ļ": 7770,
      "Ġà¤ĺà¤°à¤®à¤§": 7771,
      "à¤¸à¤¹à¤°à¤¬": 7772,
      "à¤ıà¤®à¤¡": 7773,
      "Ġà¥¨à¥§à¥§à¥«": 7774,
      "Ġà¥¦à¥§à¥Ń": 7775,
      "à¤ľà¤¨à¤ķà¤°": 7776,
      "Ġà¤Ĺà¤łà¤¨à¤¸à¤®": 7777,
      "à¤¯à¤£à¤¹à¤°": 7778,
      "Ġà¤Ĩà¤Īà¤ı": 7779,
      "Ġà¤ľà¤¬à¤ľ": 7780,
      "à¤Ĺà¤²à¤¬à¤ľ": 7781,
      "Ġà¥¨à¥®à¥«": 7782,
      "Ġà¤¤à¤²à¤¦": 7783,
      "Ġà¤Ĺà¤łà¤ľ": 7784,
      "Ġà¥¨à¥Ńà¥ª": 7785,
      "Ġà¥¨à¥Ńà¥®": 7786,
      "Ġà¥¨à¥©à¥¨à¥«": 7787,
      "à¤¡à¤°à¤Ĺ": 7788,
      "à¤Ĺà¤¢à¤®": 7789,
      "Ġà¥¨à¥¯à¥¦": 7790,
      "Ġà¤Ĩà¤ļà¤®à¤¨": 7791,
      "Ġà¤Ĩà¤łà¤¦": 7792,
      "à¤¸à¤µà¤¬": 7793,
      "à¤¸à¤µà¤¹à¤°": 7794,
      "Ġà¤ľà¤²à¤ªà¤°": 7795,
      "à¤Ĺà¤®à¤¨à¤¸à¤®": 7796,
      "à¤ıà¤²à¤Ł": 7797,
      "Ġà¥©à¥§à¥«": 7798,
      "à¤ªà¤Łà¤¨à¤²": 7799,
      "à¤ªà¤¸à¤²à¤®": 7800,
      "Ġà¥©à¥«à¥«": 7801,
      "Ġà¥©à¥«à¥¦à¥¦": 7802,
      "Ġà¤ıà¤²à¤ıà¤®à¤¡à¤¬": 7803,
      "Ġà¤ĩà¤®à¤°à¤ľ": 7804,
      "à¤¤à¤µà¤¨à¤¸": 7805,
      "à¤Ĭà¤¦": 7806,
      "Ġà¤¸à¤¡à¤ķà¤®à¤§": 7807,
      "Ġà¤¨à¤Ĺà¤¦à¤¬": 7808,
      "Ġà¤ļà¤ķà¤ļà¤ķ": 7809,
      "Ġà¥Ńà¥«à¥Ń": 7810,
      "à¤Ńà¤²à¤ªà¤°": 7811,
      "à¤Ńà¤Ĺà¤µà¤¦": 7812,
      "à¤ıà¤«à¤Ł": 7813,
      "à¤ĩà¤ķà¤²à¤¯": 7814,
      "à¤®à¤¯à¤¦à¤°": 7815,
      "Ġà¤Ńà¤°à¤¤à¤¬à¤¹": 7816,
      "à¤¯à¤°à¤®à¤§": 7817,
      "ĠĠĠĠĠĠĠĠĠĠĠĠĠĠĠĠĠĠĠĠĠĠ": 7818,
      "Ġà¤¬à¤ļà¤¤à¤ªà¤¤": 7819,
      "Ġà¥ªà¥®à¥Ń": 7820,
      "Ġà¥«à¥¨à¥ª": 7821,
      "Ġà¥«à¥¨à¥¬": 7822,
      "Ġà¥ªà¥ªà¥¨": 7823,
      "à¤µà¤ľà¤¹à¤°": 7824,
      "Ġà¥ªà¥§à¥¨": 7825,
      "Ġà¤ĵà¤Ńà¤°à¤²": 7826,
      "Ġà¥¦à¥¬à¥Ń": 7827,
      "Ġà¥ªà¥¬à¥¦": 7828,
      "Ġà¥«à¥ªà¥¯": 7829,
      "Ġà¤¨à¤Ĺà¤ı": 7830,
      "Ġà¤ľà¤Ĺà¤¤à¤Ĺ": 7831,
      "Ġà¥®à¥ªà¥®": 7832,
      "Ġà¥§à¥¯à¥«à¥ª": 7833,
      "Ġà¥¨à¥¦à¥¬à¥©à¥¬à¥ª": 7834,
      "Ġà¤²à¤¹à¤°à¤²": 7835,
      "à¤¨à¤Ĺà¤¯": 7836,
      "Ġà¤Ĩà¤¸à¤¨à¤¬": 7837,
      "Ġà¤ħà¤¥à¤¬": 7838,
      "Ġà¥§à¥¯à¥ªà¥¬": 7839,
      "Ġà¤²à¤ĸà¤¤à¤°": 7840,
      "Ġà¤ĵà¤Ńà¤°à¤¡": 7841,
      "Ġà¤¸à¤¦à¤¨à¤¬": 7842,
      "Ġà¤Ŀà¤®à¤Ŀà¤®": 7843,
      "Ġà¤ħà¤¹à¤®à¤¦à¤ķ": 7844,
      "Ġà¤ªà¤µà¤¨à¤ľ": 7845,
      "à¤¨à¤µà¤²à¤Ĺ": 7846,
      "Ġà¤²à¤ĸà¤¨à¤īà¤ķ": 7847,
      "à¤®à¤Ļà¤ª": 7848,
      "Ġà¥¦à¥Ńà¥¨à¥¦à¥Ńà¥©": 7849,
      "à¤°à¤¡à¤®à¤ķ": 7850,
      "Ġà¥§à¥¦à¥¦à¥¦à¥¦à¥¦": 7851,
      "à¤Ĩà¤¦à¤°à¤£": 7852,
      "Ġà¤ħà¤²à¤ķà¤¤": 7853,
      "Ġà¤ķà¤¨à¤ķà¤®à¤£": 7854,
      "Ġà¤°à¤¨à¤¤à¤Ĺ": 7855,
      "Ġà¤°à¤¨à¤¤à¤·": 7856,
      "Ġà¤ıà¤¨à¤ıà¤«à¤Ĩà¤°à¤ıà¤¸": 7857,
      "Ġà¤¨à¤¯à¤¨à¤°": 7858,
      "à¤ĩà¤¨à¤ĸà¤¬à¤°à¤²": 7859,
      "à¤ĩà¤¨à¤ĸà¤¬à¤°à¤¸": 7860,
      "Ġà¤ıà¤¸à¤ıà¤²à¤Ĩà¤°": 7861,
      "Ġà¤µà¤¨à¤¨à¤¯": 7862,
      "Ġà¤ľà¤¯à¤ľà¤¯à¤ķ": 7863,
      "à¤°à¤°à¤£": 7864,
      "à¤°à¤¯à¤¸": 7865,
      "à¤¨à¤Ĺà¤¨": 7866,
      "à¤¨à¤īà¤¤": 7867,
      "à¤¿à¥Ĥ": 7868,
      "à¤ķà¤ĸ": 7869,
      "à¤ķà¤ķà¤°": 7870,
      "à¤²à¤°à¤¸": 7871,
      "à¤²à¤°à¤¬": 7872,
      "à¤®à¤ªà¤°": 7873,
      "à¤®à¤¸à¤²": 7874,
      "à¤®à¤µà¤²": 7875,
      "à¤®à¤ľà¤¦": 7876,
      "à¤¯à¤µà¤²": 7877,
      "à¤¯à¤¬à¤°": 7878,
      "Ġà¤¸à¤°à¤¹à¤°": 7879,
      "Ġà¤¸à¤Łà¤°à¤ķ": 7880,
      "Ġà¤ªà¤¡à¤ķ": 7881,
      "à¤¹à¤¹": 7882,
      "à¤¹à¤Łà¤ķ": 7883,
      "à¤¹à¤²à¤¯": 7884,
      "à¤ªà¤ł": 7885,
      "à¤ªà¤Ļ": 7886,
      "à¤¦à¤¯à¤¸": 7887,
      "à¤¦à¤µà¤°": 7888,
      "à¤¦à¤°à¤µ": 7889,
      "à¤¦à¤²à¤Ĺ": 7890,
      "à¤¦à¤ħà¤¨": 7891,
      "à¤µà¤Ĺà¤°": 7892,
      "à¤µà¤§à¤¨": 7893,
      "à¤µà¤¯à¤®à¤ķ": 7894,
      "Ġà¤ķà¤°à¤£à¤²": 7895,
      "Ġà¤Ĺà¤«à¤®": 7896,
      "Ġà¤Ĺà¤Ĺà¤¨à¤²": 7897,
      "à¤Ĺà¤Ľ": 7898,
      "Ġà¤°à¤Ļà¤®": 7899,
      "à¥Īà¤¾": 7900,
      "à¥Īà¥Īà¤Ĥ": 7901,
      "à¤Łà¤§": 7902,
      "à¤Łà¤¤à¤¨": 7903,
      "à¤Łà¤ħà¤ĺ": 7904,
      "à¤Łà¤¬à¤¹": 7905,
      "à¤Łà¤ľà¤¤": 7906,
      "à¤Łà¤ļà¤¨à¤²": 7907,
      "à¤Łà¤ħà¤ªà¤ķ": 7908,
      "Ġà¤¬à¤°à¤®": 7909,
      "Ġà¤¬à¤¨à¤ķà¤°": 7910,
      "Ġà¤®à¤²à¤¬": 7911,
      "à¤ıà¤¹à¤°": 7912,
      "à¤ıà¤¨à¤®": 7913,
      "à¤ıà¤¸à¤°": 7914,
      "à¤ıà¤Łà¤°à¤ķ": 7915,
      "à¤ıà¤ªà¤¶": 7916,
      "Ġà¤Ńà¤®à¤°": 7917,
      "Ġà¤Ńà¤ĩà¤¨à¤¨": 7918,
      "Ġà¤ħà¤ıà¤ķ": 7919,
      "à¤ľà¤ĸ": 7920,
      "à¤ľà¤Ĺà¤¤": 7921,
      "à¤ľà¤°à¤ľ": 7922,
      "Ġà¤¹à¤°à¤¹": 7923,
      "à¤¬à¤Ŀ": 7924,
      "à¤·à¤ľà¤¤": 7925,
      "Ġà¤Ľà¤ľ": 7926,
      "Ġà¤Ľà¤ªà¤ķ": 7927,
      "à¤§à¤¨à¤®à¤¨": 7928,
      "à¤§à¤°à¤ª": 7929,
      "à¤§à¤°à¤£à¤¹à¤°": 7930,
[...]
